0048
0017
FFF9
0030
0036
0047
0031
005F
0031
003D
FFFB
002F
0054
0046
0099
002F
008E
0032
0014
004B
0066
FFD5
0049
003A
0033
FFEF
0073
0019
000D
000D
002F
003A
104B
101E
0FFA
1035
1033
104C
1038
1069
1030
1041
1006
1021
1057
106E
109B
1035
107D
1034
1027
103F
1038
0FDA
104B
102B
102B
0FEC
1056
1017
106D
100F
1027
1040
FFBE
FFBB
FFE4
FFCB
003E
003A
0020
003B
0035
FFC9
0025
0011
0044
FFEF
FFA6
001E
0043
FFD4
0037
0049
0006
FFCD
0042
FFD1
0021
FFDD
002F
FFD0
FFFF
FFF3
FFEC
FFC9
0071
007A
0025
003E
0033
007D
007D
00B9
0052
0070
004C
003A
008B
009A
012E
007F
013D
0036
0095
0069
0075
003B
0078
004A
0053
002A
008F
0032
006E
000C
0050
0065
