FFFF
FF2E
FFB1
0050
00AD
009D
0042
003E
021D
00CF
FED5
FE30
01A7
FEBC
FFDE
FFAE
00D1
FF18
FEDB
0198
FF91
013E
FF89
0033
010B
FF2A
FFB3
FF4F
FE24
00BD
FFD8
0106
FF75
011C
FFBB
00C1
022E
FEA7
FFCD
FF26
00C7
FFA6
FECD
0040
FD53
FF50
FEFC
00BC
FEBA
FEAB
FF57
002D
005F
FFB5
004D
FF9E
FFD0
FF3E
0041
FFA7
008D
0250
FE18
FE7A
FED6
FF67
00B0
FFA4
0195
00F5
004E
FFA8
FF13
FE8D
0166
0042
00B8
FFAE
FF5F
FF5E
0090
FF1A
FFEA
01C3
00F0
FF21
01AD
006A
FEFD
FF58
00BD
FFE2
FE6F
0163
0026
FE38
FFF5
00E0
00DE
011E
FFE6
0069
FED9
FE4D
FEBA
FFFB
006A
FFCF
FE75
0036
FFE0
FFDE
FE97
FF7B
0026
01A8
0130
FEC9
FFF8
FE8B
003B
FEA5
01E9
0142
FFA4
0055
0016
FFA9
FF15
003B
FF4E
00CA
FEAA
00AF
FE7B
FD53
FE24
FEB3
00FC
FF44
0025
FFDE
00FF
0139
0069
00C8
FF1A
004A
003B
FFD9
FF34
00E7
00D6
FFB3
FEE0
FF43
011C
00E7
FF28
00BA
0172
FF56
007C
FF55
FFD9
FF2B
013A
0009
0108
00B3
FF6D
FFCF
FD63
FEC9
014F
FE29
FF36
FF1E
021A
0050
0019
00D9
FFD2
00C2
0097
FF3C
0040
FFB3
006A
FE7B
0084
FFBF
FFF4
000E
FFA3
FF60
FFD4
FFCA
FF3A
FFD9
FE0D
0007
FEF3
FEA8
FFB5
FEF3
FE8A
FEDE
0122
009A
FE11
01AC
0075
FED2
FEEF
015D
FE0F
013A
02A3
0232
0050
015F
FF38
FE7E
0030
FF13
017A
FEE9
FFE7
01CA
0120
005C
0069
0152
0097
0183
FFA8
FDE3
FEB8
0009
00E0
0017
0125
FFA6
FF34
FFDF
FF58
009C
FEE5
FF7A
00C7
FFD4
00BA
0107
FEA7
FE48
01D7
FF31
FF69
00F6
FF72
FF20
FFFE
FEA5
003C
003C
FFCC
00E8
0191
FF5F
FF14
FFEC
0235
0078
0208
0136
0112
0045
0065
00B0
00FE
020E
0032
00BB
FDE9
00A5
00D7
0097
0077
0126
FF5C
0088
009A
FEC7
FFD8
00F7
0050
FFDC
01D1
001E
007B
0051
0014
FE75
008B
01ED
0036
018C
032E
0042
00CA
00B8
FF73
01BE
001A
0386
0024
00D5
FF38
FED1
FF15
FFCF
0036
FF8F
003E
FF78
FF95
0104
FFB4
0069
01E1
01F5
0019
01F3
00AA
FF98
0076
0074
006D
FF72
FEF9
FE8B
00EF
0152
FEC2
010E
FFD1
FFE7
00C2
005C
FFC3
00CE
001C
02AC
00A3
0068
FF97
FF3D
0226
018F
FFB6
FEE8
01C3
01FE
018F
FFE6
FE21
FEB8
FF4A
0064
0000
014B
023B
0051
0070
008C
FFAF
0036
FFEC
FFFD
005A
00E6
010A
FE79
0215
011D
FF95
01A0
00CB
FFC3
FFDB
009B
01BD
00C5
FDC6
000D
FFC1
0173
008A
FFB9
FFDF
0116
FF4D
FECB
FD28
FEAC
0146
FFC0
FF32
FF04
0064
00AD
FF01
FFC9
FF88
00E4
FFCB
FF90
FFEC
004B
FE54
0049
FFDC
FF2A
0005
FEFD
FF46
FF94
003F
FEE5
0013
005C
FEE8
FF0E
FF86
FD9C
FFA1
FD12
006F
FFCF
FE85
0147
00A7
0008
FF5E
0185
FF64
FFF3
FEB3
0036
FE6D
FEBD
FFE8
FF09
0142
00FF
0074
01AA
0027
FF6C
0099
FDA7
FF17
FCBA
018D
FEAF
00CC
0053
FFAF
014C
00B5
025F
FF5B
016B
FF67
0104
FFF0
0104
0008
01CC
006F
011C
FFB7
00A1
016F
FEF5
FF0D
026A
0164
FF0C
0243
FE3C
0096
0168
FF68
FEEC
FFA4
004C
01C0
0097
01A7
01EE
FF3B
0046
00D9
024F
00D3
FFBB
016C
0052
FF8D
00D6
0048
002D
000C
FF5A
008D
0083
0317
FFC3
01A8
FFFC
FE92
FFC6
FF4F
FF93
0011
FF43
0275
FFF3
FDE2
002F
0131
FFCA
004A
0105
00F5
010A
016C
00B2
017A
0328
0267
FEC4
FE9F
FF98
0021
009C
FF49
0199
0072
0053
00C8
0116
0069
00D4
007F
FFF0
FF6D
00A8
002E
FF15
FF84
0131
FF53
0085
003F
FFA3
002A
009F
FF1B
FFB6
FD6B
00E5
FF94
0016
FFFF
FEE4
0031
009D
FF13
011F
00C5
0059
FDF1
007D
019A
01C7
FF6E
0093
FF67
FF6D
FFA3
FF9F
0118
01A9
FECA
0063
FFD8
FF2B
0148
008D
FF40
009B
016C
017A
FED3
FFAC
01C5
0031
FDA5
018C
016E
01D0
00DD
0138
0045
00D5
0023
FFC3
01CE
FE1B
FEF1
FEB1
FF7C
FF60
00C4
007F
01C0
FFAE
027B
0136
0073
FF66
FFE7
FEC7
00A3
FFBF
0124
0234
0051
00DB
0154
FE70
014D
FE41
01CC
00AB
0049
FE98
FF49
FF3D
FE6B
FFF2
0304
0109
FF55
012F
FF0F
FFA9
007F
0116
FE88
0063
FEF2
FF50
FF96
00A1
004B
FDDD
0068
FF1E
00DA
FEAA
FFC9
0107
FE72
FEB8
0073
006F
FFD2
FF4B
0023
01A3
0066
FF63
FF2A
FFFF
0057
008B
FE56
005E
FF1D
FF17
FFD8
FEBD
00E5
0271
00C2
FFF7
00E3
FEF9
FF28
FFD5
0023
FFDA
01FC
FE01
00DD
FE8A
0031
FE7A
FF87
FFF8
027D
FFCF
FE90
FF56
01D2
FF5D
007D
FF68
00A2
005D
FF38
0194
FEDA
FFB4
00DC
FF6E
00B5
0061
0120
01AA
FF72
0056
FDD4
FF03
008E
00A5
FF5C
FFFB
00BF
FF05
0125
0045
0157
002F
FF76
FF71
0011
0109
01A3
FED5
FF45
00ED
FFF7
0140
022E
00B3
FF66
FFD2
0072
0069
FF71
0187
00BC
FF8C
01F9
0091
00BF
001B
FF30
FE3A
02AA
0040
FF00
024A
00E5
00E7
0039
FE6C
0170
FF2B
00F2
FFF9
003C
FF75
000A
FEFF
FE2C
0142
FCF7
FEC1
FF56
FF1E
0073
FFA5
FFBA
001E
0058
0050
0170
0278
012E
00FF
FFD1
FF6B
00D8
005E
01BF
FFF3
FFD3
FFA8
0165
01AB
FED1
01A9
0128
0255
0072
019A
FFBC
0081
FF78
FECD
012E
FF61
010C
0185
002B
FFC0
027A
0027
0084
02A8
FEDD
004A
0006
FF60
01C2
0175
0243
01F5
012D
0250
0164
0099
0121
0151
0094
0053
FEB6
FECB
FF9E
00B6
FE2A
FF85
002A
FEFD
01F1
0195
0199
FED0
FFE0
0070
0077
01F6
0196
FFF5
FF2E
FF26
FE36
FE8F
0048
FF42
FF26
FFF1
0201
0011
00F5
FF84
0103
0145
0006
00FE
001E
005E
0077
FEF9
025A
002F
012F
FF1E
0079
004A
FFAC
FF57
006B
00D5
FE3C
FEC5
FEED
0014
FF8D
0095
FE4E
FF65
0035
0199
FEED
FEEF
FF20
FFA4
00F1
FEAC
FF83
00B5
007C
FE48
FFB6
006F
0125
0161
FEFA
FE4A
017E
FFC0
019E
000C
0159
00D0
FDB3
0034
0055
FFFF
0073
FF82
001D
00CD
FF9D
0010
0051
00AD
009A
0122
003D
00F6
0004
FE18
0006
004D
006D
FF62
FF15
FF97
FEEA
FF55
FFAC
00A3
FF9F
FF9E
00B3
01AD
FF5E
FE2E
026D
FEBF
01DE
0142
0356
0150
FF24
005E
00FA
0060
01AF
FD36
010B
0024
0090
0030
0003
FF63
000A
00ED
0075
0162
008A
0123
FE3A
002D
002D
006A
00AD
005A
FFFC
FE85
FF19
019F
0042
FF98
FF4F
00A9
FED4
0086
FFAA
00F4
0071
0094
002B
019B
0006
02B1
01DF
00CD
FF40
FFD6
008A
00BA
FFD0
0101
FF5B
01B8
008E
FED2
FEEF
0041
FF09
FF54
FE3C
002D
FFE6
FD84
FF11
FFD0
00D9
FFF3
FFB4
FF6B
FF26
01AA
004E
FE7C
FE90
FFC0
009F
0072
002E
FE67
FFAE
FF7F
0129
FF11
00A9
020E
0070
01C7
FFEB
FEE7
FF8E
011D
0175
0004
002D
FDF6
FF27
0063
0025
0043
003D
0262
FF26
FF60
0027
000E
00C1
FF37
013A
FF2F
00EE
0108
0161
FFC3
FF4D
000F
FE32
FF70
00A8
FEF6
FF75
0029
0180
FD77
FFBA
FF30
013C
FEE9
FEF8
FEE6
FF0D
FFAD
FF61
FF48
008E
FFA6
0059
FFAB
009B
FEB7
005E
00AF
FFDE
FDDC
FFD2
FFB5
FD17
0069
FFF9
01A8
013E
014F
FEC4
FE0A
FF64
FFE7
FEE4
017F
FF71
FF58
FFA2
00AC
FF98
014B
00AC
001F
0026
012E
008C
FE9B
FF2A
FE59
FEB0
FF3A
00D6
004D
FFE5
0082
FD96
FF21
00AE
0065
00BB
FF35
0005
FFF7
0086
FEA0
000F
FFFF
FFF4
0105
01AC
013E
0045
FE84
0009
01F1
FFEA
0089
028A
01B0
0048
01C1
0087
00FB
015D
0078
FF47
01E4
FF33
FF32
FEA6
0109
0068
FEDB
00F2
016B
FF9C
FF0A
FEF9
00C6
FE80
FF53
00D7
FF8E
FFA8
00ED
FF04
0051
FEA4
01CB
00CC
0076
0179
00A5
010B
FF8C
FF4B
0032
FFAB
FEAA
0087
FF3E
FF66
FF3A
0094
010F
FFEB
FECC
FFC9
0036
FED3
FE14
FFE9
00CE
00EE
FFD2
FF9F
FE06
003C
0159
0140
0042
0276
00C2
FF3D
006B
00E4
0014
FF08
FFAB
00D9
0013
FDF5
FD92
FFB0
00EF
FF7C
FFCB
FEC4
FE60
0126
FF5F
FEF7
FEA8
FEDF
0059
01DB
004A
FF35
0166
FF63
00D4
FF13
FF61
FEC2
FF8C
001B
FE84
0094
0103
FFF9
FFA1
FFAB
FFB8
00C7
FF6B
FECA
003C
FEAA
FFA1
0104
FF9E
FF24
00AA
01C6
001B
01A9
0029
FDBA
00AA
00EF
017E
0009
FE4A
00E1
0024
00BD
FF1A
00EA
0020
000C
0050
0137
FFE2
FE5D
FF36
FE75
0082
004B
FFBC
010D
FF0B
01E3
01F9
01F0
00DC
FF9F
FEEC
0164
0049
0147
0150
FE27
0018
FF32
00C6
011B
00A5
0006
FFF3
FF86
008C
FEF2
00C3
02BF
02B8
FFB0
002C
0293
013D
FF8B
0003
0139
010F
0081
FECA
00BF
001A
0136
000B
00C6
FFDC
0048
FFA6
0046
FFE4
0091
00DA
010B
FFA9
012F
FF32
FF53
0171
00CA
01FF
00DE
0010
01DD
FE0F
0010
FE1E
01E0
0073
0092
FF9B
FFB1
00D4
FE85
0043
00EA
01DA
FF53
0076
00BF
FF97
0236
0006
0228
0127
FFC5
FE7F
FFB4
FF23
FFF2
FFA1
FF3A
FFAB
FF5E
0187
0005
FFC2
00FD
01A1
FFC0
0126
0013
002B
0223
01AE
FF70
FFC6
01E0
001D
FC70
000C
00A1
FFD2
FF6A
012B
008D
0067
FFAA
0043
FF54
0135
FFA2
FF7B
FFDE
0014
FF99
0139
00F1
0230
FFAA
009D
FEEB
FF41
002A
FF04
0156
FEA0
001E
00A3
0130
FF8F
FE3E
0080
00D4
009C
004C
FF33
FFF9
00B5
004C
FF21
0111
002E
FF69
013C
0034
FFD6
FF2E
FFA4
FF03
0037
FF63
FF1F
0104
00D1
00D0
FE67
0098
FEB1
FF17
0121
0052
00B5
FF89
00D1
FF93
0076
FEB9
FDBC
0056
FFBC
FFA9
FFDE
013A
FEFB
FFFA
017D
0151
FE3B
00BD
FEF6
FE6B
FFC5
00A9
FF8C
0051
00AB
00FA
FFD1
FDE6
FF2D
00CE
FF18
01A8
011D
FEEC
FF53
009A
FE82
01FE
00C3
008A
FF47
00E7
0025
00F1
FF92
017F
00B3
FFA4
010A
000C
FFF0
0089
FF5B
0067
FFF4
003A
FF4F
002A
FF1F
FF9D
001E
FEAB
FC04
FF76
FF5A
FE32
001C
FE92
FFB7
FF3F
FE36
FFC3
010C
FF2F
FFB2
010E
0109
001B
FFE6
FF9A
FF20
0055
0129
FF7B
014F
005E
FECD
FF38
FF60
FF13
FF3B
003F
FE68
FF0A
000A
0098
FF08
009F
006C
FFAD
FFDF
000C
000B
FF23
0017
FDB6
016A
FEF8
FD6B
0069
021A
FFBC
FE45
FEDC
0125
0108
FE4D
0004
FFF0
FF4D
FED8
00A9
FEA2
0088
FEAB
FFF6
FDE1
00E1
FF91
003B
FD9F
FF2E
FF41
FDB1
010E
FFBA
FF53
FE93
FF8B
002B
FE15
004B
01FD
008A
FF08
FFD6
FE3F
0105
FFBB
FEF6
004C
0134
FF4C
014F
0070
002F
022B
0109
002A
00AB
00F8
FF80
FFD0
FF34
010E
FF4B
FFE6
FE69
FF4C
00CB
FEB0
0004
FEA6
FFA0
FF6F
FF9D
FFDA
0047
FDFC
FFDE
FE2A
008C
0048
FF3A
FD9A
FFD9
FE18
FFF2
FF48
FF06
FEA1
0039
001B
0067
FFC0
00D2
FF4A
FF19
0085
FFC9
0200
029D
0003
FFCB
FE2B
0081
003E
006F
FEB8
005F
0017
FF75
0065
0195
009B
FE65
FF37
FF22
010A
FFA0
0009
01FA
FF17
FF28
0043
0039
0123
00D8
FEF5
FFDE
FF95
FF29
0036
0111
FF7E
FFC5
FCFA
0057
007E
FFBA
FEB3
0043
FE7E
FFE4
0115
0227
FDFF
01CD
0045
FF8C
FE7C
0029
001A
0028
FFB8
FD71
FF3F
FF52
FE2C
FEF8
0140
FE41
00F9
022B
0055
0150
009B
FF3C
FECB
FF2D
FEBA
0292
FF3B
005D
FF77
FF6D
FFB3
010C
FF87
002C
FF8E
00A3
FE5D
FF15
FE33
FFA9
FF70
004F
FE79
FE7E
0091
FF03
0109
FF0D
FF6C
0008
FFBE
FE89
00EC
FFDE
FE4E
FFCF
FE3C
FEEB
FF89
0065
FFD1
FEE4
FDD9
FE84
0024
FFD0
00C7
00DA
FFF6
FF96
FEFB
FF93
0002
FFEC
FFB8
FF40
005A
0077
0037
0163
00C1
FF4B
FFD2
FDFF
0223
0062
FCF5
FF84
FF73
FF6F
FEA1
FFC4
FF43
FE74
FDE1
FF37
FFEF
FEB5
00CD
FFB7
FFD4
0099
001E
014C
FF00
FE4A
005C
0194
FFDE
0049
002C
0110
00CF
FE73
FEF9
FEF8
FFF3
FF2A
FE60
FF58
0031
0074
FD47
FFF2
012E
FF9A
FFD3
0011
0018
FE7B
0034
FE21
FEAC
FFAB
FEAD
0175
FF7C
003F
FFC5
FF5D
FF2C
FECB
FF7A
015B
0117
00F6
0006
FDAF
FFC4
00BD
FFC9
FF5F
FF10
00FF
FFF6
00CE
FF7B
FE79
FF10
008B
FFFF
FF4D
0076
FF3D
FFC5
000B
FDF4
000F
FEEC
FF2C
FFC9
008C
FDF5
FE57
FCB8
FF8F
FEBB
FF5B
FF57
FE3B
0044
0076
FEB8
FE24
FFB6
006C
00D0
FD90
FF3A
FF0D
FF43
FFA5
FF60
0008
010E
0057
00CF
FFE4
002C
0012
FDCD
FF82
00E6
01D1
FF8A
FF92
0073
00EB
FF71
00B1
FE7D
0069
0019
FFC6
00A0
002F
FFC1
FF79
FF1C
0085
FF51
024A
FEA8
01B8
005E
FFFE
000B
FEE0
FF70
01FE
FF25
FF16
FECC
0030
00D3
0044
0155
FF5E
FFEF
FF1F
FE39
FF8B
FF24
FEA7
000E
0067
FF87
0170
0074
FF71
0024
FEF9
FFF1
FE89
0224
FFD8
FF61
FFCF
FF58
0068
FF25
FE01
02D7
FF44
FE1F
FEDD
00A4
0073
0072
0066
FF99
FE1E
00F0
00A9
0067
FD28
00DA
003D
FFD6
FF61
FF48
0060
FF22
FF1E
FF2F
01A7
FE22
022A
0157
0056
007E
FFAC
FF51
FF53
FDCB
FF4F
0227
FF80
FD8B
FF21
0052
FD63
FEC5
0015
0191
FF68
0067
FF91
FF29
0022
FE5B
FEDE
FF01
00F4
FE71
000E
00F5
00D0
FEE5
FE89
FED7
FE73
FFA1
FFB9
FE6D
FE12
FE8F
0094
FEEF
FF67
0151
00B5
FE13
00C6
FFE4
FF85
FFDA
FF04
0065
FF74
FE95
FF48
00D3
FDCA
FEAF
FF5E
00E6
005B
FF08
FFAC
FF91
FF96
003A
000E
FFB4
FFA1
00A8
006C
FF26
FEAF
012B
FF0D
0111
FE3A
00B7
FF3D
FFE6
017D
0000
FEC6
0067
FFAA
00B4
FFE8
FF3E
0068
00DB
FE8F
0143
00D8
011F
0050
FEFB
00EB
FFE5
0140
FE95
01DF
0150
00A1
FEF3
0029
FFDA
FFEB
FF73
FED1
0022
FFF5
FE5F
FEC9
0141
006C
FEF0
FF2F
FF89
FD52
00F3
00B2
FF4A
01FB
FDFD
00DD
FE49
00D7
FE0F
FFF6
FEB1
FE03
FE6E
FEF3
FF9C
FEA7
FE78
0051
FFFA
FF36
0031
00DC
FD56
00C9
FEF4
FFAA
FF8C
FF1D
0019
01B2
FFE5
00E5
FFBE
FF9A
FF7B
FEB3
FFA7
FF42
021D
01B7
FEBE
0055
01A4
0013
00A8
0128
FF22
00DD
FEFB
0064
00A9
008F
009E
FF8C
003F
FFD0
FF15
0139
FEE7
0164
FF87
01E6
FFFB
FF8A
011E
FF73
008D
FF68
FFFC
FF39
FE97
FEFC
FF62
FFC3
00B1
FEB0
FF4F
0147
00E4
FFB3
0072
FEE2
FF05
FF79
FE82
00E9
00C5
FF4A
004C
FE13
0167
FF80
00B7
004F
002F
00F6
0082
00F2
0078
0113
FF43
0238
FF2A
0009
FE7F
FEE9
FFDE
FFF7
FFA7
FF90
0010
005C
031F
00C8
0056
002E
016D
0255
FFDA
009F
0109
0088
FD88
FEE6
00B3
004C
FF86
002B
FED4
FEF5
FF96
009F
006A
FF4C
0017
FFD9
FFA7
002C
0120
0095
FF98
FE44
FEDB
00F3
FFCB
FFBD
FFEF
0123
00F2
FEAC
010F
FE8C
FDBF
FFD0
00A7
FE4A
FEB8
FE1F
0064
FF29
FEA0
000B
017F
FF33
FEEC
00DA
00BD
00F8
FE62
FFE4
00B0
0029
FE6B
00BD
01FF
022C
0012
00A3
FFAE
FE31
00A0
01A3
010D
FFF9
002C
FEB7
00A5
0035
FFA5
0151
022A
0027
0020
016F
004D
005B
FFFD
01AE
0167
01CF
00F9
FF3C
00C3
00DB
0085
FF42
FED0
0032
02A4
0004
00E4
0039
00A8
017C
00E6
0150
00CA
000A
0148
0125
FF58
FFAD
FFEB
FE8C
0138
FFD0
FE67
0096
0136
FF4C
FCB2
00C9
02AA
0013
FFE4
FF4A
015C
001B
0122
0103
FD95
FFEA
0040
FF8C
0161
FF8B
FEA0
FF2B
FF68
FE5E
00EE
01D6
006F
0227
FEB2
FE35
0070
FF43
004F
003E
0173
00EE
0237
0184
0140
0149
FFA0
FF8E
009F
0123
0143
FF8F
007C
0085
01A6
0028
FFE8
00D1
003F
016B
001A
009B
01A2
00D8
022C
FFE3
0012
FF9F
00C0
0185
FE7E
0005
0022
FF9E
FF96
00E4
01CA
005D
0001
FFD9
FFDC
013E
FFB1
00D7
001F
FFD3
FF67
0101
FEF3
01D6
FF38
003F
FFD1
0099
FE39
FF01
FF4F
FFF2
00D0
FECC
002F
0045
0267
0137
0047
FF83
011F
FF6C
015F
FFA1
FF64
FFAE
010B
00E3
FE7A
000E
0127
FFF9
FDF4
00F8
FF1D
FFE6
0141
01F9
003B
00D2
FEF3
0228
01DF
0127
FFFE
FF82
001E
0173
004A
FE61
FF53
FEF4
FFEB
005D
004B
FEEB
00CF
FF8B
FEC0
FF27
FFF7
FF8D
01D4
FFB1
FF34
0120
011F
FFAF
0125
01CA
0020
0159
FF51
0140
FFCF
0207
FE77
008B
0198
00F8
FE26
00C9
FF94
0188
00C7
0140
FF4E
0066
009B
FDF8
FFD9
FFF0
0000
FFD5
01A4
FE58
00E5
0148
006D
FE36
FE95
01D5
003D
FF67
014F
0090
0055
FEB2
0063
001F
00F1
008B
00A1
FF37
FED7
006A
FEC3
0032
00F9
0043
00AF
FFF1
00DA
0259
022A
00C1
FE0D
0091
0183
0003
00E8
00C0
FFC6
0185
0151
0005
00DD
0010
0047
016B
FE6B
01C6
FEF0
000F
FFA4
015A
FEE7
024C
00E6
FF41
014C
00BA
017E
0006
00D6
FF7F
FEA2
004B
00EF
FDBD
00F2
FF09
0110
0026
FFB9
01D3
001F
009D
0094
FF74
0194
0150
FF77
FF39
0134
01AF
002D
FF6D
FDD5
0025
01D1
FF47
012C
019F
008C
FF0D
FFC4
0054
0137
FDD6
01FF
002D
FE75
00E9
FEE2
FFC9
0071
FFAA
0187
FE8A
FF9E
003E
0258
FF22
021E
000E
0061
FF51
01A9
0012
0152
00DE
FF80
FFA2
FFD8
00C6
00E1
FE5E
FF0D
013C
FFA7
00E9
011D
012D
0050
00EC
FFFD
FF74
01D3
017B
FF69
022F
FEE9
025B
FEC5
01C6
FF7F
FF25
0317
014E
FF04
003F
FF18
0061
0043
01E2
01F3
024A
0078
004C
FFAB
FFD7
FF28
0003
0304
FED9
002C
00E2
FFFD
0213
FEE9
0061
FF95
0024
FEFB
006B
FE51
FEEB
FFFC
01CE
FE87
FE67
00BB
0136
0027
00F6
FEA7
FF6D
0052
FE6A
00E5
FF15
002A
FF90
0041
0018
00CC
FF59
FF0C
0202
FE2F
012B
FF68
FE8E
FF9A
0072
FF06
002A
00A2
FF6A
FDA6
0011
00A8
FFE7
FF8E
00E7
FF53
FF94
022D
0065
0052
FCB8
001F
FF95
FF62
018C
0105
FFD3
FFBB
0102
00A2
0090
00A5
012B
FF82
FE44
0045
007F
01DC
0122
0030
0204
0129
00BE
0238
FFC9
FEB5
FFCF
0150
0098
000B
FFAA
010C
0092
FF36
00FF
01CD
FFCB
0173
01A9
0021
00AC
00B2
FEAF
01D8
FF8A
FFF2
0138
FF97
001B
00CA
00FB
00C3
0105
FF1E
00CD
0417
01BB
00B7
FF98
0053
FE29
FF01
0091
01C4
021D
01A5
003F
011D
FF0E
013C
FEA9
FF30
FFA1
FE8E
FF1F
FFE9
FF1F
FE09
FE95
FD06
FD58
FFD2
FF01
FFFB
FD35
FF48
FEA2
FF05
FED3
FFE0
FFCF
009C
FF2F
FDFE
FDED
FF17
0171
000D
FD05
FE84
011F
FFBC
FE5E
0047
0113
FEA9
FFF1
FF38
006C
FF93
FEC8
0151
0036
FCA3
FD95
0184
FE5E
FE1D
FD4B
FC71
FE8E
0111
FE30
FF4F
0086
015C
FEC5
FCE1
001D
FE69
FF3A
FEB8
0060
FD7C
FF84
FEB2
FF0E
FDCD
FE59
FEE4
FE25
FF0D
FE98
FEE0
FF0D
FFE1
0161
000D
001E
FE8D
002F
FEC9
FF59
FE62
FFD1
FEF4
0058
0032
FFD7
0094
FDE0
0163
FF08
FEE2
FF57
00FE
0016
FFE5
FFF9
FE84
FE6F
FFCF
0226
FF3A
FFD7
0075
FEDB
0065
FFB2
FF7D
FE14
FD89
0001
FEC3
0055
00C6
00C1
0014
FF2A
005C
FF29
FE37
FF5B
FFC6
FE3A
FF51
FE36
0140
0020
FF41
FE7A
002C
0005
FEF5
FFCF
012C
00DE
0019
02E0
FFA3
FEBE
FFC2
FF54
FFE1
FF0F
00AF
FFD2
0004
0053
005B
00F0
01DE
FECE
FF6C
025F
018E
FF6F
0168
0111
FED9
FF65
FFF8
FEB5
FF71
FE39
0002
FF96
FFEC
00BE
FFEA
01F9
FF52
008B
FF7E
019C
01DA
FFC0
FEE1
00F7
0014
00FC
FFF4
0103
0070
FE7F
FDE2
0033
0215
FFDD
01CE
FFA6
FD01
FF31
FFEE
FE57
FFC7
FF20
FDC4
FE3D
FFDD
FED3
FE60
0048
0099
FEA0
0176
FFCE
FFFE
0076
FD22
FFEF
FFC7
FF26
FF2F
004A
FE7C
FF8F
FF66
FF53
00E9
FFF0
0023
00A6
FF5D
000C
FEE8
FF87
FE0A
FE14
00AB
FF8D
FFFD
FD8E
FEF8
FEF0
FF33
FE10
0187
FF8C
0015
0009
FD51
FDE5
FFFB
FE66
FFF5
0028
001E
FF18
FDDD
FEEC
FE32
FFB3
FD78
FF94
FF19
FFC8
01A5
00DC
FFA9
00AF
009B
01F8
0064
0089
FF2C
FFF4
00E7
014A
FFD4
FFFF
0189
000A
00C5
0007
FFAD
0078
FE55
FEB6
0211
FFD4
FF49
FFA0
FFA0
005A
FF04
003D
0008
FF51
FE76
00B2
00EE
FFE0
0099
0082
010A
0003
FEE5
0007
00D2
001E
FF8D
00E6
FEB0
00A6
FF6D
FDB6
FEFB
0177
0017
0039
0220
00C6
0076
FFC1
FFD4
009A
FFBC
0045
FFE8
008B
0219
0044
0182
0049
FF85
FEF7
006D
015B
FE58
0013
FF91
0096
FF6B
FF6E
FE8F
FF36
0062
FE03
FF86
00A9
012C
007A
FF61
FDEC
0174
00B5
FF32
00AD
007C
FF88
004E
003A
00AF
00B2
00D8
FF9F
FFCF
007A
FD9E
FF7E
000E
00BD
011D
01FC
FF6D
00A1
0037
FEC4
00E1
025B
FF52
0158
FFDB
000F
FF5E
0062
FFF6
0029
FF92
0014
FF83
FFC3
FF16
FFBA
01E3
008B
0173
FDCF
FE48
FFEA
00F1
0020
FF72
FF23
FEE9
FF34
0008
0079
FE98
FD4D
01D4
028D
0169
00EA
00EC
00E6
FEA2
0085
FF8A
FEE2
009D
0020
FEEF
0045
006F
FFB1
FF61
FF0E
FF57
FEE7
00B9
004B
006F
FF32
FF97
FF70
01E3
FD1E
FF61
0109
FF60
0040
FF8F
0271
00D9
012F
0176
FF6D
0109
FFE1
000E
0011
FFA1
FFEE
0099
0006
FE26
00C5
FFE4
0036
FFFA
0299
FEB5
FFD4
0185
FFC3
0097
FFFE
00AE
00EB
004F
0225
FF67
FECE
010C
FDDA
007E
008F
00E4
002B
0003
FF5F
0065
FFA9
00E1
FFAA
00AE
010F
0002
FECA
FECD
00AD
FF94
FF0A
FFC3
FFC2
013E
0084
FF38
002F
00EC
0259
023E
0018
01C2
002F
0051
0051
FF8E
FD7D
FF3E
FF8D
FF53
0239
0067
00FE
FDD9
FEF4
013D
FED6
0125
00A3
00BA
FFF3
00D5
0010
002F
000A
0019
014B
0051
FEFD
00F8
00E3
017F
FE14
FE27
FE88
004B
004A
FFB3
0101
00E0
0058
0000
009F
0132
0001
FFD0
0064
FF91
0048
00B9
0026
FE45
FECA
01A5
00F8
00E1
01F6
0074
FFE1
FD7E
02CC
00A3
FD8D
018A
00B4
00D0
FFCD
FF84
FFA3
FEE3
FFCB
FEE9
FFB0
00CE
012C
00F9
FF8A
016C
FF6C
0095
FF26
0168
FEDB
0015
0028
FF7B
026D
FF3F
014A
FE49
00C0
00C6
0174
FFCA
0134
FF9C
00B9
FF0E
FF15
FE7F
FEA4
FF67
0167
0094
FFBA
011F
007D
00A1
FF89
FF93
FF79
FFB3
FF8B
01D3
000F
006A
0075
0171
FF5D
FFFD
FF9C
0017
FF9B
FEFD
008A
FED1
FF62
0024
FE86
FE86
00A3
FF4F
00CF
0300
0129
FFA3
000C
01F2
FE76
0015
005B
FF24
0262
FD32
FEAE
FF3F
011D
FF62
015F
00E8
FE84
00DB
FEAD
00B9
FF8D
FF79
FFC8
0046
00F5
00DD
0075
FF23
0078
006A
FE54
FEB0
00AC
FF9A
00BC
FFA7
FFFE
00F0
FEC2
FEA2
012A
FF9F
FFC3
0032
0168
021C
FED3
FF95
FF43
FEB1
014F
FE75
FF91
FFE5
FF66
FF1E
00DD
017E
FF92
FEBF
FE71
0034
00BD
00F1
0104
0008
FF95
FF24
FF8F
010A
FF4E
FE7E
0145
0178
FF37
0018
0002
0086
FE6F
FE9D
0014
0185
013B
FFFD
00AC
FE68
FFD2
FED4
FFD7
FFE0
00EA
005C
022B
0076
013A
FEF1
FFBC
FF8E
FFFA
FFF9
0160
0050
00CB
FFD3
0124
00FD
0168
004B
018E
00ED
FFF7
FEA9
FFCA
FFA1
012D
FFC0
FF3F
0216
0075
FF5D
01D9
FE7C
007E
FFA9
FECC
FF0A
FE74
00CE
010E
FF73
00A0
FEB2
010E
0082
00B7
015D
0055
FFB0
FD3E
FF76
FE34
FF22
FE9E
FE31
FFFA
FFB7
008F
FFDE
FF3F
FF9C
FFC8
01AE
FFD2
0127
0026
FE4C
FE3B
FF44
FFAE
0151
0159
0067
FD4E
FF70
0040
00BA
FFCE
FFDE
0195
FFD6
FF0B
FF4A
FEA2
FFB6
0026
FE71
FF80
FE59
FE95
01C2
FF94
00B6
FE73
FF18
00CF
01E0
FF7A
FFE0
FFE5
FEF9
013C
007C
006E
0086
FFFD
FFFC
FFAB
FF6D
014D
0214
013D
0038
0059
0146
FF49
FDBD
FE55
FF5F
00A8
FF73
00A7
FF84
FEAC
FF60
0001
FF15
FFBE
0119
FFCF
0191
FFF6
FDE7
FF13
FEF4
FEF0
FFCB
00BA
00AC
00D2
0092
000D
FFE2
0012
00BC
020C
0090
0094
0009
0194
FF3D
0018
FF37
004E
FE59
00D0
0120
FF4B
FFBD
FF23
0110
0137
0020
FF8C
0023
003B
002B
00C0
FFF8
FF1F
00D2
0001
FF1A
FF96
FD57
01CE
00BF
0108
005D
FFED
0080
0078
FE4E
FC71
0084
002A
0131
012E
FFDD
FF44
FFCF
FFAA
0065
FEA0
00DF
024A
FF33
02C3
0000
0057
FEF1
0001
FF79
FE97
0012
00C0
FDD8
FE81
FEE4
FDEB
0001
0222
FE16
0089
FF1C
0009
FF9D
01DC
00FA
FF4F
0028
FFC3
FF7D
0043
FEE3
FF83
FF57
00D3
006A
0115
00ED
FFE2
FF4A
FFDA
006D
FF7C
00FF
FF41
01FA
0044
013E
FED7
FEA8
FFF5
FEC0
0006
FFBA
FF91
FF10
003A
FFCE
FFFA
FEF5
007D
FFBF
FFED
FF9F
FE82
0152
0047
0007
FF0F
FF0F
FFBB
0061
FEAC
0058
FED8
FF35
00ED
004B
FF76
FE9B
FEFA
0010
FF20
FF1F
FFB5
00BD
FFCF
0003
FFCA
FE3E
0058
FD73
FED4
003B
FF3C
FED7
FF7D
FEE5
FED5
FF8D
FDA2
FEF6
FFCD
FF24
0076
FF87
0144
0029
FF56
FED8
FFAA
FEEF
FF05
FEC5
00C4
FF26
0092
FFA1
0155
02E9
00A8
024F
0082
FF59
FFD9
FFBF
FFCB
FEF3
01B4
0121
FFC5
0079
FEC5
002D
FEB4
FF53
FF12
01EB
013A
FFA4
FE37
004D
0154
FF43
01B1
FFCC
017E
0021
FED1
FFD3
FD2B
FE5E
0149
FD22
FFA1
FF4A
FDB3
FF36
FF23
0072
FE9A
FEC3
0071
00F3
FF2C
FFED
FFD0
FFB1
010B
FF53
FF5C
FF0A
0078
FE67
0042
FF4D
FF38
FF3F
FF21
FF67
FFBF
FDB8
001E
FF8C
01BF
FFD2
0015
FF6F
FF96
007D
FEA2
FCA6
FF88
FFD8
FF07
00D0
FFEE
FE95
FE30
FFBB
0013
01DC
0061
00A9
FE92
0083
FF5F
FF74
FF7B
0065
FF12
0065
FF81
FE85
FF2B
0040
0156
008C
002F
FDCC
FF9E
01C6
0098
FF4C
FF81
00CA
0055
FFC7
0090
00CB
FF3A
FF0B
FF0C
00B4
0009
005C
FED8
00D0
FFAD
FDF7
01A3
0187
FFD0
019E
007F
FEF1
FF5C
024C
0252
00BE
0098
FF03
FEF6
010E
FEFC
FDCF
0153
FEE5
0000
FF7C
FFC4
FE1D
00DD
FF54
0032
FFA2
0196
FFBD
FE5B
FFB5
FEAA
FFC0
0064
00B5
FFC7
0061
00A2
0183
004F
FEED
00D5
0283
FF16
00DC
001C
FFE1
FF38
FFA5
FFE5
00A5
0059
FFC4
0163
FF58
FE79
FFCF
0094
0071
FDC1
FE91
0049
FF5C
FFF8
0064
0002
FC8D
FFD5
FF4D
00EB
FEFB
FD4F
0184
0023
0072
0122
FD48
0014
FDF2
0049
FEDC
FF20
FF58
FD5C
FEC7
FFE9
FF63
FE8C
005F
011B
FF64
FE83
0029
FE42
FFF2
0133
FEF6
FFA6
FF9F
00F0
FF93
FF56
FF55
0031
FF3E
009B
FFA0
0165
FE97
FE91
0022
002B
FFD9
002D
00AE
FEC0
FF96
FEA5
FEBF
00B1
FFB3
FD67
00E1
000C
013B
0048
014C
FE8F
01C9
FFF0
FFFC
00A1
FEB8
FF89
FE42
FD77
0062
FF06
0025
FD17
003C
0015
FFAE
FE54
0103
FED5
0031
FF8C
FFE3
FF8F
FC6B
0091
FFCB
FF84
000A
0039
FFA1
FFE5
FF5D
FF28
FD83
00E1
0024
FE13
FFEE
010E
0030
FF84
0067
FE9A
00BD
FD98
00A2
FCF0
02A2
FF9C
01EA
FFCB
FF23
FEFC
FEE0
FEC1
001B
FEA9
0002
FF73
FF99
0049
FDA3
006E
FE8C
0131
005E
FE3D
000E
FFDD
004D
009C
FE1E
FEE8
FF10
0069
FE0F
FF9B
FF28
0063
FEC0
FFA6
FE10
FF8B
0079
0054
0002
FED0
FF58
FF4E
01E1
FEA4
000E
FFC6
FFB1
0017
FF7A
FF1F
FEE7
010E
FE71
FF5A
0046
0049
FF0A
FF52
FF9F
FFA6
FF32
FF29
00A0
0011
0007
FD39
FF63
FFB5
0015
00B3
014B
FD23
FEF9
FE71
007C
00B3
FFAB
000E
FE77
FFFB
FF35
FF34
0067
FFDC
016B
0014
FE80
0099
011B
FEBC
0058
FEB5
FEFB
FFD6
004D
FEFE
FE2D
0061
FE97
FF3C
00E2
FE7E
0020
FFC8
0080
00BB
0175
0193
FF6B
FFFB
001F
023A
00F4
0061
FDEC
012C
FF97
FF2C
FF4C
00A2
FF80
FE9B
0000
FE03
0058
01F0
FFF7
FEF3
FFB3
FEE7
FFCC
FECC
00DA
0248
FFAB
00F5
FEFC
FFAB
FFBD
01A7
FFF9
FE9D
0016
01A4
0163
0002
001E
01BC
FE20
000C
0093
FD95
FEE9
FF14
FF7E
FF7D
FEDC
FEFA
FEA1
0091
00BD
FEAD
01E6
FFBB
009E
008A
017F
FFC8
FF1A
0182
FEEC
004C
FF76
FE4B
01AE
0081
FEEC
0193
FFA3
00C3
FF17
0131
FFF4
FF88
FEE3
0095
FE69
015B
0054
FF2C
FF64
008C
00FB
0036
FDF0
FEFE
FF5D
FFAD
FBDC
FEF6
FFC2
FFB0
0196
FFFD
00A1
004F
FEA4
0074
FD68
FEE6
FFB0
0154
FFDA
FF6D
FFD0
FF6E
000B
FF9E
0237
FFD2
0147
0028
FFF7
00AD
0082
009B
FFC3
FE29
0201
FCC4
000C
FD11
FE1F
FF10
FF82
FF02
FEAD
0037
FF49
0121
0009
FF5C
0183
01AF
FF3E
FFF5
FFB4
0075
FF44
010B
FEAB
FF85
FFC5
0050
0079
005F
0048
0175
0159
FDFF
0072
FF1E
FE7D
FFF0
00C6
0093
0096
FF4B
00F3
0115
00F9
00E5
FFF1
00FF
FECD
003F
FF53
FF94
FF67
0020
FF12
FF5B
01C7
002D
00F1
FFFB
FFB4
0123
00CC
FF6A
FEE7
FF2A
004D
00CC
FF44
0097
0082
FE7C
FFDA
FFFF
FFFA
FFAF
FFE5
01CB
FE6E
FEB5
0009
0197
0017
001F
013B
0048
011C
006E
018B
0014
01F0
012E
FFE3
00D7
FFA3
FF9D
025E
0049
00C1
FFC4
FF3C
003A
0024
006F
0074
FF6A
FF4C
FFA2
FF3B
0228
FF03
FE3A
FF1A
0098
FEBE
015A
FF6C
01B9
00E8
00BC
FDFF
FF8B
FEAC
0026
0043
FF60
FFD7
0045
018A
0095
FF2B
FEEB
FFE3
00B2
0041
0074
FFCB
FF70
FF9D
FE9C
0035
FFD6
FEF7
008F
0061
FFE9
01ED
00E7
FF29
FEC6
00A6
00B6
0136
006B
FEE9
FE09
FF65
010B
FF52
FF6A
002C
FEDE
FFE4
02DB
004D
FFBE
00DA
FDDC
FE43
FE12
FF47
0131
FF83
FE66
FF4B
FF98
FFC3
FF39
00A7
FE62
FF84
0116
0033
FE4C
018C
FF97
FE50
FD6B
FDCD
0066
FF42
FED8
FF0E
FFD4
0038
003E
FEBC
0058
FFE4
0087
0098
01A5
0003
00CB
FFC2
FFD2
00D1
0075
0299
0031
009B
003E
FED7
FF70
FED7
FDF7
014D
005B
0120
0064
FEFE
01BB
FFF5
FF09
01EA
FFD3
FEE3
FEA8
FE77
FED0
00C5
FF73
0048
FF7F
FEDC
00C3
0041
FF98
FF96
FFE7
0045
FF2B
00AC
FDBA
00BE
003B
FE51
FD79
FE82
FFEF
FF01
FFD3
FF6A
FDF7
0111
FEAF
FFBA
FFB7
FFC8
0060
00E4
FEE0
01EF
FF0D
FF4B
FFCC
FF3D
006E
FEFD
FF76
0136
FF5F
005A
00E5
FF94
FF90
01B5
0124
0006
FF26
FDAF
FDB5
0087
006A
0038
FE93
0158
FEB1
0020
FFA2
FF9C
FFF5
FFD4
00ED
0046
FF19
0056
FF7F
FFAE
FE97
FE0E
FFCF
FE91
FEE9
FE4C
FF39
FF53
FFF4
003A
FE45
FEAA
FE58
FF0D
0006
FDBF
0014
FF52
FEC9
FF43
004E
FE9D
FFC5
0016
FFFD
FF37
FF4A
FE90
00A4
00C0
FECD
FF8C
FF71
005B
FFA0
FF94
FF12
FF08
0157
FF22
FD98
FF96
FEBC
FFA1
FFEF
FEE5
FF6A
FF8E
008F
FF84
FF11
FE4D
FF1D
FFF2
FFDE
FEFA
FD27
FD9E
FF04
017C
0026
FECB
FF2A
FEB3
FEE8
FF20
FFAD
FF48
01BF
FFDD
0077
0003
FFA0
FF9A
00E0
01FE
016C
005D
FF7E
006E
FDC2
FE27
02F9
00D3
FFE1
0120
FF05
FFC5
FEA6
0148
FFC0
0264
FFF7
FE46
00C3
0247
FF30
FE3D
FDBE
0099
00E8
FF5D
FF79
00A3
0080
FDF6
FF9E
0193
FE93
00C7
0069
FFBB
005D
013C
FF81
FFC7
FD5A
FEE7
0195
006B
00BD
FF52
000A
0096
FF6B
FF64
0126
FEC7
0014
003F
000F
FE64
0111
FFB5
0079
001A
FF2C
0013
00CD
00A0
FFA5
FF20
FE4E
FFB6
FFE3
FEDA
FD9C
FF0C
003C
018B
FF5A
00CE
0109
011B
0017
0040
FE00
FE16
FFCC
FFA5
FFD9
FFE5
FE94
FF1B
FF1B
FFC9
FF2D
FF0B
00D3
FF7E
0018
0113
FFFF
FF00
FEB2
00C5
FD27
008F
FF60
0000
0000
FF5B
FFD1
FF23
0050
0075
FCA9
FF1D
FFA8
0013
00A2
001D
FF95
FE12
00F8
FFB3
FF8F
02CC
FDFB
FEB0
FFC2
FD8C
FE9E
010D
01F0
0019
FF01
FEB9
0076
FF4B
0030
0085
FFD1
FFBE
FFBA
FDDD
FF63
000E
011A
FFBC
01C3
FFA0
00E6
0014
FF18
FE99
FE81
FDB7
00D3
00AE
FEEB
00A1
FF2F
00A8
FF1A
00C8
FEDF
FEC8
0020
FFF3
000F
FFCE
0170
00BE
FFA3
FE33
FEEE
0170
0034
006F
FF69
FFF2
0055
FFEE
FF5A
FFB4
0067
FEF1
006D
FF23
016B
FFB2
0059
FE84
0175
FECC
0094
FF3A
FF5C
FF26
FF31
0035
00CF
FD17
012D
FE27
0095
FE27
0020
01AD
FF8A
006C
FF7D
004D
FFF3
0262
FFD0
FE98
0069
FF33
FE8B
FF89
005A
FE77
0109
0101
FD88
003B
0047
003C
FF78
FF3C
FF17
FECA
0082
0045
0025
FFDB
00AE
0022
FFDD
038A
FF53
0038
0057
FFBD
004C
01B2
0060
00ED
FFE9
FFF4
001A
FEF8
FEAD
FF39
FFFD
00F8
0007
0034
FED4
00F8
02A4
FF78
021A
0125
014A
010C
0017
0061
00E5
0096
FEB6
0040
00B2
FF59
FF72
FEF7
FFD1
FEC8
00F2
FF4E
FFE1
FF26
0076
FF6E
0028
FF8C
FF7E
0076
0040
0081
00D4
FF7E
FE7A
0076
00CD
027E
009B
FFFD
001C
0044
FFA2
FF48
00B6
0239
0138
0055
FDC8
FEEC
FFE7
005F
FEA4
00DB
FFE0
000A
FE3F
FF59
FED5
FF96
FF86
FD96
FF30
000F
006C
FFE8
FED1
FFCE
FF9C
0028
FEC6
FDEF
0069
FF72
00CD
FFD9
0194
FFC9
02C4
FF03
FF38
FD9E
FF24
FEBA
FF7D
004F
00A9
006E
FEFA
FF7D
FF46
008F
000F
FF4D
FECB
0144
017B
FF6E
FF87
0084
002C
01D1
FF8A
0031
0049
00B5
00C9
FF24
FFA5
00A3
00BA
FE41
0093
00EA
FE5F
001C
001B
0115
000C
004D
FEC9
FF5A
FF7A
FFCD
0052
004D
0093
FFC4
FEB9
FFCB
FE98
FFD1
00B3
FFA4
0260
FFBC
003C
FEE7
005E
0007
00B6
FEDE
0143
0161
00CD
FFD1
FF48
FF26
FF10
02FB
FFBB
00E7
0148
01C2
008F
01EB
01B4
010E
FF5D
FEA7
0137
FF99
FED2
0027
FF99
00A0
0066
0037
00A5
00B6
011D
FF60
003A
01C6
FFA7
005F
0075
FFBB
FF57
00B9
01DD
008C
FFD9
FEC5
0128
00F9
FEAD
0188
FFC7
000E
FF23
0121
FE4B
00E7
0136
0024
0093
FEB4
FD51
0267
021B
019B
0084
FF9B
FFDC
FFA6
FEA0
00EE
0160
FF2A
FFA5
01E7
0123
022F
0023
0013
00B0
017E
029E
00B6
FFA1
FF9B
0146
015C
FDF2
017D
00FA
019B
007C
FF31
002A
006F
0067
0099
0115
FF55
002B
FEF1
FFE9
FF9A
005E
FF12
00E9
FF45
00F0
FFC6
0072
003A
0013
017A
000E
00F4
FFFF
0049
FF6B
FF87
FEB3
FFE5
FF48
FE90
0121
FE80
0065
FFCA
FF61
FFC1
016F
00E8
FFA5
0156
007E
0023
001C
FF8D
FF6A
FFF2
0030
004A
FF70
FF80
0092
FF51
0047
0072
014A
0021
FFC0
0134
0076
00CE
0039
014D
FECC
0152
0004
0079
FEC1
021D
0000
0091
FF09
0029
004D
00D4
01ED
005E
FF0E
0003
00C3
0075
FF37
0132
FEF3
FFA1
FECD
FE31
002F
FFE9
0028
FFC6
FFEE
006A
FF1E
00E0
00FC
00F3
FF56
FFDC
009F
001F
002B
FE8C
017B
01B5
0126
FF20
0088
015D
FE05
FFC7
0078
FE80
0098
FE8B
0060
0063
FF6F
FDD7
FE2A
FDF4
FFE9
00EC
FFD6
FE09
0097
0164
01BA
00BF
FFCE
0059
00FA
FF96
FF60
FFF3
FEBB
FF67
00CA
018B
00AF
0200
FF9C
FFC0
0062
00A5
0044
01A6
00AC
FEFE
FF05
0136
0152
FFD3
FED3
FFDD
FF7F
0232
FF59
FFC3
FED9
FF7E
0056
FFBC
FF2C
FF70
FFBD
01EB
00E8
FF40
FEE9
FE61
FE74
FF98
000D
FD6F
00C5
FFA9
0093
FFC1
001C
0091
FF96
FF94
00FF
01DF
0005
FF81
0105
FD4B
0023
011F
00A4
01FE
0080
FFDA
0099
0179
00EC
00C0
0056
0078
0053
FFB9
0177
FFE2
FF99
0153
0133
FF76
FEEE
FF2B
014E
FF3E
012D
006A
FE25
FF0A
FFEF
FFB2
FEFA
FF7C
00E1
FF7A
FF93
FFC0
FF45
FE4E
00B5
00F5
0022
00F0
00D7
0076
FF55
FD72
FF8D
00F0
FF63
FDEF
0012
FECE
FF98
0006
018A
FFB1
FF60
013C
00F0
013B
FFDD
0062
FF08
0139
FDF9
FFFF
001D
0072
FF7F
FD14
FED0
0103
004F
00BA
FEDC
FFAA
014A
FEE3
FF7E
FEFF
00BA
FFDB
FF9D
019A
002F
0207
02F6
FFBE
013A
FFD5
00B6
00CA
FEC5
FFBD
FF9D
FFAE
FF2D
0035
FEC0
FFBD
0128
00F9
FE74
01DA
007E
FF51
FFC8
00C5
009F
021E
FF6D
01A8
0114
FFC4
FE94
FF92
FEE9
015B
FFA5
FFD8
FFC7
FF82
00D0
010C
00BD
FF3D
014B
FE8C
FEB9
FE0F
0026
0030
003A
FE73
024E
FFEC
0017
002D
FFF2
FF65
FF63
00E5
FD88
FECD
FFD3
0100
FF20
0138
00F9
FF9B
0162
FECB
FF17
FFA7
008A
FDCB
FE21
0060
00EB
FF63
FEEE
FF35
FF63
013B
FF86
0008
FF61
0071
0117
FF38
016B
FFB2
FEC9
003D
FD71
FFE0
FF57
FFCF
0147
000D
0087
00DE
002A
FF30
000C
FF36
0259
FFE4
FE02
00C1
00BD
FEA2
0196
FFA2
FF2A
016C
0015
FFF4
01D1
00D1
FFDB
0049
FE86
FFC0
FFFE
FF18
FEF6
FE6B
0050
0067
007E
0023
0074
FFAA
0183
0040
00FD
0096
0197
FF96
0086
FF00
FFBD
FEE4
FEDE
FF11
FF81
FF63
FFA5
001E
FFB4
FF81
01B5
FE9E
FEAB
FF75
FF56
FF0A
FFAA
00D2
FF18
0020
FFCD
FFD9
FE78
002C
FF2F
FFAF
0012
0087
00BD
0057
FF26
FF84
013B
0147
008B
FEC9
019B
FF8E
FE54
FFE7
FF66
0078
00EE
00F3
FF63
0044
011A
FE90
FFC2
0020
0039
0064
012B
00F7
002C
FF34
FF2B
0006
002C
01F0
FFFA
FFD5
FF8F
FF7D
FE4A
FF2D
FF80
FF34
FEB4
00A8
009F
FD1D
FFA2
FDB6
0022
FF49
FFBD
FFFA
0024
FF5A
FF89
FFD5
00AA
001C
FD35
FE33
FDBD
FF84
FFA3
FE06
FE7C
003C
0169
FF88
0125
FEA3
020A
01DC
FEF6
00BE
FF08
00CF
FE36
FFEE
FF2E
002C
FFB2
FF96
FEBA
FF55
FE54
FF7D
FDD4
005B
FECA
007F
FE37
FEA0
0044
FE8C
FF5B
FF44
0062
FFBD
0020
0123
FF2D
FEB6
FF95
0015
FFEE
0083
FF54
FE15
FEEC
0053
0158
FE3D
00ED
FFF1
0113
0072
002E
00F3
00C1
FDD6
FFFF
FF6A
000E
FE02
FF37
FF51
005E
FDF4
FFA1
FE2A
FEE8
0090
002D
FFAD
FFDC
00A1
0079
FF35
FF6C
0168
FF3F
FEFB
0043
FF68
003E
FFC5
010E
0062
FE07
003C
00CE
FF3E
FF43
0023
0032
0128
FEC5
FEA0
FEF3
01F0
00FB
01DC
FED0
FDE3
00C5
007F
00D2
FE9F
FD60
0023
0008
FFE2
002E
0014
FFFB
FD78
002F
FEFD
FF59
0038
FE88
00AE
00ED
FD7D
FDF9
FF7B
FFD5
FFA8
FFD3
FF05
FF8D
FE62
FF15
FFDF
007E
FFFA
FFE5
FF09
FF2E
FDCD
FEC8
FEC9
FD93
0025
FED6
006B
0145
FF96
FD8F
0009
FED9
010F
0017
0037
FF9C
0057
FDAC
0119
FFD1
015A
FC95
FF17
021D
FE9F
FE21
FF3C
0069
FFAD
0000
0127
000E
FEBA
FEC5
FEE2
FFCD
0182
FF3D
0164
FF23
004E
FFC5
00C4
FE8D
FFE6
FDF0
FE05
0048
FE6E
005C
FF2E
00B5
0000
FFF4
019A
FEF8
FFDD
001D
00C3
017C
FF89
FFD3
FE80
01A6
FF2B
003C
FF4E
0017
FFDB
FD73
FEA1
FFDD
FFB8
FDFF
FF7A
FFFC
FFDF
009F
FF5A
FD81
FF09
01E7
004D
00CD
FFA5
FF66
FDFF
0050
FE83
0021
FF4E
000A
FD45
00E3
FEBD
00D7
FEDD
FFB9
FF7E
FE05
009B
FFFB
FED1
FE00
FF5E
0007
0033
FF43
008A
0108
0102
FEFF
0040
FEFA
FE78
0058
FFD0
FFB6
0073
FF4A
FEE5
FFFC
0154
FFAA
FF83
FF9A
FFA3
FF0F
00F5
000A
FFB1
FF9A
016D
0055
00AD
FF21
FF8C
FE69
FF9F
0048
FF38
011B
0028
00F0
003F
FD42
FE61
0180
0093
FFEA
FF3E
00B5
FF4D
008A
0061
FEE8
FE79
013E
0159
010C
FF39
0009
FEED
FFDF
0137
0135
0160
0164
00A9
0069
FE44
FFED
01A3
0338
00C1
FF23
0199
0114
FE31
FF68
FF38
0155
0062
0163
FF44
FFFE
FF72
FEAF
010D
00A4
FF9F
FFA3
FEA2
FF29
0137
FFD2
FFD1
FFE0
FFBF
0001
002A
FC7B
FFC6
009F
FED9
FFCF
FF74
0101
FE4F
0148
FF30
006F
FEFA
FF48
0094
0014
FE5D
FFD1
002F
FE79
FF50
FF53
006B
FF95
FF69
FE4C
0052
00FF
000B
FF1F
FDF0
025A
0070
0025
01BD
FF11
FF02
FFD1
FE8E
00D3
FF3B
FE40
00DC
FE58
FDED
0132
0091
00BC
0039
0037
FEE4
FFFB
FEF8
FF63
00DC
FFE7
006C
014C
FFD7
FE71
FE5C
FDC9
FFC1
0123
FEA1
FD6C
014E
02C3
FFFE
0070
FEC3
FF67
0164
FF2A
0013
00E2
0041
012C
FF26
0015
FD63
001B
0132
0152
003B
0078
0007
FF35
FE3F
FF4E
FFFF
FF69
FE45
00E5
FE68
002A
FFE9
FFCF
FF04
FE48
FE31
FF1D
FF92
005B
FE7A
FFFF
FFF7
0040
00C5
FFC3
FE98
0071
FE2F
014B
000E
FDDD
FFB8
FFE2
FF8A
018D
0061
001D
FF62
FFBB
0050
0015
0134
0023
00A3
FF7F
FEAD
02A5
012D
FE54
0095
0052
FF1F
000C
00C8
008A
0070
FFF3
0197
FFD1
FFBA
FFD1
FFA5
FF01
FFCE
FEF0
01A5
008A
0059
000D
0045
FF45
FFF5
012D
FE93
FF7A
00AA
FFCE
FFF8
FDE3
FF8F
015C
0254
FF75
007D
033C
FF4F
000C
007A
00E9
007E
FE72
0066
FE1B
00C9
FF1C
FE67
FFD1
001C
001B
FF4F
00D4
FFBF
FF85
01C2
FE7E
FEBD
FF01
010E
FE6F
002F
FFFA
0086
FF2F
FFDA
0091
0148
FF11
FFD2
0077
0237
FEE7
0140
008C
FF66
FF94
01EF
0141
FD1D
00AF
00D6
FEB9
0035
0098
009C
0140
FF40
FFD4
0047
FF39
FF5D
FF8D
0000
FF6E
0005
FF98
FDF3
0007
FF19
003E
FFC8
01AA
0210
FF2F
0123
00BC
FFB5
FF9D
00BB
007A
000A
FF38
0017
0082
FF97
0062
FE6E
0197
0041
FEEE
FF79
FF35
006C
00C5
FE7E
FFAD
FFFF
001A
000C
FFA9
01D2
006B
FF26
FFF6
FEEF
FF07
FFBD
00AC
010A
0247
0115
0108
FF16
FF7F
FE91
0161
FF7A
FF98
FF5D
FFBC
013F
FEFA
0092
FE23
003A
00D2
FF46
FF4D
FF4F
FE82
FF03
FED1
0068
FE0F
FED5
FFBB
FFCC
FFC1
001F
FF7A
020A
FDE6
0006
FFF7
FFAB
FFA9
0014
FFE5
FEA5
FF0B
00E7
004C
FFEE
FED0
0006
FF78
00A6
FEF1
FE44
0036
FF40
FD78
FD05
FE3E
0039
00AC
00CE
00D7
FEE4
0074
019F
FF85
FEC5
FE9C
0129
01A8
0065
015B
FE6F
FF36
0049
FFFB
FFAB
FFF1
FFEE
0092
037D
FE9B
011F
0073
FFF3
0241
FF77
FF93
0135
0195
00BD
00E6
FF19
00CD
FEE0
0015
012B
FF1F
0124
FF9C
FFDA
0162
FFDA
0028
010E
009D
0181
0109
001E
00AE
FE3B
0109
00CE
0160
0042
0011
FF5E
0049
FFAB
FFE8
01FD
FF64
FEFA
FFA3
0089
FF85
00BA
FF9F
00FC
00F5
006A
FFFC
FEAB
02AA
FF6A
006D
00FF
0055
008D
01C3
000C
0086
00DB
01E2
FFA5
00DF
01ED
FFA1
FF6B
0086
FEA1
0173
FEF7
009C
FF5F
FFFC
00E5
FF8A
FFFE
FF6D
FED9
FFD2
016A
0021
00D0
00B3
01C3
FF27
0144
00FF
FE36
0280
FE84
008B
FFC4
FFFE
FE4E
FF99
01AE
FF5E
FFD7
014E
0044
0003
0047
0170
0062
00A0
FFFE
0112
00A9
0014
0121
00B0
020F
FDDE
FFBD
0054
FE33
0062
FE5A
00A4
FFEE
FD8A
FF9C
0021
00B5
0080
FF3D
005E
FCE8
FFAD
FFCD
00A7
FF9F
006A
0083
FFE1
0304
FFAC
0145
FFF4
FE06
FF2E
FF59
001F
FD55
0141
0054
0028
FFB5
0150
FED5
00A2
0103
FF4D
01B9
FFB7
000A
FF89
FFC8
0042
0046
0135
FFD4
0123
007F
00AC
FFD8
FEA8
FE77
00E4
001D
FFF7
FF7C
FE99
013A
FE6B
00F5
FF96
FF71
002C
0005
FEFB
FFB5
0036
00AB
FFE3
000D
FFE0
00A0
FFB6
0075
FFA2
0012
0125
FF86
FF89
016E
FD8D
00F1
0066
01ED
00D8
FF16
00F8
00AE
FEE2
0152
FEBA
00BC
FFFC
FE63
FF75
0027
0085
0064
FFAF
00A0
0046
0013
00F3
FEDB
0101
0175
FFD2
00BC
FFE4
FFC7
00C0
FE99
018A
005D
FFE1
FF29
0112
FE86
00EB
00D4
FE9A
00EA
0229
0134
00B2
FE1D
00C3
00C5
0004
FF05
FF73
FFFD
00E1
FFE8
0027
0164
FF52
0043
00C5
FFFB
01AF
FF1B
FE83
002F
FFD7
FFC5
FEDE
FF21
FFCE
FE47
010A
00DD
FFB6
0022
002B
002D
FEF3
0020
FF9E
00F9
FFDC
FFD3
FF9E
FF82
0022
FF20
0077
004B
FEEB
0077
FF39
FEB6
FF8E
FF80
FF10
FF7E
FF74
00A3
023A
0055
014E
0056
FE5F
FF1C
006A
012C
0039
FE9E
FFE3
010C
0199
FFB4
FD8F
FF6C
FFEB
FF1D
0020
0006
FFCD
0139
00A6
004B
FFAE
FF88
0048
FFE0
00BB
00E9
FE1C
001F
FEE4
008E
0154
0072
003D
FF76
FE75
FF59
00E7
FF56
0019
FECF
FEF8
00E5
01A8
0000
FE54
FD96
FF46
FE4C
FF92
006B
FF70
FFA5
0007
005D
007D
0003
FF6E
FE79
FF99
FCD3
FF87
0015
0067
011E
FE34
FF97
FF16
FDF5
FF66
01F2
00DB
00B0
00C4
0087
FF8A
00A5
00B6
001E
0255
00C2
01F0
FFA5
FF29
FED1
FF0A
FFD8
FF45
FF10
FF55
FE8D
0175
0187
005F
008B
FEE7
00EE
009C
0146
FE49
00F4
019E
0024
FFBB
FFD8
FEF9
FF93
00FA
00AA
0087
0096
FF95
0060
010E
FF59
000B
0038
0016
039D
FEA6
0196
FE70
0050
013B
FF79
FEE7
0095
FF45
FFF8
0074
0265
FF53
008A
FF5E
001A
00B6
00CB
FE5F
FF0D
00AC
FEC4
FF5E
FF2F
FFB0
FE57
0291
0053
FE89
00C2
FFE8
FEEF
01E1
FDE3
FFFB
FEDC
FFA9
FF5B
0098
FF1B
00E0
00AF
FE96
0119
0095
0092
0033
FF79
00E8
FFA8
FF15
FCA9
0169
0105
FFD2
FFBE
01A9
00CD
0057
006C
FFA8
FF58
FF60
FFD8
00FD
FFA3
01C0
004D
0095
FE8B
FD2A
FF9F
0099
0005
007B
FE96
FFFC
FF49
007A
FF2F
00D8
FEC6
00AB
0031
0055
014A
0156
005F
FF99
FEA3
FFBF
FFFF
009C
007A
FFC2
01FA
FFD2
FE90
FF62
FFAC
000B
FEFB
FEC0
00FB
0072
FF02
FFFB
FFAD
FF8C
FFCF
FF51
0101
FEAA
FF5B
FFB4
005F
FF32
FF78
00B3
0039
001F
FEEF
0050
FE9A
00A2
0281
004E
0051
000B
FFE4
FF9C
0096
FE7D
FFF4
FF4E
003C
0077
FF7C
FD6C
FE05
00FE
FD62
FEBC
0042
0130
FFD0
0118
FEFA
FE75
0046
0118
FE1D
005B
FF3E
0026
FFA9
00CE
FD52
FF64
FF19
FFE6
FFC8
FF59
FE16
FFF2
FF9E
001B
005B
007D
004F
FFF8
FEE1
FFEE
00C0
FFB5
FFC5
FEEB
FF66
FDFA
FE65
0060
01B3
FF8A
00C3
FE5F
000A
0048
FEB5
FFD1
00D1
00FE
FF06
002E
FDBF
0114
FEED
FEBE
0183
FD79
009B
FF60
FF41
FE3D
FFCB
FEB9
FF85
FEB5
003E
0163
FE60
FE51
015D
FF84
FFDE
00B6
006D
009D
0188
FF10
0133
0032
FE62
014F
0086
FFF6
024B
0071
0018
FF85
FF35
00F2
FFD0
0086
FEBE
0138
01A4
FFE7
FE2F
0073
FFC9
FFCA
FEF4
01C5
0090
011E
FF22
FF10
FFA7
FF19
FFBB
017E
0075
FE72
FF86
FDD0
FF85
0036
FFFB
FFF9
01C4
FFEC
00FC
FF64
008A
FF69
014C
006B
005B
0011
FF48
01A9
000F
FE55
FD39
FF3A
FFF5
FF09
FDF3
FE56
00F9
FDA7
FF0A
FEC0
008A
0066
FFDB
0096
010D
FE05
FF7D
FF72
FE8F
FEFE
003B
0059
00EB
01A8
FD60
003A
FFD9
FEBC
FE75
01EF
FF98
FF5E
FDD0
FE85
FF4A
FF9B
00A2
FEFC
FE04
FFD1
011F
FFF9
FED2
0083
FF44
FF3E
FFDE
FEC5
FFA0
FF87
FDC3
0007
FD41
0098
016A
00D4
FDAF
FE58
FE64
0035
FFBD
FF32
FF31
FF35
FFA4
0110
00F7
0092
FFD4
00B4
FFE7
0141
007A
FFD4
FF55
0031
0065
FF93
FF29
00D7
FE3C
FFAA
FF13
FF06
FFEC
0044
FF15
FFDA
0168
0033
0198
006F
FFE0
FEE0
FEC1
FF13
0190
FEBA
FE80
FF4F
0069
0066
FFEF
FF26
0234
0031
FE1C
FF3D
00C4
00CE
FEC2
0073
FFEC
00A5
00B7
01BC
010B
FF74
018F
00A0
0006
FFA8
FEF8
00CD
FF93
012C
02C7
FFB7
010A
FFBA
FF25
FF7D
0099
0003
FF29
010B
FFE0
FF35
002F
0007
023E
FFCD
FEEA
0079
FD63
FF04
00FB
FE46
FEC1
0049
0017
FEFD
001A
00B5
FF68
FFD6
0169
005E
FE99
FFBA
FE81
FEF6
FFDE
FDBF
FED0
FEC9
FF57
FF12
FF7A
0078
FEC2
00C2
005E
00D8
0045
FE1F
0083
00AC
0159
FF71
FE1E
FF6B
0134
FDD7
FFDD
00F0
FEBC
016C
FFC3
FF7B
FEBB
FEA4
0128
FEFE
00D5
FE9F
0108
FF10
FF99
FFE6
FF78
FFD8
00BF
01F2
FEFA
00F5
FF2F
0187
FF92
012A
FE60
FFDD
00EE
0138
FF97
0140
0086
0147
0102
FE3C
FE95
0082
0081
FEE5
FEBA
0035
FE95
FF50
0011
FEBF
FF9A
FFCF
FFBF
FF3D
FE3E
00EA
0162
01D0
FE9E
FFEE
006A
007B
FEA7
00A9
FEA0
00AC
0038
FFEB
016E
FF12
00BE
00D8
003F
FFC1
FF70
00DA
014E
FFC5
0083
FE89
0014
FFFA
FF2A
005A
FFBD
FFFE
00C4
FEFC
FE50
FF7A
006E
FED0
FEE0
00A0
00F5
FEC4
FF32
FFF8
0166
FF9C
FEEB
0282
0006
FEBE
0082
FFC5
FF93
FD9A
FF59
004A
FDE6
FE8E
FDD9
000F
FFC8
00D0
FF80
FF88
FF71
00EB
FEB7
00E3
FF94
FF74
FE6B
FFB9
FEBA
0159
0017
FEE0
0012
019F
00E4
00BC
FFD9
FFFB
018A
00A7
01D6
FF7A
0179
0114
00C1
FFA5
012A
012F
01BC
FF6A
FFCB
FF5D
FF2C
FED8
0131
FFED
FFB6
FFA7
FF4F
FF47
FF9D
01F6
FF78
FFDC
FFA9
FF51
0165
0073
0082
00B0
000C
FF33
00E0
00EE
012B
029B
FFF6
0186
0105
FE5B
00F4
0053
0149
00E1
013F
008B
006B
0032
00DF
0006
0199
0187
FFA3
0010
0253
00BD
FFD0
FF75
FF1A
FF6D
0069
FFFD
0041
FFBE
FFAC
FF2F
01DC
FF06
FF99
0045
FF5B
FEEE
008A
FF96
004B
003E
014D
FDD1
00B5
00ED
0022
0011
FF8D
00DA
FEC1
00DD
0279
00DE
FEEC
FEC1
FFB5
FF33
FFFB
FFBC
FF32
0076
FE19
0135
001C
025D
0131
0088
FFF7
00F7
FE29
FF40
FFED
00CF
002E
030A
0108
000F
FF85
017D
0144
0179
FFAD
015B
010D
0147
FF89
FF9A
FF7E
FFF8
FF63
FEFF
FE16
0098
FFDB
FF68
0125
FF3E
00AC
0014
00A8
FF43
0137
FF49
FE8E
01B2
004B
017A
FFE5
0101
FE6A
FE1A
01B4
FFC3
021D
FE56
0154
FF3A
FFBD
00B2
000F
FF2D
0105
0069
FEF4
0046
FF55
FFF5
0021
010E
FF2F
00DD
FF96
0191
001A
00A5
FF53
00A6
009B
011A
FF98
FFE1
000C
FDDC
FF94
FF8C
0088
FEC1
FF39
FFB1
0004
FEDB
0054
FDEF
FE42
FF92
FF53
006A
FF33
010D
FFFD
FEB5
FF14
01B1
003D
001C
00CA
FEDB
001A
FF24
FF09
FE73
0010
FFF0
0081
0112
FE4F
0089
0054
FDFF
FFD2
FF5D
FFE9
FF74
FE1F
FE10
0149
0134
0250
FF08
0100
0128
FEB5
015F
0025
004C
0002
FFED
FEC8
FE0C
0016
0075
001B
FFF9
FD1B
FEA8
FE90
012B
FEEE
FF7E
FE6E
FE61
00D2
01E3
FF2F
01EE
0018
FFE7
01E0
0182
01B4
0086
0027
00B8
FFB7
0036
00BC
0003
FF8E
FEA1
FF84
002C
00EA
FF04
005F
0168
0052
FD29
FF69
013D
FFE4
FE7E
FFC5
00E5
0083
FFFE
0087
0006
0004
026B
FF7D
FFCA
FE30
FFFD
008C
019C
0029
FFEA
0022
0119
FDD3
006A
FECD
FED5
FF7B
FF72
0074
005B
0096
FF16
001B
009D
FFFE
0091
FD99
0080
FF20
FEA9
011A
FF87
0038
00F2
FFC6
FFB5
FF62
01C8
0078
FF50
005D
0172
00FA
FFB9
FEEB
00AB
FE58
FFD6
00D4
005F
007F
00A8
0051
FF2E
FF06
0057
FE39
FE51
FE6C
FFCB
FDF5
FF27
FE26
013F
FF56
FEC6
004D
FFAA
0124
0152
0004
FF7F
FFD4
00CC
FF36
001F
FE8B
0031
FF61
008B
FF61
0133
0046
FDA5
FF56
FFB3
FF04
FFCA
FFEA
FFE6
FEAF
FF8E
00CE
0030
0033
FF44
FE29
FFC5
008D
FFB7
002B
FF67
FE32
009F
FF87
FFC5
00AE
FF19
015B
FF4E
FF4E
FFC8
017F
FF36
FF6A
FF54
0271
FE62
0026
FF29
009C
00A3
0013
FDEF
FF88
FE75
FFDE
FED8
FEB0
0147
FEC7
FD21
0084
00BB
0078
0013
FF2B
004E
FFB0
01FB
0186
FFF9
FE85
FF01
0010
000D
00C4
FFEC
FEF8
FF06
FF45
FFB5
01F0
FF51
FFBF
0007
00F5
FFC6
FE37
FEC7
FF60
FFB1
FF43
0157
FFE5
0018
FE24
FE28
FFF5
FFDA
021C
FFF2
FF93
008A
FF63
0084
FF1E
FFC2
00F9
FFA9
00A5
FFAE
FF5D
00CB
0012
FF0E
FF1C
FFD8
FED7
FFCA
003B
003D
FF9D
002A
0098
FFA8
00E6
FFF4
FF41
FEC2
0036
FE38
0128
0036
00C2
005C
00BE
FE56
FF4A
026E
FF66
FEDF
FE5E
FE83
FEA8
FEE6
0090
0104
01FF
009E
008C
015D
0014
0023
FFF3
0272
FD86
FFB0
0065
FE50
FF27
029E
0013
FF31
FEAB
FE31
FFDD
FFC9
FEB5
FF0F
FE35
00C2
FF5F
FFFD
FF21
FE86
FDB0
FD1F
01A6
FFA2
000D
0091
FD92
FFF7
FF82
FEF3
FFC8
FF25
FEBE
FEFE
FF6F
FF48
FDF2
FCF6
FF52
FF8D
FFF4
00FE
00A2
FEC3
FF91
FFA9
FFC0
FFE3
FF37
0087
0115
FF82
FFB9
FE9D
01E5
FFCB
001E
0070
FEE3
FF93
0095
0057
0050
00A4
000E
FE94
00C0
FF50
FEF8
0104
016F
FF9B
FF65
FEF9
FE25
FFD9
FD8A
FE8A
FEAC
FE44
FFA3
FDF8
FEC1
0186
FFD4
0093
FF6E
0062
FFBF
0045
00AA
FFCA
FE92
002F
0128
018D
0103
FED6
FE43
FFF2
FE2C
FF34
00AD
009F
FF93
FF6B
023A
011B
FFEF
FF2B
0028
FF7F
016B
FFA9
0196
FFE4
0061
0014
FE2B
002B
00CE
FDDE
FE10
FF90
FFA9
FF23
FEEB
001F
FE52
FDF6
FE57
002D
00EC
FFFA
FF22
00A1
FF04
FE3B
FF76
FFB0
0038
FFE7
FE93
FEBE
00FD
FFA1
FFE8
FEB3
FD6C
0050
FEBB
FF69
00CD
019A
009A
00C7
FEC3
FF9F
FFB0
FFC8
0050
FECB
0027
FF75
0032
FE70
FE2A
FFD3
01A0
001C
007E
0028
FFA7
FEB0
FF92
019C
FFB8
FF35
0028
FFC4
0045
010F
FFDE
FECD
FEE6
0014
014E
FF97
FFC0
0178
FF0F
FFBB
0011
FFA4
FF6B
FF0D
FD9A
01F0
00CB
FF21
00BA
FFEE
00DE
FFFB
FE07
FF80
006E
FF2A
FF3F
FFA2
FEB3
FF7F
FFF4
FF16
016A
FE16
FE80
FEBD
FFAC
FEDA
0186
0004
FE6E
FEE9
002F
FF1B
FF27
FF0D
FFDD
FFC7
FFDC
FF68
FF6D
FF29
000B
FFB1
FFF8
FFDB
FDD8
01D9
FFB3
00B1
01D8
0186
018B
FF69
0214
FDFB
FF60
0107
FE0F
0076
FF9C
FF1D
0078
012F
FE76
001C
FF64
FE1F
FF84
014E
FF15
0129
01A9
FF41
0021
FF56
0086
003B
00DB
FEB8
0145
00EB
0219
FEF2
0022
0061
0269
0128
FEB2
FFE5
0004
000D
00EB
00E1
00C5
FDF5
0079
0026
FEE4
FF78
FE26
00A6
01C0
FFEF
0043
00F8
0139
FF4A
00A1
001E
FF75
00EE
FFD8
00EA
FEEC
FFCD
FFB7
FE9A
00F8
02F6
FEE7
01F3
00E5
01C0
00A6
FE92
FF36
0173
FF8F
00CF
0232
007B
03F2
FF3F
FF29
FF1E
FF3B
005A
01EA
00E9
012E
0060
00C5
FFE5
FFB6
009C
FE50
FE70
FFFE
0157
01AB
0133
0006
001F
023A
FF3A
02A2
005E
0074
FFB8
010C
FFA0
FFDC
01F1
0066
011E
00CF
00DC
FF54
FEFB
00C1
0003
001C
00A8
022E
005F
FFB3
FFCA
006A
0225
FFF4
00B3
0151
012F
FFEE
FF1F
019A
01BE
FF64
000F
0045
FFCE
0068
FEAD
00AE
0089
01DE
009B
00CC
012A
FFCC
FEC2
FE21
01D2
FF54
004E
FE81
FF0A
017B
FFC7
FFD5
FF54
FF72
FE9F
FEEE
016A
0025
0037
FF9A
00FF
0055
FFC6
00D6
00B7
00A5
0013
FE61
FFE5
00CE
01C1
01F5
FFE8
0022
FF5E
0241
FF74
0253
FF9B
FF80
FF6F
0150
0175
0087
FFDE
FEC9
FF84
009D
FF37
FF30
0066
FFFA
FEA5
008D
FDC0
FEFB
00D5
0211
00FC
0017
00B9
0124
FEF6
FFB3
00F2
0047
FFAE
00CB
001C
01EE
0108
001A
0114
011D
01DE
FF28
0005
00D8
01E1
0002
0163
FF60
011D
FF22
0045
0011
FF24
0139
0045
021E
00D1
0077
01EE
FEC0
0155
FFC3
FF59
FE66
FF4F
FEED
0025
007B
FEB4
00ED
00C0
0196
02A5
FFA5
FFAB
FF59
FF4A
0004
0170
000F
00DE
00A5
0156
005B
00A1
FF6F
00CF
007D
FEB8
FFD8
00EB
00EC
FF72
0017
004D
001D
000B
FF7A
00A5
FFE9
000A
FEA0
FE21
005E
003B
FE94
FFC8
FF5D
FF53
FF99
FF4F
0114
FE42
FF25
FF88
00BA
006D
FF0F
016B
FFFA
0014
FF19
0160
0028
FF2F
FECF
FE12
00A6
FFB0
FF43
FEA3
FF70
FF35
FEF7
FF6B
007C
FE48
0153
FF7C
FF00
FF84
002C
FCFA
FFDC
0004
FF58
FFE5
006C
FD78
0061
01DA
FFEE
0133
001E
FFCC
004B
0069
FECF
00AC
FE2E
0099
FFE1
FEC4
011A
00F7
FF8D
014C
FFAD
0016
FF1E
FF4C
FE49
FFAC
FF4C
005F
FFBB
FF93
FE5F
0111
FF48
FFF1
FFEF
FFAD
FF70
FE8F
FFB9
FEA7
FF6A
FFBA
003F
FE93
FF2A
FED0
0011
FE4E
FFB9
FF40
0004
0124
0008
FF1A
00BE
FF1A
0104
004A
FE75
FE28
FEF5
FE38
FFAA
FE79
01D7
0025
005E
FF75
FFB8
00DC
FDF4
005C
FFEB
006A
0047
0043
FEDA
013C
0165
0172
FFD3
002A
FF36
FFDA
0000
0057
00D3
FF6D
FF0A
FF17
01C5
0106
FFB6
0169
009A
FFD7
00EF
FE8F
FE71
FF9F
019C
011B
0001
01C3
0226
FEBF
FEEB
FF83
006B
FF55
01B5
FEFA
FF48
0070
0007
FE86
FF52
FEDA
FF89
FD8F
FEDC
FE40
FDCA
00DD
0093
00FD
00CF
008A
0056
0109
0053
FEC6
FE19
FED8
FD46
006A
0294
00DC
00F6
FEB4
0043
FFDC
001D
FFD1
FD8E
015E
0001
FD64
FE14
FED2
FE11
0137
0005
0227
0038
FFA8
007E
00B4
FF83
FFE6
FF0C
FEBC
FD92
0099
00F2
FEC9
0108
0070
FFAD
0114
FD4B
00E7
0066
FFE4
003A
FFA2
007E
0055
FCFE
01BA
00FB
FE3C
FF01
FFB7
0081
FE01
FEFA
FE6C
FE6D
00C3
FF0B
FFD1
0037
FF7F
FDC4
00B9
002D
0028
FE1A
00A5
FE93
FEF0
004B
0113
FF76
004A
00B0
00B6
FED7
00F5
FF0F
FF47
FD73
0179
FE50
FF9E
FF0C
FDE3
FFD9
FEE0
FFB7
FFE6
FE48
00D6
FE9F
00FB
FFB3
FF78
0036
FFC7
0177
FFFA
0094
FE2B
FF9B
FF3F
0052
0028
FF42
00F3
FF64
0158
000D
FEE8
FF93
FF2B
002F
FFCE
010C
0025
FF7F
0004
FDA0
0059
FED1
FDFB
008D
FDD3
FE23
FF92
FE61
0016
FFD1
0094
0190
FF96
00B9
FF8C
FF73
FFA8
FF53
0025
000C
FF76
008A
FE4A
012C
FE8E
FD40
0095
012F
FFB7
FF41
0206
FDFB
0165
FF0B
FF23
FEE9
FF3A
FFA6
FF93
FE08
01FF
004C
FEA9
0094
0083
FEE8
0103
0034
FF3B
FFCE
FFB5
FD60
FFD3
FE98
FDA2
0060
FD22
0100
FF6A
015C
0149
FF6E
008A
0083
FF5C
FF31
FF86
00EC
006B
FF92
0017
0009
FFA0
FEC9
FF74
FEF8
0160
FFA7
0145
0124
00D2
FFEB
0042
FFA8
FF9B
FFD7
00E7
0050
00A4
00F0
FF90
012D
0095
FF81
FFFD
FD8A
FEB9
01CA
FF0E
FE12
FF86
007A
FF8A
0049
FE77
0096
FFD7
0049
0165
FFC3
FFB8
022D
FF03
FE90
FFB6
FEFD
0106
FFC0
006A
0184
FF89
0022
FF8E
FF05
FEF5
0091
007F
FE6C
01F6
005E
01E2
0015
0005
FE34
00DF
00A6
FF85
FF9C
FF30
FF0C
FFB7
FF45
FEBB
FF0B
0267
0149
FE7B
00D7
FF8A
FFD8
FFC1
FF33
FE92
FFA7
FFD2
004D
FFFE
FEA4
FEED
FFA0
0090
FFD8
0070
FF46
FFC6
01A1
00FD
FF8A
FF54
FF0B
FE84
FF4C
FFCA
FFE1
FF93
0010
FF68
FED7
010A
FF26
01A3
FF9C
FF73
FF43
FE00
0033
FFBD
FFA6
FE0A
FEE2
00CA
FD74
FF3B
FE5B
FE8B
0044
007C
FE5E
FE7F
FFA1
FF43
FD69
FF5B
FE75
FF90
0127
FF8B
FE43
FE97
004F
003F
0087
FF22
FFC8
002D
FF14
0039
0047
0156
0100
FEF5
FE5B
FF1D
FF57
FE78
01B3
FF71
0021
01B8
FF8B
FE3A
FEDE
005B
FE29
0057
013A
00A8
FEA4
0117
01B4
0075
0182
FEF1
0086
FE44
FEA9
FEE0
FF5F
FFCA
FECE
FD8D
0025
00F5
FFB8
0035
FF47
FFE5
FF99
FFE8
FED2
015F
FD6D
0075
FED7
0069
FE64
FEE7
FEE6
023C
013F
FEF2
FE46
FF5E
0017
FF8C
FF41
FEC3
FF60
FE95
FF35
FFE2
FF13
FEFB
019B
FFFF
FEFE
FE9F
FF6B
FF82
FF82
FE86
00A8
00CA
0083
FEEF
FF15
0003
0028
FFFD
01C9
FEEC
FF82
FEDA
FFFE
017B
FDF4
0071
0010
012C
FFBA
FEAC
FE48
FFFA
FFAD
007F
0005
0001
0025
FEB3
FEA4
FF7B
FF2A
FD83
0019
FFEE
FF42
010E
0134
FEE0
FFA2
007C
FEEF
FF64
FF09
FFCE
0071
FF97
0000
FE1F
0125
FE3C
FFE7
0010
FF76
0030
012B
FF2E
FF8B
0082
0115
0180
FEF7
FF88
010B
FFA0
00AA
00AC
FF5B
FE0D
00FB
FF17
0092
015B
012D
FF54
007F
FED4
00FA
000A
01BC
FF40
FEC1
0008
0072
FF36
0086
00BA
00EF
011C
FF3D
FF15
FE19
FF5A
FF98
FD99
004D
0055
004B
006E
008C
004A
FDCB
FE86
FFF2
FF7B
009F
FF5B
0065
FEC4
00AA
0024
FFFF
FF55
FDE0
00BA
FF47
00C1
FD3C
FF7B
FD11
0003
FFC6
0120
FF9E
0146
00CE
FE6B
FEA5
FFA1
00FD
006F
FFED
01A8
FFBF
FF80
FDB4
0097
00AD
004F
FF17
FE88
FF16
FFDE
FEEF
0165
FFB0
FFA6
00FF
FE8B
FDE8
FE51
0110
FFFF
FF6C
FF33
0024
0040
FF1D
0104
FDFD
FF63
FEFC
00E6
00A6
0108
FE31
FF32
FDDC
FE0D
0029
FEE8
FE59
FE3B
FED0
FF0B
FE92
FE42
014A
FF23
FFDF
FD39
FE8F
004E
00EF
FF77
FF39
FEFA
FFAC
00C0
0231
FE5E
FF8B
00DB
FE9F
FF66
0052
FF23
FE63
024C
02A9
FFBC
FEE9
0092
FDE8
019F
FFE1
0092
FF95
0047
0008
FF15
00D3
015F
0172
0069
0121
FF8D
00DE
FFC3
FF6F
FFC8
FF3D
FF54
0014
0015
FF48
00CB
FFC1
FFA6
01CC
0147
005D
0002
FF51
FF66
FE84
0078
00C9
000F
027F
0024
FFAE
0058
FE92
FDF7
0082
001D
FDD3
0040
FF19
FE75
FED4
FFBE
00ED
0034
013B
FE53
002C
004E
FE92
0100
0119
0000
FFF5
FF41
FF76
00C8
FF01
0004
FE95
00A8
FEBB
FF09
FDEB
FFA3
00B9
012A
01AE
0052
00EA
FFA9
FFD7
FF01
FFCA
010E
00D8
FFE4
FFF7
FF71
FF20
003D
FF05
FF96
FF45
FFF6
FF05
FE0C
016B
0046
FF2A
FE47
0063
FF86
01AD
FF86
FFCD
FEE3
FEE7
FFAE
FF80
FFEF
0090
006F
0140
FFCD
010D
FF94
0016
FFB8
0188
006C
0025
FF25
FFBC
FF18
00FE
FEEB
00BD
0073
0018
FD4C
0088
007B
FF38
FF6E
FEFA
0042
027C
0088
0016
00EC
FFB8
00F4
FF56
FF95
0005
0101
FF88
00F7
0023
FF86
0024
FF60
0084
FD93
00DE
0022
FF93
FF09
00A9
FEEA
FEE5
FF12
001F
0006
FF9A
004E
FFCA
0095
FFC4
004D
0038
FF36
00D4
FEF0
FECB
FFBE
004A
FF4C
0060
FFF4
015C
015C
009A
00D4
FECC
005C
0022
0144
0044
0162
FFD6
01D3
0088
FFEF
FEA5
FF9B
FF78
003A
FF39
000C
FFA4
FFAB
FE74
0051
FE60
FECF
0078
FF8E
01A5
FF75
FF3C
FF55
022D
0046
000D
FF64
0223
00F6
FF64
0028
FD5A
FE29
FEF8
006D
FFBD
FE57
006C
0073
FEFA
FF59
FFB8
00ED
01E8
FE5B
018A
FF4D
FFB2
0038
00FF
008D
FF0B
0111
00C1
0202
FE94
FE63
0094
00AB
0022
0020
0129
0170
00C4
FF6C
FFF2
0256
00A6
FF18
01B6
00BD
FFAB
FFDD
0157
002E
0021
00B0
00C2
0183
FF2F
03E7
FFBB
FF6A
00EA
007B
FE96
00CB
FFF7
012E
0091
0088
027A
01A5
0107
01E4
FF0C
FF9E
0152
0106
00D1
006D
00BD
FF62
010B
0142
0096
01DB
0101
023A
00B4
FF04
0076
FF69
0221
0147
FFE9
FD80
01BF
00F4
FFBF
0054
0072
00D2
FFF2
00AD
00F2
FF5D
FF22
FFDE
0023
0234
004C
013E
0084
FF68
001E
004A
021C
007A
006A
003C
0242
01A3
00CF
FFED
0061
00D3
FF1F
0027
004A
0101
0079
FF50
0077
FF58
00ED
00F9
FFC0
00B8
0176
FDEA
0078
0009
0091
0153
0189
00AC
0121
FF6C
FFB3
016D
00B1
FF3C
0121
0100
00EF
FE73
00F0
FF09
00CD
FDD3
FF57
0054
FEF6
FFEE
FE0C
FF7B
0173
0115
01A1
FFFD
00AE
FE52
00D7
FFA3
FED9
FF7E
0051
0083
FE61
FFFF
FF78
004B
FD21
01F5
01ED
016A
00F6
0012
007A
FF41
015F
000A
FF1E
0008
00A7
FE05
FEDE
010F
FEF5
008C
FE83
0026
0098
00AB
FF62
FE60
0035
008F
0086
FFF4
004A
0037
FFC4
0046
FFEF
FFC6
01F2
00DC
FEFF
FE9F
017B
0128
FEFB
FFE5
03A9
00ED
FFB8
0061
0084
018B
0073
005B
FE82
FF5A
00B8
0117
01C1
0107
013D
FF6E
0143
0196
FF7A
FFB9
FFF5
0164
FFE0
00C5
FFCC
FF76
0015
01D2
005A
FEA3
00C3
0195
009B
0177
00AF
009A
01C5
00C1
005D
000E
FFCA
FE33
011E
000A
0055
000E
0183
003F
0143
FE5D
FFA6
0061
01F5
FF93
FF66
FF47
FF07
0126
003D
FF26
FF75
01DC
FEEE
0036
00BE
0012
FE71
FEAE
FD6D
FEC4
FF03
0012
0057
FEAB
FFF2
0146
0081
FFB6
FF62
0171
FEE5
0094
FFA8
FF9E
00F9
00D1
FF82
013C
FF5D
FF13
FF6F
FEC6
FFC6
008E
FFF3
FF25
FE65
FFE6
FE1E
0006
005F
FEDD
00F0
FEF1
FE34
FF0E
0331
00F4
0057
0003
FFA4
0046
FF8A
FEB9
FEB8
FFAB
000D
FF4A
00A9
FE71
FFBA
0032
0160
FF06
FFE6
FFA5
0023
0089
0065
FECA
010A
FF49
FC62
0048
FF8B
000B
FDD2
01D1
0148
0038
FE9D
FF7A
00E0
002A
0075
0189
0004
0072
FFB0
00F3
00AC
FE4A
FFB3
FF91
0078
004F
FF2F
00DF
0031
FFC1
0108
007B
0022
FFEE
FDFF
FD0A
0281
0106
00F9
FFD9
FF6F
FF65
0178
FF46
FEC6
0056
FF89
FEC1
0098
01D3
00B5
FDB5
00DF
00D6
00B2
0016
FF65
FEE7
FEDA
0084
FE86
FF50
FFE2
01A3
FFFA
0059
0079
0088
0128
FFDF
FF96
00F0
01D2
FE8C
0143
0049
FE3C
FF77
FF9D
00A4
0016
FF57
004A
FF66
FF55
FF6D
002C
FFD9
FED2
FFB9
FF24
FFF4
0011
0052
FE5E
0000
FEC8
0046
0131
0133
FE47
FF71
FF4C
0133
FFAB
004C
001B
FE5E
FFCB
00E5
FD4A
000C
FEDA
FEC9
0085
00C8
FFD4
FF3D
002B
FEAE
008F
FFA1
003A
0104
0013
008C
019E
FF8A
FCE6
00D9
0034
FF31
00D4
0001
0033
FF50
FF55
FE59
00E6
01CE
FF8B
0169
FF4C
00B8
FEFD
FFB8
00AE
0199
FFDF
FFB5
0040
FFBE
01BA
0031
FFD5
FEFD
FEE3
FE48
00BE
FFDB
00A1
FEE1
FED5
019A
FEF9
FFE7
FF34
0137
008D
FF41
FF96
0105
FF82
005F
FFC2
0168
011C
0029
00BF
00CF
0219
FFCE
016D
0066
FFB5
FF8E
00F7
00DF
00A1
FF32
FEA9
0049
FEDB
FF45
0247
FFC9
02EE
FFD1
FF78
008C
013E
0172
FEE6
0102
FED0
FFA2
FE67
0107
FFD6
FD84
FF2F
FEF4
FFE7
FE8E
00D2
0238
00EC
0223
00CC
00FE
FFB0
0077
0173
0204
FFE6
FFE1
0106
02A6
00C8
FF95
FEF0
FF92
0005
016F
0097
002D
FFC3
FEC0
011E
FF03
010C
00B0
0115
FEE6
0036
0301
000E
00A1
008A
FFF4
0116
004C
FEED
0188
0272
FF88
FF68
0054
0089
0028
0063
00A3
0129
FF37
004A
0113
FFFD
019F
0164
00FE
00A0
0084
009B
FE7D
FFD0
005D
FEED
0080
FF55
0043
0238
01C4
0130
0032
FF7D
FF1F
FF74
02AE
0102
007E
00C2
0122
000C
FE88
0274
00E9
003F
FFA2
012A
FF9E
007F
0005
0154
0158
FE3C
FFD3
0023
FFE0
FEAF
0242
FED7
0009
0031
0111
FFFF
FE18
01F1
FEC0
FFCF
0092
FF6D
FF20
00E4
FF66
0014
FF19
FFA6
0008
FE71
0144
0194
FE86
FFA4
012E
FF18
00B6
0020
02EE
00A6
FE4A
FFCE
007B
FEE6
0038
01EE
0022
009E
01C7
0155
01AE
000E
FF52
FEC7
FE52
0173
012E
FF8E
FFAC
007A
FEBD
FF94
012A
0265
FF83
00D2
007F
FE41
00BD
0173
0109
002F
0088
019C
01A4
0238
FF25
005D
00A0
02C6
01C5
0015
0038
FF33
FFCC
FFD0
0060
00DB
0221
00B3
009A
0255
FFBC
FF23
0047
0123
0058
02A8
FFAE
002C
FE63
0150
018C
0078
003E
FFBB
0172
010B
0128
FF96
0322
0213
01D6
0056
FF67
01FC
0272
01C6
0140
015D
00F6
FF07
0088
0057
008F
01B4
00FB
0197
0073
00F7
FFBD
0134
0163
FFA6
FF73
006E
0077
FF3F
00F9
FF3E
00F5
FEEB
00E2
FEBC
FF29
0051
FE5A
0113
000A
003C
FEDE
0011
0151
FF71
00A6
FFA2
FF63
0056
FFEF
FF04
FFF8
00D0
0114
FFD3
01CE
0090
FFC9
0147
00A0
FE54
00E9
FF49
0056
FF2D
FFD3
0016
FF65
FF08
014B
FF52
00E4
002C
FF0F
FC7E
0054
0037
FEB5
FEC9
FF52
FF54
012B
FF35
015B
FE8C
0008
FDE0
FE3B
0021
FF96
0132
FED9
FED1
FF38
FEE4
0008
0171
013D
FF03
FFD3
FEE0
00B8
FEA5
FF3B
0157
FE9E
FEB3
FF24
FFE2
0133
FD82
00E0
FFE2
FF9F
0026
FE3C
FF4D
011A
FEAC
006B
008A
017F
002C
FD83
FFD2
FFE8
001D
FF68
FF87
FFE0
FF1E
FFE1
FFC0
0069
FF65
00BC
FE4D
000A
0232
FF53
FE4D
00E9
FE84
FFAF
FF42
FF05
FD8F
FFBC
FEC9
00DA
005B
FFC8
FF85
FFBC
FF62
001F
0076
00C9
FF7B
FF4A
002A
FF37
00A7
FFAA
FF3A
0278
0159
00D6
FF2A
006C
002D
00A9
FEEB
01CB
0161
01B3
FE03
0150
0024
FF7A
0053
FF1A
0128
FD9A
FEA6
009E
0068
0012
006E
FF82
00F9
FEAD
0078
FF82
FE1E
0062
019A
02A9
010B
006B
FFFD
FEAF
FEFA
FFCC
FF54
0020
FEFE
FE8D
00F0
FF07
FF3E
FF60
0089
00CF
FF1D
FF4F
0128
00F3
01F8
00E4
FFAC
FF75
00A7
0092
FEB1
0114
FE3F
0168
FF6E
0070
0137
FDBF
FE42
FF95
FDFC
FF61
003F
00A3
FE6C
FFF3
FEF4
005E
012A
FFC9
FEFF
FE18
FEB1
0137
FF48
FF59
001A
FFC8
0099
0091
FE10
FFE3
005E
FD3E
FF47
003F
00C2
FEE6
FF5A
00C4
FF3C
FEAF
FD89
FDDF
FE20
FF63
005C
FF74
001B
0163
0055
FF34
FF44
007B
0093
FF06
FE86
0004
FF1F
FEFA
FFF5
FF72
00CA
FE59
0175
0060
FF5E
FFC6
FFB3
FFA1
014E
FF8B
FEFE
FFB6
FF9A
0168
FEC1
FEBC
FF93
FF43
FFB3
FF96
FDDD
FF6A
FFD6
013A
FE58
FFA4
021F
FF36
00D6
0233
0133
FFC6
FFBA
FE89
FE25
FF1E
0022
00C0
009F
006B
01AD
0027
FE1E
FD67
FF7B
FEBA
007B
FF94
002E
0026
FF61
00BC
00B8
0129
FE1C
FFD2
FFC6
0127
FE6A
FDD9
FF45
0014
00A4
012E
FFE8
FFAE
FF08
0090
FE3F
FE10
0156
00DF
008A
FFE8
0135
0046
004C
FF2D
FE84
FF77
FDFB
FE7C
FF74
FEA9
001A
FE87
FFB9
018B
0057
FF93
FF1A
0116
FF31
0261
0124
00A9
FE93
FF6A
FF41
0107
FEC4
0176
FF68
FFF5
0005
00A9
FEB2
0013
FE1E
FE66
FF9D
FF2B
002D
FFC6
FF70
FFB0
FE65
0269
FE34
005C
FE68
00EC
009B
00BC
FE0E
0004
FFF1
00D6
FEF3
FF42
02A0
006B
FFE6
0002
00F3
00AB
FF13
00F7
FF77
012A
005E
FF76
FEDD
FF73
FF79
FFC2
011A
FFB9
FF26
FE6D
FE9F
FDE5
0033
015D
FFD1
FF5E
FEFF
00EC
FFD6
FF7F
FFDE
FED4
FFEE
FFC5
0184
FEC9
00F4
0081
015C
FEB2
0001
0029
FE5D
012C
0074
0137
0026
FE88
FFB3
00F5
FF76
006B
010A
FFC5
00DC
FD4C
FF18
FEAF
FED4
FEFD
0063
FF85
003F
FF40
002C
FFD6
0073
FFCB
FFD0
0055
FF41
0062
0078
00D5
015B
FFA1
FE1F
FD2B
FF4D
00EF
FF96
00ED
0042
FFE6
0065
0099
0009
01A9
FEF1
FFD7
0064
0064
0268
0015
FFEC
003E
0008
FF98
FF43
013D
0231
FF23
01A2
FFDC
FEBE
FEAE
0096
022A
FFEC
003F
01B4
FF21
FF39
FFB0
00DC
FF9A
FF89
0276
0123
007A
FFA4
FFC0
0082
0024
0202
022C
003B
FFF8
FFAE
00EC
0014
0016
004B
0017
FF93
0023
FF92
001A
FE88
FFDE
00F6
0016
FFFD
0019
FFB6
0060
004C
0020
016B
FF08
0191
FF5E
FE7D
01D4
004C
0047
00AA
FF84
FFC1
0062
FF10
0203
FEBC
00A8
022F
0129
FF01
001C
006F
FF61
02C8
01CE
FFB7
0122
0129
FEF1
00FC
0164
0118
00D1
0150
FF92
FEDD
0218
FF80
FFE4
0034
FDE4
007D
0181
006B
004A
0110
019E
014F
FEF2
0031
FFA8
00D1
0100
001C
004E
FFB9
FF08
FFDE
00ED
019B
001D
02A6
014D
FEFE
018E
009A
01B0
02C5
FFBF
008D
003F
016A
01B6
FFB9
002D
0016
028E
00C6
01FB
00E4
01B2
0031
00C9
002C
FF66
FEE8
029F
01F9
00C2
FF86
FEF4
0039
01ED
FEDF
00C2
04C4
0018
004D
FEBB
FFD3
0161
0095
FDFC
FFA9
FF9F
0128
007D
0082
00F6
FF34
FFA2
FF16
FE74
0126
01A8
FECE
004D
0024
FF45
0141
FF0A
FF5E
034E
FFA6
0121
FE5F
0078
FF5B
FF40
FEE4
009B
FF73
FF89
0039
FDE6
01B1
FEDE
FE9A
032C
0055
01F0
0203
005A
FFBA
0157
00D4
007A
FF5C
0003
FF8C
FFB5
FEE7
FF2E
014A
FFEF
00E1
FEFB
01C2
0097
0173
FF87
001F
002C
02C6
00A9
0318
00FE
0035
0113
00AA
016C
020F
0117
00DC
0108
0183
FFE3
0045
FFBB
FFAE
FF91
010C
0102
FFC4
01F9
008B
FF95
0124
0058
0147
0188
0119
0025
0077
005C
000C
FE83
008C
0018
0227
FF76
FFA7
01AC
00EC
0127
0120
02ED
FEAA
FF0F
0074
0252
FFBF
0167
002B
FE7F
0162
021C
FF23
0123
01AA
0116
FFE0
0036
FF00
0287
FE53
009B
010B
02B5
FF4A
FF95
003F
0224
006F
0216
0042
FFAB
0095
01BA
FF36
0252
0108
000D
010B
004F
0186
0094
01B7
FE9A
0243
00EE
00D3
0085
FF9C
0091
00D0
00EB
01C8
00E2
0046
FF20
0012
00F1
019B
FDDE
FF74
005C
0065
0053
01B7
0186
00DC
0023
0170
0180
FEEC
012E
02EF
FE9B
01F2
005B
FF27
0055
FE83
0229
FF59
023A
019E
01F1
0042
FEB0
0087
0174
0182
FF44
FFDE
0262
009D
011A
0006
FEE6
0008
0037
00F0
012F
FFB3
00DA
FFEB
FEBE
0042
00F9
00B3
00AB
00F3
FEC3
021B
01D9
00CB
00F2
002F
00EA
00C4
00A5
01BB
00C4
00FA
FF1D
0081
0228
FE1D
02C0
00F9
01D3
01C6
FF91
0162
02A2
005F
0167
0165
0029
FFF6
FFAC
003F
FF35
FF81
FF6F
01BD
018F
006D
FEBB
021E
01B7
FE8D
FF45
FF9A
000C
FF43
0037
FE48
01B8
0039
005C
0011
FEC5
FEE3
FEE1
FEB3
0049
0145
FFA5
FCCC
00A4
0008
0205
FEDE
00B0
FFA1
001D
012A
004D
FE87
FF55
002D
FFB3
FF1F
00E7
00D3
011F
FE5E
FFFE
FFD1
FED2
001C
003A
FECC
006A
FF95
FFC8
FFBE
01A0
00DB
002D
FF9E
FF6E
FCF6
FFA8
FEC8
FEB6
0003
01F9
014B
0024
FFA7
FE78
00E2
FFC4
FE8E
FEFC
FED3
FF31
006E
0166
00FA
01A6
01F0
0129
FF76
FFAF
01F0
00B8
FF56
FFCB
FFAD
FF78
FF7F
024F
FF32
0075
FFCD
FFD1
FFD3
FF87
011A
FF2A
FFB9
00A6
0087
01A3
0045
FE9F
0062
004F
00EE
01B7
0101
00A1
FFFA
01C8
00B5
0107
009D
0103
FF2E
FFB6
FF9A
0116
FF5B
0255
0389
00C9
03E3
00F9
0112
00D2
FF16
FF95
00A9
00C8
0496
02A1
0081
013E
0056
FFF2
FF14
0085
012E
FEED
005B
00BB
FF7A
FF57
FF95
0042
00AE
FE87
FF2E
003E
007F
009B
011A
005B
0092
0088
FF8F
FF94
FF16
FFB0
0025
FF40
FD06
015A
00B3
FF40
FE55
003E
FF94
FF76
0065
FF29
FF89
0182
00F8
FFAB
FF36
FEE8
FFDB
FFC2
009D
01D2
0088
FDCE
00F7
FF62
FD7A
FF28
FEDD
01BC
FF03
FE70
FE42
0103
FED8
002C
021E
FEED
FD7C
FEE4
0039
00B8
0003
FFF1
00E1
FF34
00DD
FE67
FEA9
FFEA
FFD0
0076
FF18
006C
FFDB
FF91
FEFE
008B
FE64
00D0
FFAE
0126
0077
FF4E
FFA1
0064
FF49
FF88
FF2F
0124
FFD2
01BB
005C
0098
00AC
00EE
0184
FE15
023D
FF5F
0240
FFF5
FF1B
026A
FF93
FEF2
FF9E
0038
00D0
FF2B
FFDA
FEC8
01F1
FFBA
FF01
00DF
00ED
004D
00B0
00CF
01B2
011F
FFBA
00A7
0070
0062
000A
FEFC
FE5F
FFF4
FF1C
00BD
016D
012A
FF75
0208
FFE2
FEC8
0058
FE5E
FFB4
003E
01EF
0011
001F
FE68
0006
00BD
00F5
FF88
0125
0122
016C
FEDA
FF92
FF21
0246
0050
0073
00EF
006D
FF28
FEEC
0076
004C
FEF4
00DD
007E
011B
FF70
FFAF
FEBE
FFFE
FF38
FECD
0037
FF4E
0156
0050
FFF8
FF3C
0060
FF37
FE73
014C
FFC6
00B3
0252
FF18
00A2
FFE7
00E6
FE68
FF93
FF35
01A8
FFDC
0135
001C
FF5B
0182
00DE
00D7
FF5A
FEEE
007F
00B1
008A
010F
FF88
01DF
FE9C
FFA1
0099
007E
0059
FFEE
0043
0064
FE99
00B7
004F
FFE8
0001
016E
FFB6
00C1
FFB3
FF65
FF1F
FD83
0140
00C6
0097
FEDA
FF74
0088
FED2
FEBA
FF55
0183
00A6
0014
00C8
0083
FEB6
01AE
012A
0099
02C7
FF79
FF3A
0097
FF31
0201
FF8A
FF89
FF76
FFAB
011E
FF0F
00B8
0032
FFCE
FFD8
FF68
0052
0047
FF48
FF98
FF57
FFA9
FF08
FFCF
FF12
0036
FF31
FE2D
00C2
FFF8
FF6C
012F
0141
FE73
FE4D
FF0E
FFA4
FF77
FEAF
005D
01F6
FF61
FE48
00A0
029B
0094
00F9
00C0
0132
00B9
FFB9
0209
FFA3
0113
005A
00D9
FF13
0351
FF29
0032
FE1D
FF2C
FE56
FF18
FEFA
01A1
FFC5
00FE
FF95
0044
01A9
FEC7
FFB5
00BB
FDC0
0239
0022
0054
FFAC
FF1D
0099
0024
FF71
0100
0319
FDD1
FF64
003E
FEE4
FF57
0135
001D
FF88
FE62
FF8A
01AC
FE3C
FE42
0085
00DF
FF13
FF9B
FFB3
FEC7
0039
FFD1
0122
FFDA
FED1
FFC8
FEEF
004B
00B7
FE70
0247
00F3
FE31
0247
FFC5
FFA8
FFE6
004C
FFCF
0003
FE65
003E
FD69
FF37
FE8F
0152
0057
FDC5
FE7B
0125
FFE2
FFB3
0081
00CB
FEED
FF12
FF2F
0067
00EA
0067
FFE9
FF9E
005B
011D
0003
01CD
0051
FFE1
FF72
0131
FFD8
FFCA
00FD
0179
01D1
FFD9
FF29
0192
FFFD
00F2
FF60
FFA1
FF58
006B
FF13
FF3B
FF32
FECD
FEA1
00B4
FF7C
0150
00AA
001C
FF7C
FFC5
0034
00C2
FF1B
FFAE
FFE6
008D
FE49
FEF5
FF99
FE73
0152
00CB
FF72
00DE
FFE1
00A0
FFD9
FF52
0071
FE98
004E
0017
FECD
00C7
0094
01FC
00C9
0129
FFDC
00F4
FF51
008D
0169
FFB4
FF2D
01C0
FF2A
0109
FF43
004E
FE1B
FEEB
FEC0
0230
FFFC
FFF9
FF0D
FFEB
FEFE
00CE
FF4F
FF02
00C1
0104
00AB
FEF7
FF64
00FF
0102
010F
FFD9
00EB
FF80
FFB6
FF60
FF79
FF42
FDF4
FE07
0214
FF98
FF86
FDE6
0114
FEE8
001B
0078
FE95
FE36
FEC0
00D1
FF96
FF8A
002B
005B
015D
0048
FF5B
0056
FF31
0188
FD65
0066
FF97
012D
FF85
FEB5
FFA7
0046
FEC4
000F
0185
0224
FF38
009F
000B
0020
FC93
001C
00CB
0003
0062
0186
0174
0110
FEC3
0073
00CC
FE92
FFC4
FFD0
0018
FED9
FEDE
FF98
000A
005A
00AF
FD8B
0182
FEC2
FECA
FFF6
FEBA
003B
00B1
FFD2
01AE
FEA4
0126
FDBF
0038
FCD0
FEB8
001B
009A
FFF2
0057
00C0
FF8D
0027
FECD
0030
0065
FF1C
FF66
0087
FF93
FFED
FE2F
0017
FFA2
FF63
008A
FFA4
FE4D
0033
0081
FF42
006F
0241
FFA8
00D6
0127
002D
FF32
FD7B
0103
012B
001C
001C
FF31
001B
FDF8
FF1A
FE2F
FE66
FF0B
003C
01DF
007C
FE4B
0005
0099
009A
FF6C
00CE
00A8
0101
00B7
FEF7
FFEF
0013
0060
01F1
FF73
018C
0019
FF21
0080
FE9C
FE71
0113
FFE5
FF6B
FFED
009A
005F
FFB6
FF57
00AC
00A8
0052
001E
003F
0119
0080
FF49
FF53
FFD8
FF2F
FF81
007E
00EC
FE04
00E7
FF22
0102
0157
FE18
00D1
0184
00C7
FFEB
FECF
FE9B
FEEE
FFB3
0018
0082
0060
0088
FFC3
0056
FEF3
FF9A
FF3D
FF54
0074
FF9C
01D6
FF36
FF2D
FFBD
FE70
0017
FF77
01AD
FFF9
FED2
0057
017D
FFCD
FF33
FF46
FE96
FF65
0077
0069
FD51
FE49
FFB8
00C6
FE92
FE56
FF6D
FEC1
00D0
0058
FE67
FE5C
006D
0022
018F
FF92
018A
FE82
FFCE
FF3D
FFDA
FF5B
FFF9
013C
0042
FFB4
00CB
FF5C
00EE
FF02
00AE
0069
FE50
FE07
FE18
0025
006D
0063
007E
002B
FFEA
FF48
00E6
FEA4
FEF8
002B
FFDB
FE7D
0133
00F1
FF0D
FF68
FE67
0068
00B2
0109
00D6
0080
0089
00B1
0085
FF82
FEF1
FF8E
FF3B
02EC
FF42
013E
FFE2
FFF1
0043
0033
009D
FDE0
FC67
0138
FDD9
028B
01DC
00AE
0318
FFDF
0108
FFD5
00CA
0090
0063
FFA5
FFC9
00F0
FE89
FE94
011D
FFD6
0006
00DA
FFC3
FF93
FF55
FF65
FEAA
FF52
0139
0129
FEF1
FF37
0076
FF53
011A
013C
0151
FFED
00BB
0087
00CB
0000
FE04
0212
FFC6
FFA2
0134
0008
01C3
027C
00C1
FFE1
0005
0019
FD36
01A7
FFFB
0252
FEEE
00D9
00AD
010E
0054
FFF5
FFCB
FEFA
000B
015A
0154
010F
009C
00B8
0041
FFEB
00E2
FFF4
FEDA
FFF5
FFEB
017A
00FD
005D
0248
FFEC
FFD2
00DB
FE6C
FFAA
0183
FFDA
002B
0209
006B
0171
0025
0337
009D
FF97
028E
00BB
009A
01ED
0149
0099
FFD7
FFFE
FE3D
004A
0000
FFB3
FF8A
0079
FF7F
FEF5
FF21
FF33
FFC7
0039
0088
FF3B
FF37
012E
017E
00A0
00E1
FFB7
FFF7
0054
FF76
FF0E
008B
FF4B
01F7
FEEA
FFD1
FEE3
FF9F
0035
FF9E
00D5
FEEA
FFCA
012D
0080
00C4
013B
FFDF
0012
01A6
000B
FF5A
008D
FF9D
00D0
FEFD
FF8E
FF6A
FFF3
FEB2
009F
FE91
FEC3
0089
000F
FF66
006D
00D0
002B
FFDA
0151
FF4E
00C6
FEB2
FFCE
0255
0104
00B3
0114
01CF
FE7E
001E
0122
006F
00D5
0014
0035
000B
0104
01C7
FF6C
0035
0354
00F6
0154
0154
FF07
00C9
FEDE
00DE
FF7C
FEF2
002C
01B8
001C
0018
FFBC
FFC2
FFCA
FEA3
0067
006A
01D8
FFA7
0196
008A
017A
0173
0136
FECE
0047
00DD
0025
FFFE
FF3B
0163
FFB2
FED9
01FA
00CD
FF39
FFD0
FF2B
0118
0179
00A3
01B0
FF7A
FF67
FFB5
0188
005F
FEF5
01FA
FFFC
FF4A
FFD3
01C0
014C
018D
01FC
0268
FE9C
FEE9
0086
0068
006B
01A1
000E
FD8F
00BD
0029
000B
01E8
0140
0038
009A
FF3C
0082
FFC0
00C0
0099
01F6
0147
008B
0211
FF83
FE0E
0114
01B8
FF4B
002D
00B1
FEE0
FF8D
FF4B
FF00
00D5
007A
FEF0
018E
FEA2
FE90
FFB5
0008
FFDD
00D3
FE12
0009
00E4
FFA2
FF28
0265
FEDE
0073
FF2E
0048
01CD
FF5B
FFC8
000F
00C6
025C
014A
00FA
003E
FF10
FF93
0054
0065
0038
FFE3
0123
FEDF
00D6
00C1
FFDE
00F7
FF5E
FF65
007E
FF49
000B
0072
0196
FDB0
FFBF
FE82
0127
0188
006D
0187
00DA
FF02
FE35
0113
FF06
0052
002D
01B9
FFE4
FF0F
01DA
0044
006B
0042
FF64
01D4
FF62
FE65
0025
0021
00E5
FF1C
0038
0125
00F4
FEF6
00BA
0064
FF53
FFF0
FDEE
FEBA
00A4
FFBE
00CE
00E8
007D
FFD4
FF91
FE96
0071
0057
FF85
FEF6
020A
02F6
FFA6
FF71
FFAD
FFD5
0033
007B
0140
0052
002E
0176
FE16
006C
0021
FFB0
FF85
FED3
FE2C
002D
0135
FE5C
FF48
FE70
FFA7
009F
006D
FE1D
003B
00E7
00F0
FF53
00A1
FE71
01B7
FE97
0013
FF41
FF33
FF6B
0167
0006
00DD
FF71
013A
FF12
FF46
FF72
FF23
0028
FF3E
0113
FE61
01BF
02F5
0006
0005
011B
FF03
001D
FE90
0122
FF8C
0036
FF3D
FF3F
0161
FF64
FFE0
FFA4
FFC7
00AE
001B
0003
FFA5
FFD9
FF0C
0159
0149
FFD3
0055
013A
0123
FFC6
004E
02BF
01CC
FEE9
FFD2
0039
FFEE
FFFC
FFA7
FFD8
0204
008D
0027
FE84
01CB
014B
0050
FEE3
00DF
FF9F
0005
00A9
FF4B
FEFA
01A4
FF4B
FF81
0064
0185
FFB6
0017
0034
FF16
0272
00FC
00D5
007D
FF49
FEDC
0234
FF1F
00D4
FF40
FD8A
0068
FD21
0068
FF49
FF77
004B
0166
00EC
0010
0188
002D
FF9F
013D
0080
0088
FF2A
00E0
017C
0058
0275
FDEC
FF8A
0068
FF2F
016E
0144
FD8B
00D6
00C6
FFF3
FF28
FFA2
FE90
012C
01D2
0000
FFB0
FF5A
0042
FF5A
0160
00EA
FEED
FFD9
0137
0177
0063
FF34
009C
0107
002A
015D
FF62
014C
00C8
004C
02C8
00C8
FEE8
00A0
0129
FEDB
011B
01CF
00D4
0033
FFCF
FEEB
00C5
01A7
0147
0056
007F
FF88
014B
FF51
0162
FF95
010D
0047
FED7
FF8B
FE50
00E0
00FA
0118
FFF4
00D5
00AD
0005
FE4F
00E5
FE62
FF81
0133
0058
0130
FF23
FFD2
FE82
011A
FFA6
FE46
00E1
012F
FF6C
FF7C
007A
FF84
00B8
FFF0
004E
FFA3
01C9
000C
FFD4
FE43
FF8B
FFA5
0001
FEAF
0054
FF99
FF5E
FFC5
0110
0117
0087
FF62
0132
028C
00D5
FFD6
FFCF
0082
FF9F
0000
000D
FFFB
FF55
00C2
FF57
FFC5
FF80
FF5A
FFF9
0159
004B
0070
0141
01B1
FF7F
FD78
00AD
001C
00C1
FF76
FF8C
00F8
FF5A
FFBA
FEDD
004A
FF65
0027
010C
0105
0009
0049
FE4F
001A
FF24
FF40
0002
FFD3
FF9E
FF4C
0026
FDD3
007A
FFD8
015C
0286
0017
0060
FFC7
FF9A
00C7
000D
0049
0075
0004
FE33
FF57
0232
FFE9
FFA6
0064
0110
0147
015C
FFC2
0032
004B
00EF
FF2E
FE24
017E
FEA9
FF68
FF0E
0163
FFC3
00FD
FF2D
FFF6
FF8B
0113
FF4E
0127
00B8
02F4
026B
0117
FE99
007F
014C
0070
00B0
0272
001D
FEF6
FF0D
00D8
018D
FDEE
0232
00AA
FF89
FE8C
0065
FF87
00D6
0096
FF0C
019F
01E5
008F
FFD7
00B1
FE9A
01A4
FFEB
FFFE
00B6
FF9B
FF6E
0188
0052
005A
009D
01CD
0006
FF8C
0101
0071
0142
FEB2
00F7
002C
012F
FEE1
027D
FF7A
FFC5
01F0
FEC5
00B3
0010
FFBE
01C7
FEE2
FF69
FE87
0009
FF7B
010C
FF03
0005
0095
00C3
0059
0117
FF5F
02AD
0155
00F1
FF8C
FFB3
FF79
010A
FF3E
002F
FF7B
01F4
FD98
0070
FF00
008C
0038
0156
0123
FF50
014D
021D
003D
0060
004D
FF39
000C
0007
00E1
00DF
005A
FFB3
FFF2
0070
017F
00DA
01F7
00C2
FF45
010E
FF72
0037
0011
FF02
00F6
0188
000D
013D
018A
FF3D
0034
018B
FF63
FEAD
00DA
003A
0020
0066
00D8
FE3C
0061
FFAA
00E7
FF3B
0037
FFD4
00EB
FF41
FEB6
0150
0076
00E4
0073
FFC6
002A
FF4F
FF5B
00CA
FE88
FFA5
0103
FDB3
FFAE
02A0
FD42
FF28
024A
FFF3
FEFC
0021
0061
FFD4
0110
FD38
FEED
FFB4
0051
FE0B
023E
007A
FEF0
016C
0153
0123
004C
00C7
0049
FFA8
FFE1
0091
FFE8
FFB8
FF50
FEEC
005E
FFDC
FF9D
010C
0175
0059
FE95
00B0
005E
0159
0140
FFEA
00FD
0257
014D
FFF0
FF7B
FFC8
FE47
0130
004B
021D
0075
0014
FF41
01A3
FFCC
FFFA
FFC2
FE98
02EB
01DD
FFD4
FF83
FFB5
FF2C
00FA
FFE1
00E3
01DA
FFCB
00B6
01A3
0082
FE8F
0045
FF76
0134
FF84
FFDC
FEF8
0034
00FA
0067
017F
026F
00FD
FF5C
FF70
FFFC
010C
0114
0006
010F
01BD
FF9D
FF8F
FEDF
00ED
FF0E
FFF0
01CC
FEB8
FFF9
FFE9
0041
FFB6
0002
0092
029D
FF8A
0010
FF30
FFCE
00C9
026D
007C
FF21
FE6F
FF6A
0085
00A7
0041
FFD6
0104
FFE3
FF91
010D
0060
FDD7
FE3E
FFA6
FDB0
0199
0104
001C
FF77
00B2
0032
0062
FFB1
FE8A
007F
028B
0190
FF14
003B
FE7D
00AC
0031
0092
FEAB
001C
0231
01BE
0065
FF37
FEB6
FFD8
018A
0050
FE47
0233
FF42
011F
0291
020F
FFCE
0045
00DF
FE8E
FF6A
00DE
01A6
0099
01E8
0145
FF9B
FE65
0148
0065
003A
008B
FFC0
01FA
FF27
00B8
0116
FF8A
0155
0185
00FF
FFCB
01D4
FF50
00B2
008F
FFE4
0157
FFBF
0034
00B2
012A
00AB
FF83
FFB0
018E
0073
FF09
008A
00D0
0019
FFCD
01B5
FF7B
0036
014C
001D
002F
00CC
031C
00DC
0168
FFC1
03AA
FF97
0143
0218
FFB1
FF3F
01B2
FF64
0038
011B
004D
000E
0169
027A
0163
0218
010C
008B
011B
FEB2
FEDF
FFBE
016B
FEC1
FF4C
0009
FF88
FF79
FF96
FF3F
014E
0082
FF5D
FE5B
0053
0065
00CE
FEB2
FF1F
FDC4
0068
0068
0142
FFF2
FFFD
006E
000E
FE18
FF28
0215
001F
00E1
FF17
00FB
FE8F
0072
0131
FE69
FDDB
01E3
FDE8
FF1A
0081
0117
0073
0219
FFF3
FDD4
FF00
FF04
FEEA
FF18
00C5
FFFC
FEB3
010C
FFC7
FEE2
FE24
FE67
FED1
FFF9
FE60
011B
0021
FEA9
0032
FF1D
008F
FFD0
006B
0150
026E
00CD
FF57
FF7F
FF71
FFCA
0157
FFCD
FE9C
009D
0180
FE90
0227
FFB0
FF67
01F0
0053
FE13
FFEF
00DF
0037
02B8
0045
FFF5
FF83
0367
00D4
0193
0135
0238
0197
FEFD
019F
FFB1
FFF1
FEA2
028C
FF6E
01F7
01FC
FFE6
019B
03F1
FDDD
010F
0036
0041
0048
013E
0021
01D9
0220
FF5F
0145
FDB9
FFAA
FF45
0220
FF95
FEC4
0003
018E
FEE5
000F
FFAD
FEBF
0200
00A1
0146
FEEF
0114
FF15
007E
FF4B
00E8
FFBB
008C
0274
0047
0041
FF99
00C8
005A
0089
00B3
0063
FFE6
FE94
001E
0031
FE1D
FF8F
0137
007A
01B3
FD76
FFCC
FFED
FEFB
0070
0016
FF3C
0034
0174
FF48
0123
0124
0147
003A
008C
FFF9
FFD2
FEF9
0206
FF4B
00F2
0028
0089
00A1
0084
000D
0140
FFFD
FE0D
000D
015A
FFA8
FF94
007D
FFB0
FF0D
00D8
01D7
0112
FF56
00BD
007A
FFD4
005D
00D5
FFCB
002E
FF2C
003B
FE4D
00F6
00F9
005D
FEED
00BC
FCFE
FFB3
FE93
0061
FF76
FEF2
FF94
0013
FFC1
FFBF
0086
FFB8
004E
FDA4
0231
0029
FF97
FF4D
0087
0278
FEF1
FEB3
01BE
FF34
01D9
015E
00CB
FF9E
0153
FE78
FF96
00F6
00D9
00AA
FF43
FFD5
0138
FF6A
00E4
FF8D
00B8
FE44
FFF8
FFEB
0004
FFC0
005C
00E9
0002
013F
FE5C
0082
006A
001A
FEBF
0100
FD8E
FF44
002B
0124
FF2A
FE5A
FF82
003A
002C
0198
009C
FFAD
0025
00A3
FF84
FE64
0044
0053
FF9F
FE26
FF91
015D
FF48
0165
FFC5
FFDD
0041
FFC2
0030
FF20
FF78
01F0
FE6D
FEA8
FFB8
033B
FEE7
FF74
FF41
00C1
0110
FFDD
00E1
0057
FE7F
FFA2
01AC
00C2
00F2
01B6
0010
FFA7
0018
01AC
FF24
FF96
015A
FEDE
FE73
FE45
01FF
0162
FEEA
00D1
0098
0048
FFF8
01D8
FE83
01B6
FF33
FF13
FF15
0179
018E
01A2
0022
0164
00A9
0026
FF6A
00D9
0230
FFF7
FFD4
0031
0031
FE5A
01A2
FF63
00BA
0253
003F
FE7E
FF8F
FEDB
FFB0
FECF
FF6D
0107
01B2
013A
FE5C
00D0
FE65
FD59
FE7F
FDAC
0025
FF95
FFB6
FF60
FF2F
001E
FEE6
0049
FEA4
FF70
0039
FF5E
FF63
FF61
FFB7
01C2
0037
00CE
FFD5
007F
FDD2
FE42
FF21
00DD
FF43
FF09
00BA
FEC9
00AC
FF61
FEB4
FFEB
0194
FDD3
FF2E
FDBF
00BA
FF46
FE61
FE8E
0079
01A3
022F
00CD
0081
FF20
018D
007B
FED2
001E
0065
004F
0000
0065
FF0C
00A7
FFB8
FEB2
FE56
FED9
FD86
FEF8
0003
FFBC
002A
FF3F
FF94
001A
00BC
FF8F
FEAF
0142
FF30
0021
00E0
0021
FFD9
FE7C
FEF8
0209
FEE4
FEF4
FF08
016E
FF61
FEBC
FF97
FFAF
FDA0
0055
FDD8
FF14
FFCA
FFBF
FF0A
0029
0019
FF02
FE12
011A
0000
FF14
0014
FDB4
FFD2
0113
FF61
FE8A
FEAB
0021
0077
0089
FF8C
FF97
0130
0051
FF6F
0033
002D
FE58
FEAB
0145
FD62
FEF9
FF9C
0111
014F
0095
FEB9
FFD9
0191
FEE7
FFDA
0051
FE75
004E
00A7
FFF5
FFC4
0040
0024
FD5D
0037
005A
00D1
FF09
0180
FECD
FE73
0128
FF7C
0071
FFB0
FFD2
001A
FD93
008C
0071
0119
01B0
FF76
FF23
FF71
0348
0121
FFBC
FFC3
00EE
FFEB
0057
0075
020F
013C
FED3
00C5
FFF6
FF15
00A3
FEF1
00C6
FFF0
008D
0078
00B7
00CD
003B
00A2
007A
00A6
FF5A
0139
FFE3
00E1
FFED
FF4D
0057
FFE7
004E
FE65
FFC6
0110
005F
00AB
FDF8
002A
FF5B
FEDB
FFD3
0089
FEE9
011D
FDFF
FE80
FF61
FF86
FE6F
00B1
FE91
FED0
FF42
004B
FF9F
FF2B
00A5
FFB0
0121
0096
FE00
004C
0049
FDFA
FE34
FE59
FF40
FE9C
FF55
FF19
FD95
FFFE
FE8B
002F
FF50
FFC1
FEA2
FEBA
FF62
001E
004D
001C
FF73
FFE1
FFB2
005B
FE10
FFC9
007E
0107
FD29
FF43
FDE9
FF68
003D
0118
007F
FFF9
FE5A
00A6
0039
00A9
FFDD
FF71
FF77
0076
FF3E
0090
015A
017E
FF6E
0141
FF52
FFDD
007C
0063
01B8
0142
FFF6
FE18
002E
FE6F
0131
00AA
00A0
00B7
0098
0096
FFEE
FF99
FF33
FDEC
0086
011C
0003
FF8A
018C
FF27
0028
FFC6
0066
0055
FF78
0008
00D7
0107
0179
FFEB
011A
0228
01AE
025A
0091
00B6
009A
0025
FE2E
01B5
FE8C
00A9
010C
004A
FED1
FFFC
0254
015D
FF26
00E5
00F9
0051
00FC
001F
0028
FFF6
002F
0032
FF7B
01BA
FF15
FFE2
00CF
FF37
020D
004A
FF5E
FFC5
0046
FDEE
FEE3
FF55
008A
01AD
FDC2
FF33
0181
FF33
FF8A
014D
FEB7
FFB0
004C
006D
0024
019E
FFEB
0020
FF59
FF4A
FFB8
0000
0113
FEA0
FFC7
00C8
FF13
FEF0
0088
0146
FFBD
FFC1
0128
01B1
FE54
FFD0
FF90
0097
012B
0174
FF2E
FFB6
FEA0
00A1
002F
00B9
FFD2
0047
FFBD
00E0
0068
00C7
0013
FF3C
0001
018A
FFF0
0025
0053
FF3B
FFEA
FFDB
0095
FE8F
FEEA
FF65
0275
0015
FFD6
00BB
0082
FFEA
FF14
FFEA
FECD
FE74
FE1D
FED3
012E
FE93
005C
FC55
015D
FFB5
004A
FF9B
FF50
FEC7
FF57
013A
0120
0023
FF79
00B6
FF67
00FF
0022
FFD7
FDE2
FDF3
00A4
004B
FF1B
FE73
014B
026A
FFDB
0124
01AC
FE03
00EE
FF4A
00EC
010C
0156
FEDA
FFCE
0127
0010
FF65
0099
FE80
0148
FEE9
00A6
003A
0189
002C
0213
0167
FEFF
0071
FEBF
00C7
FFCA
FFEB
01C2
005D
00DA
FDD6
0160
00D2
00B5
00B1
0084
FF40
00D8
FE64
0113
FF73
FF89
0015
FFA2
00A1
00A0
0062
00FC
002C
001C
FF5A
FF56
0019
010D
FEC5
FEAB
FFCC
0033
FFFE
008D
FEEA
0012
0049
001C
FF78
FE64
FEE9
FE48
FE6A
002B
FFE7
FF5F
0050
0077
0030
FF31
FEC2
01DF
00E0
FF99
FFD0
FF45
0165
0044
0051
FEFF
0102
FEFA
FE23
FF7C
FF06
FEE7
FE76
0074
0037
FEFD
0002
FF42
FE8D
FF31
FEDA
0064
FEAA
008E
FF30
00ED
FFF2
013F
FFFC
FEB2
0193
FE2D
FF50
FE41
0021
FF14
0074
0044
0027
FF8D
FFBE
FDD0
FFCB
FF6D
FE10
0053
FF65
0204
FFAA
FE61
FF12
FFC6
FE60
FF43
01CD
009A
0137
00BA
0012
FF21
0137
FF45
00E3
FFF9
0042
FDE8
FFFE
0064
FF40
FE90
FF62
FDD3
00C0
FE08
FF8B
FE33
FFEE
016F
00CC
FEC6
FF4E
FFF8
0198
FE9A
FFBB
011A
0023
FFF5
FF96
008D
FDB1
0105
FECC
001A
FFB8
FE8D
FE8E
FF25
0082
0116
FFB7
00D2
014C
FFF3
00EE
0186
012E
00FD
000D
0124
011F
0040
00B3
0128
02B2
0168
01DB
0000
FFD4
00D0
002B
0063
FF7D
FF11
00BD
FFED
FFAE
FE55
FF87
015A
FF50
016D
00FB
FF87
015B
FF78
FE74
019E
FFF3
01A4
01DC
0115
01B5
0025
00DB
01A5
0057
FF69
01CD
002B
FF2F
FF74
0086
0106
FE97
014E
FEF7
FF8D
01A4
FF24
00C0
FF13
0217
015A
FE2F
FF86
FDFA
FEAE
0030
FDC7
00E8
FF3C
FEA6
FFC4
FFA7
FFAA
FF92
001C
FE70
FFFE
0140
FFE9
002C
FE6F
00DF
FFE7
0027
FF60
000A
00C2
00A3
0043
0094
000D
FED9
FE47
FFA1
FDD2
FEB9
009E
0149
FDF6
FFA5
0014
FEA6
FFE6
00B3
FE61
00B9
FEF0
0042
FDBE
011F
0009
0047
0064
003E
FF76
FE8C
007C
FE2E
FF22
0160
FFB2
FF6E
FF36
013E
008C
015F
FF98
FFDB
00C9
014E
00CD
FF8C
01E5
FD8B
FF9F
0170
FFEA
FF20
FE69
0125
0058
00D8
FF38
FED1
0069
FFC0
FE43
0137
0088
00DC
FFA1
0113
0137
0189
FF4D
0017
0011
017B
0026
FE73
FE1E
0028
FEB0
FFBD
0031
003B
0093
006C
00F2
0022
FFA6
0005
FE39
018B
FF4C
FECF
FF2F
FECD
FF9F
00A6
002C
001B
010D
0034
000B
00D7
00EA
001A
FF40
FF5E
FFC7
FF09
FEF7
FE8E
0085
007D
0044
FDA0
FED7
FF96
FEC4
00CC
0034
002B
00DB
FF1D
00C1
00AA
0025
FFF6
FEB2
015C
00E5
0084
FE80
FF92
009A
00A9
FCBE
FFF1
FEED
FFFA
0005
0194
FE5F
0049
FF32
0016
001C
FF54
FF2D
0049
007F
00A2
00BD
FF5F
FFE1
FEA9
FE34
007A
0029
0073
00C8
00DF
0054
FF2D
FFD0
FE1B
FE82
0189
FEC4
0052
012A
0028
0058
FF6C
FF2B
FFF8
FF95
FEFF
01D8
FFF4
FF55
FE99
FF19
00A5
00B1
001D
FDF5
FFDB
013E
FEB7
017B
00E7
0124
0161
01E6
002F
0001
FE5B
FF4B
FE2D
00C7
00E7
02BF
013F
00C3
00AD
0085
FFFD
0108
01BD
FF54
FF79
FF38
004F
0165
FFA3
FFEB
0040
005C
FF12
0094
0077
FE2D
01A6
FFF7
FEF0
FFFC
0033
FF79
001A
FF6A
016D
FEA5
FE78
003B
01F9
FEFC
FE5C
FF0C
01C3
002E
0161
FEB2
FFAC
FF60
008A
021C
FF40
00D5
FF2F
FFC0
004F
FEE6
FFF4
00C4
FE0C
FFF5
FEEA
FE66
FF67
000B
0018
FF9F
FF3D
FEF9
011C
FDFE
FFAE
FF70
0012
FF73
0033
004F
006A
FFAE
FF36
FFFC
0119
FFF2
0077
01B4
FF20
0142
FF06
012B
00C5
FF6C
00CF
00F9
005F
000C
FFCE
FF7E
FFF7
FEEA
0104
FF80
FFE1
FF49
FDFB
FEF0
00EE
FF2C
FFCE
FE1D
0251
0093
FEFC
0097
FE1F
FF34
0213
FDFD
FEC2
FFD0
007B
FF3F
FF8F
0003
FE2A
0189
FF02
0049
023A
0123
00EE
013F
0185
0179
007B
FF8F
FEE2
FEB3
00B3
FF3B
FF72
0009
0001
0029
FFF1
00B1
FFCA
FFB0
0043
FF4C
0024
FF75
FFC4
00C1
002A
FFA0
00B4
FF94
0276
FFF8
FDFD
FFDA
FF3F
FF9F
FFCE
FF87
01AF
00AE
FFB4
FE96
0198
022E
FF81
FF03
FFFD
0265
FE83
FEF2
00B2
FD92
FEEB
FF60
FF57
FF9C
00EB
015F
FFDB
00BA
FEAA
004A
0092
008B
FF9F
00A3
FF84
FF4D
0199
0023
0057
0167
0027
0086
FF5C
00D4
FFB8
0055
010E
FF0F
0096
0027
FF83
FF2E
016C
01BA
FFF1
0093
FEA4
0137
02D4
FF96
0209
FFDC
FF44
FEF4
00F1
00AC
FECA
FF91
0062
FFE4
0060
0006
0013
FCA4
FFE1
FFDE
0031
FF24
005C
FE30
008A
0019
005D
0038
015E
0052
FE26
FF36
0029
FF73
FF97
FF4D
FEFC
0063
0015
FFEC
FE2F
FF6B
0094
FFD9
FFA6
007B
FEAC
FEC3
004D
000D
FF28
FF55
0085
00EB
0025
FF8D
FF30
0043
FFCC
014F
0145
FDF6
FEAC
0079
00C7
0070
0272
0036
014C
FF8D
00F5
FFD6
FE18
0005
0155
FFC2
0052
00AF
018B
FEBC
0016
0157
FFFC
FF34
0237
FF2B
01A2
008B
FFF0
0070
02A6
FF29
0065
FF24
001F
FEA3
FDC4
FEC4
FF16
01B0
FFF7
007F
0078
FFB9
FF83
01F7
FF7E
FEC6
00D9
01EA
FECC
009A
FE15
0026
0089
0191
0057
FF63
00F8
FF9F
FE93
001E
FF9A
FE31
005B
001D
024C
FFCB
FFBA
FF67
00E9
FFBE
FF39
FFD9
0207
008F
FEFD
FE22
FEB1
004A
00BB
004F
0131
FECD
FF6A
FFBC
00FE
0118
00CC
00AA
0188
00A0
FF50
FFE5
FFA5
FF9B
007E
001B
FECC
0086
009C
0071
006B
FF93
FEAD
FFBC
FFDC
0027
016C
0071
0096
FE66
FFB2
0054
0040
000B
FFBB
FF05
FF5D
0150
0057
0019
FF69
0100
0036
00B0
FECA
FEF8
010B
FFA9
0040
00C1
FF23
01BA
FEB5
0067
FDD5
FFEF
FF5E
0032
FEF2
FF39
FDCA
003C
00E1
0080
0003
00A4
0091
002B
004A
FD9F
0061
FFFB
FEA3
0089
FF87
FFB9
009D
FF97
0009
FF54
FEF4
0075
FF48
FE10
FF20
00C1
0025
FFF0
01B6
00F4
01C4
FE3A
FFBF
00BC
0088
FF9D
FF76
FEFD
0080
007F
FF77
00F5
FF44
0066
FE61
007A
0106
0019
0211
FDBC
FDE6
FEDD
0146
FEF3
00FA
0164
0205
0013
FFC1
FEA9
00D4
FEA4
006D
0081
FF91
0047
0052
FE8B
0045
FFF0
FF05
FFF2
FDB9
010F
FFF7
FF94
FE98
FEFC
FEDC
FF83
FFC7
FFA1
FF9B
012D
0115
00EB
0243
0159
00BE
012F
00F7
0072
0103
0071
FE81
FFAF
FF16
006A
FE4D
FEA6
FF24
FD77
FFAC
0182
0022
FDB2
011C
FF7B
014A
0094
00C2
0009
FF87
FF1D
FEB4
00BF
018A
FEE2
01FC
FFAD
FFE1
007F
FDF0
FFB8
00FE
FF32
FF09
FF0B
FFB6
FFBA
000B
FDD6
0077
0084
0054
FF7D
00A5
FF1D
0175
FEDA
0024
FEB7
FF55
00FC
0006
FFFB
0179
0004
FF65
0027
0145
FEC5
FE4D
FFC7
FFD6
00B5
FFEC
FFEB
FF51
FE53
FF68
FFDF
FE88
01D8
0027
FF37
0018
02B7
FD13
FCD4
00E1
FDBC
FF36
0183
FEEC
000E
0118
FF01
FFB5
0050
FF36
FFCE
FF3C
FEDE
00E5
FFAD
FDE7
011F
0130
0106
FFD7
FF47
00AD
FF5D
FEDE
FE64
FFF3
0079
FE7C
0172
0018
FDEE
FE90
0146
FEAA
FF6A
FE32
FECE
FF7D
FFF4
0008
FECB
FEF4
FF6D
01BE
FEC4
0139
FEEA
020A
FFEB
0069
FE91
02A5
001B
FE6C
FEE6
0026
003C
00A6
FF71
000B
0053
FF97
FFA7
002D
00D0
FEFF
01EC
0086
FF17
006D
FDDA
0005
0143
00B4
0050
005C
FF60
FFE5
002D
00F6
FDA8
FFF8
0127
FF93
FE41
0082
FD12
FFF2
FF6C
FF36
FE70
FF28
0052
00E9
FD9D
FEC6
01F1
FFCD
FF67
FE47
0097
FEF6
FE86
0070
FFB3
FE29
FF59
0131
FF47
FEF6
FE5D
FF08
0016
014E
0017
FEE3
FF47
FFC8
0008
FFCF
FFBA
FE0F
0026
FDF2
FEB2
FDF8
00F6
0101
FE04
FE21
00E5
FF83
FF4C
0010
FD7F
FF40
007E
FEE5
FEE2
0048
FEE6
0155
0044
FDE6
00A5
FF78
FECD
FE9F
FFE9
0192
FFC3
FF79
004B
0009
0164
005D
FF20
FD40
007F
FF7C
0084
FF6C
030F
FFA5
FF7E
01A8
001D
FF32
00FB
013F
0180
FFB0
0023
FE90
FF05
02C5
0118
00B5
FFD4
FF83
FFFB
FF47
FF47
FFE9
0070
FF94
FF35
FEDA
0011
FEAC
FF31
FFB0
FFD5
00CE
FF0A
FECA
FEC6
FE94
0189
024A
FFD1
0033
0044
FFDF
00B3
0028
FF8B
00C1
005F
0203
FFC6
FF00
FD93
00E7
0054
008D
009B
0006
FEBC
FF31
FDB9
0064
FE59
FDFA
014E
FDC6
0101
FDB8
0066
FFA4
0042
FEF0
FE7A
FF0E
009C
FE3E
0091
0042
FF5A
FF5F
FEBE
FF37
FEF1
FF20
016E
FF3D
FEC6
00BE
00DF
FFA8
FDA5
FEA6
0105
FE28
FFB2
007C
00E9
FF13
0043
FFAC
FDA7
00B2
FB77
FE4A
00AB
0016
FD13
013D
FF73
002C
FF86
FE09
FE16
FF61
FFA0
FF23
005D
00A4
FF42
FFFD
FF34
0006
FEBE
006D
00B1
FFF0
00CF
FFE3
0084
FE62
FE36
FFE0
FF5C
0149
0031
0016
0021
FF44
FFED
0044
00A4
00CA
FF34
FF5A
FFF1
FFB9
000D
0018
0195
012C
FEE1
0014
FFD8
0068
025A
FFEF
01EB
0175
FFCA
0051
FEA6
02D7
FFFC
FFB5
008F
0090
011C
FF6D
001B
0029
007E
0085
0097
FF68
00C0
0069
FEF1
0001
004E
01BF
0161
0097
0077
FFAC
FF96
00BA
0059
00A3
0024
00F5
00D4
015A
FFA3
0074
FF29
0172
FEA4
027C
00CC
00D7
018A
0098
0026
009D
019C
FE18
FF9A
FEEB
00A2
FDEF
00BC
FECB
026F
0032
FFE7
02BC
0070
003B
011D
FFB5
00CB
012E
FFCA
002F
FF0B
0126
FF5B
003A
0025
01AF
02DA
FEB9
FFDC
00A0
0005
00D7
006C
FED0
FE63
0171
0119
01D2
FFEF
FE9D
0081
FF60
00CE
00A3
0075
FE92
FFDA
0217
FF53
0152
FE23
FF10
01BB
FE41
FF6F
010C
0099
FFD0
FF3C
FE6E
00C6
00E2
00D6
FF2A
FFDE
00CF
FFF2
00E1
FFD3
FFEC
007E
FF6C
FFB0
FDFE
0149
FF65
00BE
0087
FF43
FF27
015B
FF98
01ED
00DD
002F
00E4
0017
0166
FD8F
01C5
0073
FF5D
0070
FF78
FF62
0039
0019
01B2
002D
FEBA
019E
FFAD
0080
00F3
01CB
0022
FE53
FFA7
01F0
00D3
0057
FF71
0141
0077
FFC7
0080
FE7C
0065
00DF
00AE
FF80
FF71
024C
0145
015F
FFD4
0039
00AE
FF1E
0242
0040
FF3C
FEBC
FEE1
00FF
FF58
FF15
FFD1
FF0E
FF71
00B5
00C7
01D1
FE1E
0207
01EC
00B6
FF0A
FE2E
FFC3
FF46
FFBA
005B
023B
00EB
FF3B
FE9C
01E1
FF9D
00BD
FFA6
0151
0250
FF9E
FFBD
FF2C
015E
0166
0287
0131
00E0
FF6F
001F
0231
FF32
FFC5
0139
01CB
004B
00F2
0038
FEC8
FEC8
0047
0164
0008
FF6E
0077
004D
0183
0064
FE55
0111
FD50
FE51
FFE6
FFFA
FF95
01E1
00A2
009B
FF09
0170
004A
FF3B
FF3B
FF97
0042
002A
FFB8
02DF
02F0
020C
00E2
FE27
FF3C
010A
FF9C
01D9
FF70
00F8
0192
008A
008F
014A
FFD6
02C2
FF68
FFDB
00B3
0195
004B
00B9
012F
003C
001C
FFAA
FF85
FF9D
016B
FF85
FFE7
FFC7
FF23
0084
FF10
01AB
005F
0062
0012
FFCB
0034
FFEE
0183
00A6
FFCA
01C4
0022
00D1
FFE5
FFC0
00CC
FF76
FE56
FF1E
016A
FFBB
FF87
003C
00E0
0101
010E
FFA6
010D
01BB
FFED
00C2
010D
0244
0139
FFD7
FEBD
0143
00E6
FFEA
0015
00D2
012A
01A7
FFEC
002C
FFC9
01FE
0002
0013
FEAC
00B2
FF80
FF90
00E7
FFAE
FFE3
0042
FE58
FF87
0107
009E
FF9B
005A
0093
FF47
FED9
00CB
FF54
0121
0004
00BA
00AF
FFD8
0072
FCEF
FF4D
017F
FEA0
FF3A
0005
0078
01D7
FFC1
00C9
00EE
0008
0097
0084
FF97
FF97
019D
0101
01DC
0016
FF3D
FF7C
00E5
00B8
FDB9
FF6F
0030
FE54
FF2B
0053
FF33
FFB2
0022
0130
00A6
FEE3
FFA2
013E
017E
01C2
000D
0052
FF93
01DF
FF50
0119
0051
FFC4
FDBA
FF99
01E0
FFEF
FEE4
FFA0
FF71
00BC
0030
0169
00E4
FEDB
FFC7
00DA
020B
FFDA
FFCF
FFF6
0031
0082
006F
0088
FF8B
FF28
FF86
0274
0265
FF7A
014A
FEE6
00E5
012E
00C4
02BE
011A
FD38
FE3F
00C3
FF12
0117
FFAB
FFFB
00E2
0024
FFFF
0193
0056
FED2
0113
00E0
0146
0098
03A5
0098
01E9
0002
001C
FF62
FF29
0071
FE45
0048
FF21
005F
FFBA
FED2
FFA7
0067
013D
FE82
00A2
FE9A
FF89
FF3D
0041
0130
FF39
FEDF
005E
FDEF
FF77
FE9C
0067
FF03
017E
FF81
FFA0
FF5A
00DB
FE4E
FF35
00BA
FFA0
FF99
FE07
013A
FF4C
0146
0009
FF5E
FEC5
FFF6
015E
FEB4
00B9
FE9B
0096
00B8
FF66
FFAA
FDBA
011F
0060
FF63
0076
FED1
FDEF
FFC2
FF4F
FF40
FE1E
010A
FF50
005C
018F
FFBC
0088
0064
005E
FFA8
FF58
009B
FFBA
FEEC
FC93
004A
FEF1
FED0
FD75
FE6A
FFD5
FEE3
FE5A
0023
FEB2
FFBE
00D8
FF14
FEE6
FF3D
FF5A
FD98
FF0C
0007
008B
0121
FFB3
FD69
FF19
FF3C
FF77
FF00
0086
FFB2
FFB8
FFEB
FE02
003A
01C9
FF2E
FEE6
FE8E
FF3C
0010
FE96
FF1F
0028
0036
FF2B
012C
003B
FF40
00B0
0073
FD44
00A7
00D0
0090
FF88
FDF1
0105
0030
FF7F
00E2
017A
0138
0034
004C
0184
0014
FF35
FEF3
004E
007B
FEA9
0097
00C4
015D
0198
FF16
FEA3
FFC7
FF45
FFA1
FEB8
01F3
FF3E
FF54
01ED
036C
FFBC
00B7
FE64
FFDD
FF7D
0378
FF00
0125
0002
FE80
0001
00A2
FFC1
0046
016B
0044
0069
FDB5
00CA
00AF
FF8C
FFEC
FF59
001E
0105
FF13
0087
FF64
00DF
FD27
00E5
005C
018E
FF1A
FFB2
00B7
FF6A
FFCE
FF37
FDE6
0012
000A
0009
FED6
FF12
FF72
FFD1
00C4
0028
FEC5
FF2B
FD58
FE38
FF08
00AB
003C
FEB9
0035
FF8A
FECF
004C
015F
0035
00A9
006E
0017
FED7
0007
FDBE
FF0E
FE6D
0016
FF08
003C
00D7
002C
FFD6
00E4
FECF
FED1
011C
FE11
0015
FF4B
FFB8
000D
FDD7
FF9A
FFAA
FFCA
FF7E
0019
000A
FF25
FD6E
00B9
FFB7
001A
000A
0090
0075
0095
0103
0073
00D3
00D7
FEBB
003F
FFF0
FFBE
0100
FE5F
0055
FF7E
FFA0
0090
00BF
FF50
FFCC
FFEF
0014
FE52
00C3
0015
00CB
020D
0118
FFEB
FE8F
009B
02C4
001D
FF60
FF79
0060
FFDB
0030
0085
FFB4
0017
FFA5
004B
0371
FE9D
FF87
FF1E
0134
FE70
00D5
FFB2
FE3A
0025
FF16
0062
003D
FD66
0039
015F
008C
002D
0004
01E4
023E
FF31
0037
0149
014A
FF37
FEAD
FFDD
009C
01B2
01DB
FFF6
0022
FF27
0095
0051
00CA
020C
FF9A
FF17
FF23
FEEB
FFF3
002A
FFEB
004E
0073
01EF
00D4
FF3D
0058
FEB6
FE85
00A5
FEA9
00FA
00D7
0010
FFB4
FF31
FFD4
00D9
FFCB
FF0B
0133
003D
00BB
014F
004D
FF8B
FFE3
0020
FFC6
01FF
0024
0097
FF42
0062
FED3
00EE
FE8C
0002
FCFF
0050
FFC0
0061
00C5
FF1D
FF48
FFEA
FFC5
FEC9
FF49
00BC
FD0B
001C
FF0A
FF26
FFA4
0108
FEC4
000F
FEE0
0104
01E0
FE1D
FF37
00A6
01D1
017E
FEFF
0041
FF4D
00E5
0081
014E
FFDD
0005
FFEA
013E
005A
00AE
FE79
FF96
FE94
FDD2
0031
001A
012A
0047
016C
FF71
FF45
FFA6
0000
004D
013E
FFCF
FF8A
FEB0
00D4
005F
00D5
027F
FF92
FED4
0080
00A4
00F2
FFF3
FFF2
0175
0117
FFC6
FF33
00F9
FEAE
01EF
00E4
00BE
0014
FF73
029B
FF72
0004
00B2
00BD
010B
002C
FEE4
0067
FDA0
0068
FFDD
0014
00C8
026C
FF94
0052
FE3B
0021
0149
FFA0
02CF
FEDC
FF4B
FFE1
001E
FDB8
FFB3
0091
0076
018A
00E8
0119
FE10
FFB8
013C
FFF2
FE25
0055
00C8
FF7B
FF12
00D3
