0135
FDE4
0049
FE48
FEE6
00B5
FC33
FF59
003F
0068
FF02
00DE
0086
FFD5
FF7E
0124
FF5C
00AD
FEC8
FF36
00C2
FFF9
017E
0197
FCEC
FF30
00E8
0120
FEEC
FFBB
00FE
014D
FFDB
0063
FE7C
FFA6
FFA5
FFB2
FF6A
FD72
FD86
FDB7
FD6C
021C
FD92
FF18
FF72
026F
FF8D
010C
FDCB
FEAF
0018
FB82
001F
017D
0198
0100
FDB4
FE79
FFCB
FFBC
FD7F
FF14
0136
030F
FE71
01FF
014E
FEEF
FDE6
FFE2
0114
FF6A
006E
0066
FF8D
FE71
FF40
FE46
00EC
FEFD
0150
FFEC
FE79
0111
FE5B
FEB4
015A
0199
FE76
0132
006F
FF58
0106
FEF3
FFDD
FF1E
FE89
FE05
FDFC
FEAF
00AF
01AF
FEC5
FE6C
FF46
0075
FC1A
FCFD
FC33
FD04
FD98
00C0
FE4E
FF90
FCB6
FE5A
FD87
00B6
000F
FE20
FCC1
0007
FED1
FFDF
007A
00A1
FF89
0064
FD5E
FE27
FFEC
FDB9
FF49
FCEA
FF48
0024
00EB
FEE7
FE19
FFEE
FFA3
FFB6
FF5E
FD37
FF71
FE46
FCFA
FC06
FE12
0225
FE90
FEFE
FF78
01DF
00C0
FF70
FE73
FED2
00E4
015A
004D
FE82
0094
0109
000B
000C
FFB6
0155
FF48
004F
0123
00D4
0149
FF21
FED1
0098
0061
FE84
FE8E
FF68
0051
FDA1
FFD2
0013
0106
FFC1
FE00
FEE5
FE83
002C
0152
01B7
FD6F
FE55
010E
FF6F
FD9E
FDE9
0107
000D
0275
FF45
FF11
0199
00E9
00E1
FE3E
01AA
01D4
FF94
0127
FF99
FE63
0051
FCC8
FF01
0129
FEB7
000E
003F
0157
00EF
FF29
FF15
FC3F
FE54
013D
FD37
FEC9
FF7F
013D
FF1D
FF79
FFC9
016C
FD32
00AE
FD0B
FCB6
FD4F
FFA2
FF21
FCFA
FFEF
FB85
0029
FFE4
FB63
FFC6
0032
FF60
00B9
FFFC
007D
000C
FF8B
FEF6
011D
0096
FEEC
0155
01F1
00E1
01AD
FF2F
0103
011C
003F
FEF5
00B5
007F
FDF5
FE70
FF4C
01A8
00D6
0087
00AA
00CB
0004
02AC
FF9E
FD3E
FFBA
00F5
FCC5
FF50
000C
011E
FFC4
00AB
0126
00DB
FF6E
FF9B
FF04
FF72
016C
02BE
0067
003C
024D
FE7A
FFD9
010B
0152
010C
00CB
0057
02CB
FE69
FF5E
FEBF
00BC
FF8C
021C
00D0
02CD
0028
0215
FF0F
FFC5
0016
FFF6
014E
FD60
019F
FEAE
FFD7
FEBB
FF5A
FFDA
FE90
0056
026D
00BA
02B4
0382
00B9
FF98
014E
01B0
FE72
00F5
FE6F
FF13
0153
FF1F
00BE
FFA2
0309
FE66
006A
FE64
015F
017A
0192
0197
014A
0025
FD83
FE13
00A3
01E4
0204
FFBB
04D2
0023
00B7
FFED
01B3
FDE3
031A
0045
FC65
0049
0415
01AA
01DD
015D
005A
01E7
FD04
FF7D
FE75
006D
001E
001C
FFEC
FF01
0097
00B6
FF8E
0071
003D
FF38
0170
00A8
0074
FE71
0029
00E8
00AF
FFA9
008D
0266
0239
00AA
FF8C
FFBC
FFAB
01D8
0240
00A0
00E8
00C8
FC06
FD77
FF13
FF89
0045
FD2C
01D4
FDD5
019C
FF4F
00A1
00AD
FF74
FD85
FEC0
FDC3
FFB7
03AE
FF6C
FF78
FE1E
FF0C
005B
FD23
FEFC
0056
0230
FDF0
FEFE
0121
FFD7
00B7
FDD6
005E
FD86
00B8
FE7A
FF22
0065
FE32
00A1
FFE0
FF31
0092
FE0F
0031
FF22
0134
FF6B
FF8C
0032
0069
00A3
0159
FFCA
FD60
FE72
FEDB
FFC7
FF07
FE91
014F
FDB1
FE2A
FED0
01C6
FF83
002E
00ED
FC4B
FF70
FD1F
FE83
0314
FE45
FF17
FDFB
FEDE
FEB7
0009
FE8F
FF84
FC48
FF1E
0088
FFD9
FF26
FEB3
FD80
00BA
FEA8
FD14
FDEA
0010
0119
0135
FE5C
0034
FEAC
FE8F
021A
0049
01A7
0001
01AE
0214
01EE
FF24
00FB
0039
02DA
0122
0189
FFDE
FDE3
FFBD
0075
FF06
013C
01A4
006C
0001
FE6C
FF8A
0142
012E
FDDD
FF16
0252
FF22
008B
004B
002D
FEF5
01B2
FF8E
FFC1
02D1
00E0
0140
001B
0086
013D
011D
FF4E
00CE
0100
FFE3
0102
FEBC
0091
FFD0
FFF9
001C
0112
FEDF
0066
0100
FE60
01E4
01CF
FE9F
013D
FEA2
FE58
017B
FEF1
FF49
FCC6
FFBB
03D3
FFF8
0052
01EA
FEB2
FCE2
FEFB
00A0
00D4
0130
012E
00D8
001B
FE00
FCD6
FFF3
FDEF
FE08
00C7
00D5
FF96
FEA4
FFDD
FEE5
FDE4
0034
0319
03A1
FF1A
FF92
00A8
02FA
037D
01D5
031B
023A
00FA
01BE
003A
0255
0212
0155
FE92
0067
FF8B
00D2
025E
00D4
FF5E
02BA
00B1
026E
0046
FFC1
0214
00E5
FF6A
FF7F
00CF
00B2
01ED
FEB7
01F2
01D5
00C4
0096
FDC3
003C
FDB2
02DC
02D6
FFE7
0100
01AD
0026
FFF6
FF95
01DB
006E
0117
FF98
020B
FECE
FF4A
FD54
FB93
0025
FFB1
01E4
FE27
000A
FFE0
FE52
037B
0092
01DA
004C
029C
021A
FF4B
01BB
FFAF
00CC
FEE1
FE59
0124
FEDF
0214
009E
0054
010A
FF1B
FE30
FD50
0158
001C
FF6F
FE10
FCC3
FF6D
FFB3
FED3
FE2B
FFCB
00D7
0073
0109
003F
FF58
FF2B
FE7E
0111
029E
FEDB
0253
00FC
00CE
FD7A
0101
0056
FFC1
0044
FF19
FE7F
0101
004E
FF60
FF22
00BF
FF28
00CC
00F5
011F
0146
01F7
FFC5
FFAE
0049
00D2
024D
027E
004D
0066
001F
00AD
0286
0219
004F
0078
FF7D
FEF7
022B
00DF
0135
01A1
FF9F
02CF
FC9A
FF98
0219
0148
0260
FFA6
0265
031A
0261
023D
00AA
0011
0204
0282
0145
0161
FE6D
00C7
012E
0183
00CE
010F
024B
0023
FDF6
00F0
005E
005B
FFBF
FEF7
0116
015E
FF4B
0059
00B5
0266
0150
020E
00E5
002E
FF2D
FF52
015A
FF0A
FF94
0165
01FA
03B0
FFE1
017C
020D
0023
007C
01FD
009F
003D
FF10
FEFC
00F7
FE5C
FFD4
FC7E
FFC0
FEEB
0323
026A
FF17
005D
FEED
01D7
003E
01B0
0190
00C4
FFB3
0163
FF4A
FE48
0241
FEBA
FEC4
FE4C
0016
FF46
0027
FF75
01A2
0170
FEF6
01A3
FFB8
FF1B
FF56
01C4
FFBF
01D5
0047
026C
FFC2
000E
00D2
0160
02DC
FD3D
0260
02A1
FF96
007B
FE5A
02AD
002E
0256
0012
01BE
FFF5
0006
0057
00F4
040C
0173
FF52
FFA2
0241
FF4F
019B
FF0F
FF71
022B
FE7C
03A8
010F
01D8
010B
FFB1
FF24
0047
0194
FF32
0197
FFDE
0252
0088
00EA
FFBD
0046
00EF
FFC2
0332
FFA7
FF3F
FECB
0250
FF70
FECB
0048
0103
FFEF
01FC
01B6
01B1
FE4A
FD83
0114
006D
FF46
FF15
007E
FE1B
FF70
012D
001B
0047
025F
FEDA
FFDB
00FE
0012
009C
0126
03BD
FCC3
FFD7
0009
0003
022A
FF06
001E
FF1C
01D2
01A4
002A
0214
000A
FF78
FE26
FDA5
005A
0447
028D
013C
FF4D
017C
0067
FF57
025F
FF71
FE31
0171
FE94
FB4D
00FC
FF2F
00A0
016B
0134
FF96
FF88
FFF7
0122
01A7
003E
FD88
FFAE
00E8
0148
FD1A
01C1
01EC
0096
FF48
FF45
0152
02B4
0282
FF2A
00F6
FF6F
01B8
00A0
FEF3
020F
039E
0054
01D1
001E
FF5A
02B7
0015
00F5
FE99
0156
0027
FEF8
0359
00A7
0230
FF6D
00C0
FF52
FFD0
FF85
FF87
007F
01B0
FDBC
FDEF
00E6
00AA
0059
01AD
0065
0046
019A
0018
FFF7
014B
013F
02F7
008D
0160
FEBC
01C4
0073
FC5F
00D7
01F0
00F5
0021
00CD
008C
00C0
FF58
FFCC
FEA7
FE9C
FE68
00F2
00C8
FF43
0093
0067
0086
FF5E
01BA
FEF4
FFFE
010C
FF71
0323
FF0B
0083
0261
00B5
FF02
000B
FD9D
FE64
0048
0012
0052
0060
0006
01C1
01A6
FE02
FFA6
FC46
0037
FF8D
009F
FF62
FD67
0085
FDA2
FF78
0483
FEA5
FEE1
FDFA
FED8
FF36
FE85
FEE6
0127
0245
FE00
FF51
0066
0288
00D1
0067
0051
FE39
0011
0074
00F1
032C
00EB
0103
02D0
01CD
022C
FDF7
FEEE
FFF9
020E
FECF
0139
031D
028F
FE90
025B
017B
02D5
FFAF
FF37
FFF6
009E
006C
FF26
0092
0107
FF3C
03A7
FFFC
0006
FFDD
0256
FFE3
FF70
003C
FFC2
0017
0164
FE8C
FDE2
FFD6
0028
FE5F
FE32
00EE
00ED
FFA7
FFBC
007C
FD26
FF20
FDF0
FFA8
FEEF
00FC
FF48
FF3F
0094
FD94
00A1
006E
0047
FED7
FEB0
FBFC
FF9A
FDF3
FF57
FCEB
FDE0
FDE8
FDCD
FE3C
00DC
FFAF
0077
0021
FF02
FFA0
009A
0258
0213
001A
0053
FD7B
FFA8
FCFC
FFC8
016A
FE22
016A
00C4
FEFE
FFD5
FE84
FE90
FF48
0035
FF06
0149
FE46
FFCE
FEC7
0048
FEB6
0101
00ED
FE90
FFFA
014C
0158
FDF1
FE4A
02C2
0189
FE72
021D
FC64
00C6
FE84
FF2A
FF79
012C
FE38
0145
FFB2
02A9
FED7
FF92
FF5C
FF94
01AC
0053
FCF4
FE54
007E
0070
FFA6
FEBC
FC6A
000A
FEEF
00AC
FF02
01A6
0086
0102
FD35
FEDA
FFE5
FFBA
FD75
0167
FDDF
FD0F
00E2
FF66
FDF6
0066
FF61
FFB0
017C
01EE
FE64
FE6C
FDF9
006E
FFF5
0010
FDD0
FEC6
FFE0
0119
FF11
0071
FCA6
FF01
01E0
003F
0093
FF9D
FE40
FF14
FF41
FEEB
FD22
FF82
0237
FF93
FF68
FC28
FD70
007F
FF89
00A5
FFDB
FFA3
FEB8
FFAF
007D
FFFE
007D
FEF7
FF44
FFED
FE0C
FE91
FDB0
FF2B
FBCD
0163
FD1A
FFEC
015E
FE29
FF2E
FEEA
FE91
01B6
FE0B
005A
0054
FE51
00D1
FF86
00A5
0141
01FA
FEF4
0075
FE06
0080
FF22
039E
FF87
FFB1
0011
FF6C
FF02
FD49
FE44
01B0
0010
01AC
018A
FD78
FFFD
FFF9
00C1
0255
FED7
FE57
FEB6
FE66
FF57
FCBA
011E
0032
FE3B
FE66
FF45
FF23
FF1C
FEAB
FC32
FEB6
00D7
FE4A
FF88
FDDC
FF9C
FF56
01F6
FC52
0301
FE95
006B
005A
00A2
0000
FD16
FFEA
FFA0
FE1E
01E9
00CD
01DA
FFD9
00FE
004A
00F7
00A9
007C
FE58
00D3
FEE3
0113
FF47
FEFF
FF6D
00CC
FFA1
FEA0
0134
01D3
0057
0093
FE3E
FEEF
0024
FF99
FE0E
FF3A
0072
FECC
0098
FF69
FB57
FFC5
FFB4
021A
FEBE
FFBF
FDE6
01B3
0233
FE07
FF6F
0046
FFA1
FE4D
012D
027C
0028
00C1
FF2B
021F
0237
FF00
FD3C
FEDA
FC6C
FECB
001F
FE0C
008B
0049
FFE0
FFB7
FE94
FE16
FF3E
FFB0
FF82
0070
FEB5
0125
0043
0212
012A
FF9C
00D1
FF20
010D
0373
FFAE
FF54
FEF5
FE7E
FFBF
02CC
0049
FE6D
015B
FCF3
0111
0075
FE8E
FDE8
0248
FF2D
004E
FF36
0044
FF55
FD4E
0056
FF66
01B7
FE90
0193
FF3C
FF5C
FC6E
FFD6
01C2
FCC6
FE7F
001C
FD92
038C
FE19
FDF6
FF98
002C
016F
FFB2
FDCD
FE18
FE2F
FDBC
FFFB
0087
FF08
013C
005C
009C
FE1A
FF39
FCB6
003B
032F
0033
FFE3
0288
FF35
FFFB
00C3
0109
0071
FE4A
0094
0023
FDA5
00E1
00BD
013D
01A9
0011
FF6C
0071
00A4
FFD7
00A1
0053
0168
0017
00AA
0071
FF41
FF66
FFA2
006D
0418
FFC9
FFB1
FFED
FE37
0353
FFC0
FED0
FE8D
FF83
FDC2
0201
022A
0080
FF35
00B0
016A
004A
00EB
01E7
015F
015A
FF99
FD85
0105
011A
FED1
FE29
001F
FF23
FEB2
FFC6
FF8A
0074
00DE
0184
FE7B
FF0F
00D7
0005
FF14
FF2F
0130
01F5
0147
0244
0260
01D0
FF7E
FF2E
0203
00C3
00AD
FF78
FFE3
00C2
FEAE
FC77
01C2
0178
FEEE
0508
01E8
0159
FFF2
FF7F
00BF
FF69
02E7
FFB9
01C7
00BA
0158
018C
0005
011F
FFBF
02DD
0112
FFCA
FFEB
FEAA
01E1
009C
00B9
0230
FFE6
001B
046B
029B
025C
0266
FDC3
FEF4
0094
0002
00C6
00BD
FE63
003A
011A
FF28
FFEC
FF4D
FF4D
FE92
0086
019C
0037
0077
FF56
FF64
FFCF
0018
026E
0089
FFFC
0200
FEC6
01FD
FFAC
FE0C
FE12
FFBC
011A
009B
025F
FE44
001B
FF68
FFF9
0095
FF44
FEAE
FD60
0032
FEB9
001F
02CC
0125
0054
FD8C
FE74
FF67
FF6E
FFE2
FC12
FE0B
FEE4
FE4A
0001
00CE
FDD2
000E
0065
01FA
FF4A
FEC4
FC10
FEA8
FEAA
FF3F
00CC
FFFF
FFF6
0093
FEA1
FE52
00AB
FE9C
FF0E
0305
001E
FFAA
FF55
FF96
FD7A
0005
0283
006B
0237
0067
FE47
0073
0071
01D1
FCF7
0138
012D
0138
0087
FD69
FFFD
FF37
FF2E
FF7F
FED1
0106
FD2C
FE58
FE19
FE54
FE6E
FFE1
FB25
FEEF
004E
FFEF
00ED
FEB4
FD94
FB1A
FF69
00BD
FDF6
FFA2
004B
FDEE
FF48
FFB9
FE6A
FF20
FCFA
013D
015A
FD47
0012
FE8D
FCDC
01EF
FCC5
FF84
FEF4
FF1A
FF69
FF63
FC91
FF0D
0033
01A9
FEBE
0086
FEBE
0196
FED2
FFB6
FEC1
FD75
FE6E
FF55
FCD2
000E
FDF9
011F
FFCF
FFF4
FB70
0228
0014
FFC1
FF07
FF2A
01ED
FD4B
FBB2
FF82
010B
FF6C
019A
00A8
000C
FFD9
FEA5
00E4
010E
FE3E
FD69
FFA9
FEEA
FFD0
FFE9
FE79
00DF
002A
FEAD
FFA6
FEA7
FFD6
00BD
0093
FFB5
0223
012B
0189
FE34
0050
005E
FFF1
FE53
FFBD
FCF4
008D
01AF
012D
FE4A
0077
FF5F
01C9
FEC3
FF4E
FFED
FF80
0024
02B8
FD89
FF02
FE98
002B
FF25
FD82
FFAE
FD83
FE4E
FE2A
FFCC
FF7B
FF86
FC67
FC78
FDF5
FDF6
024A
00E4
FC89
FF35
FFDD
FEF6
01AA
0036
FCA1
FF47
00C1
FF92
0224
FE9D
003E
009A
017E
FF9B
0115
FCA2
FF8C
005A
FFA6
006A
FFF4
FD38
007C
0293
FF7C
00ED
0156
01BB
006F
FDF3
FF36
0182
FDEE
0124
FD2C
002C
FF45
FFDF
0147
005E
00FD
01D2
FFA2
FF89
00E9
FE87
020B
FE63
011F
0095
0057
01B0
0398
0132
FF15
008F
00FB
016C
0029
01DC
FFAD
FFCB
FD6E
FDF8
FEEB
0020
02BA
FEF7
0071
002D
FFB0
01B9
FE67
0057
00EB
FED7
FE53
02BA
FF5A
010A
FF29
FF87
FFBB
01A3
FDBF
FF2C
FDCA
017F
026F
018E
01AE
00FD
FE37
0076
0072
FEB8
00AF
FFA0
00D6
00F8
FEB8
00A6
FDC6
0011
FE96
0188
0018
007D
0203
0145
0254
FEB6
FDFE
0125
0082
00D1
00BA
00F8
FEB9
00E5
00A7
FFDA
00E0
00A1
FD9E
00F7
FE68
FDFE
0062
0153
0180
FC97
0331
0061
0087
03DE
FF23
0195
011B
014E
01ED
FF21
00DA
FDFD
02F1
00CD
00DD
0037
01C5
0206
FCA3
004D
0096
0094
FE67
00E1
FEA8
03CA
00BC
00B6
008B
FEEC
00C4
FDD8
000E
007D
0009
FEE0
FF83
FF3D
FF6A
0167
FFE0
0146
FFEC
FDBD
01B0
FE49
FFEC
0232
FF5D
0234
0173
FD63
0088
FF06
03B5
00A0
FDFC
0230
FF7D
026C
0108
0108
005B
00DD
FDAF
0099
FE78
002F
FEFC
033D
01BF
FE48
FFBB
011F
FF1F
FFCA
019F
0013
013B
FDDF
FEC1
019F
FD83
FE4E
0015
0052
0045
02FF
02E4
01A0
0079
FF76
0128
0030
0173
0229
FF35
FF2C
FD0E
0035
FFB4
02D7
006C
017D
032E
01A1
000C
0086
00D1
0186
0172
FFA6
0166
0105
01D2
00F0
02C7
00BF
0134
0306
009C
0135
0083
00F3
FF01
FED1
03C4
0176
02F1
00D5
FE4D
FF6A
01B2
0149
FFA6
00F5
FF53
FF8C
019D
FD4B
FF3B
FF36
FFEB
FF19
FF18
0174
009B
FFF9
FFD7
00EB
FF1C
0011
00DA
01C2
FE30
FEF0
00A5
0153
FEA4
0092
0105
00D5
002E
0138
0046
00D5
00AF
FF64
FE9B
026E
009A
00B0
0046
0111
0151
0118
FFBA
FFC9
FE3A
FF1F
FCF7
FDED
0043
FF3F
0042
FEB5
FFC9
0104
FD68
FFFF
00AE
FD0D
0069
FF90
0275
FE3C
FDF5
00BC
FF28
02EE
FD61
00A6
0238
01B8
003A
FFD1
0005
015D
FFFA
019E
00A8
FCED
0034
01E2
FFCF
FF52
03D9
FED3
FE6E
FE27
008C
023C
0296
FFAD
002C
FE61
010F
FE0F
FD90
FECF
0051
0221
0002
FD1D
FF82
00A3
02B1
008C
FE5E
0004
FFD6
FC96
0239
FF52
FD1F
0078
0032
FF04
0087
00C9
FDFA
FEDC
005D
FF15
FF4E
FE37
FDC5
FDDC
FF48
FFDC
004D
01AE
FF64
01D2
007E
FFA6
FE3C
FF9B
00B0
FF70
FE99
FCBE
FE45
FD81
004B
FFAC
0033
01B5
01FC
0371
FD7E
0129
FE11
00B7
FF91
FF81
02DF
FE0C
00F7
005B
FDF6
FE78
0004
004F
02EC
FF1D
FFE8
00B9
00CC
01C5
FFA7
FEF5
FE81
FF93
0176
FEE2
0256
FE53
014A
01D8
00E6
0047
FF33
FFB1
02D4
FDE6
01B5
008B
02C6
FF21
FF3F
FFE8
0170
0079
013D
0195
01DA
009F
FD5E
019B
FFA1
0034
01A2
0008
00FA
FEE1
FF08
FE53
006C
FFB9
FE3C
018E
FFE0
0074
FEB5
002A
FE7D
FEEC
FDFB
0005
FFA7
00EF
FD27
0014
FE52
FFBB
FFB6
014F
FFEE
028A
0249
FF63
007F
FFB7
022F
FEDB
017D
024E
FEF2
022B
001C
021E
023B
0206
0054
02F9
01EE
0133
019C
03EB
007B
0255
FEF3
00D1
FE0A
010C
FFFC
02E6
FDF3
00A3
0176
0036
FF8A
03AA
017F
00B5
0060
FFA0
0089
FFE9
0248
001B
FD94
FF13
0210
00D6
001E
0151
FF55
0146
003D
00FB
0239
FFFD
0019
FFDD
FFBA
FF4D
FF4A
FE99
FC7E
FFFB
FFC7
03D2
0211
0064
FF6F
0136
FDE0
0208
01C1
FDAB
FFDE
FEE3
0052
FF63
0051
021E
FD80
03E6
0292
FEAA
0133
0051
FFB5
025D
FFC3
007B
008E
FFD8
01F2
FFE6
FEFF
014C
00B1
FF23
0022
01B6
FE8A
FEC8
FC77
FF31
FFBB
FFA2
FE74
FD1C
FF57
FFD2
FFEF
FFEF
007C
FE24
0350
0005
FF30
0050
00CE
02D7
00CB
FF87
FE7A
FE62
FF91
FEBC
0220
0015
015F
00C3
0232
01CE
0187
FF2D
FFAC
0296
01F5
FFCD
FF89
003D
005C
02D0
FF9C
FD5F
FE80
0250
019C
0202
004E
FFE5
FFCA
01B4
0138
FF2A
FFE4
02B4
FF9C
01D2
01A9
0094
FE1C
FF54
002B
FF85
FF25
0104
FEFA
0193
0506
FCF6
0092
01E4
FF6E
0107
FD8E
FF05
0016
FF98
FF8C
FD46
FEDF
FD78
FF50
021F
FEB4
FDBB
0157
FF1C
FE5D
FE9D
FE63
FF57
0017
FF6E
FFC5
FDC4
FF36
FF98
002A
0180
0017
FF34
00BC
FF8A
FF56
0160
FE9A
FE38
FE44
00A7
FFE8
FED4
FEB4
0085
FDE6
0080
00D0
FFF8
FDF6
00ED
01E1
FFAC
0164
00FE
0061
FFD8
FE3D
FDEE
01D5
0058
01BC
FEDF
FFD7
FF5F
FDE1
016A
026A
FECE
01C7
FDFF
00C5
01BC
FEF4
025E
FD3A
FFB8
FF2E
0112
FDD2
0054
009E
FF3E
FF63
00B5
FD88
0104
0176
FE03
00FA
FF58
FD0D
FFB1
FE7C
FFEA
FD4C
027B
0066
025B
FEDF
00F8
0031
FCC6
FEFF
FDA9
0113
FCE2
FED1
FC86
0170
FEFD
FFDA
FF6A
FE28
00DB
00D9
FCCE
FFA0
001D
FF9E
FE1A
FD51
FEDC
0141
0043
0013
010F
FFF5
FFB5
FE3A
00E0
FF0E
0334
00BF
FEDE
0022
FFCE
FF96
FE9D
FF3E
FCED
00F0
FF33
0196
006B
FE7A
01A8
038E
0331
FE1B
FD98
021E
FEBD
FE67
01BA
03B2
00A2
0007
FF72
FDB4
FE16
FE33
FDBD
FDF6
FE56
0092
FEA0
FC9A
FE8D
FF1B
FF54
FF5C
FD4E
014D
FF4C
FE7A
0169
FBBD
FED1
FFC4
0108
0299
FF85
FF35
010C
FFC0
FFA1
FD21
005E
00B6
FEC2
FF93
FFF8
FF8C
002B
FF53
FF5A
0185
01ED
FFCF
FF0E
FF88
027A
FFC4
FE83
FF66
FFC4
FFB3
027C
00EF
0000
014A
00B0
00F3
0020
0017
0097
FDA4
FDF9
0111
FDE9
FF60
00CE
FCB3
007E
FFC8
FF1C
FDFE
FDEF
FFB4
FCA2
00E3
FF38
0063
00EF
FF0E
FC68
FF0D
FD3B
FF4F
FF61
FE64
FFC9
0035
FF92
00FC
FEAD
FF8B
0012
0117
0142
FDED
FE90
FFAC
FFF1
017D
001E
006E
0170
0133
FFEA
0049
026F
FFDE
FE98
00F9
0201
FEB8
0114
00D0
02B3
0087
032F
01FD
0032
028B
005C
FDDC
023A
0102
0090
030A
FEBF
01A7
00E7
00DE
0019
021B
0029
FFAE
02C1
021D
FFBC
0261
FF49
00EC
FF91
00E0
01CA
FF8B
002A
0141
0025
0027
FE06
FEA8
01B5
FFE4
FFA5
FDB6
FEBB
00C5
FF4A
017D
0020
FE86
015C
0017
0159
0333
008F
007A
FF3D
0215
00AF
011E
FE2F
013A
0068
FFCE
01DD
FEF7
FE7B
FF7B
FFAC
00E5
FEBC
0089
009C
FCF7
FFF0
01E6
004C
0154
0244
008B
FF1F
FF08
FE61
0166
0068
0156
FE61
00E1
0142
FC61
0251
0335
00F2
02C0
04BE
0234
0026
02FB
0016
FE69
00E2
FFBC
017C
006F
FE6D
0124
047C
FF7E
018B
FE90
FC68
0281
019C
0045
FF98
FE89
FDE1
FEAB
FDA6
0191
00BE
01D6
012F
003D
FF80
FE87
FF9C
FFAA
FEBB
FF45
FF06
02C4
02BF
01E4
0061
003C
0222
FE45
FED7
0085
FEAE
0047
FEF6
FEFA
0165
0051
FFFC
FE6F
FEA7
0053
04C6
FEF0
00A3
0172
FDB4
02D4
0095
FED5
FF6A
0138
FED0
FF21
00CF
FFC3
000C
007F
0236
00A4
FEBC
0116
FFBF
0261
FED4
FF21
01A0
FEEE
0071
01D3
FE4A
FF3B
00EA
FE35
0069
004E
00FF
FE8C
0044
FED9
FF94
0226
FF96
017C
FE83
FF6B
FF3D
FFE9
FE2C
00A9
0029
00D0
008D
FF41
0193
FEEC
FFC2
FF82
FF85
FE3B
FF0A
000C
FF3E
0012
FD3C
FE36
FDE8
FF4F
0270
00C6
FFE2
FF6F
FDB3
FF00
FDF1
FC34
FFD4
0065
FF77
FE62
FEE5
0196
FF3A
FEBB
0059
FD6B
01C3
02DD
0087
FF23
FDF0
FE34
017E
FF99
000E
FF36
0059
000F
01D3
01E6
008A
00F6
00B5
01AC
0081
02C7
0049
0191
FFC8
FFCE
FF60
FF35
00B4
FFD9
01C0
FE1B
FFEC
FEF2
01B9
02E7
020D
FF21
0264
FF4C
FEC3
024A
FF50
039D
FEA0
0106
000A
FF13
FF7C
FF2A
FFE3
00E7
005C
0101
028F
FF4D
00E2
00B8
0096
009E
02FD
0046
01D4
00BD
007C
FD6A
01AF
FF79
FECD
00A7
00F3
FDF3
0169
FEF8
FE29
0126
00DE
0313
FF23
0025
00A4
014F
0023
FC64
FF0E
FF58
0096
0273
009A
00BB
0014
FF0D
FEDF
0234
0071
FE9D
006C
0163
02FA
FECB
0252
0111
FFE9
01DF
FE6D
FF41
00D9
0149
014E
021B
0246
0088
003A
FF81
0378
01AE
01DE
0189
FF37
045A
00C2
01B3
0131
0040
FF8B
FF23
FED8
0231
04B9
001A
0385
0001
01EA
026F
FFBF
FF96
0089
009B
0131
FF8E
FDB5
FDD3
FFC5
004E
0114
FFC9
FE6C
FEED
0072
00D4
FFF4
00FA
FCD3
FF36
FEEB
FD82
FFBA
016B
FE89
FF8E
0031
032E
008E
FE49
FFD2
FD1F
FDCC
009B
006D
017B
01EB
FEDD
FF95
007E
FEA1
FD5C
FF47
FF54
FFE0
FCA7
FEA6
FCC7
FFAA
0243
FFFD
FD97
FFD9
02DE
00A3
FFF3
0038
FEA6
FE52
0131
016E
FD9E
009A
FEBD
FFCE
FEBB
FF18
016A
FE73
0105
004A
0047
00EB
0037
FDFA
FEE0
00E0
007A
0032
00EE
01F0
FF7B
FFD5
FF70
0097
FDFB
FFDE
FFD7
00C7
FDE3
00DB
FDC5
008A
FE7D
007F
FF02
FF23
FF7F
FEEE
FB97
03F9
FF3C
00CF
FF84
FEAD
FC98
FE25
005F
FE27
017C
FD62
01CA
FB89
FEE2
FEB3
FEB0
FF96
FE16
00C7
00F1
FFEB
FF5A
FD1E
FE89
FCBA
FEE7
FF8F
00BA
02A5
FDCD
FE94
0181
FE66
01DB
FECE
007C
01B8
010C
014D
0098
01C2
012F
00DE
0136
FD89
FF35
0060
FF9C
00E5
01A9
FDEC
FF57
025E
00D8
018D
FF9D
FFBC
FFD8
FE5B
0389
00FD
FEDE
00A4
FEF1
0194
03A8
02EE
FFED
000B
FFBC
022D
FED5
0238
0200
002D
0166
0249
003D
002B
FEFA
0123
0133
02AB
FD3E
013B
FEF4
01E6
0245
0113
00AD
01B5
00D8
01B4
FFDB
FFCE
FFED
00DC
00CF
0236
FFEB
FF65
FE43
FECE
0251
0132
FE8A
00A9
0122
014A
FE93
0042
00DC
00A6
FEEB
FE85
01B9
0189
FF5F
FDA9
FEFA
0076
FF6F
00C7
FCBC
FF30
00A7
00B6
0144
01FF
003F
FF75
01E9
013C
FDF9
02F3
FE47
00A3
FFBC
0014
0373
0129
FF75
005D
FFF5
0138
006B
0106
0307
FFA8
FEDB
012E
014E
02E8
FD18
01AE
FE62
0000
00AA
00FA
0258
FEB9
FF5F
FFB1
FFEC
FE83
FF35
FE10
FD2F
FDC6
FD42
FFC5
016C
FE8F
03C8
0116
FF9A
FD8A
00F2
FFFA
FE5B
FE27
FE78
003C
00A1
FE58
0150
FEA2
00F5
FD45
009F
FDC0
0051
0186
0184
FEB6
0043
FEE7
FF41
017C
0207
0087
FEA4
FFC1
FEFB
FEBA
FFB8
FFCE
019C
005A
00DD
FED3
0141
009C
FF24
FECF
FEF5
0063
0070
008C
FE07
01A0
0227
FF55
013B
FD9B
0112
0296
FC08
FFB4
FFB5
FEB1
FD59
0066
00B5
012A
FEB5
FFAA
0033
01BB
FE1C
018B
0216
FEFC
0083
0036
FDD8
FFE5
0012
FED8
0226
FF79
01BA
FF6E
FCBB
FE69
FF77
FFD0
0084
FE4C
00DE
FFBE
0045
FFD6
FF9F
FEF8
FD6C
FF76
FF19
FD88
0049
FEE5
FF7C
FC8C
0173
FE73
FE72
FFA4
FF6C
016B
FF95
FEA7
FE54
0315
FC44
0110
FFFD
022E
FEDE
FDFA
FF20
FFFD
FF1B
01A1
FEF2
01B9
FC08
00D9
032B
FEFE
01E3
025C
00D2
FF0C
FD74
01FF
0271
FF4B
FF60
012F
000F
FEED
FF02
038D
FFB0
FF87
012C
004D
FF84
018C
FDA2
01C0
01AA
FEF4
FFA6
0087
022E
007B
02EA
0164
FFD5
FEB2
01E1
FF6B
FF4E
00EA
01B3
0290
0228
FE6F
FEDD
FFAF
FFD6
005C
01EA
015D
0134
FC98
0099
FFE1
FEE8
00E3
FEB0
FE88
FF56
00E2
FFAA
032A
0225
FE99
0032
FF48
FF11
0104
0145
0203
FFBE
0027
FF45
FCE2
00D9
0022
FC48
FFE9
FEA6
00F9
00A4
00CD
FD18
FF53
00D0
FF13
FFA0
013E
FECA
00D6
FEA3
FEC5
FEA1
FF21
01CD
FF25
002D
00F1
01FB
FDCB
0041
FF6A
0135
FEC6
FFC8
0020
FE96
FD29
013A
FFBD
0133
0077
FF5A
0046
FE57
00AA
0190
FF87
016A
00D3
FE95
00C2
0079
0150
0053
014E
0029
FFAB
FF0B
FF45
00DC
FE0F
FEDD
01EE
00AD
0147
FEBC
008C
0233
FF28
FF70
FF47
FE5F
FE08
00D4
FFC2
032B
008F
00F1
012D
0191
02A2
00B8
FE34
01D1
FEA1
02F3
FDAA
0040
FE39
000F
FDBC
FDC9
FC87
FF5A
01A4
FFA8
FEDC
00C8
009E
FEE1
FDAD
FE9C
FE5A
001C
005B
0244
FEDF
FFBA
FFF5
0220
007C
0048
FE35
0207
0014
FF33
FF5F
0007
FE83
FE1B
FE41
FFE9
0089
008C
FFE7
FFE1
0069
FE32
0171
FE3C
FF02
00FB
FEE8
024C
FEC9
FFBB
005D
FF33
02D1
003A
FF24
FFB2
FEF8
FBC1
006B
0279
FF4B
008B
0031
0122
01C8
FEBD
0180
0048
FEA3
017D
019F
FFC3
FF31
FEBE
FFC4
FE5B
0019
FE6E
0160
0266
01FF
FF5C
0028
FECA
0189
00B6
FFC6
024C
007E
0345
0085
0063
0168
FFF7
FED6
FEBB
016B
01E4
00B2
FF57
0004
0162
01CF
01A3
0139
00DE
006E
FF7C
0327
010C
FE61
0461
0032
FFCD
FF34
FF89
FF45
FE20
FF88
FF57
FDFA
FDEA
FECD
041F
FEE8
FF84
0183
FF55
FE84
FF29
FDDF
0136
01A1
020A
FF7A
0057
FCFB
FFC5
FF83
006C
0252
FF03
002A
FE68
FEA2
FD99
01DA
FD2D
FF44
FBAC
00D6
00C3
01F2
FFE0
00C2
001F
009E
0118
00F2
FF6F
01E8
FF3B
FF43
0049
FF6E
FF6E
00F5
035E
0265
FDFF
FF18
FE25
0006
000B
FF8A
00D8
FFE7
0255
FF63
0147
0020
FF18
FF5E
003E
FF5F
FF94
0139
0269
FF10
00E7
FF7B
00F6
0284
0312
00FF
011A
FFF1
01FD
FF00
0290
FEE3
003B
00F2
FF28
029D
00FF
FF82
002A
FEB9
00E4
02C6
026B
00D5
005A
0050
0269
FF0F
016D
0010
0054
FFA5
0141
017F
00A7
FDF2
013D
FE8D
022B
0083
0092
FDCC
01D5
FE85
01AE
FF82
FDBB
FE67
FF4E
FE1B
0089
FF39
FF84
0193
0115
FEC9
FF6A
008B
FEA3
0255
FEF4
FF35
00BF
004D
FD9C
FE63
015C
FEAF
FFAD
FE3B
FE4C
0160
0063
FE96
0272
FEF1
FEAA
FDF5
FEDE
FEEA
0314
FF2F
FEDB
FE83
00A5
01B3
0250
0015
0108
0114
01F1
0121
036D
FE7D
FEDD
FE29
FEA0
00AE
0137
FE78
FF65
010C
FDEB
FF24
00D6
01BC
FFFD
0011
FF73
FDBE
FF4B
FDA0
00FB
FF14
0053
004C
0053
FFAF
018A
0086
FF51
FDED
FF44
00A0
0213
FECB
FF03
FF11
FEEC
FDC1
FFB0
FE1C
FF70
0078
0268
0184
FDC3
FF53
FE91
FD99
005B
014F
0252
FC1C
FF61
013C
00C9
FEC6
0013
FD93
005D
FC77
FE15
002D
FFAB
