0079
011A
007C
01A2
FFAF
FF37
FE4C
00F7
008D
FEB4
FE92
00B6
FF3E
00D5
FEC2
FEC6
FFE5
FF73
FF11
FE3F
FED9
FFE6
019B
FFB3
0179
0183
FF7E
FF37
FFA2
FF7D
FE5E
FF7B
0017
0032
003E
FEB5
FE6B
FF3A
002A
FF42
FF0B
FED2
0036
0037
0003
FFCB
007B
FC65
FCEC
01F6
FF00
FE2D
00B5
FE9C
FE99
FFBC
01BF
FFBB
FF7D
FE8F
FECE
FF15
FE5C
002F
FFC2
00CD
0059
0039
0043
033B
FF30
00EA
00A6
FFA3
00DA
FF27
FFAD
FF3D
FF8F
FFB8
FFD2
0085
0113
0069
FF68
FFB1
FF08
FFAF
FE95
0087
0167
0041
FEB2
00DA
FF66
00AC
FFE1
FEE6
FDF6
00A3
0038
00C0
FEC3
003D
000B
FF18
FFD9
FF8A
0011
0013
FED3
005E
0048
00C5
FEE9
FFF8
FECA
FF94
FF6B
00CD
FFB3
00B3
00FD
0033
0020
FDE0
FF5C
FF99
FFF9
FFF1
00AB
0026
FFDC
FF57
FF00
FF01
FF1E
FE2B
FF75
FFCF
FEDC
FFE8
0117
FFEE
0020
FE95
0253
012E
008E
000A
FEB0
FFB2
0010
FFDD
FF53
FF68
0091
FFF4
FF0D
0117
FF85
00AB
FFFE
0087
009B
FFB6
012A
006D
0155
0059
FF91
00E5
00FB
0199
00E3
0172
FF98
0034
00AD
0015
FF0B
0036
FFBB
FED5
FFD4
00AE
00E8
FF74
FF5B
004D
00EA
006C
FFD1
FF56
0009
00BC
FE21
FE56
004F
0169
FFCF
FE6D
0031
FF5F
01D4
0094
001F
0079
0167
FD72
0126
FF67
FFBF
FECD
020C
FFF8
FF27
00A5
FEF0
FFB2
003C
FF84
0061
FEB6
FFC3
FE9F
FF55
FDDF
0035
01D9
FE24
00C2
FED2
FFA4
FEF2
01AD
014A
0062
FE61
FFE8
FDE1
FE88
0020
FFEE
004A
004E
001F
0111
FCD2
FEFE
FFFA
FF3C
000D
01E0
FE88
0109
FFE0
016C
FEAA
0078
020A
01E1
0001
FFC1
0026
FF95
FE9E
FFAD
FF6D
0194
00FD
0112
FFD6
FF96
FF7C
0078
FDE8
FDF6
FDEC
FF4D
FF96
FFCD
0101
FEFE
005F
0169
0115
0032
000A
016E
0034
016A
0006
0046
0036
000C
006C
00C1
013A
FF8B
0078
00F6
FEF3
FF16
007F
030E
000C
00B5
FF0C
00CA
0156
0132
0062
FF63
00A9
FFCC
FFFB
0321
0088
00EA
FEF8
007E
0108
FF74
0046
01C2
FF37
FFC6
FEEC
0030
0060
01E8
FE23
008E
0032
00FA
0145
0127
FF3D
FFC2
FF4B
0056
FFDD
FF74
0042
0199
FF8E
0112
00E6
FE9B
013A
000D
FF5F
015A
0073
0099
005D
00C1
024B
FFE4
00C9
0101
FE59
005B
0052
0208
0158
FF5F
FFD4
004E
000D
FFC8
007C
0081
FF7B
FFC3
FFFC
FF1E
01CE
FEA0
0122
FFBB
FF9F
0071
FEDE
FF7E
FF5B
017A
FF8E
FFF1
018E
018B
0081
0031
0193
002B
FF22
FFE4
FFCF
FED9
FFA1
0087
00DB
FF65
FF7E
002C
FE1E
FFCF
FFE4
0004
0002
FF82
01B3
FFFC
FFE3
0077
FFAE
00DE
FF4F
018C
00C0
FF44
00F4
005E
FFF0
0005
FECE
020F
FF1B
01A1
FEBD
FF6C
00E0
00C3
002B
FFFB
0011
015C
FEF0
FEC8
0048
00F6
0114
FF9B
FE51
02DC
00F2
0041
00D9
013F
FF56
FDDD
0117
00D9
FF52
0153
FFB3
FF31
0102
0131
FE97
FFF2
019A
00A7
FFE3
0201
0122
0151
00FB
0048
FF3C
01AA
FFF6
026E
00C1
00FC
FFB4
0196
010A
00E1
01A8
FEE4
00F1
0124
FE8C
00F8
0265
FFE8
004D
010F
FE26
FEBF
FF73
0065
FFAD
00A4
00E9
00E1
011D
FEAA
0232
0116
FF86
012E
0066
01CC
01CE
0050
FF78
002C
01CA
0032
0023
FDC0
FF43
0112
FFE8
FF8A
0027
FF66
019B
FE74
00A5
FEF3
0081
FC7A
FF17
FF71
FDD3
FE24
FF95
00A5
021C
FDD7
FF28
FF80
FF97
0043
FF53
00DC
0090
00F0
FF39
002F
FF41
FEF6
0093
006D
FF02
0284
FE17
FE34
FE2F
FF3A
FEF9
FEED
FF3B
FF5B
FFE0
FE6E
FFE1
FF0F
0031
FFF3
FF80
FFB2
FDE4
FEFC
01D2
FF3A
FE9E
00AA
FF88
FEDC
FBF6
006A
FF17
FFA6
FE2D
FF66
FF63
FE08
FD72
FFEC
FE62
FFB7
FE43
FEA6
0116
FEA5
014F
FE6A
006A
FFAC
0051
0195
0107
FD74
FE1C
FFAB
000C
0062
FE84
FF99
FFAE
FF3B
005A
00D9
FF99
FF0C
0036
0011
FF4B
001B
FFED
00FF
FF6A
01FA
FE91
FF85
FEBD
FFDE
FE83
FDB6
FE7F
010F
FF6E
FE57
FFB6
FF03
FED0
FF05
FFDB
001D
FF6E
0122
FF4A
FBBA
0014
0134
008A
00BE
FF60
FFAE
0033
0033
FF97
0007
FF7E
002A
0132
016D
FF8E
02AF
FFD7
FFCE
00FB
FF58
0074
FED9
0004
0025
FE46
015B
FFE4
FEE2
FFAA
012A
0017
00C5
00FF
0000
FE23
00CB
FE48
FFBA
01FF
FEF0
FFD4
FEE9
0239
FF1E
FF5C
FFA9
FFCA
FED9
FF5D
0249
FFF1
0163
FE67
005C
003F
FFF7
FFD9
0199
00F7
FF37
0088
00FA
FF89
01FE
FF97
003E
FFCB
018F
0000
FF70
FFF6
FC74
00A6
FDE1
0169
FD61
FEB8
FD18
FF64
FDA5
FF73
FEBC
FE4E
FF65
FF83
005B
00EA
FF4B
FEA6
FFB1
006B
FE28
FDEB
FE33
FF41
FDAB
FEF3
FE54
FFFF
FF1B
FEF9
FF89
FF6E
00D4
FFC7
FF72
FEB8
FE79
FE2E
FDD6
002B
FF29
FFD9
FE67
FFE8
FF66
FF85
FEAB
FF55
FF15
010E
0043
FF24
FF2C
008B
FDB9
FF15
FC93
FEFB
0084
FFB1
00C7
0013
FEA5
009A
FE5B
FE85
0168
0083
FFFD
FED5
FF8C
FF2B
FFC8
FF7C
FE70
0166
00A6
FE66
FEF4
0167
0074
FFF8
FF75
00A4
FF61
01D5
FFE1
00C1
FEDC
0059
0069
01C4
007E
00ED
00D0
02C5
00B0
FECF
0082
0261
FFB2
FE97
FF5E
0079
FFD3
006D
FFBD
FFA3
FFA2
FFEC
0120
FDA4
FFFB
0139
FFF5
FFE1
FEBA
FF53
FFE1
006E
FE56
01C6
FEFD
0211
00D0
FFF9
0081
FFE6
FE1E
FDC4
FFB5
0058
FE92
FF44
FFF5
0011
0061
00BD
FE2E
00EA
FF94
FDAA
FF76
FF4D
FF94
FF5A
002C
FEEA
013C
00E4
FDEC
00C1
FFB5
0041
0079
FFF2
FFEF
FF73
00FD
0102
FEC1
FE86
000C
FFBA
0107
003B
0016
003A
FED1
FEDF
0029
FEF2
FE9F
FEF3
FEC5
011F
0031
00BB
FF79
FFD6
FEA2
0156
FEEB
00A6
FE97
FE95
FF2C
0146
FFFF
00EF
FFBD
FF85
008D
002C
FF81
FF35
FEAE
010A
0278
0156
FFF4
008E
004C
00CC
0013
FF56
FEE9
FE14
0201
FF80
0103
015F
FE09
FFFB
FFD0
009C
FF8B
0036
FFC5
FF9A
FFDC
FFBB
009D
FFA1
FEF0
FDFD
011F
01DF
FF9B
0395
0015
FF45
004E
00F1
0132
0102
FF0F
FFBF
FFB5
0087
FF9C
FF33
FF08
FF72
FFDD
00E2
017D
001D
00AC
FF92
FEF0
00B2
FF67
FEA3
FF5E
0063
FE58
FFEA
00F6
FFCE
001F
FF92
FF69
FFF8
FFE6
FE70
005B
00F5
0174
FF2F
0123
FF44
FE09
FFA0
0056
0043
FF70
FFF7
FE69
FE61
FEC8
FFEC
000F
01D6
008E
00EE
FFE4
0059
009C
FED6
FFD4
FF43
0072
FFE2
025A
FE9A
0200
00A9
FFAB
FFAF
FEA3
FF5C
FEA8
014E
02AB
00B4
01EA
FFB1
FFF2
00F1
0011
FF8F
FF02
FE0E
FF97
FF9F
FE80
FEB3
FFF2
FF61
FCE0
FE9F
004A
FEA1
012E
FE8C
000E
FF65
FD90
FF66
006B
0075
00D1
0064
007C
00AC
FD7E
FF9A
FFC6
FFCA
FF13
FE8E
FF9A
00F9
FE69
FF6C
00DB
FF86
FFD8
0064
003A
FF6F
019F
00C2
01B0
FF54
FF6C
00BF
FEDC
0031
0084
FFCF
00A5
008B
FEEF
00E8
01CE
0140
FF4C
00B6
0159
FF3E
FF64
FF22
FE3D
0159
006C
00C5
0140
000D
00C2
FF6D
00B3
FEE9
FF7B
FFDD
00AF
FFA3
FF71
00C9
FFFC
0036
FF5A
0259
FFA9
015B
FF46
0227
FEFF
004B
FEE6
FF63
FF0D
013E
016D
006B
FFA2
FF1D
005F
FF7F
021E
02F4
FE47
0044
0127
FF2A
0044
0197
FFCE
01B5
006D
FFC8
FF1B
00A5
FFFA
00AD
FFFA
0119
00B8
FE90
011A
FE23
0067
023F
FFD7
FF4E
0134
00FE
FF8D
FFA7
0039
FE42
FF53
0258
FF89
01C7
FF70
FFD1
0311
0061
0035
00E9
FF55
012B
FFC8
FE93
01E4
FFE8
00B9
FEB7
0048
0176
FFB5
FF66
FFBE
FD42
FEDB
009E
FF5C
FEF3
005C
FF5D
007D
00C5
0017
003D
FF51
02EA
FF42
FF49
0265
FE40
0197
FFAE
FFBD
FEF0
00CC
FED7
0042
00C1
FF20
FDFE
FE6C
0149
00F1
0012
FEA7
FFA3
007D
FFE6
FF57
FFE4
FF1A
0020
00D8
FE91
0047
0007
FF8F
FEC9
FEF2
FFBF
FDE0
FD9E
FE68
FFCD
0079
FFB9
FF7E
FF86
FF0B
0078
FEED
0008
FF10
0016
02BF
00A5
01AE
FE68
FF9A
FFF3
001D
FEB1
0093
FF1E
FFFF
00E3
FF4A
FF32
FEFE
FEE9
0110
0090
0103
FFB3
FE1F
FEF4
FEAD
FE33
0048
FFD9
00F2
FFFE
00A9
FFE0
FFB4
00C4
FEB2
FFC1
FF96
01D7
FF0F
FF36
00E7
00C4
0051
0120
FF32
FF46
01A2
FFCA
FEC5
FF9A
FF88
FF1B
FF78
017C
FFEF
FFB6
FEBF
FFF1
0197
002A
FE42
0054
FEAF
0029
FE0D
FECB
003A
FF39
0043
FEF6
FEE8
FDFD
FE0C
FECF
00A1
FE20
FEC3
00F8
FF1F
0126
0080
FE94
FF6D
00D7
001B
010F
0003
FCB2
0111
FF5A
FF49
0083
004C
FECA
FDA9
FFEF
FFEA
FF2B
00A8
FEDE
0089
00D6
0017
FF24
FEA6
00AE
FDF2
FF9C
FEAB
FD34
FEDE
FEEF
FF83
FEDD
01A5
00CF
FEF9
021A
FF0E
FF25
FE3D
FF80
FFB1
0178
FE40
FEC6
0037
FF48
FE1B
002B
FF5C
FF70
FE31
FFB5
FEFA
010A
00C3
FED0
FD43
FFB7
FF74
FE8D
FF54
009B
0008
0024
002E
FFB3
0060
FDFE
FFF5
0057
FEBC
0115
0034
FE60
FF57
FF4C
0015
FFAC
FEBA
FEF8
FDB0
FF03
0013
FF4A
015F
FF66
FED0
00BC
FEC0
FFD5
FD53
FF6A
FF00
0134
002C
00CD
FF80
FFA2
004A
0007
00A5
01AC
02F7
0183
FE7C
FE7D
02A8
00B2
FFA7
0085
FF6D
0030
FFF6
0082
0269
009C
FF77
0017
0023
0116
00C0
FF8E
FDE4
00E3
FE6F
FF18
00CC
FF2A
004D
004A
0038
0087
00B3
0056
FFD1
FFF5
0033
FF60
003F
014D
FE73
011A
FFB0
001E
00DE
00FD
01DF
00C9
006F
FF9F
0039
FFC2
01D5
FEE8
FFEB
0124
005D
0161
FEF6
FF28
FF4D
0041
FDF2
FF0F
FFCC
FFAA
FF42
00D9
FF05
FEC9
FE68
FE4B
FEB6
01DD
FF0D
FEBB
FFD5
FF7B
0132
003F
001B
0093
0004
FE45
FF3B
FED5
FEA2
0088
FF4C
FFB5
FE5B
FE07
FD49
00F1
FEF9
FD8A
FFA4
001A
00C4
012D
00A7
FF44
0140
FE16
FEA8
FEFB
0097
FE7D
FFF6
FDA7
01F7
FFFE
FF24
FFC8
FFF3
FFA8
FD9C
FFE5
FFC5
FE60
FE68
0064
FF1D
010B
00B0
01F7
014E
00B1
0097
001B
0115
0101
012A
0081
0071
00C0
0257
01B5
FF5B
023C
0121
0051
FFDA
007A
009D
FF13
018C
00A6
00D4
0272
FF54
FF84
FE42
0022
0093
00DA
0037
FFBB
FE15
FE26
0077
0264
FE56
0104
FED5
001C
006E
FFED
0185
FF9E
011F
FEDD
FFCE
FF59
000B
00D1
FE36
001B
0194
FFCB
FE85
0103
005B
02B1
001D
FE66
0008
FF8B
0121
FF63
0184
007A
FEDA
FE8E
005C
FF72
00A3
010C
0069
FFDA
FFB2
FF40
00A4
01D0
01A9
00B2
0132
0280
011D
FDB7
0085
00EB
FF94
FF35
0039
FF71
FEE1
FFCC
FE97
FF59
FE7F
FDC0
00FF
FF12
FFB2
02D5
0038
001F
FF8A
FEA1
FFB5
FFBB
0113
FF45
00D1
002B
FE7D
0223
FF7B
00DF
00FB
FF00
00BD
FED9
FF28
FF8E
0194
00F7
0164
FFB4
FF7D
0031
FFDD
FF2D
0032
0052
0057
006D
0092
FF65
00AF
FF7F
007B
FEF2
FEE0
FF47
00DD
FFA6
FE88
0046
00A1
FF73
FF17
FFB0
FF1E
FF19
0198
FFBC
FEAA
FFA0
005C
FDE4
015A
01F4
FFF9
0330
FFEB
0004
0047
0027
0091
0020
FFCC
010D
004F
015C
FF1F
FF6E
FE3E
00C9
FF26
0044
FFA1
009F
FCFF
0135
00C5
FDD5
0112
FFF0
FE6F
FF82
0062
0084
0007
FF61
0194
FE40
0186
0035
FFD0
0083
0053
0138
0100
00B5
018A
FF2F
0078
FF6F
FF02
00AC
007D
FFE6
00F2
0028
00F9
FF98
0144
0021
006A
00DB
FF41
FDE4
011D
FF77
FFB6
023B
FF79
0068
FD51
FF6C
0180
01C0
FE0E
FECD
002D
FE96
FF76
019F
01C0
001B
021F
0167
FEB1
001D
FF4C
FF91
00F4
FF0F
00DC
0018
FF06
FF9A
00FB
0213
FE61
01E8
FFE8
FEB8
FFC5
FF57
01DD
0151
00FA
0061
0138
005F
0250
FF22
006C
01C3
0045
FFA0
FEEE
00A5
0110
0050
004A
FE7C
015E
0030
0006
000B
0003
0033
016D
FF0F
009A
015B
FF84
FF06
00B2
010B
0160
FFDA
FEA2
01B9
00A4
FFA7
FE75
002A
FF75
00F3
FFDC
FFE6
007A
0136
FEDE
FFED
0071
018B
FD35
0050
FF8C
FFB3
FF84
FFE4
0031
0073
0113
FFD3
00D1
FFD1
0063
FF48
00B6
00DF
FFC9
FE9E
0006
0068
FFD0
FE2D
0335
FF09
00DB
0291
00A3
006B
00BB
0121
001C
FFCC
FFF2
0074
01DE
FE66
00BD
FF0C
0039
FEF5
FF2B
FFEA
FFC1
008C
0062
FFE4
FF32
00C5
0016
0098
0168
0269
FF7E
012C
00BF
022A
0078
0005
0094
0173
FD09
FFA2
0066
01FF
01D5
01DB
FFD7
FFFD
FF58
0177
022B
0035
FF7F
00AF
0055
FF70
FFD7
FE4C
FF16
0177
FFF6
0036
FFB6
FF78
FF74
0041
FF78
FFBD
017D
01F8
0012
0086
02C8
FF59
008F
0028
013D
FF4F
0076
00C0
00AC
011A
00C4
FED2
FFC7
0006
FEF9
FEEB
0098
FF41
00CE
0129
FFEA
00A5
004A
0000
0221
FFD5
FF4A
009F
FFE5
010F
FEFA
001C
01B8
0089
FF07
FF85
FFFB
FEE0
00D5
FF6E
FF5D
0186
002C
FFD6
007A
FEBC
004B
FFF6
0106
FEEE
FFC7
FEC6
0082
008B
FF7A
FFBF
0035
0188
0058
FF83
0316
FE3D
0016
FFBB
007D
0214
0071
001A
0074
002E
0172
FFC6
00A5
0137
01A9
FF51
00C0
FDFD
0262
016D
007D
00E2
014D
02CC
FFEB
0167
003F
00A6
0008
FFC9
01BF
0018
FE9A
0056
FF88
FF66
FFC7
FF01
FE99
013D
FFFB
002F
FF05
0083
01CF
0281
016C
FE87
FFF7
0283
0036
FF0B
0061
0058
FF00
0116
00E7
FF80
FE3D
0144
FFA3
00AE
FFBA
00EA
FF1D
FE8F
003E
FEA8
003F
FEE2
0013
FDC1
002E
0066
000A
00E7
0091
FEEC
FFE3
0020
00B4
FF80
0133
01AA
011E
FEA8
FE93
009A
01E2
014F
FFEC
008C
FE65
004C
FF15
FF46
FF6B
FFC1
00A3
015C
FEA6
FF3A
012F
0044
0026
0188
FF0F
00AD
0015
FF25
FE23
FF2E
FE41
020F
FF5D
FD35
0077
FF0A
FEC1
0012
FEC0
FF4F
012E
009D
01DA
01C0
FEE1
0230
FF01
FEE7
FDF2
0066
FEBF
FE49
FEFC
016A
00EA
FF9E
FF3A
FFE1
FE8C
FECF
FF00
00B3
FFC1
FF41
002C
006B
FDF9
008D
FFDE
FEF7
013D
FE0D
0096
FF66
FF85
00B3
0047
FFBC
FF81
00B1
00E1
FED3
0035
FEA3
018A
FF78
FF35
FE81
00ED
00BF
0120
0036
FD83
FDD1
FF21
FF31
008B
007E
FF3F
00C4
007C
000F
00DE
FF46
0014
FF43
FEA7
00FC
01E4
01F6
00E7
005D
FFA6
FF07
FF98
005F
FF32
016C
FE0E
0038
0074
FEEF
0049
00D8
0212
0129
FF8F
FF02
0021
FED3
FF3E
014A
020C
004E
FF9E
025B
015D
FF82
FEEE
014A
FFF3
00C7
FEDE
0160
FF81
01AA
005A
00F6
FFCA
01CD
FEF7
FE91
FEC6
00E9
FF3C
001F
FF91
0133
FE47
00F8
FEF7
FED4
0028
00DD
FF6F
FF13
00EA
FFAB
FFFD
007C
0014
01D2
FF66
00D3
0025
002E
FDFA
FF95
FF03
FE9C
FDDD
FF1C
0150
FF1A
FF9E
00D8
006A
FE59
FEC5
FE64
FF7C
0043
00B6
FF66
FF1E
FD7E
0015
FF26
0014
FE9B
0069
FF59
FFAD
00EB
FF8F
FF5E
FF8A
FF91
008C
FF14
001A
FDB0
FE45
FF8F
005B
FE14
FF65
FF4E
004B
FFCC
FD93
FD82
00AB
FE83
FFF1
008A
FF7F
00EB
00EB
0220
00D0
FFDA
0014
0050
FF5F
FDDA
001B
FF11
FE76
009E
0000
FF6A
006E
011C
FEAB
0198
00E1
0065
FF94
0026
0204
020B
FF6A
FF3B
FF3A
0036
00A2
0065
FFD1
005A
FFCB
0175
FFC4
0030
00A7
0071
0225
005C
007F
0149
FFE7
00A5
FFC8
010F
0162
012A
012C
00DC
0105
FFB4
000A
0052
00F4
00E1
0142
0103
01F5
FE50
01DF
FFB0
00D5
FFBF
FFA8
002C
FE58
FE3E
FF14
01B4
FF7F
0141
0028
FFDB
0058
002D
FF69
010A
0013
FF7B
FFD3
FEE8
00FD
FFCF
01D7
01AC
FFFD
002F
FF24
001C
FF05
FF74
FF62
0156
FE6E
FFDC
01FC
FE2B
FE4D
FFDB
0067
001A
000E
0124
FECE
0065
FF4C
013E
FEE3
FF88
015E
FFFE
0005
003E
FF7E
FFFA
01D0
FEDE
FF89
FF9B
026D
0163
0088
FED9
FF42
FFC6
006A
FF77
00A3
FE14
0244
FDC3
FFC2
FF7F
0061
FFC1
0140
01DA
FF55
0210
0066
FFFD
01B2
006D
00E1
FEC8
0172
FE2C
01F1
0184
FDA3
0135
012F
FF64
FEC3
00D0
FFD5
012D
019F
FF36
01C0
0067
002C
FFF8
FFB7
00C0
00AC
FF60
FF2B
FF4F
FF7F
00C0
FF5F
0120
FF61
FDB8
01AA
FFD2
FFCC
0188
00EB
FE0C
00EF
FF3F
FF56
0145
FE2D
FFA8
00D9
009E
FF93
00CF
007A
0036
FF73
01C5
0013
FF37
00FE
FEF4
00C3
0032
0172
00E0
00E9
0056
FE71
002D
FF69
00F9
FFE1
FF42
FFCD
FFB2
FF63
0081
00CD
01BD
009F
00F1
01C3
018F
016F
0076
0129
01F9
0124
000E
001D
FFB5
FED8
0097
0088
FECE
002A
0053
0036
0010
FF12
FFE1
006E
FFBE
01F6
FDC0
FFDB
0025
0196
0131
00C4
0145
FFB5
FE09
FFC7
FE60
018F
0035
0009
00A1
013A
0176
00B8
00BC
FFD0
FDF2
00E1
013B
FFBE
000D
00FB
008F
FF7D
0126
FF09
00F3
0151
FF09
0222
FFFC
FEA6
007F
FFCA
0107
FF90
001F
012A
0102
0000
005C
00A9
013C
FF2F
0003
007C
FF3B
0006
FF69
006C
FEBF
FFEC
01DE
0009
FF61
FF2F
02BE
0165
0068
0029
00EE
009C
021B
00EB
0111
00F4
0195
020C
010A
FE8D
00D4
FF07
FFA3
0061
FFFC
000F
FF4E
0113
0063
00BF
0050
FE72
0127
FFE9
FDAF
0058
0034
FE34
FF58
0144
0054
0047
FE62
FF6F
FD48
FEE6
FD12
FE7C
0101
FF26
0191
0023
00FB
00EF
003E
014A
00E6
0053
FF06
01C1
0059
0081
003F
FFD4
0105
0227
FF91
FFC7
FF71
FFB1
0103
004C
FF26
FE4C
002B
FF11
FFEA
0288
00F5
0209
FF68
FFDB
FF0D
FFE0
0170
FF41
00AC
0040
FEEB
FEB9
00BE
0264
FEE4
01EA
FEAE
004C
003F
016B
FF4E
FF9C
013D
FE2B
0035
00B7
FFD9
00BD
FE7E
009A
0209
0100
FF89
FEB4
0000
0108
0004
00DE
00B6
0103
FF73
FF1A
00C5
FFEA
02B7
00BD
FF64
017C
FED6
014D
00A2
0038
FE60
FFB2
00BF
FF70
FFBB
0092
004F
FE71
FEFF
0046
FF95
FF99
00B1
00EF
FD3D
0019
FEB8
FF7A
FFB4
FD24
0017
FF97
FED0
FFA1
FF8B
0083
0095
FF0D
FFB2
014A
FF47
00CF
007D
007C
0174
FF70
0177
005C
0144
01AC
011D
01A2
FED8
0003
FFDA
FF8A
000B
FEB6
0145
01D3
0025
00EF
FF00
0095
FFE2
0075
0044
FFF1
01BB
FFF7
01D4
0018
0093
FFE8
005B
FE26
FF8C
016B
FFB6
00F6
0071
FE44
013F
FFFA
FFED
FFFE
01AA
0126
02E0
011F
FF08
FFC7
FEFF
FE57
FEE5
0228
FE7F
0012
FFF9
FED9
001C
0084
00AF
FFF1
FF72
00C5
FEF9
0015
FF65
FF55
FFBF
FDF3
004D
00DC
FE0F
00A3
FE6B
FFBE
00E1
FEAA
0045
0108
0012
0077
FEF9
FF1E
01C1
FE78
FE18
0042
FFF2
002A
FFD5
FE1F
FFD2
FF0F
0018
FF11
FED5
011C
FE63
FFCD
FF52
FFB1
FE6F
00AE
00C4
FDC6
FF9A
008A
FF68
FFBB
01CA
00F4
FD3C
FF8A
FEE8
FF98
014A
0090
FEE3
FF8D
FF11
FF81
013B
FF70
FFC1
FF6D
FFB6
014D
FF72
0171
FFD3
FFE2
FFEB
FF95
0080
FDE3
FF3F
01D4
0034
FFCF
FD71
FD06
016E
0040
0103
FFA2
01BA
000F
0127
FFDE
004A
FEE5
FD1D
FEC2
FF73
00FF
0240
0057
FE56
FE5C
0049
FF5A
FF2D
FF0D
FFE0
FFA6
FE4C
FE2F
00CC
FEA7
FFD3
00B4
0101
FFB4
012D
FF97
0082
FFC3
0044
00DB
FEEB
FD2D
FF4A
FEB0
FFF0
FF57
FF5F
01EB
FF35
009A
FF84
00C0
0020
00AB
005C
FFCD
002E
FF98
FF31
FD3E
FD7A
009F
FFC1
018E
FF6B
0122
00A6
FF95
0066
008D
004D
FF0F
FFB1
FEB7
00A7
FF2C
FE10
0033
010F
FDFF
0043
0074
007F
0034
FF3F
FFBA
0001
0194
FFFD
FE46
FF44
FF1F
FF38
FFA4
FF3A
FF73
0014
FFC8
FE97
FE2C
000B
00E3
FF8E
FF97
003F
FFD3
FEF7
FFE5
0019
0326
FF88
0040
02ED
FEE0
0224
FFF1
FFF7
FFE1
FE11
FE34
FE65
FF06
FEEF
01A1
FCA2
0084
FF0F
0092
FE69
FF8A
FF53
FF81
0009
0068
FF27
FEDF
0001
FEA3
0164
FFBA
FEEA
FFDF
0055
01CF
0031
000C
0118
006F
010A
0097
FDF4
0158
00A0
003A
FCBC
FF6A
FE8D
FF35
FEA0
00D7
FF1B
FFF3
015F
00D6
0076
FEC4
0029
007D
FFEC
FF88
FFD5
007C
FEFC
00EA
016D
FF8E
0076
FF95
FF31
FF3A
00E9
00B5
FF1D
FFFC
FF25
FFF7
FFCB
FEAB
FE55
FD5D
00C9
006E
FFA2
0054
0205
0051
004D
0038
FF96
0027
0043
FFCC
0122
0064
FEEC
003C
003C
FFE1
FED3
FE57
00B4
FF19
0019
0166
FFC2
00E5
FF86
FF93
FFE9
FF4D
FFCA
FF41
FDFD
003D
FFC0
FDCC
FE23
0099
FF27
FCE8
000D
FEE5
0126
FEF0
FE26
FF41
006B
0179
0005
FFFF
FF7B
00D7
FF95
FF46
FF9B
FEFB
FFD3
00B8
FF41
0315
0043
00BA
0088
012A
0045
FEFE
FF5B
008D
FE61
0175
FF70
FE7E
FF44
015C
009D
00A6
FECC
02EC
FF69
0006
FEC4
FFAE
FF22
000C
FED9
0267
017A
0008
FE9E
FEC1
FD57
FE74
0023
FEAA
FEA8
FF24
FE24
FF69
FEEB
FFAC
FF7F
FE90
FE47
FF47
FE5D
FF1C
FF46
FF84
004F
012D
0180
001B
FFCF
01DB
FFD0
0072
000D
FFBB
012A
FEBB
000F
0042
FF98
FF69
0194
00EA
00F2
FF7E
FEFD
0092
00F3
00C9
0099
011F
0077
018F
0147
FFA9
FEF6
00B7
0004
0116
0071
FF99
FF2D
0086
FEF0
017F
FFA0
010D
FF09
FFD1
FFD1
01D1
FFED
01D8
FFC8
00E0
FEB6
01E8
FF7F
0159
00F2
FD75
0187
00D7
0133
FE68
FDC7
0075
009F
FF8B
FFD0
FFA0
01FE
FFE2
FFEC
FE33
0028
FD90
FEAE
FE0F
FF34
00F8
001E
00C2
FFE6
FF60
FF07
00CA
00AA
FDDC
0013
0069
FF7A
0031
FFCB
0123
FF67
001B
0015
00B4
FF4C
FFEC
FF24
FF5C
007F
00A2
FFC2
0027
00DE
FFD4
007D
FFD8
00A0
FF5D
0177
0075
00FA
FF1D
FDF4
FF46
FD87
FE90
FF12
001B
FF6C
009B
FEB9
001C
0040
FFA4
0089
0125
017E
FF3B
027B
004B
FE91
FFF4
0030
FD9D
FEC4
FF6F
FDB2
FFF6
FFC7
00FE
FFF2
FF17
00B6
FEBD
FF0B
FE8A
FF9A
FE88
000B
FF61
FF3B
FEEC
0084
00B5
FF88
FED0
FF2D
002D
FF28
FE22
FEB1
0052
FE56
00B1
FFCB
00EE
FF3C
FFB0
005A
FFA4
FFFC
FEF3
FEFF
010F
FC44
FF3E
FE71
0066
0091
FFDF
0099
FEC5
FF78
001B
FC70
0222
0182
FF99
FE67
FF3B
009B
FF92
FF27
008B
FF3C
FF2A
0076
001D
005E
002B
FF59
00E6
00AB
017F
FF97
FFB0
004A
FF03
FFCF
FFC1
FFFE
FF01
FEC5
FEFC
FF4A
FF8E
001B
FF70
FE79
FF93
FF30
FE82
FF71
FF89
FDC3
FF46
FD23
FDAE
0014
FF96
FF76
FF04
FEF2
FF18
FF94
008D
FF99
FF49
FFE8
FEE1
0065
FEF0
0089
0031
00D4
0041
009F
FFCE
FE36
0052
0015
FE78
0079
017D
FF08
FDED
00FA
0093
FE65
FFE7
FE30
00F5
0091
FF60
FEC7
00AC
0052
FEAC
0080
FEA7
FFCC
00BB
FF53
FEC1
0104
FF51
FEC9
FF01
FF25
FD9E
009C
005C
0017
0160
003B
FF4F
0019
00B7
FE35
0037
FFDA
FF0D
FDFF
FF13
0087
016B
0048
010D
018A
FF26
0229
0183
00F3
FFA7
000B
0100
FEA5
FEA4
001A
0155
FE29
006E
FF89
FFCD
00AC
FE46
FFB0
FF1F
FF31
FF74
FF06
FF13
FE5E
FCB4
0034
FD0B
FF4D
001D
003E
FF88
FF35
FFA1
FE73
0023
0057
FF61
0198
FFC8
FF96
0067
006A
00D1
FE55
0019
001C
FFD0
FE13
FE90
0082
01B5
FECA
FF5D
FEDF
FF68
FE30
005B
0047
015A
FE8D
FF37
FF8E
FDA1
FE7C
0007
FF0C
00EA
FE0C
FE11
0228
FF69
FE98
FED3
FF24
FD44
008B
FDCB
FDB1
FEF6
00FC
FED7
020A
FFCD
FFD4
011E
FF2D
014D
01DB
009A
00E9
0139
0007
0007
FF5E
007F
005A
01E7
FF76
FF07
FF85
019E
FE34
FEBB
FF9F
0090
00F4
01DC
0143
FF9D
00BB
004A
FF82
FEED
004A
00B4
01C8
007C
009A
FF56
FF6C
0003
004D
0064
0085
0004
0148
0207
0106
0181
0199
006D
00A2
0072
01C0
0008
FF8C
FDAC
FEFC
0135
FF16
0116
031B
FF96
FE77
01E1
00A1
0081
FEF5
002E
FFB9
FEC9
008A
00E1
FDB7
01DC
FF15
00BC
026C
02E8
0030
FF2D
0078
0052
0042
015E
0002
0039
0195
FF97
01D3
01A2
0040
0038
FFDB
FFA7
0034
0077
0121
FFD5
0002
FFB5
0042
FDD4
00F1
FEFE
00AF
010F
FEBA
0101
00DF
0220
01E3
01B9
FFFE
FF1A
0267
0385
00C0
FF8D
00E2
FF58
FFF2
FFF4
FE8C
0130
01EB
0165
003C
000D
00C9
FDD6
FF0E
FF73
006B
0061
0129
FF33
0014
00EA
FEE4
FECB
FF80
FE20
FFE5
0100
015D
FF65
000F
FF50
00B3
00CB
0040
0138
0082
FF14
0196
FFE6
0181
FFD5
01FF
00AD
0038
024D
FFEB
0114
FFA5
0019
FF75
01C8
FE8A
FF8D
FF8E
008B
0015
02A2
0042
00B2
FFC8
0041
FFCF
FFD3
FF23
FF26
FFF8
FFFF
0061
FFBA
00AE
0144
FF5F
FE79
FE17
0037
0167
0005
00CB
012E
0014
000C
002C
FFF8
FEA6
01FA
0219
FFE9
FE5C
0227
009B
FFB7
FFE2
FFAF
017D
01C5
0165
FEBA
00C9
FFF2
00B7
0108
0280
004B
019F
00A5
0020
FF7A
012F
005F
FF52
01DF
0121
FEAD
FF51
0088
FF18
010E
008E
FEE2
0028
01B9
0053
00C5
FF9E
0140
FF43
00D5
0134
008A
00B4
FF12
FFA2
FF8B
FFA4
008D
01B9
FF21
0035
0098
FFDB
01DC
01F6
FEF2
0004
FE9A
FF1C
0050
0135
0008
0041
0074
0121
FE3C
0013
00E4
FEC4
FFF1
003A
FF18
0132
FF56
FFC0
0068
FD88
FF2E
FEE0
01D8
FFAD
FFA0
FFFC
006D
FFFD
000D
006B
FF75
FE4B
FFD4
001F
FF57
0201
0043
FDE1
FDF8
0034
FF44
0087
004D
FED1
00D1
FF5D
FF9C
0013
FF37
00FE
0030
012C
FF48
0008
FFBC
FD20
0248
0199
0004
0001
0023
016C
FD96
FFE6
00ED
0279
001C
FF4F
FE73
FFB7
FF4B
FF73
FEA1
FEA6
FFA2
FEE9
FEC8
FE8D
FE88
01B5
FDD9
FF26
00E0
FFB6
FDC0
009E
FF2D
FFE8
FECB
FEA5
FE87
0069
FFA6
FFC7
0175
FEE5
FE8D
FFED
FF6B
FDC5
0058
FFDF
FF54
0093
FF27
0072
FE32
FF6B
FE13
FE38
FDBA
FF3B
FF1D
FF6F
FD78
00F4
FEA4
FE37
FDA9
FF03
FF3D
FEE8
008C
FE07
FF1D
FF7F
00E5
FF8F
FF02
FFA4
FFD8
FFC9
FF8F
00E1
00EB
FF57
0034
FF75
00EB
01C9
FFE2
FF2D
FEF4
FF16
0022
00A9
FF5A
FF53
FFAD
FEA3
0179
0123
FF86
FE5C
012A
FFE3
013E
0031
00CF
FEA9
FE60
0100
0113
00B9
FEB2
FFF8
FD60
FF2F
FF81
FFB1
002A
0019
FFC2
FE8C
006D
FF14
017F
FE8A
FE81
0012
FF8A
00AF
0008
0094
00ED
0003
FFC1
FEEC
FFD4
01D1
FF04
FFD6
0071
FED7
FF42
FFD6
FF25
00C5
0038
FDAB
FE44
00EC
FDB5
00E2
FFF2
FF64
008C
FEF2
FEBB
FDC4
01BB
FFFA
FF8E
FF0D
FD96
01C9
FF28
FE11
FF92
FFAF
FE64
FF7E
FFD6
FE88
FEA6
FFBF
FEC8
FEB0
FFC1
FF0D
0016
0009
FF97
FFE9
FE42
FEE3
FFC7
FE33
FDF7
010C
FEC8
FFE8
FD75
FEDD
FFB7
FEEB
FE7E
FC9A
FCFA
FEBE
FF03
0065
FFB7
0029
0072
0090
FEEA
FF7D
FF50
FED9
0101
FFCF
0233
FF47
FF58
FFA4
02D1
02AC
01AA
0073
00D0
FFA8
FFFB
0043
015C
FFE5
00A4
01AF
FE81
FF8C
0006
0029
FEFE
FEE9
0211
0072
FEC5
0098
001D
005C
FDAE
0311
FFA9
0163
FF47
0026
0039
FF17
FF9C
007B
00BE
0088
FFAF
01D5
00BD
FFC0
00FE
00FE
005D
0034
0117
008D
FF44
0021
FEB7
0166
FEEC
FF4E
0094
0010
FE45
FF38
FF05
004B
FFCD
FDBE
0078
FFC8
0130
0096
00BC
014B
016C
0043
00E6
012C
00A7
0007
000E
007E
0226
0046
0159
FE6D
0253
01EB
0075
FFE9
005F
0199
0150
FFC4
006A
00ED
0003
0000
0145
0141
01E8
FF2A
010E
FEB9
0088
FF6D
FF0D
FE1E
0095
FFC2
FF88
FF95
0055
010D
00E3
FFC0
016B
012E
FE8E
FF6F
FFCD
01E6
FF2C
FFCF
005D
00B4
0247
FFE4
00A7
0025
003A
FFCE
0079
005D
0100
FF5D
00F0
00FB
013D
FF9C
0219
0089
01C7
FF77
0029
FED8
FE0A
0040
FFAD
00C9
0036
FEAD
FFAF
FC80
00A8
FE3F
00B3
000E
FF29
FF41
FF37
FE9F
0045
FF6A
FE52
FF23
0214
01DE
FF2D
FECC
0060
0131
004D
FED9
FF4B
FF92
FDD8
0029
FE40
FEE7
FEB0
FF6C
FE8C
FEB8
0196
0056
FEC2
FE95
00C4
019D
FF25
0069
01D3
00FC
01B6
FEF8
000C
FF73
0017
00B5
FEA3
0181
FF36
00E1
FEE7
00F0
FFB2
0107
00C2
004C
FF5C
FF9E
0081
FE9B
00E8
0137
FFB0
0151
008E
010B
FF63
001E
00F7
0017
0166
0017
FF90
FF8D
0141
00FA
FFC2
0098
0085
FFD3
FEE5
00D9
FF8D
002B
FEF8
0153
FFCC
0103
FFC8
001C
00B8
00E7
FFC4
FF75
024E
00E3
00D1
FFCD
002E
FFAB
00C3
018D
FE8A
00FD
FF8D
FF30
0054
FFC2
0145
FFCC
FF26
00A3
00D9
FF64
FFF8
0246
FFCA
00C0
FF81
019D
0041
FFB0
0045
0233
0042
0066
0076
FF2D
0006
FFA6
01F5
FF9D
0125
FE4F
00A2
0048
00FA
0050
FEA7
00D1
021A
FEE1
FF76
00E5
0134
00D1
0245
FE3E
002F
FF8B
FF4B
0003
FEA6
FFFA
01D2
0274
0179
010B
FF51
FFCF
FF6E
FF84
000F
0031
0066
00B9
00E8
FF86
0014
00A7
019C
FFB1
0127
0034
FE4E
0080
005B
FF4A
0045
FF66
0133
0063
006C
FFE6
000D
0025
0110
0058
0070
0016
FFAA
0020
0022
00EA
0229
FF0A
FE65
0140
00AE
FF10
01F7
FFBD
0256
01BC
FFF8
01C1
FF93
0043
FEFB
FFD8
00DD
FFF8
0263
FF4E
00D4
00F7
0061
01D4
0183
0335
013B
00A3
0118
004B
00A6
006F
FE43
0196
00DD
FF84
FDBE
FF06
FFB0
00F4
0016
FFB7
008A
FFEE
00C9
FEF7
00F3
FFC4
01AE
0180
0042
0004
01E5
0272
002F
0120
FF6C
FF52
0085
FF1F
FFF9
FF4F
FFF8
01B3
FF0A
00F7
00A9
FDE9
0034
FFE5
FF70
FFA5
0092
01B2
01F0
FF0E
FDA5
FF39
004D
FF60
FEEB
0139
FFE6
FF9E
FF87
028A
FFB0
0008
FFF4
FF03
FFCD
0017
0177
FEC2
FF2E
FE66
01AA
0038
00BE
0010
017A
FF74
0000
FEA3
022E
0133
00B2
0071
FEBE
0166
000F
009D
0140
FFBF
FFF3
FF62
FEA4
0005
02AE
005F
FF4C
FF7D
006D
006E
00F7
0146
FFA6
0082
0031
02AA
FE79
005B
00AF
FF2E
0054
00DC
009C
0092
013A
007D
FFE9
011A
FEF6
0177
00A9
FED6
FF72
019C
FF23
0158
012A
026A
001C
030D
FE9C
0053
01A5
0065
01B6
005A
00C4
FD9C
00A0
FFD2
0130
FFD4
004E
FFAE
FFF2
FFD2
015F
00A1
028A
0218
FEEA
0266
0111
FF05
013F
00C8
FDE1
FF3A
FE5E
00F6
0130
FEF5
FEE6
00A4
0236
FEEB
FF18
FFA8
0059
005B
FE0D
FFA7
FF35
FE48
00B6
FF09
FFDB
01A4
00AF
FF09
00D1
0216
01BD
0274
016D
FED9
FD83
FFEB
FF79
0058
0099
0009
02AA
FF45
009D
0008
00E1
01FE
FFC8
0068
0042
FF6F
009F
0205
FFF8
FFC4
00CA
0040
FFF3
0097
FF07
00CF
FDFB
0214
FF4D
00D0
FF68
009B
0010
FFA0
FFBC
FF68
FED3
00B2
000E
FFD5
017B
0271
0129
0074
0053
003F
001D
02B9
00F6
FE63
0014
FEB3
013F
00B5
0058
FE45
013B
FEEF
FFE6
FF1A
FFDC
0138
017E
00A7
FFCE
FFFA
004B
FFE5
FF33
00E2
0153
008C
0077
0129
FF22
00D2
0157
002C
0146
FF33
01E2
00A3
FF13
0097
0008
0063
005B
FEFC
010D
003F
FF99
FFA4
FF54
01CA
FFE5
0001
FD08
002D
0140
FF72
0114
FF1C
005D
0076
FFE2
FF42
010B
0058
010D
01BE
FDB6
00E2
FFFD
00A8
018C
FDDE
00FA
FE32
FED8
005F
FF0A
006A
FE91
FF10
FEEA
00C7
FF0C
FF49
01D0
00C7
FFF8
FEBA
017D
FF8C
022E
0169
FEC1
FF52
011C
02CE
FFD2
008C
0015
0084
FF1A
0073
0088
FFFB
01A4
0076
FF97
00DD
01DB
FFD0
FFA6
0242
FFAF
0355
FF7F
005F
01B6
0148
0036
003C
FEC7
001C
00DE
014F
0205
0049
0188
02AE
00CA
0054
0190
00C2
FF2E
0180
015D
0179
01A1
008E
0025
FFF5
005A
FFF5
0163
016F
FF85
00D5
02EC
FEE6
FF84
007C
0173
FF89
FFF7
016D
FE8D
0040
0050
0051
FE20
FE79
00D5
007C
022F
0127
0019
FFAA
FF36
FF45
02C2
0019
012F
FF0E
0067
0057
00A5
0083
0155
01E0
0120
014A
FFDB
FF67
FFC6
FF64
FFD0
007C
00CC
0015
0035
FE44
014D
0102
0201
00CA
FF16
0065
FEFB
0183
FE75
FFCE
0035
FF39
021D
0045
01E3
000B
00AB
0082
0185
0218
FF90
FFE6
01DF
021F
01CD
FEE1
0094
009D
01E2
0444
FF65
0029
00BB
0069
FFDF
FE85
0129
FFDE
0266
FF17
00C7
FFCF
016F
FF34
0069
FE78
FE95
02DE
FF42
FE19
00AA
FFF3
0096
00BF
005C
009E
00B1
010E
00B1
FFC1
0088
FF9E
00A2
0178
00B1
FEE5
FD90
0025
0005
FF24
009E
016F
FEDA
FFCF
FEDD
00BD
0172
00BB
01B3
015E
FE0F
FFDB
FF27
02D9
01AA
01ED
FEBA
00F8
011D
FFB6
00C3
0076
018E
025B
FDC7
0019
FFB8
FE5C
FD8D
FDE6
FE65
0077
002F
FEE1
FF4B
0032
FF2F
FF56
FEB4
FF8B
FE57
FFAA
00CB
0065
01D9
FFA2
011D
0242
FEFF
00C2
0126
00AA
00DA
0091
023F
FEE0
FFE9
FF47
0074
00D9
0129
FFD5
00E0
01C8
0186
FF76
FE97
FFE4
0060
FFBB
FEF9
005B
015E
0037
0049
FF9C
0017
0162
FFB0
008A
00DB
00D6
018E
0035
FFF2
0048
FF94
FFBC
FFDF
01C1
006C
FF90
0022
FE60
01F7
00B5
01E9
FDDF
003F
FED9
002F
FF4C
020E
005C
002E
00EC
0110
017B
00A6
FFBA
0084
FFF5
0046
014A
FF62
00EF
0084
00FB
0049
0109
00C6
017D
00F2
FFCB
0073
0009
FDF8
00F6
0194
FFF1
FEF9
FFE5
FFD6
FF43
FF72
FEAA
0166
FFE7
0178
FFC4
0078
FF9E
00CE
00D0
FE0E
0004
00B5
FF52
005F
0236
01C4
039E
019A
000F
0092
00C2
FFFC
FF2A
006F
FEA4
FDE0
0059
FFC1
0045
004F
FF9E
FE63
FFBF
00F9
013A
0026
003A
00C2
01F8
0098
FF4E
0158
007A
FF76
01B0
0137
0161
0024
FEF2
007B
FFEA
00F6
015A
00C1
FFF0
01B1
00CB
0085
0083
FF61
006E
FFFC
FE89
FFFE
00CC
005B
FF90
FF8D
FEE1
0104
FFE6
0213
FFBE
0004
0037
00FD
0259
000E
FFCE
0115
0110
FFE9
FF43
01F6
00B6
FD9B
00B4
0003
FE2C
0192
0074
FF3B
00BC
0167
0083
013A
FF68
00E2
FEE3
FEC0
0162
FE74
020F
0068
FF13
00F9
010D
00B3
015A
FF79
FF3A
0247
FEAF
00AE
FF48
009D
013F
FFFA
001A
FE7B
00F7
01A6
FEF3
FF58
00BC
FF95
FF5C
0097
00A1
00FA
0077
FFDF
025E
FECB
0089
FF5E
0081
00A5
005E
0236
014B
0066
FF94
00E8
01E9
FFCF
FE51
019E
FF77
004D
0026
00AF
FF7E
FF31
FEDA
0104
016F
FF9E
FE6D
FFCE
01C9
FE34
FD8B
0086
0008
FF59
FF6F
0038
FF2B
0072
00DD
00C5
FE88
FFBA
0095
FE69
021B
FFF7
0023
01FF
007B
010A
FEF2
005A
0286
FEFF
FED5
00AB
0009
009E
FF0B
FEE5
000E
FE49
0133
FDDA
FE9E
FD1E
0112
FFD4
FFEA
FF77
FF2E
00D9
FEA7
FFF6
008D
0231
007E
002F
00C0
00CA
01B0
FF9C
00A6
011F
0005
FFF5
FEDC
01A2
FED0
00FD
00A8
FF3D
006B
0123
FE96
FF83
0095
0163
0269
FFF4
00D8
00E5
0149
0058
00B1
018B
FFB8
0164
FEAE
FE23
026F
00E4
0093
005A
003D
0247
0119
FFBA
FF86
FE8A
00E9
00C0
FFF4
0145
009B
01C0
0037
FF9E
FF70
0166
02BE
FF0B
0121
00A1
0089
00F5
0124
00DA
01AA
027E
0358
FED3
FEE0
00C9
FFBC
0171
00B7
01D4
0174
00DA
00A2
FF4A
FF35
0157
0038
00CD
FF71
00AF
0150
017D
01CC
00CE
0046
02F1
FECD
0015
FFF6
002E
01D9
0172
0048
0160
FF25
009C
003C
0069
0021
007E
FEB9
0170
FF94
00D0
FF55
FE91
0089
0143
FF53
FED3
00AE
00DF
FF82
0087
FFF6
FD9E
FFC6
0091
0056
014A
0101
0099
005B
022A
004C
0200
003E
015C
FEC6
003B
0161
FF4F
FFF6
00CC
015F
FDA7
FEAF
0197
00CD
001C
011F
FFAB
FFCF
00FD
007E
FF5F
01FE
01BB
01A0
FEC8
0010
0032
0038
0052
02BC
FF4E
FF70
027C
0125
003A
00A7
012B
00F4
00C8
0000
FFC8
01AD
FFD3
0028
0209
0277
0123
0017
FF12
000D
FF55
FF41
FFDD
0062
FFA7
01D3
0207
026E
001C
01FF
008D
FEDD
FEBB
009D
01EC
0012
0045
01A3
FF60
FF5D
FF3E
00AA
01BA
0108
005A
FEA7
00BE
FFFE
014C
0086
FF28
FEF5
FEAA
FF7D
FE6F
00A1
004A
FE7E
FFA2
00E3
0162
FFD7
0037
02EB
FE12
004F
0027
FEB7
FF3B
0024
00EC
0089
00AE
FF99
009D
00A8
00EE
FF25
01E2
004B
FF5A
FEF1
FFBE
003C
0022
0055
00E9
FFF6
00BB
0193
00DE
0040
01F3
0009
00C3
0072
FF98
FFCE
009C
FFBA
FFAB
FED6
01B5
FF04
FF4F
FEB1
01D7
0045
008D
007C
01AE
FF47
0038
00FA
00AB
FFB4
FE96
01BB
FFD7
0081
0264
00F1
015D
FE81
FE94
0015
02F9
019A
00AF
003B
00D1
0079
00C1
01A6
00D4
000F
0127
FF3B
FFE1
019A
FFD0
00D2
00B6
FFF7
01F4
0296
0288
015D
01F3
0064
00E8
0262
FFFA
023B
0176
011C
FF00
FFB4
02E0
00EF
02E0
0142
0132
01DC
00E4
0021
005C
006D
0127
00F0
0160
FFDC
FFBB
003F
009B
FFB4
0249
0032
016A
027B
FFE7
00CC
FF5F
FFE8
0058
01DA
001E
FFE6
0254
FF6F
010A
005E
FF98
FEEE
01C9
FE8C
FF9D
FE8F
FF4A
0014
0028
01F4
FF9B
0079
FFB3
FEAB
00F8
FF87
00D7
00C0
FD87
FFDD
021D
FFC2
FF01
0147
00C8
02DE
0127
00F5
00D7
005D
0042
0040
FF82
01AF
0031
01AD
FF6F
FDDA
FF05
01C6
0171
FEFB
0155
FD7D
FFBD
000C
0146
0088
00FB
0204
0162
00C7
0083
00E2
FFD0
FFD7
FF25
0111
012C
0183
00C5
FE8C
FF53
FFE4
00BC
00FD
013C
FEBD
FF02
013B
FFDD
0020
0030
0232
FF1F
00CB
FF5A
0032
013F
FEA4
0218
FFB7
01B8
00AD
007D
0194
FFE2
00F3
0031
0065
FF40
0042
016F
014F
00CF
009F
0190
FFF4
036F
020D
029D
FF89
00A7
FED8
00BE
FF6E
FF73
005D
FEFD
0105
016E
00CD
FF9D
010D
FFF4
000D
FEC5
FE2E
FF69
FE8F
FF8B
FECE
0103
FFA3
FF46
FEAF
FF91
FDD8
0069
003F
FF06
FFB7
FE06
0039
0046
FEB7
FF24
00AD
00C2
0180
024E
0094
FF0B
00AA
FFD9
00AF
FEFF
0259
00A7
0127
000C
0132
0007
FF6D
FF77
0001
FF2B
FE53
FF7A
FFBC
FF3C
FE9D
FF12
0050
FF31
00CC
0068
0123
FF98
FE90
00FF
00A5
FF75
002E
00A6
00B1
00C5
0027
FFB2
00D2
000A
0060
005B
01E9
0104
0072
0218
017C
FEF4
0007
0247
FFA5
FF4E
005A
018D
0100
0021
FF64
018C
FF4D
027E
FFBA
FFCF
00FE
00B7
FE33
FF90
0115
00AC
FED9
0004
0027
0289
000C
0087
013E
FFCE
00EB
01F1
0128
008C
FD6C
00EB
FF2D
0146
FE45
0263
0107
01C2
0011
FEA0
FFE8
019D
FDC3
0096
0082
00FE
FE37
FFAD
0095
00B2
FFA2
0039
FEE3
0232
FFCB
000E
FF8B
0113
016B
FFCB
0013
FF49
FE13
008D
FEDC
FFD2
FD8F
FF7B
FF35
FF48
007C
FF50
0119
FE69
FE65
FEB3
FD98
00C7
FFB1
004E
001B
00E1
FF6F
FF1E
003C
FF88
FED3
0085
FEDD
FE2A
00CA
0039
0085
00A3
FEA1
FDEB
FE80
FFF7
FFFB
0188
FF93
FFCF
0196
FECD
0048
024B
01CF
00DE
010A
FFF5
FF84
013A
FEA6
FFA2
0028
0129
FFAC
FFD2
01BF
FF7F
FFA1
FDC5
FEBC
0035
0151
FFDD
0145
014F
FF7B
0080
FF68
0042
013D
FF0F
FDFA
FDEE
FE38
FEDA
FE56
000F
014C
01B3
FE67
002D
FF09
0004
00BA
FECC
012C
FF88
FE47
0060
0082
FF3D
00BD
006C
FD7A
FF4F
FF22
FF92
0235
0079
FFF3
FFC0
FF46
00AD
000F
00F3
008D
FF65
FEE4
0012
FF7D
007F
FF35
FF1D
FFB2
FF24
00E9
0067
017E
FFD6
FF38
FED3
FF7E
004A
0010
FFE4
FFB3
FFAD
011C
00C1
FEC8
FFE7
005A
0120
FF05
FFDD
00C5
01BE
FFF2
0012
0109
00ED
FF9F
FFDC
0007
FDF8
FF93
0077
FF50
FE77
00B1
025B
010B
00AC
01C7
FF7E
005D
FF8B
0110
FF3A
001D
FFC9
FEF0
FF48
FFF3
FDCF
FF33
0078
FF8A
FEEA
FF96
0169
0178
0129
00B0
FFB1
0139
010C
0149
00F3
FF98
FE02
FF83
FE73
012B
02CF
FE0B
FF9C
FDB7
FEA0
01A2
00A9
FF93
FF54
FEAC
00EC
00B1
004A
007F
FEC4
010F
FE81
0050
FF3F
017B
FED5
FF3E
0138
016A
FEF7
FF06
007F
FE5C
003A
0066
0051
0033
FF69
FE5B
FFBB
FEFE
008B
007A
FEEC
002F
FF1F
FFA8
005C
FFA2
00BB
FF79
FDD9
FE51
008B
0044
FF9D
0154
0036
01FB
0299
0179
016A
00BC
FF84
FFDD
FF1D
FF71
FED1
FFF3
00CC
FFC6
0135
00A5
005E
00D7
FFBC
FF8D
FF02
0030
FFD1
FEAD
00B4
0091
0037
FED6
002F
006E
0145
003C
00AD
010C
00F3
FEC1
01A3
FF93
FDAD
00D4
FF83
FFCF
FEBF
0007
014C
FEE3
00B0
0085
FFB9
FFB5
016B
0017
01CD
FFE2
01C2
0024
027E
FF39
0080
0026
006D
01EF
FFE5
FFFA
00F3
001D
00EF
FF27
0060
FD80
FD6E
FF5F
0157
FF75
0110
0036
FF81
005B
FF2D
FFBB
FFC0
0066
002E
0219
008F
FEA6
0170
FFB5
005C
FF92
0249
0047
FF87
FF84
FFFB
FE46
00F5
0062
FF9B
0082
FFFA
0116
000A
00BA
00A3
0134
01C3
004B
FF74
FF94
0135
FF2E
FF58
0251
02AE
0029
0033
FF1C
0065
FE44
0014
FF32
00EE
004D
039D
0071
012C
0040
00AB
FFF8
0048
007B
FF1D
0051
0044
FEFB
FE23
0087
FFDE
010D
016D
026F
FEC6
FE8C
0167
FF7D
0019
FEF9
0007
001E
012E
FEBA
004C
FFC2
FDC8
00A5
FF96
FF87
0090
0070
00D8
FF4A
FE2B
FEBA
0126
01AE
FEE8
014D
FFD3
003C
00C7
00F5
00F3
0056
FEE6
0094
00C7
00BD
00B7
0021
001B
0075
FF83
FFC5
0090
0203
FFCE
FFD8
FED4
01F2
00F7
FEAD
0076
00D1
FF1D
0069
FECA
008A
018D
0240
0025
010F
00C9
0049
FEBB
FFFA
0165
00C2
008C
0056
0023
004F
FF8C
022D
00C3
FF62
0160
FF72
005F
00E2
FF52
0185
FFFC
FF0E
FD4A
012A
01E1
0194
00A7
FFD9
0008
00AE
00A8
00A3
FF54
FFB3
FF0F
FFFF
0146
01E5
0116
00CA
01CE
00E8
0071
0093
0119
FEDA
FF41
FE72
007E
FFD7
FFB1
02B0
011B
FF4E
00C7
00C2
FF76
006F
FFE5
020B
017B
FDE7
FF0C
002C
013C
019F
FFC9
015B
016B
005A
FF64
FFCF
0117
009D
0063
FF17
0080
FFF1
0162
00D6
FD50
01CB
FFEC
002C
FFA0
FFAA
009F
FE5E
FF1D
FFCF
FF20
FF92
FFE1
FE4D
FF89
FF11
0116
0198
01C2
0096
018F
0045
FF3A
006A
FFD7
003E
0224
FFAD
00E3
0149
013D
04D4
005F
FEE5
008A
FF30
00C7
FE19
009D
FFE9
FF22
0053
01FC
0014
00D3
FEB0
004E
005C
01D2
018C
FFA5
007F
007D
003F
0036
00CB
0080
013C
FE87
015B
0034
FFF7
FF70
FE79
FF74
FFF7
0187
FF8E
FF49
014E
0117
FFF4
021A
FFE6
FFF4
FEF0
0135
010E
FFEF
FE45
009A
FFE4
00C7
FFAB
FFAB
0114
FF83
00C3
008A
01DE
0112
0047
00BC
00AD
01D9
0156
FDB5
005D
00D4
FE0E
002A
0195
0016
00B1
FFC6
00E2
FFB4
0026
FE97
FF62
00E7
0177
00CA
0036
FFED
FFCB
FECB
FEBA
FEBA
FF20
FFD1
FF03
003D
0008
FEBB
FE4A
FF62
00B3
FE9D
002B
FFE8
FF99
FFC3
FFC3
FF64
004C
FF45
FEA6
FFE2
0111
0094
02F6
01B8
0127
0034
FECF
0105
FF0C
0109
FF6A
FE5E
FE30
FFD0
0175
FFA8
00A6
0015
0089
005A
FF74
FF56
0131
0001
0050
FEDB
FFE3
0393
FFA4
0071
0011
0048
0218
00E2
FF1A
00D4
00B3
00D2
FF1D
007F
FFAD
FFF1
014C
FF43
0089
0008
FF03
0058
FF71
009A
FF55
0122
0190
FF30
0093
016C
0003
FF4C
0122
024F
FEE3
0252
0240
028C
FEBD
00CA
00DB
00D1
00A5
FF93
FF8B
0141
0068
FFF4
01D5
FF8A
01AD
000A
005C
00B3
FF0E
0171
00A5
00DF
01AA
00AD
FF73
FFE8
005A
0003
007F
00C7
FFAA
FFF5
0115
00AC
FF9E
0025
FFA5
00AF
0131
FFFF
FF8F
FFC2
013A
0096
00F4
00E5
0201
FDE3
00E4
0101
FF7F
FFD7
FF8E
0053
00DC
00C5
0141
0033
FFB9
01B9
FE79
FF17
FF5D
00C0
00B1
021D
FFB4
0144
FF66
01D6
00CF
FF6B
FEB7
0140
0054
0211
00CB
008A
00CC
FFFE
FE6D
0099
FEC7
0066
008F
FFEC
FFA0
000F
0079
01C2
FEDC
008B
00B4
0260
0116
00F3
FF96
006C
FED6
00B8
0062
0059
0065
01AC
FFA4
FF54
01D9
FF3B
004C
0063
0042
FF9F
FF9B
0068
0147
018E
001E
004F
FFE1
FFD8
FF7E
01DB
006B
FF09
01F3
FF61
0152
FFBC
0140
0151
0111
0025
0142
00BF
0077
00CD
FF36
0083
0151
FDCE
00F4
FF55
01F4
00E8
00C7
0197
006C
FFEE
FEF8
0033
0096
0017
01B5
FFE1
00FC
FF7F
FFB2
FE29
FDD9
0066
FFD5
0108
0120
00BD
FEEC
FF80
0032
FEE1
FF73
000A
005C
00D4
0118
FFA9
018E
01C0
023A
00BF
FFC3
FEA5
0020
FF59
0147
FFDA
FF8D
FEBD
00F2
0059
FEAC
FEC1
FFC8
FED4
007B
FF8F
003F
FEE5
FEAF
004C
015C
00EF
0130
FF86
0124
011A
FF93
00C7
01EB
0020
0122
0074
015D
FF59
00A6
0095
FF94
FF53
0021
0134
022D
FE0B
FF86
00B0
FF07
FEF7
00F9
0186
0016
004D
FF86
023F
FF6E
FEDC
FF72
0092
019F
0228
016A
0100
FEDB
0220
FE9B
FF73
FF3E
FDD3
FD9A
019E
FFF6
01C1
0147
02A7
0169
0098
FF3B
017A
01F5
FF63
00AC
00A8
01C0
004F
00E1
FDF8
0091
028A
00B2
009F
001B
008E
006C
FEDC
0043
0088
0109
005A
FEE4
01AB
FE52
00A8
0042
01B8
FEFA
FF39
00B7
FFB3
0080
0023
FEE4
0039
FFBB
FFE7
002A
0051
001A
FFEE
FF73
00C3
FE70
FE12
FFE1
FE60
FD6F
0059
0030
FFAD
FE66
FF76
00F8
00D5
0094
FFBD
0087
FF6F
00E8
FF7C
019D
00D2
0158
FE63
FF7E
0019
0023
FFFB
FFE4
FF7A
FF93
FFCE
FF66
FFAF
FEC5
0046
FE79
00A4
0149
FFC8
FE5E
FE6B
FFD3
FFEE
FEB6
00A8
005D
FDD5
FE7C
FEBB
FE72
FF9B
0148
FDA9
FFD8
FFBD
00EC
0004
0165
FF16
0115
FDD8
FF10
FF67
FFC6
0094
0029
FE75
FF5A
FFC3
FE09
FE1A
0167
FEE9
FEEE
FED8
FFE3
0008
FF5B
FFC2
010E
FFCF
FF74
FF76
FE7B
FF1D
00C2
001B
FDF5
00CC
FE9F
0010
01B7
0051
FF94
FE66
01D0
FFA7
FF2E
001E
FFF7
00B4
FE46
FE76
002C
FE61
FF91
FE22
FFFD
FFF0
FF3F
FDD7
0015
012A
0063
FF4F
037D
FFF9
0020
016E
FF4E
FEF5
FF79
0081
0168
00A7
0151
0126
FEAF
FFDB
007C
FE8B
00C6
00E8
FF83
00CD
00E7
FF90
00C8
0076
00D2
FFED
FED7
0164
000E
FE91
FF9C
FEFD
FF7C
FED8
00E0
FDFD
FEF2
FE4D
FE75
FFE8
FE8F
007E
FFC5
01B2
0134
FEC1
008C
010D
007E
FED9
FFE5
FF2A
FF9A
01A7
FE9D
FF8E
FEC0
FEF8
00E5
FFA5
0045
01CB
0195
FE52
FF88
FEE0
00C7
FE9E
FEA3
0000
FEB0
FD4F
0021
FEDF
FF7C
FD80
00AF
FF4E
FF95
0097
FE60
FF68
FF0E
FEDB
FE74
FE72
00F7
FF8D
FE2F
00B1
FEA0
FFAB
0175
FE94
0048
00C8
00CD
FFF1
FD12
001E
FEB5
FF75
FE0B
FF3C
FF7C
FFF7
FFC6
FF30
FF59
FEA4
FF1B
FFDA
FDFF
FC78
FF63
FE98
FFF9
FF7A
FDE2
FD7C
0110
FFE2
FF47
FC52
FE07
FE71
00D0
0113
00F4
00B1
FFA6
02CA
0086
0102
0116
0119
FFF3
0047
00C2
007A
0075
FF55
FFBE
00E7
FF92
0117
0093
00BA
FE2A
FEBD
0038
FF62
FE62
00B4
024D
014F
013A
FD95
FFA3
000C
00D8
FDA2
FE98
FFA7
0097
010C
00CA
010F
0081
004E
FEC7
00C4
FED1
0231
FECC
0164
0179
FF75
FFD4
FF27
FEFE
0025
004B
0033
FEC6
000F
00B7
009C
019A
0064
FE16
022E
00F1
FF4A
FF7A
0010
FFDD
005B
FED3
FF81
FF3E
006B
00F3
0035
FF10
00C3
0063
0288
0049
00A0
0228
000B
FFB2
0190
FF16
FF47
FFEE
FFC7
004A
0091
00B1
00F5
0194
FFA6
FF37
008C
0022
016B
01BA
FF94
01B9
FFBC
FF4D
FFE8
00B7
00A7
FF59
00E9
0002
0121
0077
00CF
00BD
0181
004D
FE39
004C
FEA7
01ED
0051
FF26
0281
0076
FF7E
FFC7
00E4
FEC6
FF70
FF52
0031
025E
FE80
FF3A
FFE4
005C
FFA7
0143
FD54
0085
FFB5
01F3
0026
00CB
FFFD
009C
013E
0068
0128
FFC3
005B
0035
FF56
FFDC
FF8B
00C5
FFD8
0122
FF0F
FF97
0073
FF7D
0052
006A
00A1
FEEC
007F
001B
01C1
FFE4
006D
022D
FE45
00BF
FEC6
FEC2
004F
FF29
006D
03FA
00E8
FFE0
FE44
0220
FF9F
00F5
FE2C
FFA9
FF44
00A9
0075
FF0B
FEC0
00D9
FFBC
FFCB
FF6F
0111
01B3
0021
0233
FFFA
01D6
FFB8
FF32
0003
FF21
0147
00BC
01A6
FF01
FE72
00AE
0209
FEFC
FFB6
00B8
0020
00AC
0116
0047
0063
FEC8
007C
00C4
0088
0010
01A3
0157
FEA1
FE5F
0209
FF3C
FFBD
014B
FEF5
009C
00C3
00C9
FFCE
FFC3
012F
00E7
015E
01FB
00C2
0035
FEF2
0171
0101
02FB
0130
FED5
FFEB
017A
FDCF
FEB9
0086
0239
0096
0128
0021
0031
0071
FFAA
FE8C
0071
008D
0195
015E
000D
0068
0259
0160
00D2
FE97
FE59
0182
FF03
00F6
FE80
009C
FF2A
FF73
FD95
FE50
FFE9
0077
011B
00F8
006E
0151
FF9E
010C
016A
00D8
FF6C
FEAA
FF76
0141
0181
FE8F
FF01
FF7B
FEBF
00BB
00C5
0099
0345
FEE1
FFF5
FFB9
016C
FFCB
0199
023F
002B
FF18
00AF
0058
FEDB
FF4B
01D6
FFE9
FF14
002C
0138
FEED
FE8F
FF0E
FF92
FE7C
00C2
FFEE
0006
0137
FF05
022E
0052
FE6E
FF0C
FEBF
017A
0104
FFB8
00AD
FFBF
0055
0194
0012
00BA
013F
FE4C
FF36
0013
FFE4
0055
0302
0005
FECD
00C1
FFC7
FFE6
0016
01C7
FF88
017D
0142
00C7
FF3B
0045
FFDD
FF9D
0207
00BE
FF81
FE67
0039
0381
014B
00A4
FFC5
005A
0004
FECE
FEBB
0089
FFB4
FFA1
00F9
004F
FEC1
0010
0063
00C8
FFC8
0051
00A4
00DD
FEFE
009F
FFA3
FEF7
0258
FF41
FF8B
FE84
FE5C
FE84
0014
00AC
FFFA
0042
0157
FF15
FFE3
007A
00C8
FEEF
0062
0147
FF51
0037
FE52
FF2C
008E
FFFF
0090
0021
FF7F
00D6
FF4E
017B
0011
0108
0145
FEB7
FFE6
006D
0061
0053
00AF
0294
0034
0240
00DD
0192
00F9
FF8E
FF56
00AE
02A5
FF55
009A
00EC
FF27
0084
0021
0007
00AB
01A4
00E7
00A7
0081
FF4D
0082
0141
FFE3
0207
FF77
0118
FFEB
0139
FFF0
FECB
FF4D
00A2
015C
0271
0097
002C
022B
025C
FEAE
FEEF
FF94
00D6
00E9
0042
0039
0134
FF75
00F4
FEA3
0076
00D5
002D
00BD
0080
0244
FFCF
0104
FE89
0196
0050
005C
FF4F
013D
00E4
00BE
FE91
FF0E
0070
FD09
FF6F
00BC
FF90
009B
007E
FF8E
FD8A
0062
010C
006A
FF52
FE8D
FFCD
FEA5
019B
FF40
00BA
0010
0101
0007
0016
FEAF
001D
FF06
0043
FFDA
FF12
FF87
FD7F
FE76
FFC7
FFE2
FEA3
0014
00C9
FF7B
0075
FFBB
FEA1
FEFE
FF29
FF85
0148
0105
00C4
FEF0
014B
FE5D
004D
FDEB
FFA3
FED2
0143
FFBE
FD90
FF1B
00A5
FF27
008D
0109
00F8
FF72
00D3
0070
FFF6
FF62
FE11
00D4
009A
0129
FFB5
FF17
FFF8
FEEE
FE31
FE5D
FE37
FFCE
FFFF
FF51
FD84
00A7
FE75
FE30
FF76
FEFE
FE8D
FDF7
FEE1
FEC8
0075
00D8
FEE8
0041
FF11
00E0
00CB
FF5E
0048
002A
FE69
0263
0154
0098
0057
FFE6
FF94
0050
01D8
FE7B
00DD
FF57
0014
007C
0140
FF7D
FFFB
0011
FED9
FFBD
FF0F
FF7F
005F
FF27
FFA4
FF86
FF21
FF78
FF9E
006E
FFC9
0071
FFED
009B
0128
FFED
0014
0083
003E
FED4
0109
FEEC
FDAB
010B
00B1
0142
007F
020C
FFC3
FE53
00C6
0169
0095
0053
011E
FF92
FFEA
011C
FF86
FEC1
FFB3
FF91
FF81
006E
FEC2
FFB3
FFB9
0043
FE63
0088
FF3C
00E3
0104
0082
FEE5
FE83
FEDB
FE3F
01F6
0036
0108
FFB7
FEF4
00AE
01E0
005A
FFA3
FE53
01CB
FE83
0057
FF5D
FE86
FFB7
01E3
00FD
FEFF
00A5
FF4F
0105
00D1
00A3
FFB2
008C
0247
FF38
FF2A
FEFB
FFB0
00FB
0012
007B
0034
FE45
FFCA
001C
FFF5
FF90
0044
00C1
0060
FF89
0095
FDD5
FFEF
FDA0
0076
FFAE
FF40
FE3C
FF15
FF8F
FF69
0081
0009
FFD9
0146
FF5E
008A
00DC
0135
FEC2
011C
FEE5
0076
003F
003D
00F2
018A
FF59
FEC7
FF2A
00EE
01A0
00FC
00A7
FFC8
FE72
FFD2
00DF
FE7C
FDB0
FF36
00CF
0028
FF92
FDF3
FD8D
0130
FF95
FFA4
0046
FF55
00F4
FF6C
0108
FFD2
008E
FE25
FF01
01E5
FFAC
00AA
000F
FF85
0100
FF2D
FF02
0018
FF24
FF06
FEA8
008C
FFA6
FFE6
FF94
FFCD
FFA9
FFB7
FFEB
FF41
011D
FF1B
FD9D
01A2
FF48
010D
01B8
FF87
FF18
0035
FE73
FF5A
FF20
00AD
008F
00C6
FFF6
FF52
000E
0098
01AA
FF8E
003A
0028
FF3D
00A2
0206
FFFC
0168
00F8
0043
FEF4
01D1
FF4C
FEAD
01E6
0060
FE0B
00CE
00EC
00C9
FEC9
FEDE
FED5
FEDD
0018
FF97
017B
000A
00FA
FE56
FED9
FFEA
01C5
FF13
FE5E
00D2
004B
012C
FE57
00FE
FFCA
0033
FF9D
FF8D
FF2B
FFA1
FFC5
FFEB
00C4
FF35
01C3
FEF4
FF62
FEE9
007E
FF81
0138
FE24
FE96
FFEC
FFFC
FD59
0028
FF4B
FF61
017F
FFA9
FF9F
0046
016B
FF86
00A4
00C6
0045
FFFA
0194
00EF
FF70
0041
FF61
002D
FE1E
FF1D
FF5D
0079
0039
FF05
01BC
015A
FFFC
FEA9
FF5A
0062
004F
0036
005A
0034
0000
FEF2
00BD
0148
024F
FED3
018B
FE12
FFA3
0092
FF32
0055
0175
0087
FE82
FF2D
0053
00E2
FFB6
FF38
0122
FF20
FE2D
0135
0182
FF62
FF0A
FF54
014D
FF6E
FFA8
009A
FFD2
003A
FFAA
FFCD
FF7D
FF94
FF03
0034
FF3E
0053
009F
FF3C
FEA3
FFE3
0084
FE5B
FF11
FEBC
FFCE
FF57
FDAA
FF22
FFD7
FFC2
FF35
FEEB
FED7
00C5
FFF3
FD99
FD4E
003D
0069
FF2C
FFE8
FDE9
FEC8
FEE2
00F6
FE3A
00D7
0156
FE5C
FDE8
FF54
009E
FE92
FF9D
FF0E
FF71
FFE9
FEC5
FFFB
FDE2
FEA3
FF35
0045
00B5
00DE
001F
00CD
00DD
004E
FFFB
0253
0009
012D
02AD
FDB5
0032
0014
00B2
009E
FFB4
0024
FFD7
0271
005C
000C
FC7E
021B
0000
0088
017B
FF56
FFD5
0074
0118
FF66
011D
007D
FEBA
006B
0079
0194
00D8
FFB6
FF51
000E
FE8F
00CE
00B3
0011
00A4
FEED
FE2C
FF46
FEA1
FFD1
005A
0295
FEA0
FF09
FF76
FFAC
FED8
FFB4
FF36
0366
00B4
00A0
00D8
FE72
0015
FF63
008E
FFE5
023D
00B1
FFE2
0234
00C8
FF3F
019A
FF9E
002B
FF83
0148
FFB4
009F
015E
FEB8
0066
0092
00F4
FFBC
FF64
0288
0066
FFC6
001E
FF82
01FF
FF8F
FFC5
FF66
01CC
0137
01DF
00E7
FFF7
008F
005E
0185
0102
FFD3
01BB
FDCD
0045
FFB3
003B
0093
017E
0005
0150
FDFB
013F
00D8
FE86
FFCF
FFE1
0237
01B2
FFB4
FF14
00B2
FF94
FE35
FF71
0005
00FD
FFC5
FEF4
0080
0270
00CA
00E2
005B
0139
FF8C
FF69
0135
0084
0170
00D3
FF4F
00D4
FF5A
FE9E
FFB2
00BE
FDA0
FF4A
0066
FEAF
0160
0078
FF8B
009F
0076
0091
004A
00F5
FFC2
0097
FF6F
FFAD
FEF8
0046
0024
0127
FF51
0027
FFEF
0098
0028
0074
0185
FF0A
001E
FF61
01FA
FEFD
FF2F
FEAC
00DA
FF40
0068
007D
015B
FF77
FF89
009A
014B
009B
FF35
FFB6
FF8E
01BC
0158
00A7
FFF7
00FA
00CA
FF27
FF0E
01C1
0153
02CD
0067
00DC
FFB0
010B
00CB
FF3D
00D9
003E
0064
004F
015B
FFBB
00DF
01E1
0013
00FB
FFF8
FFE5
008E
FF76
0078
FFAF
FF8C
024B
0085
0199
0244
0071
015B
01B0
012D
022A
0277
FF1F
FEEF
0143
0148
FEB3
FE50
FF9F
012A
01EF
FF43
004A
FE20
FFEE
0052
FE77
FE2B
FEFC
FEFC
01BA
FFA9
FF80
0012
FEFE
007A
016F
FFD5
0107
0048
FF79
FFD0
FE3B
004B
FF23
FFA4
00BC
FE68
FEAD
FED6
FFBF
FFA4
0199
FF30
FF61
0071
012C
00C2
FFEA
FF8B
00D1
013F
FEC9
FECB
FF84
0140
0047
FFE0
FED2
00A1
FF4C
FF90
0039
FE0E
00A5
006B
FF41
FF02
0176
FF65
FF94
010D
FDFF
FFFF
FFF8
FECC
004E
FF8A
FF01
00EA
015F
FF78
FFA4
FF1E
FF32
FE7D
0050
FEA7
015E
0060
FFD9
FE5D
0167
FF0B
01C9
FF3B
012D
FE7B
FFAD
FD93
004A
FF19
FE34
FF93
016D
FD72
007B
003E
FF35
0128
FFAD
FFA4
0036
0088
FFDE
0021
FFDB
0147
FF02
FF14
0049
0231
FF1D
000D
0024
FE2E
FE64
FEDB
FD8A
FF7E
FEA8
FEEA
0157
FECC
005D
FDB7
015C
0110
FFD6
007E
0035
FE47
00E7
028E
FFEF
FF92
FDD0
FF28
FF69
00D8
FFE8
FFFE
FF86
FF26
FEBC
FE80
FF57
01DC
FFAF
00D3
FFF2
FE70
FF5C
0208
00DA
002E
FF4E
015C
FFE0
FE62
FFFD
00C2
FF86
0081
00E4
0042
0011
012D
005B
FDBE
0036
FFB6
01FC
FF2E
0061
0044
FFA7
FF46
FE0A
0020
0126
005A
01F7
FF04
FFC6
FFF1
00BF
FFC6
FFA6
0050
FF58
FECA
00FC
FFA6
004D
FEE7
FE68
FFC8
FF03
FFBE
0089
FFB0
0052
FF95
0178
FE4A
FFF7
FE68
FF28
FE5A
0004
FE8A
FEB2
006F
FF51
FE3D
022E
FFFD
00F8
FEA3
FFAD
FF3F
FFA0
FFB6
00C0
FDCC
FF2E
003B
008A
00EB
FEA2
FF93
FEC8
0020
FF53
FE75
FE6B
FFA6
0031
0010
005D
FFCE
FEE1
FF70
0008
009B
FD8A
FEA6
FF76
01D1
000D
FFA1
012C
FFC0
FFBC
FEF0
FE40
FE7A
FE58
0109
00A5
00E1
00A8
012F
FECE
FEC0
0053
005F
FFEA
00F2
FEB5
FEA5
016C
FFA4
00C6
011E
FFEA
028A
FF7B
0028
000A
FFCF
0051
008E
0026
00C4
017F
0079
0118
004C
002F
0141
00A7
0025
005B
0089
FFBD
FED3
0120
0019
010B
0068
0062
000A
01E0
FE9D
0006
0066
0295
FFC3
00B5
01AA
FF99
000A
0003
0084
FE26
0119
0125
015A
014B
FEDD
FF10
FFEB
FF01
FFB7
005E
01D8
0036
0057
FFD8
003D
00EB
00F2
0084
021D
0086
FFEF
FF11
FFA4
FDE9
011D
01C6
FF33
FF78
01D8
FFB9
FF7B
FF8D
FE70
001E
006C
0021
FFF6
0197
0049
FFA1
01C6
013D
FFF5
FEC3
FF24
FFF2
0042
021C
00E2
FFA0
0084
FF84
FFD3
018C
00C5
0093
FFBF
FF0A
0008
0232
FDE5
FED7
015E
00C4
0137
000A
020E
FFA3
FFA0
FFA4
FECE
FFD8
0111
FF0C
FEFA
0085
FF33
FFDC
0127
FED6
FFB6
0046
FF8F
0132
FFA4
FE89
FF9D
009A
FFE8
009E
0152
016F
FD5A
0084
FFCF
FFDD
FF47
FFA6
FF63
FE56
00A7
013E
FD4F
0089
0188
FE2E
FF14
005A
FE43
FF95
01FD
FF03
00E3
005F
FE85
FEBE
0089
007E
FFC4
FFB7
0078
0144
FFC9
00A7
FEC8
01F2
00F0
014C
0055
0087
00D7
0040
FF8E
FFB6
00E4
FEF5
008D
FF71
0098
0045
FE93
009D
FEF4
00B3
0165
0053
FDB0
00E7
002A
0160
0106
FFB1
01E5
FE1F
01CE
FF99
FFE7
FE52
0022
00F6
0009
00AC
FF3B
FFC9
0007
00E6
FFBF
00F5
017D
01E8
0166
01E0
00A6
01EF
0014
FF7A
00E7
0075
FDE3
FFFE
00D6
00C3
FFD7
0135
FF7D
FFCF
01CA
02D3
FEA9
01AF
000C
0149
007E
004A
0271
006A
FE40
FEC2
00A4
FFB6
FF91
0075
01E8
FEE6
FF9F
00BD
0109
0159
0140
FE05
00DC
01E4
FF71
01E5
01A9
0038
FE1F
00A9
0236
FFB5
0150
0251
00B4
FF83
FFDD
0301
013D
01A8
FFB8
0028
FF8B
00E6
01ED
FFEE
0192
006E
FF35
FE7D
0065
FF85
00EC
0046
0284
00B8
0023
FFCD
01C0
FF1D
FEF4
003E
FF7F
0136
FF19
015A
FF74
FFB3
0167
FFD4
0142
015A
01C2
005F
FF87
FE08
0154
FF1A
FF3E
00A3
0059
FFEC
FEE2
00B3
FFBE
FF03
00C0
FF2C
FFEA
FFFB
0015
00B4
0107
0019
00AF
FF80
FFBE
FEF8
FFAA
FF74
FF65
FF5E
FE80
0081
0128
0160
FF91
004F
009E
FFB5
0120
FFFF
FFEB
FFB5
0182
FEDE
00AE
00AA
FFE1
0247
0056
FF9E
0098
0106
00F1
00E6
0098
0007
0178
FED4
0024
00E0
0015
FE85
0182
FF1F
01DD
000B
006A
0102
FEF9
011D
FF76
FFDC
FF88
00AD
FFFF
FFC4
FFCB
FF55
00AB
010B
FD8B
00C9
FFF4
FF9A
003F
0090
0103
0086
FFB4
003A
018C
FECE
0030
FFF9
FFA6
00E1
0017
00F9
FFD5
002D
FDD4
FFD4
006D
FF7A
0141
FFFF
FCD1
FEFE
014D
FFD6
0036
0105
FF1A
000D
0042
FEB5
FEC1
0116
00F7
FF81
0114
FDE8
0016
00F8
01D1
FF37
00CA
FFFF
FEDD
FF63
0195
0129
01C9
FEFA
0234
FF9B
FFB3
00BB
0186
FD8A
001F
00A6
005A
004A
0006
FE72
00F0
0156
0102
FFBE
00DD
00FA
FF68
FF03
000A
0157
001B
FF13
00AA
FF20
FF76
017B
FF98
FF99
FF6C
0004
FF8A
00D2
FF63
0039
0187
FECF
01CD
00A7
0183
FF65
0061
0005
01DD
FFB7
FE8A
01A4
FEB0
021F
FE51
007F
0147
FFB6
0022
0064
01DF
0110
0023
FE7D
FE19
033C
00ED
00A2
FE40
00B6
0107
FDAD
0125
00A2
FF73
0299
00D2
0211
FFC3
FF56
00C1
00F8
00C1
0037
FE46
FFA4
FFF5
FEFF
FE4A
FF40
FE4A
FFD8
FF00
00FC
FFA7
FE3C
000E
003F
FE59
0122
FFC1
FFF0
FF6F
0059
FF8E
0060
FE19
FFE9
0072
0035
FFAD
FE72
FFF2
013E
0007
FF0A
0007
FDCD
FFF6
FF4F
FE6E
0068
FFF9
FF3E
FD00
FEF9
00AA
FF45
0065
FE88
00DB
FFBD
FF42
018F
FFA2
00F7
0037
0073
FF6F
FF23
0031
003C
FEA9
FF0C
00CF
FFEB
FEE5
FEFD
FF2B
0133
00AA
FF82
FF5F
FE04
FF74
FEE5
FF9F
FFE5
FF04
FFE2
00F1
0054
FE6B
FE8B
01A1
008E
014D
FEA6
FF29
FEFA
0223
FD82
007E
0008
FFD5
FE6C
FFCC
0180
0119
FF06
0003
0005
FF2B
FFC5
01C7
0101
FEA8
0110
FE08
FF16
FF76
007C
FF86
FFA6
0190
0172
013F
FEC7
FFEB
FFEB
FF72
FF85
FFE4
FEFF
FF0B
0098
FFB2
FEB9
FFD8
FF1A
0069
FF23
0067
FDF1
0197
FEF8
FEE1
0094
FFE1
00C0
008A
009E
0060
0239
0193
FEF7
0052
FFCA
FEF7
FFE4
FF71
FFF2
FEB5
0108
0092
0022
FFCA
0027
00EA
0048
FF39
004F
FF42
008C
FFE3
FECF
0105
0100
0013
000A
002F
00AE
FF0A
003A
000A
0126
0033
00BE
FFE0
FE6F
FD2B
00B2
0048
FEE6
FDF6
FD7D
FDCB
016A
FF1F
FDD0
FF55
006D
0064
FF14
00DE
FF4B
FE6F
FFA5
FF7E
FD77
0013
FFB3
01B9
FF0C
FFC7
FFB9
012B
003E
00C0
FE45
FDEA
FEBC
FF09
FFB8
0077
FE49
0057
FFE6
FF9A
00E3
FFC6
FF16
001A
FFE8
FF7E
FF17
FF76
FDFA
0073
FE8B
FF73
0082
FF9A
009A
FE6E
FEDD
0036
FD96
0052
00C4
004B
FE95
FF74
011C
FF17
FF1B
0173
FE53
FEBE
00A3
FF02
FED5
FF82
0071
0031
FE33
00D6
0008
019A
FE22
FF08
FE8D
FFE5
FEA3
00BF
FFAF
FFC5
FF98
FF3F
FFB1
FE7D
FF28
FD85
009D
FF6C
FEFD
FF76
0063
FE4E
FF4B
FFEB
FF24
FF89
000E
FF74
FF6C
FEC7
FF49
002D
FED5
FEFF
FFA1
FF80
FF47
FF40
FEAC
FFB8
0043
0162
FF9B
FEE6
FD4D
004C
00F4
0086
FF25
FF83
FE0C
FDD4
0008
FF70
FFFD
FDE9
FF11
FFE3
FFCF
FFF0
0055
FE3E
FFC7
FFA5
0021
0052
FE22
0029
FFF7
FF45
00EC
FF1A
FFCF
005D
0116
FD12
FE59
FE35
00A6
FFE8
002C
FEE0
01E9
0003
FEDC
FF7D
FE19
00F9
FF0A
FE4A
001B
0009
FF87
FF29
FF6E
FFCF
FF0B
FF81
FF60
FDA4
FF4B
00A0
FF5F
0211
FF03
00C9
0025
FEBE
FFD3
0012
FEDD
FEF0
00E5
FEAB
FF8C
0029
00E9
FFE6
006D
FFAC
007C
0175
0171
00EF
FFBD
FF5C
0081
005B
00B2
00F4
FF43
FF1A
007C
0073
FF61
FD4E
FF2E
FF9E
FF81
FFDD
FE82
FFBA
00D7
0154
02DC
0193
FFCA
00D2
0068
FFB1
FE50
0092
FF71
007B
FF36
018B
0191
0171
00AA
FE7D
0008
FFA3
FF5B
FF44
FFEE
FE81
FFFA
FFC4
0054
FE00
FF1E
FF3A
00AF
00BB
FE58
FE7D
0034
01C1
FDF5
FE7E
FED4
0178
0055
0002
00AE
FEC0
FFAF
007A
FFE6
FEFA
FFEB
0031
FF1F
00EA
FE88
FEB7
FCC8
FE8C
0092
FE17
FF9C
FF49
FDD0
FD94
01E8
FF0E
FE87
FE84
FE69
FEBD
FFED
FF60
FFBC
FEC8
0044
00BD
00B7
FF20
FEAC
0029
FDA1
003A
00B9
FEE6
FD91
017C
005B
FF88
FFDE
000F
000D
01AC
01D1
FF00
FF01
FFE7
FE88
FD75
007A
FF9E
FFE9
FEB7
0124
010D
FF34
FF5E
FF4D
01CB
0198
FFAD
FF9D
0140
FFCB
0234
0051
FF45
00CC
0074
028D
00CA
FF5C
0027
019E
FFAA
0250
FF81
016A
00AF
FFFD
00C3
023E
FEEB
00E3
0115
004A
FE9F
0127
0099
FFE1
00BD
FFDA
00FA
0066
FFF4
00D5
0140
FFBD
008C
011F
FF63
025D
0015
01DE
FF4F
00BA
FF9D
01A3
0002
FE44
024C
02F0
00C2
FFB5
02AD
01D8
FF48
FE70
01F9
008C
015E
0012
007D
0023
0202
0060
FF4E
00A1
FEFA
FFC9
005A
0027
0133
0162
006E
007D
00CC
0284
FF4C
01A4
0007
FEE7
FFCB
FF98
00D6
0098
008B
015D
01CE
00C3
0198
FF89
006A
006E
00D2
005C
0087
FE9E
01A1
FDA7
FF69
FF68
0078
0160
0168
003F
FEC4
0167
0062
FFC3
00BA
00BC
FF3D
0124
0291
01A3
00F8
0115
00B4
FE76
0068
0034
00D4
0082
003A
FF18
FF28
FF4C
006E
FF5A
00EA
0027
FFA7
FFEE
FFCA
023D
0106
0223
015A
013F
FFB1
FFEB
0074
0017
017E
029F
0090
021E
FE17
00C4
FF84
FDF4
0156
0017
010A
008A
FF0C
0214
FFE0
006D
0002
FF35
01BD
023D
FFC6
FF81
005F
0115
00C5
FEEA
0115
FF8B
012E
FFCC
FF49
FF38
FE21
0144
0099
FFC9
006E
01B5
012D
0019
FFC7
0026
01B6
00EB
00FA
015A
0130
FFD0
0012
FE92
FFD2
0077
00B6
0061
008C
FFCE
00CE
00C7
02A8
FFB1
0053
FF24
015F
0110
FE6C
00C0
FFBE
004F
00B9
FF94
FFAB
026F
0099
0216
FEFC
0141
00DB
FF6C
FEF3
0001
017F
0069
FF65
00A2
FF6C
FED8
FF99
00EA
00EC
00BA
00F7
00A1
FF2B
0306
0282
000E
0258
008A
02B8
037E
00F6
025C
0197
FF7E
0272
FE93
002D
013C
005E
015F
FF40
FFC5
00C9
024B
008D
0107
0113
FED5
0145
00BC
FEAE
00AE
00BF
004C
00FE
002C
FFEF
0042
FFF2
FF77
FFE8
0037
FFB3
FF3C
FF37
0150
FF61
0058
FD4C
FE35
0150
0137
FF38
FFA9
0063
FF40
0027
000C
FFC4
FF2A
007D
01C8
FD97
FF09
00D2
FE9D
FF71
FEFF
FFCA
01DE
01D5
02F5
004D
03B6
FFEC
0058
FF93
FF08
006A
FF98
00FB
0121
00E8
005A
FF75
00E5
FEE1
003C
00CF
FED3
01D2
FFFA
FFFC
FF02
FF82
FEE9
02D5
FE7D
008B
00A8
0015
0105
FE58
004A
FF49
004B
FFE2
FEB2
FFC1
001B
FF33
0061
FF10
FFEF
FFB8
00F4
0000
0060
0132
0153
0051
FFE2
FFD9
005B
FE7D
00E4
FFFA
FFC2
FE99
FE8E
FFF2
FEFA
00B2
FFC9
FEE0
FF9A
FF7D
006D
0029
FF69
016D
0052
0169
FFAE
FEE3
FECF
0130
013F
FFD3
0222
012D
FF3C
01A3
FFBC
FF65
0021
FFBD
FFAA
FFBD
001B
01CF
FF1E
FFA2
FFC9
FFF2
019F
FFE5
FFC3
015C
019B
FDB3
00C0
0073
01AF
FFFC
FDFA
FEEE
FF78
00EB
0013
00AE
FED1
0018
0015
FFC4
FF39
000C
FDB3
FF77
0029
00FE
0087
005E
FF5A
01F9
FF8C
FF7D
00CB
FF2B
00B6
FEDE
FED4
002B
FF4F
00A4
000D
FEE5
FF5A
FFBD
00ED
00E5
0208
FF8C
FFD9
01CC
FFD5
0036
0190
023F
FF4C
00CD
0004
01A3
FF49
00BF
022A
00DD
034E
025D
FFE5
FF75
009C
FED2
FFAD
FFB5
FF25
FFF2
0158
00AD
00A9
0079
0053
017C
FED6
009A
FF2F
0047
FFF6
FF1B
0045
00D0
FFC4
00FD
00AF
00FC
0065
FEF7
FFA8
FF35
004A
FFA4
FF1B
FE52
0027
012E
026B
00BD
FE6E
FEAB
FFAB
FF5F
00C1
0036
FF09
00C3
005B
002F
00BC
FE95
FFAC
FCF4
FF98
FF12
FF7F
FE6A
FEC3
FE19
00EC
002E
00DC
FFA1
0082
FE6F
FE94
FE8A
FF98
FF78
005C
FF8C
FF72
005D
FFB1
00E3
0138
FF57
0070
FFA0
FF6F
FE2A
019F
FFD1
000A
FF1C
012A
FF5F
FE29
002C
FF1C
FFF1
002B
0211
FFAA
0008
008A
FF08
01AB
FE1A
0206
0010
FDDE
FF9F
0159
FFE7
025C
FF82
FFE0
FFD1
009F
FE56
003C
FF53
FE2A
FDCF
005D
FFC5
FFA7
FE3A
FFB9
00C8
00C1
010D
FF91
005B
FE7F
0128
FE88
002D
016A
FF8E
001C
FF79
00EF
FD9E
FF61
FEC7
01FC
008E
00FA
0196
01AD
FE2C
FE06
FF25
00D3
FE74
FFFF
018B
FEDA
00D2
FFAF
FFDE
00FC
FEF7
0063
FFBA
00E2
FF19
FEDB
0173
FEBE
003A
FF77
FCA3
FE5F
00B5
007D
00BB
014A
FF54
00C7
FF67
00E3
00EA
00A2
FFA8
0115
FF20
00D8
FFF3
00AB
FFF9
0043
0004
FFF4
FFFD
005A
014F
00C3
FFC5
002E
0010
FF3A
009F
0037
FF3F
0104
0031
0093
FF56
FF30
FEEA
FF59
FFF6
0057
FFCC
FF70
FEFC
FFE6
024C
004C
FEF3
FE79
FEA0
FE6E
02A6
FFF2
010E
002B
FE6F
FFFC
FFD0
00DA
FEE0
FFDA
0090
FF04
0035
FFE3
009F
0057
FDCB
005C
0037
00D7
FFB9
FF34
FFAE
0033
FE88
028A
FDE6
00E0
001D
FF29
FECE
FDAC
FFD6
FECE
0143
0156
FEE3
FF6F
0023
FE9B
FFAE
005F
FFD6
FF01
FD67
0097
0004
000B
00B7
FD1B
0154
FF1A
00EC
FE69
FF36
FE56
FF63
FE3E
FE74
FEFB
020C
0023
FFB2
FF63
FFC2
00DD
00C2
FD98
FF57
FEB4
FFE5
0063
0141
FF8B
FF6C
005D
FF23
FD57
FFCE
FFBD
FED4
FFAA
FEC3
FEAA
01FB
FFDA
FFC8
00D5
0057
FF31
0099
005B
FF37
FF46
006E
00CB
00F0
0299
017C
0020
011E
FFC6
01EE
006D
00C8
00F4
FF48
FFF1
007E
FF6B
FF83
FF52
0213
FF26
005B
0174
0050
01D3
FEDA
0077
0089
0125
00BA
FE7B
029C
0068
0076
00BE
0028
00B5
FF33
FFCD
02B5
00BD
FF38
0141
01B5
FF28
FF42
00A3
FF76
0279
02C6
FFAE
02C9
0131
008B
0035
00CA
FEB6
0049
0066
00A3
FE55
FF5C
FF3D
FEDB
00B6
017C
001B
FF64
0040
01E4
FFFF
0047
FED5
00C9
0125
010D
FF6D
01B8
0014
FF61
01FB
013C
0101
00D8
0086
00EB
FF5C
FFBA
0067
FFF9
FE70
0103
00CE
009B
FE00
0197
01B9
FEE6
0052
FF4B
FEA5
00DF
FE70
015C
0162
0173
0077
000D
FF3C
FFDB
0135
FFB7
FFD6
0163
FF94
002B
FFC2
00E8
0037
FF95
0133
FF8F
FE67
014B
FFA0
032A
0022
00A6
0147
FECA
00DE
FEF4
FEF8
0047
00A3
FEFE
00EA
FE66
01EC
0107
004C
FF79
FEEA
005A
FFCE
FFC6
0367
FF4C
FF98
001A
FDA7
0138
FFFD
00F4
FFAD
0198
FFA1
FF64
FFFD
FEE6
FFED
FFF6
00F0
FDFE
FFF9
002B
FE54
0039
004D
FE84
FFB0
FF21
0110
FE9D
FE53
FFC4
FFA6
0076
0069
0116
0017
FD7D
FFF9
0031
FF15
FF97
FEE8
0061
00D9
FF9C
0000
008D
FFDF
FF65
FDED
00A6
023E
00C2
0109
009A
0156
0093
0146
FF75
0079
0046
0080
FF8E
008B
01F1
0173
FF30
0302
FF6A
01C7
0036
FFBD
FF17
011F
00C4
FF5A
0126
0076
020B
0029
0047
FFB6
FEB0
FF94
FEE9
0059
00B3
0021
002B
004D
FFBC
FF47
01EF
FE43
005A
01BF
0119
0058
FFD4
FED5
FF11
0104
FD96
0026
FFCE
FFE2
FFF8
FFB2
FE49
FFBB
FFB6
FFD9
FF9D
FF78
FF63
FF40
0071
00B3
0008
FF5A
FF8A
007B
FFDB
FFAC
0115
FDE0
FFB5
00FE
FD89
FED3
FFC5
0017
FFFB
009A
02DA
FDC2
FF02
FFD5
FED0
FE81
FFEC
006D
FFB1
0047
0014
FED3
0053
FF0B
0017
FF60
004B
FE55
FF90
010D
FFF4
0004
FF53
0070
003E
FF76
FD09
0023
00B4
FF21
FFA6
028A
FF20
012F
FEAE
FF3A
FEA5
01A0
0075
FEAF
FE82
FFEE
0053
FE34
FF37
FFDC
0047
FEF5
0189
002B
FF02
FEAE
FFA8
FF7A
FFC9
FFC4
FEC8
FEF4
003F
00DD
004C
FFBE
FFB2
FF72
005F
FEE8
0293
FDE4
FEF5
00CD
000A
FF84
00F6
FF90
FFCB
0210
011F
FFBC
009B
007E
FFEF
FE78
016C
FF5B
FF71
FFF0
FF7A
008B
FD72
0073
00CA
017D
0104
FEAC
0052
FF8D
FFCA
FEC2
FF93
003B
0026
FFCC
FEB7
FF9F
FE60
FF61
FDC3
01F0
0062
0027
00C3
FFED
00F6
FFF2
FFD8
0076
FE21
FF35
FE2A
FED2
02CB
FFAA
00AE
001F
0048
00B6
FFF1
FFCD
0101
FFBA
FF6C
01B1
FEE8
0024
0052
FE71
01CE
FE96
006C
FFA9
FF53
0026
FED9
FF1E
FF71
00B6
FE42
FE53
FED2
0117
FF87
FFED
FF40
FFA5
FF60
01E7
FF83
FFE7
00E2
006F
FD91
FF71
FDBE
FFF0
FFFA
0071
FFC7
0059
0027
FFC3
FEFD
00FC
FF71
FFC2
FEFA
0028
00D2
0042
FFEF
FF56
0278
0049
0068
FFC4
008D
02B3
FF9D
FF9F
0039
FF66
01DB
00DF
FF33
FF60
0244
00B9
FE7B
00C0
00C4
FF2E
FF4A
0234
FF87
0079
FFB5
001F
FF1B
FF2B
FE43
FE16
FDF3
FFC4
0093
FFF9
FF73
0066
FE05
FE2D
FFB1
0088
FEE5
FF63
00D2
0106
FEF7
0184
FF6F
FF89
FF65
0016
FFB0
007D
0138
00A0
FE4B
FEBF
FF39
FF94
FE4F
0074
FF85
FEA5
FEB4
00D8
01F4
01BA
004D
0050
FFCD
0019
FE83
00D3
FF58
FFC4
FE36
0032
FDB0
0181
FF30
FDD8
00BC
FF83
FF55
FEAC
0016
00E9
FFAF
FE2F
FF06
FFB1
00DC
00C8
015D
016B
01E9
01EB
0150
003A
00D3
FE5D
0018
FE73
FE96
FF97
FEF6
FF85
00BA
00AC
FF19
FFFE
FDAC
FF80
FE79
FF6F
0219
FF7D
FDEA
003F
FEA3
FE79
00B7
FE38
FE3A
FF99
FFA2
FEEF
FFCF
006F
0150
FE4B
005F
FEB3
FF9E
FF46
FE9A
FDFD
00BE
FDEF
0040
FF5B
FFF8
00C5
01C9
0011
0041
FF60
FF9C
0072
FF7A
0101
FF99
FF41
004F
FF8F
00B5
FF7D
FDEE
FEF9
00BF
FDEC
FF08
FE84
009A
00DB
FF91
FE99
FF25
001E
FF38
0007
00B3
FF16
FE85
007D
FFF2
01C1
00CC
FF9F
FE6F
0139
0027
00A8
FF93
FE4E
FEED
FFCF
FF23
FF51
0152
FFC9
0056
01F2
0129
0074
FE7B
FECF
FFF6
004C
FF13
001F
0038
00B4
FFC5
FF46
FF08
FF98
0020
FED3
0019
02B8
0096
FEF7
FF55
0026
FEC3
FE2C
0026
0017
015D
FF07
FDD7
FE6C
0118
0218
FFE5
0066
FFD3
0044
0080
FF02
FF24
FF43
FF61
FF1A
01AB
FF9E
FF8A
0170
FF65
0004
FFD3
FF37
FF7B
022D
FFC4
00FE
FEFF
FF0D
FE40
FEC5
FF4D
0177
000F
FECF
003A
FFC7
FED6
FF00
00EE
FFF8
FFBB
003B
FFAF
FF00
FF42
00D9
FDCC
FFA0
FEF1
FF3A
FFF1
FE99
FF22
FE3C
00A0
FDA1
FF26
003D
0184
FF25
FD64
0009
FECB
FF70
FF45
FFD3
FFE4
FE86
007C
FF7A
FEA2
00B0
FED2
FE3A
FFFE
0085
023C
00A9
0057
FF44
FFA3
FFBD
FF6B
0038
FECD
FEC4
0015
FE07
00A7
FE77
FE85
FF8D
FFCD
FFFF
0254
FFA2
FF8D
01D3
0134
0103
0009
FFDB
02CA
025B
0069
016B
00C9
FF7C
FF23
FF16
0096
FF67
FE93
FFFA
FEAB
00D7
0198
FE73
0053
017D
0112
FFD3
FFDB
0094
FECB
FF95
00A7
FF79
FFF7
FFBB
00D3
FFAA
FEFE
02A0
0045
FFF4
00DF
0157
0128
FF90
FFD9
0154
0185
FF97
0244
018C
FF29
0152
00C5
FF56
FFBA
FE66
0088
013A
008B
01C2
0231
000C
0309
00BA
FF83
00A8
023B
0065
0064
FF48
0050
01F8
0015
FEC0
00CA
FFAB
00F3
FFCC
011B
FEB2
00EE
005A
01B3
FF40
00D0
FF77
FDE3
FE7E
00EF
0039
0165
FF63
FEC7
FF1A
FF66
FFBB
00C6
0075
FFB7
0320
FFFD
00F0
00B3
FFE2
01E8
008A
00C9
002F
0025
FEEC
FE40
FFD9
0093
0176
FFFC
FFEF
FEF2
FE9E
FEE8
0177
0073
FFD6
FE61
FE98
0257
0012
0063
004D
0126
00CE
0045
FF1A
0235
0016
FF54
0021
00D6
FFC2
FFAB
012F
004C
00A7
0010
FF67
0081
011F
FF8A
FFE0
FE94
FF97
FF32
FF95
00EE
FF41
FF16
FF9F
01AA
FFEB
0094
013B
011D
006F
FF53
00DD
FE84
00C8
FFD0
029E
FECE
00DE
0009
FE92
FFF3
0151
005D
FFD1
004C
FFBB
FF2E
FF1C
FFBA
FF85
0128
004B
0001
0187
FF44
00AD
0095
0078
0214
0003
0129
FFC6
01B1
00CB
017E
0098
00A4
0033
FEA3
FF97
0101
0072
0287
020D
FEC8
008F
0018
00AA
FE3F
FFF9
FE7B
0105
00D7
FF3C
0046
0182
01DF
0074
0274
FEE5
00B0
020C
0119
00C7
0094
FE9E
003D
003C
00FC
0031
0134
009C
0108
0094
FFC1
FFAE
00FF
0132
0003
0018
FEAC
FFB6
FEDF
FFE6
FECB
00EA
FEBC
FF57
004A
00B3
00C0
0174
FF2C
FD89
003D
0168
0082
FDF1
FE5E
00C6
FF91
FEEF
FE16
002F
FE83
020A
03DC
00FA
008D
00A0
FFF3
FF08
FFFB
FF49
00BF
FF94
FFB8
FE75
001A
00A7
FFC4
002F
FEBB
FF51
0090
FF6A
FF03
FF78
FFCC
0168
FE43
FFB4
FE50
FEE2
FF50
FE3C
FFD1
0060
FDCA
0002
012D
FE94
FEE5
FFC9
FED2
FFC4
FF74
FFDA
0014
0213
0037
0075
FF7F
FD72
0210
FED0
FF9D
FF65
FFF9
007E
FF52
00FD
0025
FF0D
FEAA
0091
FE6D
FF10
FE89
000F
FF5E
0118
FFCE
FFB1
FDD6
006E
FFAD
FE0A
FECA
00AB
008A
017B
FEF3
FFFE
FFE6
FE9C
00C2
FF85
0097
FFAE
FF31
FE91
FFB7
FFAE
FEF5
0113
FFFA
FEF4
FCF5
FDCA
FECA
011D
00C2
00EC
FF56
FF15
000B
FE64
FFAA
0077
FF6C
FF42
0079
FFB5
FF9E
00DB
FF85
01AD
0100
FFCF
FF45
FF9E
002E
FF29
019B
005D
0044
FDCE
0057
FEA9
FF93
FECF
01BD
0000
FFC6
FF58
FFCF
FF4D
01BA
019B
FF94
005C
FF6E
0101
0056
001B
01B5
000B
00E3
FF8B
FFF3
01A8
FF61
FFAF
FEFF
FFBF
026B
0085
FF98
FF6F
FD2F
FFB2
004E
FF09
028B
01DE
008D
FE28
0108
FD70
FE45
013C
FF37
007A
FF7E
0039
FEEC
0173
FE08
01AE
0026
0029
FFAA
0093
FDA2
FD89
FEFB
FEA6
FE07
000F
0092
FFE8
FE92
0033
FF1B
00BF
FEB7
0024
0095
002E
000B
FF26
014E
FEEE
FEA3
FED3
0091
FFB7
FEAF
FF58
FF8B
FFF0
0034
FF4C
00CF
FE33
FF98
FF62
FF61
FE9D
01A8
00EF
FED7
FD07
FF23
00FC
FF53
002E
0005
FFE3
0113
FEF2
FE6D
01AA
008D
005F
010C
0024
FF04
00B1
0071
FF78
00BC
0191
FF0D
FEC1
013D
00F7
017A
015F
FF15
FF94
0025
FF25
013C
FF40
00A5
00BC
FED0
FF81
FE47
0218
003D
FFF2
FED0
013F
002D
016D
0001
010F
FFE2
FF4F
FFAF
FF62
0131
FF6D
01E6
005B
FF3E
0098
004E
017C
FF9C
0095
FF78
FFEC
FFD4
0142
0082
FEFE
FFB9
00D0
FEB7
01F4
0138
FFF7
FE4A
015E
038D
000F
FFF8
00B4
00D5
FFD7
002E
0192
0305
00C9
000F
0111
FFEF
0140
0141
00FC
01A8
0049
FF70
00DE
FF41
0146
FEEB
00BE
FF33
0035
0018
01E7
FDCE
001C
FFD7
FF03
0028
FEFB
00BD
0097
FF32
FFEF
005D
FF31
FFB8
00B7
0212
006F
0050
FEBB
FF6C
026E
025F
FFAA
FFF9
00D6
FEB9
002D
FFF2
014D
00FE
0127
FFC2
00EC
0045
FFE6
0171
0128
FE82
FF2D
FEDA
FFD8
0097
0044
0065
FFB8
0156
018B
FDCD
FE2C
0001
00EB
0013
FE56
00F2
FF3C
00EE
0048
0022
005D
FED8
005F
0132
FFDF
FEA4
FF97
FF9B
FEE0
0054
FF52
FE0F
FF40
01C1
FF55
FF81
FE88
FFE0
00B4
009D
FF35
0003
00C5
0130
FFE2
0231
0006
FFCF
00E5
025A
0094
0042
0106
FEBE
FDD6
FFE4
013D
01E6
FFFF
01A9
00D4
FE40
0146
019D
FF8E
FFF5
FF14
0081
FFE3
00BA
00D1
00DC
0177
00A7
FD5F
0091
0111
FFCE
FEDA
0023
00C1
FE8C
FEE6
FF65
007A
0066
0125
FFC2
FE8B
0095
FF18
FFF2
00E0
006D
FFCD
000B
00DF
FFE9
0274
FF2B
FFF2
006F
0236
0090
0030
00F1
0168
FF0C
00B4
0135
00C1
0011
0011
00CE
FF41
01CB
008A
0100
0054
00BD
01C6
FF3B
00D4
010A
FF64
00A3
011F
00C0
FE04
00BC
FEC0
0178
FFB7
FE06
FEE2
0054
FFC0
0040
FF27
FF93
FFAA
FF40
FCF9
FE3F
00E9
010E
FEC7
FEA9
FEE6
0162
FEFC
FFD1
00A1
FFF4
FF5E
FE9B
FEA9
0152
FED2
FFF4
FFD4
00AC
FED5
FF20
FE16
FF4D
FF52
00D0
FF0D
00B6
FEA5
00C2
0196
FD9A
FEF7
FE89
FF1A
0103
FF2A
FF56
FF84
006C
00A0
0034
FF91
FF3F
FFE5
FE76
FFAC
FF29
0170
FDFD
FFE7
FEF4
00BE
FE6D
FF04
FFD8
00E3
FF89
0209
0048
FEC7
00D7
FD7E
FE5E
FFB2
FEE0
0142
FEAF
0047
FE76
003E
FFDE
FDA1
013E
FEB2
FFCA
FF61
FFB1
FF9A
FFFB
0057
0131
0061
FFBF
FF1A
FD11
FF9A
FE45
0083
FFC8
00C9
FE65
FF67
FF93
FF04
FEE6
FF1A
FD76
0013
005A
0107
FE8D
FEC5
00B7
FFA6
FEA1
FEE1
FEAD
00CD
FE7A
FDFF
00DD
FFD7
FFF7
0086
00B2
FEF6
FFE3
003F
012D
FFAE
0198
01DE
FF43
FFBF
FF54
FDCA
0017
FF58
FF14
012D
FFFF
0021
0049
FFC9
00F9
0053
FFC2
00CF
FEEC
FED8
FE50
FECE
FFC8
001C
FFE1
FED3
002C
00D9
FF33
00A6
0061
FEF4
FEE1
00D0
00AE
0080
FEF0
00D9
0152
01B2
FF3B
0094
FFAA
0010
00B1
FEBE
0098
FFDD
FE1A
FE60
004F
01BB
FF49
0174
01AB
0090
000E
01F8
FEA8
0010
FE0A
FF38
00D1
01B6
01B0
FF06
0133
FF4F
FF25
FF66
FEA7
FE54
FF2D
015F
FFC6
0038
00EC
FEFF
0026
FF9A
FE34
00F2
FDF0
0094
FFEB
004D
FF58
FF7C
FFE7
FE31
0068
00D4
FE97
FF4A
FE79
00E3
00E7
FF4B
00BB
FF89
FF68
FFE9
FFD9
FF16
0016
FEC1
FFB3
FFFD
FFA3
0112
FE82
FF2F
FF3D
FF67
FF66
FF8F
01DE
FFBE
0093
FE18
0077
FFEA
008C
000A
0024
FF6E
FFD0
FF6C
FF25
0069
FF2B
009E
0068
01A9
0006
027C
FF9D
FECB
0056
FF2E
FF5C
015D
FF85
FF5F
012D
00B9
02CC
00C6
0045
0161
FFC1
00B0
FFA4
00BA
005B
FFE6
00BE
00D7
FFA8
0143
01FB
0168
0242
0072
0220
0092
001A
0229
FFE1
01B4
FF19
0022
0130
0023
FF1E
FEAF
0058
00CD
0180
FE11
00FB
FFFD
FCA8
0127
0121
FEEA
FEAB
FFCC
FF53
0047
FF50
FE33
021A
00AA
01C1
000A
0262
022C
01C8
FF7C
FF4E
FEDE
020D
0036
FDF5
010C
FFEB
0076
00FE
0048
009B
020A
00B8
0023
00DC
001E
00C7
02AE
FDF4
013A
0238
FF76
0042
FF3A
FE6B
009B
00A8
00F4
0111
00B7
FF04
0208
FFED
01C3
0143
FFD3
014E
FF30
FF36
016C
0162
015F
FF5F
FEF5
FF7F
FFFB
FECD
0036
FFEE
FF6A
0001
0056
FFC4
FFEA
FFAF
FFC3
0019
016C
FE35
007C
0045
FE47
FFFD
00A0
FF69
FF6C
00C0
0123
0066
FFF0
0104
FF2F
0233
FF69
FF54
FE3B
00E1
001D
003C
FF88
FF7C
0188
008E
FFD9
00BB
00B9
0006
0038
0002
FF13
FFA2
FF65
0171
FFFA
00B1
FE64
FEA7
013F
FEBC
00E0
00C6
0132
0026
FFD4
0077
FEE5
FFBA
0142
016C
015F
FF34
007D
01B0
0025
FF7B
FF68
00E1
FF06
01AB
FE8E
FE78
00E2
01C5
01F1
FE69
01A5
FFAC
FF69
00FF
00C2
00C2
019B
00AC
FF41
FFB2
FDD0
00CA
0113
0225
01AC
00B6
0209
00C1
0088
FEFA
012D
FEBD
FF39
00FD
FF4E
0168
FF70
00C6
00D7
FEE0
00B9
012B
00D0
01E0
0022
00FD
0297
FF25
0196
FEDB
018B
00D2
00B0
0229
0110
0037
005C
FEBB
FFCB
00C3
00E2
FEBE
FE30
FF1D
FF8F
FFF7
0044
FE03
FEE3
FF14
FFA2
FE6E
FE88
FF14
00AD
FE57
FFC9
FDFF
FF2C
007B
FFD4
FF22
FFA6
FFC4
FE1E
0076
0089
FE0D
FF4E
0073
002A
0091
FEEB
FF23
0067
00FA
FFAF
004C
FF2A
FE3D
FDD9
FF2D
017D
FE0D
FF7B
FE7E
FF57
FE11
FFF3
FF8D
FF03
FF6B
00D9
FFC7
FD6F
FCC7
FFFD
FE8B
FDC4
001F
FF20
006E
FFB0
00EB
015E
FF36
000C
FFD8
FE6A
FFAE
00C8
FC86
FF4A
FD09
FEB0
FE69
0066
FDE6
FF7A
FD93
0166
FF4A
00B3
00D6
010F
FE62
0067
00A2
00ED
000F
000E
FDE1
FF5E
FFAB
FF52
0119
FF5C
0025
FFAC
FFF9
FDB3
FFF8
0050
FEC0
FFA4
0006
0140
FF20
FF7B
FD6F
FE79
00C8
0122
007F
0007
0017
FF16
FFFB
0085
FF87
01E8
FB4A
FFF1
FE9A
FF5E
0066
0109
FF23
0120
0061
FF41
FFAB
0306
FF10
FFE1
004D
00A7
0107
FF9F
019B
0077
FFE5
00FE
FCBB
FFC4
003B
FEB6
01D3
FFAF
FF5D
FE02
019D
FF74
FDB9
00DB
0094
011E
FFFE
FE0F
02A8
0182
0080
004E
00B5
00BE
FF99
00F5
FF0F
FEE5
FFE3
006A
0002
FFA2
FF56
FF5E
004B
FE3A
0080
FF59
0155
FFFF
FF18
FFD3
013E
01C8
001D
FFF8
0009
FE52
FEE5
0072
0068
0155
FDDF
FFFC
FEF8
FEBD
FF89
FE23
FD75
FF6B
FE78
0143
FF2D
0012
FEA1
FE7E
0010
0094
FF39
FF53
FFEE
FFED
FFB0
FFDF
FE5A
FDB2
FEFA
FE03
FF70
0009
FF02
FF43
033A
FE05
0132
FCAA
FFAD
FFF3
FF99
FF2E
00A1
001E
FF2E
0005
FFAE
00CA
FFFA
0064
FF38
FE6F
FEBF
FFE1
FE4C
FF28
0013
0165
FD87
0035
FE15
FD01
FEBA
FFAB
0072
FF00
FFEF
001A
0039
FE27
FF00
0035
FF64
0010
FE1F
FFE1
0014
FF45
004C
01AD
009D
FE29
0117
FF83
FF67
007A
FE55
FE9F
00E1
0116
FF79
0059
000E
FFE9
FF79
FD74
FFA0
FF1E
FD94
FFBC
FE13
0041
FF64
0232
00BB
FE3F
FF53
0078
003B
FF10
FE83
02E9
01C1
FF3E
FFF6
FF02
0155
0131
0108
FF7E
FEE3
FF42
0075
FDD1
FF8A
FE9B
FF96
007E
FDD9
0088
00F5
0080
FF4F
0072
01D4
FEEA
0061
FF50
FFA2
0006
FFB4
00B4
01BE
FE20
FFB1
FE6D
027F
FDA2
FE88
FFF1
0161
FEE7
011E
FEF0
0150
0164
0093
0010
005D
FF72
017C
0098
FFE4
FEDC
0108
FE17
FDF9
FEB7
FF34
FFF5
FF9E
011F
FF1F
FE7B
FEC5
00C7
FFBF
FFB0
FE75
FE5D
00D0
FE7D
00ED
00AF
0124
0044
FE66
FE24
FF6F
FED2
FE3A
005C
0116
009C
0138
00B3
FFEE
0024
FECB
012A
FF5A
FF76
FF65
0051
FF73
015B
FFD1
00CE
FFB9
FF06
01C3
FF57
FFEE
009F
0156
010D
FEEF
010C
FED7
0114
0109
011D
FE2E
FE38
FFC9
0060
0081
006B
FF80
00AC
005C
FF2B
FE6E
FEC9
003F
01E9
003A
0084
004B
0044
FE76
0031
FF6D
00EE
FFB9
009D
0102
FF83
FF27
0085
FE7E
FF20
FFAF
FE87
004D
FFEA
FF17
FEB3
0155
FF84
FF4A
FF57
FEEF
0051
00D0
018A
FF50
0212
FEC3
FEE2
0044
001C
00AE
FD97
01F7
FEA3
FE61
FF49
FCE0
00E9
FF26
FE37
FFE6
015F
FFF3
001A
0084
FFA3
0131
00ED
0122
FEBB
FE70
FE14
FF91
FF53
0035
FEFE
0180
FFC6
FF5C
FE1C
FEB9
009B
FF8E
00BE
FFD9
FDBE
0032
FF4D
FF66
FF04
FF84
FED9
00E9
FF85
FE86
FFDE
FFF4
FFC9
010C
002D
0079
0030
0182
FEE8
005E
FEF2
FEE1
FEEB
FF13
00E6
FFF0
FFC2
FF45
008F
011A
FF9C
FF20
00D5
029C
FF77
0183
FF3E
011D
FFCF
FFB8
FE9C
0136
FFA4
FF5A
FFFC
0107
FF44
016C
FFD8
012B
00E2
FF6D
FF58
FFD1
007E
015B
000C
FF81
0046
00AF
FFDC
FF87
FFC2
FFF7
FF80
00E0
01B1
00BB
FF26
007E
FF07
FFDF
0120
0086
0372
01E8
FFE8
019E
0014
FEEA
FEF6
FEDB
0148
0096
0018
FEC7
003E
FEFF
007F
01AA
FF7C
00AB
FF22
005A
019F
0070
0124
FEB5
FE9F
0239
FF9B
010B
0085
0194
FF52
FFA7
FF5F
00E7
FF75
FF67
FF86
00F4
01E8
0015
FF6A
0089
0038
0197
FF6C
FE67
000C
00E4
00BE
FFA1
0091
0062
FF28
001F
0142
0194
0128
FEC3
01F6
FE5D
FEAD
0129
007A
00DF
FFF6
008A
0148
0088
FF34
FFE4
0103
FEA6
FF90
0174
004A
01E2
FF3E
FE50
FF7F
FF50
FE77
FF0F
FF0E
00C0
00D4
004F
0029
0068
FE36
FFA3
FF8C
FFEA
FEEA
FFA9
FFC3
0123
01DB
001D
0023
FF73
FDB2
0208
FF36
FEBD
FF04
0137
FFFD
00DD
FEB0
FF23
0259
0178
0097
FFDE
FFC8
0034
0119
FFCC
0087
0014
00C8
FEC8
0102
00D7
FF79
FF1D
008A
FE8A
FEE1
00EB
0028
0136
004D
0103
FF1E
FE16
015F
0100
01BE
FF04
FF37
014D
FE6B
FFA7
002F
002C
00F6
00D7
00CC
00E6
0062
FF3A
0043
0166
FF4A
FFFC
FEBD
01F2
00C8
0213
FF90
FFFA
FFE5
01B3
0043
FDD1
FE8A
FF2F
00C0
FE94
00E9
00B4
FF68
0000
FE82
FE12
FF7F
FF39
FF18
FFE0
0117
0186
0158
FFFC
0090
FF78
005F
0287
FF3E
01CE
FFD8
005E
017F
FE51
FD95
FFB4
01B1
FFA0
FE78
008D
FEEB
0090
FDE5
FE2B
0054
01F0
FFB7
00F8
FF2C
FEA3
FFE8
0034
0066
001B
0031
FFFB
FED3
009B
FFFB
FF4F
FE55
01AF
004D
01FF
0174
FE7C
FFB7
001C
FD56
0203
FF61
FECD
FF00
0079
FF56
012D
FF6A
FFF5
FF6A
00CF
FFD8
005B
FFC6
FFCE
0018
FF2A
FEE0
0032
00A4
FE1A
FF10
003B
00C1
FF77
FF2D
006E
029C
FF27
FF9B
00A0
FF67
0051
0099
FE82
FFDA
0029
009A
FE73
001E
FF41
01AB
FFF2
FE90
FE6C
FE72
FD1A
0005
FE8A
FF4F
FFB5
000D
FF8A
FFFE
0152
FD42
0178
FE88
01AA
0047
FFFC
0086
FF06
0025
FE78
FEA8
FDC1
FFA0
FF82
FF8A
FFC9
FF0C
FF94
FF66
FD4C
FECA
01FA
FEA1
FEBC
00CF
010F
0055
FFA8
0064
0040
FE92
01D1
FED3
FED2
0189
005F
00DF
0024
FE72
FF1C
0014
FFEC
0013
009A
FEB3
FFA4
FE43
FF20
00AA
FEF8
0062
00C5
006F
00F9
FFFF
FEF9
00E0
FE05
0014
FE6A
0017
009F
0031
FF42
FEFB
FF75
0004
0081
0177
00D3
FECC
FE45
FED2
00B7
00A2
0071
00E3
00ED
FF69
0010
FF53
019C
FF30
01BD
FE89
0154
FF5A
022A
0021
0058
0068
FFC4
0016
FF3A
008D
FE9C
FF5F
FF64
00A4
FFCF
007E
00A4
0092
0082
00D5
007D
FEC0
0108
FE99
014C
FEED
FEB1
007A
FF53
0060
0151
FF51
FF44
0010
FDBD
00BF
0095
0126
FFE3
FE6A
FF77
00F5
00E7
FF42
0086
0035
014F
FF68
FFA5
FF25
0006
0002
00DF
0123
0001
0074
00C4
FFC4
FDBE
FF2D
FEB5
FE77
FFF5
01DD
FFEA
0036
FE01
0240
0095
0138
00A2
034E
FF75
0078
0241
FE5D
FE16
00BA
FF7E
FEF1
0142
012B
00CC
01CD
FCC8
FFC8
0165
FF86
FF6E
00A5
FF8E
003C
00A9
00E0
FFD7
FF7D
FFAA
00CE
FF9B
0091
00B2
034C
FF37
FFAB
011D
FFF1
0059
0080
FEB9
FF7F
00B1
FFA0
0158
006D
02BA
FF88
0024
0010
FF78
018A
0065
FFAF
00A4
0187
0076
008C
0081
0069
0079
0105
0166
0037
0025
00B5
0075
02C7
FEAA
0125
FEA8
FF0B
004D
0323
0283
01A4
FFD9
FF2E
0044
019C
FFB8
FF36
FF67
FF95
01C5
FF5D
00E8
FFBE
005A
FF99
FEAD
00C8
FFBE
0076
002F
004D
0234
00DF
00AB
0102
FF37
00DB
FF4B
FEF0
FF1B
FF65
01BE
FDD9
00A4
00A1
013B
FFC6
FF49
FFFC
01B2
00C4
FFD5
FFC7
009C
0293
0174
0037
FF5E
0046
0088
00E9
00B7
002E
0147
FFA3
FF3F
FFD9
0019
00F7
FDAE
FF62
0051
FFBA
00A9
01A5
00DB
FFCD
FEBE
0046
0154
009A
00C1
FFA6
007C
FF0D
FE43
0101
FEE9
005D
FFCA
00A8
FF52
007A
021C
FFE2
00DF
0078
017F
0081
01A3
0018
0084
004B
FF0A
FE1B
004C
FF4D
004E
FF8A
009B
0201
01D5
FF03
FE19
FFB2
008C
0016
FF81
FDEB
FFA6
004B
FE9A
01C7
0035
00E0
0152
0040
018E
019E
009D
01CB
FDA4
0025
00EB
009D
FFB8
0248
00D1
FF70
002E
FEF5
01BA
019D
FF55
FF85
00C4
000A
0075
01A3
0188
FF8E
FDD4
FF78
00C9
0154
00F1
FFFC
FFA6
005E
0152
0019
00AC
00F7
00BE
FFDB
FF67
0274
01D2
0149
0147
FFC7
0224
00EA
FE87
0019
008A
00AB
01AE
0105
FF30
FEB9
0173
0099
FFDC
01AD
00CC
00C9
0161
0106
0015
00E2
FF9D
0142
FFD8
024D
01E9
0098
01E9
0180
00E5
0128
FFAC
00BC
FFBB
0051
FF8D
0041
FEFD
FE1F
015D
014B
FF55
0021
0148
FF5C
FF32
0007
0264
006F
002A
00BB
0048
0153
000C
FF72
015C
0049
FFF0
FEBB
FF25
014E
01AA
002A
01E7
00C5
FFEF
FFD4
FFE5
00D6
0040
001B
019C
0125
0093
004D
0073
FFF6
00B7
0058
FF7F
0050
0090
00C4
FE81
003E
FFF4
00BC
0038
01EA
009C
00F3
FFFF
0014
FF29
FEA2
0235
0220
01B1
0086
FF37
0120
0159
FF6A
010C
FFE1
00A4
FF36
0067
FF2C
01A8
FF1B
0207
FE61
0036
00C6
00ED
0101
FED2
001E
01C7
0087
FF54
FF18
FFD8
01CE
FFCB
0116
006B
008C
FFC9
0189
FF29
00E7
0191
FF89
00F4
023D
00FE
01AE
FF75
00AA
FF34
FE38
00A3
00A4
0017
0284
FF9D
00B5
FF1E
0107
016E
0089
FDFC
01E6
0080
FE93
013C
FF9C
0162
039F
00DB
FEE2
FE11
0015
FE6C
0004
00A6
FF3E
FF97
FF42
FF52
0020
FE92
00FE
015E
00A9
FFD0
012E
FEBA
FFD2
00F8
00C7
01F8
0004
FEAF
FE71
FFF2
FFD1
FED7
0105
005A
00A6
FE24
018B
00FD
01D6
FFA7
FF4E
FD0D
001D
FDDC
01B0
009B
FFAE
FED5
00DC
FFD8
FFBB
006B
00A2
FF5B
FF8F
FE64
001D
FE4D
00F1
FFA6
0196
FF2C
004A
009C
FFA2
FEB5
FFC9
0106
0093
0249
00FB
FF60
FD2A
0148
FF30
0006
0026
00B8
001F
0276
0180
01D0
002C
0084
00EF
FFD9
00DF
01DD
01A0
0122
0018
001D
0163
0056
0089
0087
FD80
013D
FE3E
0131
FFAB
FFD2
01A7
FFCC
01BB
02BC
00AE
014C
0045
018F
FFD5
0054
FFD0
0029
FFEB
002D
00ED
FF39
0207
FE51
FFF3
FFFC
0271
00A5
0153
033E
0024
015D
00AD
0195
02EE
0117
0038
009B
FECC
FFC9
0037
00F8
FEA0
FFFA
0049
0001
0102
FD46
FFBC
FEA7
0136
0015
0180
FF0E
016C
FFA1
002A
FF45
FF3D
014D
001F
FF00
0048
FDE0
FF83
FF49
FFA7
0006
FFE0
002C
FDA2
0124
FE40
FEEE
FFCC
01E8
FD3B
008B
FEFF
FEFF
00E1
FEBE
FFEF
FF70
0005
0032
0107
FFEA
FF0E
0193
00D2
00E6
00EE
FF16
0021
00F2
FEEE
FD68
FC64
FF66
00F3
0083
FF64
FFBC
FF94
FF2C
FD97
021D
009D
FF02
0052
FF45
FFCD
FEF7
FFAB
0090
017F
0174
01B6
FE79
FEDB
FF3E
007C
FEC5
FE8C
FFC1
012E
008D
0119
FEB8
FFB4
016D
FED3
0013
FFEC
0013
00C1
0018
FE7A
FFA8
0056
0107
0009
010B
0062
FFE1
FF42
FFAF
0097
0052
FF8E
00E5
0008
01A0
0169
FFEC
FFF9
FF2D
0010
002F
FF19
FD63
FF42
FF9F
01DB
FF23
FEDD
0054
FFFB
FF9E
FF6E
00C6
FFDD
FDDA
0162
FEDF
0034
0013
008D
FD55
FFA8
FF42
00F0
001D
FE80
FFE4
0032
FF5F
011D
FFEC
023C
0031
FEB2
FF8E
FE10
0015
015A
005F
FEEF
000F
FD85
004A
010B
FFCC
FF71
0098
FF89
0083
0024
0215
0077
FF5B
FF45
001D
FF4C
FDBE
FF18
FFE6
FE25
FEF4
0093
FFEC
FD91
00E8
00DF
0041
FFCD
FEA1
FEAA
00C3
FFD4
FDA3
0185
FEFE
FE1F
FFE4
0065
FF72
FF08
FE13
0079
FE16
FFE4
FF0D
0032
001B
FF4D
FEE2
FEC1
FEFF
FE31
FFFA
011D
0074
FF48
002C
005F
FE20
FDD4
0034
00F6
002C
0099
0148
008C
FF98
FECB
FFC4
009C
FE79
0041
FE60
0061
00A7
FFAF
0056
00D1
FED2
FFA0
FF2C
FF42
FFE3
00A6
FE84
011F
FE4F
FD9A
FDFB
008E
FE58
FDB4
FFA5
FF11
0053
FF6A
FE76
0139
FFF4
00BE
FFA0
015B
007D
FF9F
00D9
0036
007F
00B7
FF91
0173
0048
00A1
01C8
FF93
FFF9
FEFD
FFF8
FF05
FFB0
FD41
0108
FF94
0026
FF6A
0260
00EB
004D
01F5
FEC1
FFDF
0068
019B
FF5F
0059
FF93
FEC3
FFA7
0023
0119
FFE6
0029
0012
00F3
0031
0032
FF92
0092
014B
FFA0
018E
0031
FF34
FF55
0084
FFE8
0208
01E9
0048
FF98
0059
FEAF
FEDB
0042
002C
FFE2
00C4
FF59
009B
0168
002F
0039
FEF9
0076
004D
FE6C
019B
01DC
0122
018A
FFE9
0037
0084
00A2
028C
00D5
02E0
0194
01FA
FF85
FFCB
00B8
FF1A
FF81
00C7
013F
0054
0079
0102
FFC0
FE3B
00CD
00AB
FFB0
00F6
FFD0
00AB
FFAA
FF50
0187
FFC1
00AB
0212
FF46
FF93
00F5
FE93
0075
000B
FF58
011F
025E
000D
002B
0065
0207
FE95
009A
008E
FEA9
00B9
FFA4
FF55
FEA5
0072
FF2B
0105
0113
0009
FFA4
FEF0
FEC3
00A4
01CE
0093
00A5
FF60
0060
FF95
FF67
0123
0030
FF5A
0121
FFD3
FF92
0059
0044
FEF1
00DB
0081
001B
FECA
0086
FEE3
010C
00EA
0101
0052
0006
FF85
0039
00E2
021E
00AC
FE7D
FF78
00C5
FFBB
FEC5
FE9A
FE76
01E7
02DA
0231
FF33
006A
008E
0279
003F
FEF8
00F5
008D
002B
027A
FFA0
FE69
003F
FEE4
01DD
FE96
FF16
FEF9
005E
013E
FF5D
01F9
017F
006B
00F7
01A2
0182
FF5D
FF75
00B9
00F1
FE9C
FF39
0362
0148
00BA
FFCD
0057
0003
028D
FFD6
0083
FFCD
01ED
0233
FFCC
013B
0284
008D
010C
FFBA
0107
0134
FFCE
01E3
0296
FF69
017E
005B
00E9
00CA
FF3D
0045
02C4
FF17
FFF0
006A
00BA
FECD
0020
005A
01B8
013B
FEA4
FEEE
FEAB
0146
FFF4
FFE0
01E4
FF38
0004
000F
FF77
023E
01B6
FF8A
00CB
FFFE
00FC
000E
FFF7
FFF6
FFC8
FFD3
FFD5
01FB
009A
007E
014F
0130
0011
0011
00F7
FF18
FF83
FE7A
FF53
FF7B
FE51
01D5
FF45
015D
FF9E
0284
00D0
0019
01B8
0071
017D
FECF
001A
008C
FE10
FF77
FF3B
034B
033F
00CE
0080
0205
0109
001A
0044
000F
FFAD
00A5
FFFE
01D9
01C0
009C
00A6
024D
FE80
02A0
FE7A
01E6
0138
01E6
0253
014A
0052
FEED
FF92
010F
011B
0232
0123
0083
FF82
FF5E
0117
00AB
010D
FF77
012D
006C
FFEF
FF16
00E4
0046
006B
FEEC
FFDC
01EF
0044
01BC
0114
FF2E
FED7
FFAC
012E
000D
00C9
00B8
FE96
00CA
FFC4
0193
00EF
0397
FE5A
0118
00EA
FF5A
FF15
0132
001A
01D5
00F8
0017
FDF1
010E
01AD
FF94
0171
0025
FE8D
012F
00B9
FF8A
FFD6
FF48
004C
01BD
FFBD
01A3
015D
FF80
0174
FFA5
0136
FF5D
0058
0000
01D2
0006
00B2
FF14
FFF7
FE40
00E5
00B1
0098
0093
005E
00FC
FFBA
FFD9
FF27
01CF
FEE9
00B1
FE87
FDC3
FF8D
0006
00D2
0081
FF11
0005
FFB7
FF0D
0074
FE94
00D4
FEA8
FF80
0212
0081
0043
0054
01FE
00F9
FF2C
FFBA
018F
00B7
0171
001C
FF33
007A
00D1
0126
FFFE
FE33
0072
012A
0142
004B
FFD1
009D
00AE
026C
00C3
FFC4
FFD7
FEBF
0078
00A4
00B2
010E
FEB7
006E
00E7
FF4E
FE53
00A5
00F4
0204
000F
0076
FFCB
FE9B
0244
FF68
01E1
0091
FFB6
01B3
0136
0117
FEA9
0050
0033
FF58
00E3
002C
FF95
010B
008A
FFBD
020E
00CF
FFAC
FFEF
0163
0085
0027
FEFE
FFBB
009E
019B
FFD6
010A
0099
0104
FFE0
00D4
0111
0198
01B9
012D
0054
FE90
FF25
0030
FEE9
FF3E
00D8
FFEE
004E
FF67
0147
0059
FFEF
FF76
FF6E
FEF6
00A8
0075
FF4F
FE99
FF75
FEF3
FFAC
00B9
FEE6
FDE7
0057
FE95
FF14
0011
0147
FDE4
006F
FF14
FEFD
034C
0127
019C
006E
00B4
0128
0037
00A7
002F
FF9E
FE77
FEE7
01B7
FF7A
FF53
0005
FEFD
FFD5
012C
0150
FF5C
FEF7
FEFD
0037
FFC5
FEEC
FF21
00CF
01EF
0176
0095
FEDE
01B4
FEDE
0259
00BD
FF50
FDFC
FD5A
002B
0081
FF1A
00AA
FDF0
FDE0
0029
FE24
FF84
FF19
0080
FFCE
FFE4
0100
FE0E
FF71
0262
0157
0006
0000
0179
0001
019C
00E7
FF7F
FFF9
FE58
003E
0159
01E1
0085
FF84
FF8B
002C
FE8F
FFFE
FF14
0189
0035
FFE0
0156
FFF7
0189
FEC7
FEA7
FF10
005F
FE91
FFB6
FEDA
FF48
0122
0057
003F
0076
00E9
FEED
01BB
0046
FFD3
00CC
00DF
004F
0111
00EB
FFAD
FF29
FDBA
012B
0142
FF0B
FF1C
FF77
FF98
003A
FF16
0098
FF24
00FA
FF92
00A5
00B4
00A2
0092
0032
FFA0
FF37
FEB2
FF1C
FFB9
0120
0032
016D
0010
FF89
FF13
00D2
FF7A
0032
FFB2
FFF0
FD3E
FF09
FF10
0079
011F
FF76
0200
FFFE
0213
FF2C
FE20
0124
0130
FFF9
0186
FE71
FFCB
01B5
FF53
0086
0017
0182
00F9
FFDB
FF31
FE32
FEF9
FF75
009F
0249
FF8F
FFA2
0147
00E2
FFA3
FF70
0093
FD83
000E
FF13
0096
FF01
003A
FEDD
009D
0120
006D
009C
0028
FF3A
0019
FF7D
FF7E
0151
020A
00D4
0090
020D
FF30
003F
005B
0057
0180
FF89
FE47
0005
001F
012D
FF88
FED5
FC57
0091
FF3C
FF5A
FFF1
0003
0035
FE0A
015C
FF2D
FF15
0177
00F8
FECF
FF92
FFA2
0142
FE54
00BD
002A
FFD6
008A
0087
FD42
FFA5
0079
002F
FF43
FFD6
FFBA
FE4F
FEEE
FF84
010F
0116
0087
001C
FE8B
00B2
00C3
FF3D
008F
0061
00CF
009E
0062
FF01
FFB1
FFE4
0021
FDA6
FDE8
FFA6
FFA2
005B
FEC5
FF06
FF7B
FE15
FF89
003E
FE05
FEBA
FFBA
FF0D
FF7D
FEDF
FFC2
FDFA
FEAE
FE81
FEE1
FF33
FFA6
0143
00A6
002C
006C
FF8D
0080
015D
0135
FEB4
0021
FED0
001C
00CF
FF51
FF3F
FFD3
007F
012C
0054
FD70
FE69
FF29
FE34
FFF8
FFAA
014F
0053
FF7D
009F
01C4
0117
FEFC
0036
FF99
0087
01B8
FE50
0116
FF3A
FE3D
FF37
FE81
FFCA
00EF
FED0
FFEB
FF55
00E5
0047
FF72
FD13
FFD8
FF5A
004A
006E
003B
0233
FEB4
010F
FEE2
FF26
00B4
FF93
FFDE
008E
FFEC
00A1
00B1
FFE2
FF1C
0121
FF8A
0081
FEDC
FF4E
0026
000A
FF49
005B
019D
FFEA
FDFE
0162
FFE3
004C
FF13
00A5
FF2D
FF5D
FF1D
FFE9
FEB9
0043
FE4D
007A
FFFF
01D7
FF8E
00B2
01BE
0018
FEDD
0022
FD95
020F
FFF9
FF8F
0160
FE76
FED3
0023
FE9B
FED2
FE54
0205
0072
00A8
00AB
FEFB
FF88
FF0F
FE4C
FE76
FF87
FE8E
FF34
FFF7
FFBE
0119
FF0A
FFC6
FECD
FEF0
00EF
FEBB
FE96
0128
FCFF
FF77
FEF0
FF97
0067
FFC1
00BA
001E
FEEB
01DE
FDD4
007B
FF38
FEF1
FF45
FF86
013E
FFE7
FCF6
0044
FEF4
007B
FEF3
FF70
FF86
FF3D
FECA
FDC9
FFF9
FFB2
008B
FF6D
FDDE
FE25
00DD
FFC4
FEA7
013B
FF2B
FE42
014B
FF1C
FF88
01E3
00D2
FFBA
FEC6
FEAB
FF91
FE67
FF7A
FE7B
0061
0067
0046
FFA5
FFD6
0041
FF43
010F
002A
FECA
0170
0063
014C
0032
FF4D
FF64
0054
00AE
FF00
0070
FF46
0009
FF1A
FE91
0043
FF8A
FF1A
FF00
FFB2
FF8E
009A
FED9
0106
FF7C
FEDE
FF95
FFCB
014E
FF74
FFDD
FEB0
0092
0043
FF11
FF32
0010
009B
FE99
FE66
FF0C
006D
FF3F
0161
FEC3
013A
FEB7
FFF2
FFB1
0029
FF05
0106
FF5C
00DA
FFE5
FFE2
FF8F
FF22
FF36
0026
FEEB
FED4
FFB3
009C
FFED
FE88
FE69
FFDC
FEBD
FD4D
FECE
0050
0016
0053
FE38
00C1
FF22
FE9E
FE0F
FF99
FFFE
FE45
FDA3
FE79
004D
FF6C
0059
FF13
0182
FF05
FF99
008A
FFDD
FF97
FE3E
0066
FE4E
019B
FF76
FFAC
0119
00C5
00B9
00B7
0109
FFE1
FEB1
FF62
FF86
FF5C
FF1C
00C8
FF01
FEC0
FFF8
FFB5
0173
FEB4
00FF
FF18
00B7
003C
0313
FEA4
000D
FEEF
00E8
FF8A
00C0
FEE0
FF72
FF52
01A7
FF03
000D
FF72
02B4
FF44
FF77
0038
00C1
020E
FF14
002A
0099
FF85
0090
0060
0006
0173
FE97
0030
FD96
FF5C
0089
0108
FF66
FFFA
0146
00FD
FF02
FFC3
005E
013D
0222
0065
FDB8
FF5E
01AC
0083
009F
0091
00F3
FF0B
009F
0198
FFB6
01D4
FEF2
FF3E
FD72
FF00
002C
FE69
FEB8
002A
FF52
FF79
FD86
0210
FEBE
FE04
FF55
FE3D
FD82
FFF1
FF78
FFD7
FEE3
FEE1
FF1B
0091
FF7F
FF87
00D8
FD4F
0105
FEEA
0066
FF8A
FED9
FFC4
0051
00DB
FFF0
00B2
0144
FFA7
FF00
FDAA
FE59
FEAA
FE76
FF03
0131
FF13
FE19
FD43
009A
FFFE
FC6C
FFB9
FEF8
FF48
008C
001D
FFE9
0072
007A
FEE4
00F0
FF2F
FFB9
0193
0069
FFEE
00A9
FDD6
FD97
005C
FF02
FF3B
005A
FF6B
FFB2
02B6
FE6B
FDF0
FF55
FF26
FD13
FFE1
FFE4
FE92
001C
FF56
0065
01F5
00C3
0008
FDBE
FF6C
000B
FF16
FE6E
FFD2
01BC
0259
0027
00CD
0023
FF6C
005A
FC25
FE8E
FFFB
FECC
FF91
FEE9
01C7
00C5
FFD8
01F4
FEF4
FF75
FDD9
0080
FF9B
01C3
FFEE
0052
00F6
FF67
FF86
00CA
FE87
FFDB
00BD
FEC1
FD18
02AC
0005
FF74
007B
FF6B
FE8C
FF3C
FF9D
014A
FF3F
FF22
FF65
FF34
0101
FF5A
FF22
0127
FECE
FF92
0037
0139
FF71
00F0
0023
FF82
FFE6
00CF
0006
FD99
0007
FFC6
003F
002E
FFB0
FE8A
00DD
FFDD
FEAB
FEDB
FF88
010B
FFFD
FFE0
003B
002E
00ED
01C6
00BC
FF77
0017
FFDA
0167
FFB7
FEDA
FD67
FF9B
FF54
0191
0002
FF7B
012D
FFC0
015D
00B9
FE3B
0155
FF98
FFE5
FFD7
FFB7
FF4D
FE11
FFC9
FF2E
0130
FDE7
0081
0077
0140
FEE5
00D5
FE80
FFE3
0071
012B
FF7D
00A9
FE73
0142
01A0
FE44
FED4
0107
FFF1
009F
FFE5
00D9
0193
FFDF
022F
FF4E
FF12
00C4
FFE5
FE8D
FF7D
FFDA
0027
0177
FEED
FE4A
FF77
000D
0086
0062
01E0
0101
FF28
FF83
FFA9
FFB4
010C
0075
FF9E
FE5D
0092
0009
FF16
01CC
02C6
FFB2
FD73
FD91
00CB
0156
003D
FFE8
FF4F
FE82
FE74
FDA3
0031
FF2C
011A
FF69
016B
0022
00A1
0119
0089
FED7
FF19
FF9F
00F6
FFE4
0002
FF2D
0117
00B7
FEB0
FF6F
0011
FF62
009B
FFA0
FDA3
FDC1
001F
0087
007C
FF3E
01B9
0144
0033
003D
FE53
FF9D
019F
0077
002F
FEB9
01F3
FEC0
00CD
000D
0018
FECA
FF3D
00BB
FDB4
FE7F
0098
00CC
FFDF
FD9D
FF07
0061
FEE1
FFCE
00FA
FF1D
FFC7
FF72
FEF1
FDE3
FFD6
009B
025F
FEB2
FEAA
00CD
FF1E
FFDF
FE63
FF75
0237
FFC8
FFE5
FD7D
FEA1
00CD
00E7
FFFD
014C
FF3E
00A2
FE6F
FE7C
00B2
0180
FE82
FEEF
0055
00F6
FEBB
01C3
FED4
FD91
003C
FFA2
FF35
01AF
FFE3
0182
FF32
FFBA
01BC
FFA4
FF1C
FF56
FF5A
FF86
FF6B
FC81
FD61
0003
005D
00E6
FE85
FF7B
01D8
0059
FFBB
FF9E
FFB7
FF55
01C2
FED3
FF7C
00B1
FF11
00FB
FF4F
FF30
0146
FE97
FFBA
000C
0006
0051
FFBF
002E
019D
FEF9
01DF
FF0A
FFD3
0022
FFC9
FDAD
FE88
FE7A
026C
01D1
00DB
FF2B
0067
FFB4
00F0
003A
016E
FF8E
FFE0
FED3
0030
FFFF
01EC
001A
039A
FFCA
FEB2
FF56
00E3
0073
FDF5
0121
00AC
FF42
005C
0073
FFBD
0112
FEE9
0014
FFB2
01D8
017C
01FA
FF8D
FE9A
0053
FECD
0033
00F5
FEA4
0038
FF23
00DF
012B
01EB
010F
0131
0154
0122
FEBC
FFBB
003E
FF47
FFD6
0056
FEF0
FFD7
FF29
FE6B
FFC0
FFCC
FF14
0014
00A2
0102
01A3
00F7
00E1
0059
FFD0
0065
FFBC
0199
FDD2
015D
0063
00C9
FEA7
01E8
011C
0006
0018
002E
FFA8
FEFA
FE97
FF57
FFCF
0112
00BC
FE12
FF8F
FFC2
026E
FF85
FE19
FF8B
FF72
FE38
FFA4
FF48
001A
0079
FFBA
014E
007F
FD9B
FF8B
FFD8
FEB1
022D
FF6A
FFE6
FE7C
FE45
FF5C
00CD
0081
0044
01DF
FECE
FEFA
FFD7
FFE9
0092
FDFE
02D9
FFAC
FE74
02CF
FF7C
FE1D
FFA1
FE9E
FF01
FEEF
FF7B
FDE5
FF35
00BF
00ED
FF88
0017
009F
FF21
FF9F
0088
00F5
FE25
FE76
FF9F
FF61
FF4E
01F4
FFC5
FEAF
FF6A
FF88
0179
FE3A
0174
0020
FFC7
FF7C
011C
007F
FE6E
0040
FFA8
FD8D
006F
004E
00DF
004E
00A7
00AE
FEEB
FFB1
FF36
FEAF
FFAC
0015
0034
FFA3
FF74
FFD6
FF77
FEB9
004E
0162
FECA
0133
001E
FE51
010F
FDD5
021E
FE4A
FD10
FEF7
01CF
FF2A
005A
0126
0070
FE4B
FF2D
00DC
FE09
0058
00F1
FFEA
00FD
00F1
FFFF
FF25
0004
FEC6
FFC8
009C
FEF8
FDA0
0198
0030
000F
FFD8
FE4F
FED5
FEA9
FF5C
FE98
FEAC
01F1
00B3
FEF6
FF37
FE54
FFEE
FFBC
FF3A
FF9C
FD3E
FF8A
FE42
0107
FF11
FEA5
FE1C
FF55
0062
016C
009C
FE48
FF9D
012D
00EE
FF90
FD50
0011
00AB
FF2B
FE35
FF5E
008F
0108
FEB2
FED2
FF68
0079
0068
FFE4
01C1
01BE
FF67
FECF
FE85
FF7F
00C1
FDAC
0153
021C
FD8E
FF99
FE6D
FF72
0049
FFD4
0050
006D
FF22
0027
000A
0149
FF22
FFFD
FFBD
005C
018F
00DF
010C
FE90
FF4E
0050
FFE2
FF60
FEED
0131
FE81
0056
010B
FE27
0022
FE7F
0003
FF18
FF49
FFA0
FFC7
0135
FF6D
0016
0121
0249
FDE7
0074
FF22
019A
009A
008B
FE46
0000
FFA5
0129
FEA8
0034
0290
FFD9
FF5B
FFA7
002E
005B
FE10
FEC6
FDD7
FF57
0017
0040
FE68
FEC9
FF94
FFAA
FFB7
000F
FF35
FE67
0044
FEFC
00FD
FF7E
FF17
0003
0070
0178
0045
00AB
FF8C
FED1
FF66
0004
FF34
FF88
FF81
FFD6
003B
00AE
FEF0
FF4C
0047
FF71
FFC0
FF39
FE4F
FFEB
01A5
FFDE
FF87
0023
FE3B
FD2C
FE44
FE46
FE92
