FEAA
0156
016D
FF90
FFF6
0250
FEFC
FE40
01C8
00BF
0184
0033
00C7
0249
01D8
FE64
FF18
0034
02A3
FE63
02A8
FF15
FE05
00E1
01FC
FFF4
FF7B
FEB2
0220
0253
00E3
023D
005B
FF1D
FF25
0001
00F6
FF9D
02B4
FF86
FE38
0021
FDE0
FE9D
01DC
029F
010C
FF7D
FFE2
FF9F
FED2
0076
003A
007A
02A8
0053
FF80
FEDE
003B
02C8
FE67
FFF4
01B7
00B7
0180
0052
FF86
FF52
FFDB
FFCB
FFE1
FE32
FDC7
FEE1
012C
FE9A
FE04
0199
FF54
FE53
0203
FE2C
FE78
018A
024E
00B4
FF20
FF40
FEDA
FE5E
01B2
FEE3
0115
FFBD
FEB1
FE6F
FF0D
0049
00B4
FE1E
FDF8
009C
02F3
FE80
01CB
0130
FF45
FDD3
FE9A
0090
00F4
FED9
027E
01CD
008E
01C9
005C
0125
018A
0243
FECA
01FB
014F
008D
00D9
01E5
FFEA
018F
023F
0291
FDB3
FFC1
0199
FF88
0187
01E2
FF5A
00EC
0013
FF8C
0099
FDCB
FDE0
0002
0233
0106
FE03
01AF
0161
0158
01E5
FEBC
FF9F
FFC4
0245
FD5D
FFBC
FF75
FDE9
FDFC
FF76
01AA
0214
0170
01AB
0249
FE3F
FE41
01D6
00CE
FF71
0099
01B6
FECD
0013
FEA6
FDDF
FFB1
0223
0160
FE69
FFA0
0019
FE7D
010B
0117
0206
FDEF
FEAB
FE15
FFBE
0168
FED8
015F
00C6
FDBB
01E6
025E
FF2F
014D
01EF
00BF
FD6A
FE8D
00CC
0383
0149
0203
0073
FEF3
020B
02C7
028A
0290
FE72
013D
00AD
025A
00F9
FECE
FE60
FE17
FFA1
00B1
018B
FFE8
0280
FEAD
FEAB
00D4
0136
FDD7
FFD7
01A4
FF6B
0299
01D1
0148
00D7
FFDA
00AF
00BF
FEA3
FF81
FFD1
FE04
00CB
017D
026A
00C6
01CB
01EC
FEAF
FF26
01A4
0078
0118
0007
0073
011B
FFB5
0045
0124
FFAC
025A
0260
0192
0203
0187
FE8E
FDBA
FE1F
0151
015B
01FC
0114
0184
FE23
0039
01FA
0238
008A
00BD
007D
FE31
0159
FE60
FECF
00E5
024D
00F3
FF98
FF9B
019A
FF3E
006E
036E
FEDC
FDDC
FE59
0089
FFB8
0043
0193
0135
FEBE
0142
FEC2
0174
FE75
0056
01DD
0259
00E3
FED7
FF31
01AF
FE87
FEDA
FEBF
FDD0
FF74
FECF
FEB2
FE47
0135
FDF8
0287
FF96
0250
017A
0023
0031
FE3A
008A
FF88
FF70
01FB
FFE1
0030
FE46
FE93
0007
FF49
FF4B
FF45
015F
016A
0115
FFEC
FF39
FECD
02C9
FF3F
01FA
00A7
008A
00BC
FEE0
0104
FF86
FEF2
00BB
0056
FDF0
0132
FDDD
FFD5
FF56
01D6
FE46
0020
0202
FFF0
0159
FE6A
FF75
0256
FF55
0175
FE14
008E
FE7C
000A
FE95
FE40
0108
01CA
01F3
013E
0126
012F
002E
0175
FF27
FDF8
016B
0269
FF8E
00C2
FF2E
FFB6
FFD2
FFE4
FE1B
FFCF
FEA3
028B
FFBC
FF04
FF36
0185
020B
01F3
FF0B
FE8E
01D5
00A3
0263
0169
FFF8
0167
00B0
FE06
FEB6
FDBE
0228
FD5C
004C
FE6D
FF30
FF5F
017B
FFDA
014B
FF0F
FF06
02AD
007A
FDE3
004C
003C
0096
003C
FEAA
FF2F
017C
01DC
FF61
FFF4
000D
FE95
0211
0281
FEF6
012F
00D7
FE3E
FF1F
FEF1
FEBE
00E2
0227
011D
FF1E
FE30
0024
01CE
00D8
0011
0011
FFD9
FF28
00C5
FF13
0256
0170
FF2B
FDF0
0209
01DB
FEDE
FE5E
FF58
FE46
0250
FF37
0118
0061
00E5
FE3B
0241
FE83
FFDA
0054
0149
02B4
0090
FF3F
FE79
FFAA
0031
FF6A
01D1
FF52
FE4A
0129
0146
0075
0298
0190
FFAE
0081
0181
028C
FD96
FE04
FF4D
0271
FECC
FF57
027B
0240
0185
0199
0052
0287
0140
0139
018E
0006
FF26
0101
FFDA
0265
0275
00AC
FF3A
FE35
01A9
FF1F
FF3D
0276
0024
0216
0125
0058
FDED
FE14
0123
0196
FE66
0084
0024
0288
015F
013E
000D
FF16
0150
0115
0175
024A
FF95
00F0
FF2C
00A3
025B
FEE2
FFCD
FF63
0206
015E
0169
01DC
0028
FF7F
028B
00E6
01DA
FD85
0135
FF12
00B5
FE94
FFEB
FECA
FF36
FF95
0336
FEF5
0207
FE7F
FEF3
0203
FEEC
FF95
FE79
00CA
003C
000A
FEE4
FE6E
0029
FE13
017D
0148
0178
026E
FF62
FFE3
0256
00CD
FE5B
FFDA
00C0
FF41
00A1
0229
FF31
FF57
020A
0169
0179
0080
0268
FFF7
FDEF
FF98
FE2E
01FD
01C6
FF7C
0163
FE2D
0142
01D5
FFFD
FE94
0236
FEBA
0024
FDB4
FEE7
FE1D
FD02
FE26
0005
FF3B
01CB
01B9
01FA
FE3C
00BE
01D5
FE84
02BA
0199
0088
01EB
FEB7
010E
FFC7
FFEB
011E
00A0
001A
004F
00A2
FF57
0159
FFA4
FE9E
FDC0
026F
0138
FDD3
FE97
008B
026E
FEB2
0255
FD88
FF62
FF11
00A1
015D
FF90
001F
FE59
00D4
0265
FDFB
00CB
0050
01E4
0053
FF0A
FE19
FD50
FDAA
0083
FDA9
FE3D
FD6E
FEBF
00AA
01E4
FEE2
00AD
02E7
FF1F
02E8
0189
FEE2
FF65
FEC3
018F
FE78
FF74
FEA7
025B
FFEB
0255
01AF
013B
FE7D
00F7
01B5
FF4C
FE80
FF48
FF78
FED0
FFE6
016B
FEA2
FECE
FF7A
010B
FE81
010B
011C
FDEC
00F5
027B
FEE2
00AF
0267
FDE3
014F
0223
FEF4
FFE2
012E
FF34
0017
FE9B
00BD
0191
FF40
00FB
00B1
FF56
00ED
007F
FFA0
FF0E
FE75
01DF
026B
0127
0202
014B
021E
00F7
0072
FF20
01F8
01C8
0171
FEFF
FDE1
FFDF
FF9C
0016
0060
FEAC
00FC
FF85
FFA4
014F
FF96
00F2
FE14
0099
FEB8
0115
FFC4
FDF0
FDAB
01D2
00B1
FF34
FE76
029E
FFD9
FE2D
FFE9
01F7
FF8D
FFDC
001D
0005
FEB1
005A
FF76
01F4
023F
0062
0207
0151
0044
0229
02EB
0242
0240
0225
0048
01AA
FFBE
006B
FEE4
01FB
FEDF
FDF8
01A8
FF89
FD99
FF73
01A3
FE04
01DB
FE81
FEDB
01F5
01C3
FE43
015F
0069
0107
013B
0026
0010
FFB1
00E8
FDFB
FDE9
FEBF
FF4D
FDEE
FE73
011C
01BF
FE5B
FF23
017F
0081
0061
026B
FE83
0106
0062
00EE
FE1B
0064
FF18
01E7
01D2
FF26
FE71
FEAD
FEDA
FE33
0237
FF0B
00C0
FF7D
0298
FF7F
01F6
0230
0093
FF1B
0092
007E
FE51
0124
023D
004C
FF93
FED2
FE2A
003A
007C
013E
FEB2
FEE8
FEAC
FEAE
FFC3
0006
FE73
00E9
0270
FE29
FF9E
00C6
FDB0
FDBA
01FB
FFAB
011E
0111
0095
01CC
FE7F
FD71
01CA
FF7C
026A
01DE
FDF9
FE5F
01B3
FEF8
001B
00B4
FDE4
FE34
00FD
0005
01DD
FDAE
0227
0026
FD73
0187
02DC
FEC0
0009
0148
021B
0101
FDA0
01BB
FDCE
FF32
00F1
FD93
FDF4
0372
FF72
01B4
FFF5
0190
FDB3
FEBF
0080
FE32
FDAB
FF3A
0115
FFAB
FF3B
00B4
FE24
0133
0338
FECE
02A0
01E2
00D0
00C7
FE14
FFFD
FE8B
0145
FE82
02BB
0018
FF81
FF9C
0286
FE6D
00E0
00E8
0253
00E0
FE89
0248
FFCC
00A9
FE35
0033
0080
0098
01A2
0136
0085
FFC1
001F
FFC5
01B1
03E8
FE9A
021D
0135
011E
0266
FEA4
013A
016D
01EC
FD82
011C
025B
0116
FF4D
FE81
0146
0113
0076
006C
0133
00D7
FDAF
0025
FEC9
FEBE
FFAC
FE80
0339
FE8B
00AB
027B
FD39
0063
023E
FFAA
0192
010F
0158
FED6
FDD9
FF71
FE24
FE4B
0257
01D0
017E
FF79
001E
0099
01C9
FF34
FEB6
0252
006E
02EF
0166
018C
0266
FFD4
038B
00A0
FFD8
0085
0105
0167
FF8D
019F
010A
FF49
0009
FD94
000D
FF38
FE2F
0305
00FA
0059
01A8
FF6C
0019
FF5E
FF29
00C1
FDE7
00D4
0064
FFF1
FE6D
FFCB
00F3
FFAE
0138
0008
FF7E
00BF
0125
008F
FE32
FE0B
FE7A
FEFB
FF56
01B9
0232
0025
026F
028C
01DC
0145
0258
0234
FEAA
FEBF
0163
018F
00C8
FEF6
0224
0113
019F
01CC
0171
FEB0
01B2
0085
017C
010F
030C
00B6
0114
00B8
018B
00BF
0217
005C
0090
FF2D
007F
0123
0098
005B
01B7
00FD
00DB
0043
FF89
00E7
01B3
FE2B
00E1
00A6
0183
FEFF
00EF
0232
013A
FEA8
01CD
00DF
020F
FE8D
FF76
FE60
0128
0026
000D
0007
01A7
FF60
FFDE
FEE8
FEBA
00A1
01C4
FE50
0307
FE4C
017C
0209
018F
FFA6
FFEC
FDB1
FE9E
FE4E
019A
0029
FD8E
FFAE
007D
025D
01DD
0275
0226
012E
FFD6
015C
FDC5
FE0E
02AF
01DE
00AF
015E
0122
FF5F
0226
FF84
FF77
0032
018A
FF01
FF5C
FDB9
FCD0
FF14
FE05
FFF4
FE24
0003
FFE4
FF75
02F1
01A6
FFBD
FFB1
026F
FDF3
0089
028B
FFB6
FEA4
007D
FF34
003E
0196
0166
FFB6
FE65
02AE
FFFF
00A3
FEC7
FEFC
FF17
014B
FDD1
FF15
0138
FE8D
FF92
FF6B
FFEF
FE2F
009E
0013
0400
FE2C
FEA0
FFA2
FEC8
FFCD
FF4F
009F
FF9D
0138
FDFA
FF08
FEC4
01D5
FDCD
0117
FCE8
01AF
FEEB
0022
FFF2
0214
FF8B
FEB4
00F3
FE19
013F
00B4
001B
026F
FD8C
FDA9
FDF1
0000
FFC9
0056
FF62
FDFF
FE25
FE4D
FE6A
FF60
FE65
FDEB
0115
FEED
FF58
FF55
FF77
0165
FF79
00FA
FFA6
0065
FFC7
FEEC
01C8
009D
FDA6
FDB1
FF3F
01B2
FFEA
FE87
FE14
FE73
FDFE
FDE2
0190
0079
0019
FEC1
FE2D
027C
005D
FF28
FF86
FDA6
FDAC
0156
FF93
FFA5
016F
FFFB
0162
020D
FF45
FF58
FF50
FF9E
FFA6
FE3B
00FE
0282
0188
FD60
FFAE
FDE1
FE2D
013B
FD91
00E5
FE4E
0028
FE11
FF4B
00FA
0028
FFFB
FE6E
00AE
0055
0082
FF1A
01F9
FE73
FF9A
FEE6
FDFE
FFE2
0114
FE1D
FEC1
FFB4
FE6D
00D0
027A
004A
FE62
014B
FE18
FE6C
0104
FD70
FE47
00F9
FE65
010B
000A
FFA5
032C
FE9E
026B
FDAC
FFB5
022A
FE96
0123
0217
00FC
FFB7
01DF
0084
0051
00C4
015A
FF06
00F9
021E
00BE
0115
FF20
FE4B
01AC
FE9E
FF6A
FE0D
008F
0012
FFAC
00BB
FE00
FE77
FECF
FDA7
006F
FF58
FDF3
0068
021B
00AC
FF28
005B
FF00
00E0
0077
01CA
01E1
00E9
0197
FED0
025B
0077
FFF1
0124
FF68
FE73
FF7D
FEEA
0314
003B
FE53
FD7D
FE56
FFCA
FE3D
FE72
00C8
FD81
FDF5
0148
0114
FF80
01E9
00A3
001F
FFD8
FEB6
FD97
0158
0171
FEC8
002F
FDBB
FEF2
016D
FE3E
FFBB
023A
FF28
01DA
FD61
01EA
017C
FE80
FE5B
014F
FEE7
FECE
020E
FE24
FF71
FDE3
FF6A
FF79
FFB4
FF54
00A4
FE20
00C0
FDD8
FE38
01B8
FE6D
020C
0014
FDDA
FE8F
FF57
0113
0176
014B
008E
0043
010D
0212
