00AC
01DB
0174
00FB
FEB6
003A
010F
0094
0124
0016
00A6
027C
01DC
FE68
0275
FF42
017E
022A
0124
004A
FE11
00DA
FFAC
025E
FD8D
0177
00E3
0044
FFE2
FE08
FFF5
0228
FD46
FDD5
FE1F
FE08
FDEE
FD10
FE80
025F
01EC
0007
FFC2
FF78
FFDC
FE32
FEE2
FE13
0018
FF3A
FF22
FE25
0060
FD72
0053
0058
FE9B
FE23
FDA9
0059
FDC9
FD5F
0269
FF53
FF52
0010
FD6C
0108
FF70
FF6E
0005
FFBC
010D
0161
012E
004A
FFD6
01C6
00B3
0202
FE57
0012
018D
FF2E
FD79
01FA
FEF1
FEBC
021C
02EC
FE82
0044
FD32
FE30
0087
FEE9
FDDB
FE1F
FFDC
0028
FEB8
FDB9
026D
FFD6
FCA0
01F3
0280
0155
0162
FDBD
FD85
FE72
0120
01A8
0053
FD46
FF0F
FD55
FF06
FE57
FE74
FF85
0144
FCAF
020E
0165
003A
FD26
02D9
FF4C
0024
FFAD
029C
015A
FE75
00BC
FF15
01B3
FFF8
FF61
FF0E
FF4A
FE3D
02BC
0074
00D3
00ED
0095
FE3E
02A2
FE9C
010F
0223
0242
0046
01BA
00A1
FF7C
033D
00F8
01FF
022B
0021
0035
02E7
FDA4
01F9
020A
0024
0208
012A
FDB6
02DD
01C1
033D
026E
0370
FED7
FEF2
FE21
FE3B
FEBD
0063
0147
0047
FDBD
0044
FF02
0141
FE65
011F
0220
01BC
FDE6
FF26
FD88
0102
0196
FFEC
031D
025D
FEA1
FF75
FE2C
FFB9
FD0B
0221
FD9B
FDCB
FFCC
02A0
0256
FD03
01C8
02ED
0216
025A
FEB6
0275
FF63
FEEC
027D
FEA9
FDED
0013
FF78
0009
FFEA
015A
01DD
0279
FFC4
0381
01D2
FF2B
FEDA
FF7E
0054
0102
01FD
FF1F
FED8
0160
FFEC
01C6
FF2C
0027
0385
FFE3
FEF9
01C0
01DC
02BD
02D4
01C3
FFF5
FDE2
FF68
FD1A
FDED
0262
0225
0110
FDE4
FDE7
FD0A
01FB
0267
FEF1
02A1
00CF
023F
028F
009D
FEB5
0138
FD05
00C3
FEAF
FFEF
FE97
01CA
FF0B
FE1C
FF07
01A7
01DA
FFB6
0044
FD2D
00EB
01A3
000F
FD61
01AE
0049
FDD0
FF64
01B8
0299
FE1D
0238
00A3
FD59
0172
FE9F
0031
00BD
0016
FE28
FCF4
FDC0
FF91
FEDA
FE11
FFC0
FED8
FEC8
FD37
FFC2
FDDB
FDB3
01A6
00EF
FED5
FDB8
0200
01A8
FE4B
FF5D
FF02
FDBC
00AF
FD01
029C
0119
FD30
0061
FD55
FC83
FE47
0281
FFB7
FED3
FDEE
0173
01C2
0030
022B
FFD1
0199
01ED
0073
0072
007D
0041
024F
01DA
FD18
FCED
0087
016C
013C
FECA
FDC6
0270
003A
FDCA
FF30
FD17
0330
0053
0057
FEE2
FE1F
01F0
FFA9
FEAD
FF69
025B
FF19
FDA7
0084
0113
015D
003F
FF0C
FFB7
00D9
FE01
FDC2
FD06
02AA
00FF
FEAD
00E0
FD98
FE14
00DA
FD8E
003F
023B
FD6C
FFAF
FD8D
FDC6
0162
0168
FDC2
009E
FD41
00F0
0216
00D6
FEEC
FD65
003C
0232
008F
FFA4
01C7
FE12
003F
FE5C
017E
FDA4
0013
FEF5
FEEE
FDEA
FFBE
0058
FC95
021D
FE44
00BF
01F7
005D
0283
FDB0
FDBA
FD4F
00CF
FD6A
0034
FEEA
0208
FE7D
FFA9
0136
FD85
005F
01AE
006F
0142
0232
02AE
00B3
01E7
028B
01D6
011D
0192
00BC
008F
0264
FFC3
FD4A
FDD7
0068
FFD9
0272
0234
FE7A
00D2
FFD5
FF0A
0260
0090
02B5
FE44
FD6A
FCF3
FE7B
FE79
0057
FDC9
0046
007B
FEF8
FC19
002B
FE6D
FE53
011B
0021
FF10
0056
FD50
FFA3
FE3F
0110
FD01
01D7
01EB
FDE5
FC8B
FCE7
FEFC
01B6
FEE9
028F
00AC
01F9
0066
FFEB
0265
FE6F
023F
0203
0055
FF9A
0156
FF2F
FE2A
01B7
00B7
019F
013D
FDFA
FDD5
01FF
0065
0136
0067
02B1
FEEF
FEDA
FE42
FE9D
0168
FF57
026A
FE57
026D
01D9
00EE
0067
00F1
FECC
FE86
FEB0
012E
FDC2
FD4E
0207
FF4A
0236
FF61
0161
02A7
0214
0193
0294
01C6
FF64
FD65
FEC2
FFA8
FEBC
0016
FFE6
0285
017A
015C
FE72
0104
FECC
00E7
FF3C
00FF
022D
FF26
FF28
00E7
FEC2
00CE
02B1
FE84
007F
01A4
02C8
027E
006B
FE98
0050
00B5
FD71
01BE
0061
02AB
020D
00FB
FF21
FFE6
0033
FFA0
009C
FE0C
017C
FE84
FF4C
FE11
0195
017F
FC64
019F
FEE9
0071
FF82
0242
038A
02D4
00B0
01C5
027D
00C3
FE08
0075
0035
0095
015C
032B
FF5C
00FA
FDC8
01CE
FFAC
00F6
0307
FED6
0005
0081
FF6D
00D7
0084
FEC0
FEB2
FDFA
FF60
FD4D
FE85
FCF1
FEAD
FE0B
005E
015B
018B
FD47
FFEA
FEB8
FE2C
FE9D
FF3A
FFD0
FE67
015C
FEDD
0140
FD49
00A0
0206
FFFA
FE1E
FE64
01E7
FE27
0021
FFFE
013B
FF94
020A
FF1E
FE4F
00B6
00D3
FE7D
000F
FCCD
01F8
012F
FED1
FD7D
FF92
FED3
0081
0173
00A0
003B
0255
FCD5
FCF7
FCEA
0162
02ED
FFD8
01BD
FEED
FE13
FE89
FE25
0227
00E8
02C1
FD9F
FFFE
FD1F
009F
FF6F
FF71
0032
027E
00A0
026F
FE81
FF49
0112
000E
0259
FDD9
FE4C
FE7D
027F
FF00
FDDD
01CA
FD17
010D
0081
006D
FE7D
FD1E
FE65
FE4A
0048
FD75
0198
FD95
FE1E
FEF9
FF64
012F
FFDB
FD63
019C
0051
0111
FEC8
FCFC
FF15
0148
0210
0010
FD67
FDD5
FDF9
0195
FEF3
FFF5
FE29
0094
0056
0109
FE18
FEC9
FEFD
FF9F
FEAE
01C9
FE49
FEC8
0186
01F2
FFFF
FF60
FF75
01F2
FDAB
036A
FE80
FD7E
FEB4
0092
FE8F
FEF5
00DE
FE11
01AC
00A9
FF0B
02A4
FEAE
FF54
FD8C
FDC7
0195
0175
032B
0208
FDF2
0237
FF08
0218
FDF3
02C0
00BF
0050
01E0
01DD
FF0B
FE49
FE4F
FF6F
0203
FD76
0003
0079
FDE8
01C1
FDB9
01C9
FFA3
00BF
FE46
0258
FF1A
017B
FDE1
FDA6
0081
024B
01DD
FF51
FD57
00EC
0205
FE33
009E
00E6
017D
FDCF
02FC
0139
FF27
FEB2
FE31
0293
FDD8
013F
0263
FE4F
FE5D
FDBA
FED2
01F2
026C
025D
FF64
0008
FDC7
02AE
FF9C
01C9
017F
011C
FF40
02D3
0258
0417
0226
01FD
00F5
029B
0084
0128
FEF4
0245
FDFE
FF44
0009
0016
0120
0353
0069
FE41
FF77
FDAB
01C1
FDF1
FE85
0289
FF4E
00D6
01AC
0215
FE8F
FDCE
FE8E
021E
FE2E
02F1
FEA2
FF62
0155
FF42
0176
014E
FFA5
007D
FDD8
FDC5
FE7C
FF78
FFBF
019A
FF4D
FFD8
FE1E
FF05
01C3
0251
FDCB
0022
021F
024C
FFF0
FEDB
FFFB
01F9
FDA1
006A
0004
FF63
FDD8
FEAE
FEB1
012F
00E1
FEBE
024E
01D2
00FF
02A0
0237
FE69
0297
FFE5
FEDA
022D
FE0E
FF25
FE33
FEED
FEE0
FF63
FF96
FE05
0308
FE0A
FEC9
0221
01E5
0210
FFC7
00C3
02C8
0005
FDD9
FE81
FEAC
01F9
FD7C
FDBA
FD9A
0038
FE06
FE25
FE06
FD2D
FE7E
01FC
0134
FE48
FF29
01C7
00E1
015E
FE72
FE93
02D7
FFE5
FFA6
0079
021D
0313
FEE6
03E6
0140
02EB
FFBE
002E
0225
0042
FFCE
00C6
00E6
0089
005B
FE5D
025D
FF4B
012E
010D
00D3
022A
FDBD
00F4
009C
FE55
007C
0252
FF40
FDC8
01C6
FD0C
0252
007E
01B6
FDC2
01CF
FEF7
FE9C
FF0E
013F
01E2
000C
FFBB
01AC
FDA2
FD19
FD70
FF7E
00DC
FD90
FD8E
FD53
FF99
FEB2
FE3E
FF1B
003A
FCEF
FDCC
FF1B
010C
FF66
0051
FE21
005A
FEB2
FD39
FD8F
0025
FF8F
FFB0
0239
0173
FED6
0126
00B3
005C
FD9F
FE9D
0152
FD89
FFF5
FF9C
01F3
FEFD
01BC
FF48
0183
0280
FE7E
FD96
FFE5
024F
FEDD
0088
0049
FFD1
0263
FE82
00F6
FFBC
0230
FD06
0150
FFDD
FFD2
FD1B
0250
01ED
00FE
FD55
0265
00EB
FF2F
0108
0084
FF2C
FF66
FE7B
FE8D
00AF
FD46
FFD8
FFBC
FFA9
FD1B
FFDD
FFBB
01C9
012A
FF57
0154
FFB1
FE38
FDE0
00F8
FD21
0205
FFD9
FF33
FEB7
FCD3
FDD2
0176
FE0E
029D
FCA9
FE6D
02E7
FD88
0005
019E
FF94
028E
0234
FE90
02C2
0285
FF01
015A
0329
00B7
FE6D
009A
FFEB
FE55
0168
FE78
0055
0220
FF93
000E
FF18
FF11
FE8A
FD50
FED9
FD44
FF5B
0105
FDCA
FDCA
01B5
FE59
FF98
FFD8
FEBD
00ED
FE3C
00CD
01CE
FFE6
FDEE
FE72
019A
FFD6
018B
000F
FE77
FEFF
0243
FD86
FF21
FF7B
01B4
0271
00FF
FE97
0317
017A
007B
00EC
009D
0004
FFCA
006F
02C0
01A3
0159
FE70
FEC0
FE0A
FE03
017D
FE7F
FFBE
0072
0083
FD7B
00A1
005D
FE93
013B
FFE7
FE23
FDF5
021C
015A
FF92
01B1
FE98
01A2
FE63
FE21
030F
0365
FDB8
02A1
FEBD
FFF4
0230
FE3B
FF9C
029F
FF7B
004E
00CB
FFC4
0135
FE39
FEED
02EC
FFD7
0000
0135
02B9
FE12
FEC5
FE78
025B
FE5E
024A
02E9
01A5
FF42
02DE
FE38
FFB6
FDB7
FF5A
002A
0037
FEE9
016C
FE96
FF17
003E
00A1
FDA6
FFD7
FF9C
01D4
FEB6
0080
FE31
01FA
FE49
FD35
FE21
FE46
010C
FDD6
FE59
01A9
01C6
01F3
FF20
FD9B
008E
0268
026E
FE0A
0174
01D9
01DF
020E
FD6C
FE5A
00E2
0173
FD1A
03FB
FF7D
FF52
FDC6
022D
0013
FF72
FEE8
FF80
FD14
01C4
FF76
FE6A
FDA2
FE25
0407
0261
024C
FE9E
FE6F
FD91
01F2
0036
FE04
FEF5
00E7
028D
FD49
005C
017C
01AB
FE36
FDBB
0024
FDB5
02AE
FF44
0220
FCDD
0245
0079
00D7
FF1B
FF4E
0007
0187
FDE9
FED2
0181
FE28
FED5
FE72
022B
FE3D
FEB3
018B
01DE
01D7
013A
FF1F
03AC
01E2
FE23
0116
FFCB
FE29
01EB
0345
FF0C
017A
015A
FFE0
0139
0026
0260
0196
FF65
FE2F
FF14
FED9
0067
02D5
FF0B
01A3
FF9F
001A
0074
0112
01D1
018A
FF07
01B5
FF2B
029D
02BD
0010
027A
FDFE
FEA8
FE15
0162
FDC7
01A5
FDC0
0191
0021
0185
FFEC
FDFD
FFEA
FEA9
029F
FE4E
0321
0120
000F
0196
0281
FE67
0275
FE1C
FF4D
021F
0196
0144
002D
0033
01D3
FECF
FF66
FE8B
0176
FEA8
01F8
FEF5
FFBC
029A
0104
FF8D
FF21
0009
004F
0200
0295
FE76
FDFA
FF81
FE31
FED1
FDB6
0121
025A
FE06
FD8C
FFA6
0082
01D6
FE58
019E
01BB
0003
FD55
014E
00B7
FF86
0102
FD07
0028
00B2
FD7D
0172
FE7D
FE73
0361
FFD2
0072
FD4A
02B5
01B4
00E8
FCE6
FE7E
00D0
00E0
FD48
FF6C
FDD7
FE6C
0376
0033
0261
FE68
02AC
004C
FF4D
FED2
0166
0155
FF95
0020
033A
00A4
FD30
FC7A
004B
026E
00F0
01FE
01AC
FE85
005C
FDF4
FFF0
FD5C
FDAF
0279
0173
FFB3
FE25
0184
019E
FFF7
FFB3
00E6
FD52
01D9
FEB3
01BD
0126
020C
0249
FF6F
000B
FE77
0099
0084
00D2
01E4
01E3
FF05
000C
01B6
01CC
0171
FF59
0193
0065
FD76
FFAF
01E0
FF15
0261
FEBC
FEB4
003C
FD28
0181
FD57
FD84
FF94
FF64
FC98
FF14
01A9
FE0C
0170
FE3E
FEFA
FD49
FF3F
FE26
FBC3
0233
015F
FDEE
0060
FF37
FF77
00ED
0173
0104
02B6
FECA
00AC
FE27
FF6B
0260
FDF3
0100
FF27
FEF7
FF95
0085
0033
FE12
FF51
0238
0238
028E
02B5
FDAA
FEF2
024B
FDC4
0244
FF0D
0172
FFD8
FD94
FE54
FF06
0234
00C1
FEB4
0034
FEE4
FC75
0081
017E
018B
FFC6
FCAF
01E1
FDFB
0177
00F6
FEB7
FE2C
FE3F
021D
FF9F
FEDC
FDAA
FFD9
FD44
0073
FDFF
FD1E
FDA5
FF0D
FEA3
01C8
00FF
FE2A
FE96
0090
FEDA
006F
001D
FDB4
FF50
0084
0100
00D4
FFC9
00C1
FF22
FE35
FC98
FD8B
FF45
001B
0131
FF4C
023D
00FE
FDB9
0233
FF93
FE5A
0095
FF3A
0119
021D
FFEA
0175
FF61
FD8F
FF40
FCB4
00F7
FD0C
0114
00EA
FC88
007C
0263
0095
0004
0108
FF03
01CE
00AB
FFCF
000F
FCC4
FED2
0062
FD5C
FEB6
FD57
FDDD
FF3C
027B
FE09
01EB
FEBE
FF68
FFA5
0177
FD54
FDE1
FE38
FF74
027A
0149
FDCB
00DC
FFC0
000A
0111
FE74
FED7
031F
FDCD
FE69
0049
018C
0000
FE0D
006C
02BC
FD49
0021
02E4
FF59
FCEF
FFFD
FD8D
023B
00C1
FF71
FEBD
00F4
FE42
0071
025F
FDEF
FEEB
FF29
FDB2
FD82
FF83
0075
0131
FC99
01DB
FD38
00F4
FE5E
FE10
FF60
FD9A
FEBB
00F4
0111
0307
0297
002E
0213
FFAD
FF77
FF27
0052
0086
FE5A
0218
02DC
00E6
02E2
FFCA
0341
FF9E
0248
0156
01C0
FFD3
015E
02B3
00FB
01EF
02D1
FF8C
0365
FF75
FE40
FF23
FE0C
FDE0
FFFD
FE53
0164
FEC9
FF21
005A
027A
FEB1
FE38
FF11
FED4
0211
02F2
FF3E
0309
FDBD
FF4F
013E
01E2
FDEA
FE3B
FD89
FDD0
026C
FE50
02C0
0251
FDA5
FF0B
02B3
00EA
FDDF
FD5F
01E9
00CE
FDC2
018C
FE8C
0187
011F
FE0D
FDB0
01C8
FE13
FF93
00A2
FEAC
00E2
0020
FF8C
FDE7
FE32
FEE5
014B
006F
0165
FE93
FDF0
0287
FDF7
026E
FEC6
0173
0063
0126
FDE0
01E5
0113
01FF
018E
0308
003A
FECE
FFB2
003A
FEF8
FE87
01ED
02E6
FEAF
00EB
FEF4
FEF6
0222
FF21
FE3F
028A
FE5A
0072
0249
0382
0078
FF94
02CE
017F
FF4C
FD60
FE15
FFA1
FFDB
FF37
022E
FE1E
01B5
FFB4
01F0
FF0E
FDAC
FFE5
0091
FD96
015F
FC8C
FE67
FFC4
00B6
0110
FEBA
FF2F
0144
FFCF
025A
FD09
FDD6
FD49
FEF7
002B
FE50
011B
FD8C
FEE8
004A
0182
FFE8
0073
0155
023E
FE1E
FF06
0069
0100
FE72
0199
FED1
0107
01E0
0183
01D1
FCAC
FE41
0108
00F8
01B9
FDC0
0200
FFAC
FC98
011D
FE0B
FDF9
FDC0
01D9
FECA
01BA
FF9A
FF7A
FE2C
0042
024D
FFF2
00B9
008F
FF8D
FF51
0194
FE47
FDC4
002D
FE6F
021D
FEB6
02F8
0268
0306
FFAC
0119
FFDC
00A2
0043
FD85
FE95
FE12
FD8D
0198
FEBF
00D6
FF35
FC1A
001A
FC5D
FD04
0192
FE41
FDAD
FE71
FCC2
FDFA
FC7F
FEB9
FD6B
01CF
011E
FD3E
FF0A
FF2B
FED1
FF36
003A
FD49
FE61
FBEA
FD1E
0109
FF2B
FF80
FEA6
017B
029F
0141
01A3
003A
FF8F
FF28
FE27
01A7
0034
FFEC
FE1B
FF63
FFCF
FE94
FEAE
012F
FE10
FEC5
018F
015D
032C
FDE3
0222
FF99
006D
017C
00CD
0332
024A
01B4
02AD
02D7
FEAE
FD7C
0257
FE3C
02F8
01DD
FDF7
FE34
0117
FE3A
02AA
FFE9
FFD2
028E
012C
00C0
022F
0117
01DE
010E
0272
01A7
01F3
0286
FDB8
02D2
0217
FD98
00E9
00DA
FF38
FED5
FDD5
0295
00A1
FD82
FFC8
FF13
FF4D
00D5
FF31
00EC
FF86
FE8A
FF4C
FFB2
FD9C
01F0
FE3E
FF41
0201
FE35
FEA0
FFA2
FF54
0240
FF13
FE36
FF7E
FDB5
FE5E
019F
000E
FDDB
FEDB
FE75
02B6
FEEB
01F4
FE05
021B
FECC
000F
00A0
02BB
0001
031D
0167
0112
FE46
FE83
02A9
0115
01A0
FEF8
FDD7
FF94
0262
0131
FF2F
FD5B
FE76
FFF5
00FF
0013
0125
FDCE
FF20
0170
0005
02CE
0062
FF0B
02A0
009C
01E2
028B
FFC7
FDFF
FEA9
FE5A
FF91
0266
006E
016C
0128
FEA7
01D8
0167
FF0F
FFE2
029B
FEBD
FF38
00A0
0066
FE21
01F7
FF54
FF2E
02C9
FE9B
FE0F
0176
FE6E
0107
02C4
01AB
00D1
FE54
02CB
003A
FE22
0010
FD7E
FECD
0080
FE02
02AC
FE9C
0135
FF7A
01F6
0162
01AF
FEE4
FEC5
FD6E
01A6
0257
024F
012F
FF0C
01DB
020D
02B3
FDEF
FEEE
FED2
0303
017D
FFEF
FF41
FE3F
FE49
FEAF
FEFA
005D
FF1A
FEE1
022D
0206
FE37
FEED
FE99
FEC6
FE93
025A
016A
0198
FF33
00F0
011F
FEE5
FFA5
0181
0055
002C
00A9
FE23
026C
FFCD
FEBA
023C
FE53
0173
030B
FFE1
0321
02E2
0189
01B2
FFB1
FF63
FEE2
0282
FFB3
01CA
FF7F
0276
FE46
FEF2
011D
FFF9
0076
00F2
0307
FF4E
FF3F
FFF1
0196
FD3E
02A7
0024
FF5A
FFF3
FEEA
FE4A
0393
FF1C
FD80
00F2
FD97
00C0
0226
FFD5
02F7
FFA9
0219
0078
035C
FEAE
0105
0176
008A
0002
0111
02BE
FDE8
005B
FE3A
01E5
0055
FF20
02AA
02EA
0038
FF69
FFF3
0015
01CA
FE75
FCD9
016F
FDEA
018F
005D
FE97
FEE8
0274
01FF
0164
01CB
FFA9
FE72
FD63
FE88
0210
FFD7
FDCF
FF9D
01CB
FF59
FDFD
FE96
FF19
FD45
FF52
FEE7
02BF
0273
FE1F
00B4
0133
FD28
FD5B
0250
00B7
FD3F
0014
FE84
FF4F
0190
00D0
025C
0180
FFA2
FFBB
0019
FFB3
0245
04F5
FEF4
FE8F
0216
01E8
0389
034B
FEF8
02A4
00A7
00DE
FEC1
011F
0023
0236
FEBE
00D6
00CB
FEBB
FF9D
03D6
0068
01CA
0445
00A7
FE92
FFD0
027E
FF1D
FF17
FEFF
FFF3
FEA2
01FF
FE60
0151
FF0C
006E
02A9
0259
02AC
00C9
FF83
0006
023E
0099
FFA6
FE1D
0054
014E
012E
01CC
016B
FE33
0003
02BC
00D8
FEAA
FF8F
FF50
FFFE
02FB
02F3
0225
FDE4
02F3
0173
FF09
011D
0062
02B6
FE94
FF8B
01DD
010F
FFC7
01B2
FE64
0099
023C
0179
0182
002D
FEB1
FE8B
02F3
FE9B
FFD1
016E
0169
011F
FE3A
FDFA
FEED
01B1
0215
009A
00EB
0145
02D6
01DD
FD54
0258
000F
02B5
008A
FE72
FD05
FEC7
02B4
01B0
0220
02CF
FE8B
022C
0252
FD6B
FD86
FE18
FE43
FCDE
FF51
FD21
FE98
000D
03D0
0153
00D8
0013
FF9F
018A
FFF4
0059
022E
0144
FE3F
FED7
0057
005D
02A1
02B8
0266
FEB2
0316
FF12
FFB0
02BC
FDF7
003F
02F7
FECB
FE46
01AA
002A
0053
FD65
008B
FFA9
005C
021B
01C6
FE23
01C5
0240
0347
0042
FEBB
FF07
FE4F
FFC7
FDE0
01BD
0202
00A3
FEF2
FD41
02E0
FE09
02D3
FF11
FF68
FF17
011A
0058
0270
FEF2
FEA7
0047
00AB
0257
FD70
02CD
FE30
01D7
FF71
FECA
FF1A
014D
0202
00F2
01D5
0017
008E
0242
FE63
013F
0058
FE82
0099
00D7
01E8
00C0
031F
FFBA
0150
FFFA
0196
03B6
FF1E
FE06
00DC
FE16
FDD3
02A6
FDDE
0093
FFE0
FEBC
0025
FFB9
FDD6
FDF3
FE4B
0075
FED2
FE7E
00F0
01B0
FEA8
FD2D
FCAD
FF5F
01AE
015A
02E2
FF61
FE0A
FD16
FECC
FF20
00B3
FE14
02BC
FE8E
0103
FE3C
0225
010B
0158
0347
0263
03AA
0209
00FD
03EE
04E8
01DA
0382
0228
0179
0173
0151
026E
FDCF
01B4
029A
FF94
001F
003F
0208
02F3
FFDB
00D8
0296
FD9D
FE16
FEB6
FF94
0146
032B
028D
015C
01D5
01F6
0219
030F
FDDC
00A1
0366
0124
0399
FFAD
0165
FDBE
00A2
FF95
02D1
FF80
029C
FFD7
0230
FDAC
FDA0
00AE
008B
02BC
02F5
0019
0005
FDB3
02D8
00F9
0254
FDFE
FDE5
0291
FD93
010C
FE71
0382
FEB1
FF86
0243
FEC2
0342
0179
0294
02DF
FEA1
FF86
01F0
0079
002E
0256
FF45
FF93
028F
0182
00E0
FEC2
01EC
FD6E
02A3
001E
00B5
01A8
01E2
FFAA
00A4
FF2F
0078
0214
0038
FEFB
003A
0201
FFF7
022C
FD27
012F
FF40
FF33
00BD
FF6A
FDCC
01B5
FFBF
FE16
FDF5
FFBC
001F
FE66
FFAF
FE0F
FDB2
03A5
006E
01F8
FED8
0356
00F6
0052
0380
FEC9
02B3
FE75
01CF
00C5
024B
0285
01A5
00FC
0033
0102
00E5
FE1D
FE78
02CE
FF97
006F
028E
01DF
0255
024E
FE94
022E
0218
FD8A
FFD5
FE56
02B4
FF00
FFF2
FF60
00A9
FEA6
033C
02C5
02D4
FDF7
0015
02AE
0071
FF6F
FFBC
FFE2
0303
0098
034F
02F5
FE46
01B6
FF95
004F
FE37
FDA7
0172
FE9E
FE51
FED1
018B
00ED
FDA8
0169
00D2
FD65
0270
FF69
0157
011C
FE3C
FF84
0235
FE92
023A
0127
FF6B
FED8
0057
0086
00F2
FE68
0371
007B
FEE7
FFDA
FD82
FF60
FE4F
019E
001A
FEE5
FE50
FDB0
FE4C
FDAA
020D
FEE1
0228
FFE7
FE1D
01B7
020A
028F
FF97
0237
01EE
0160
0214
FE38
FDF8
FEC3
0099
FF99
FF6E
FF3B
FE98
FDFC
FFAE
0172
FF0F
01CF
FD70
FE55
FF4D
0181
FFD0
FDFA
FF0E
FD4E
0360
0263
03FA
0248
02EC
FEBC
000C
FE51
021E
023E
014C
0180
0173
FF6E
FEF1
023F
0347
02DC
0254
FF08
FED7
FE66
FE3A
FFBF
0239
021E
FE5E
FE42
00EB
FDB2
FE0D
FD53
FD82
0178
FD38
01DF
FF20
FF62
FCEE
FE03
FC77
012A
00AB
00AE
FF08
0040
FDE0
FD13
FDA2
0226
FFD7
00A1
FDED
FD77
028B
FD93
FEA8
FD1B
01ED
0120
00DD
003F
FF87
FD9C
FF41
FCBE
020C
FF83
FED0
FF53
FFFD
FD8B
FCD2
00F8
FE37
FDF5
FFC1
FFA2
FFD2
FDF9
0131
020E
FE1B
0012
FD78
029E
FFD1
0112
FFA0
019F
FF8D
00E8
FDED
FED4
01AC
0046
FE57
FEDE
024C
FED8
FE2A
FE3E
FF79
025F
00C1
010F
01D0
FE3F
FF32
02DF
FD3A
FFF0
0134
0239
FDC5
FE49
FE7E
FDB5
00D3
00DF
FF76
FCF1
FD21
FE54
0065
FFD5
0115
00CB
FF6B
FC57
FDF0
FD58
00B3
FED6
FD28
0244
FC4D
01BE
022B
FD7C
FDAD
FD2B
FD6F
FDA6
00B0
0228
0224
FDE1
01BD
01C0
000F
0152
FDF0
026B
FF46
FE2E
033D
FF14
FD30
FFA1
01AB
FD30
FE40
0165
027D
FEE5
02B4
FFFD
FEAF
00E6
FDB9
01A9
03F3
FD54
01DD
0071
0176
FE1C
FCE4
FD4A
0121
FD68
FE00
0291
FF16
FED5
FDAA
FF47
018D
FFE9
FF85
FFEE
0154
0037
0136
FF54
0129
0109
FEBC
FFBF
FED8
FC50
0225
FE5A
02E8
01AF
00B1
001E
007C
0258
FDAF
FE82
00D5
0095
FDC1
FD48
0015
00A9
FF33
00A5
FFE0
FDD6
FEF3
02C9
FE90
0042
FE09
010A
02DC
FFF7
0122
00D8
01DA
02D6
002F
FE87
FE1B
FF9A
FDCF
FDED
0114
FDC6
FF76
015C
017A
FC8F
FFAE
000A
022A
0114
FC90
FFEC
01ED
FDBF
019C
FD9B
031A
FFA7
FC8C
FEC6
00C3
00F4
0216
FFD6
FEC0
FAEF
FC1B
0381
FEE3
FFF2
02CE
016B
FD83
03BF
FD8B
01DE
0183
00CF
FDE3
0295
0063
FECA
00A2
FF13
000C
FEE9
FE07
0101
0293
01E3
0375
017F
0100
0256
000C
032A
00CD
FEBF
01E6
FF7E
FEEC
01AD
016E
02CE
01C1
02D4
001C
FF09
FF32
025C
00E7
FD89
FF3F
0275
0076
02D3
FD8C
FE3E
0332
FD6B
0188
FE80
FFAC
02E1
FEDD
FFA5
0291
01A4
FFAA
FE4E
0070
00E9
00CF
FF2B
015F
FF64
FE7B
FFD8
0113
FD6F
FF46
0181
0057
FFC4
027D
0170
FEEB
FF66
0145
FE82
003C
FF57
0151
FF21
FE83
FEF6
02E2
FE86
00F3
FD76
00AF
FEC2
0158
0158
0102
FF6C
0224
FF23
FE92
FE8C
FDEC
0122
FEFA
015B
0381
FE1A
FEE1
FE2D
03A8
01B4
FE07
FF2A
036F
0133
00E1
FE76
011A
0300
0119
FFE6
014F
0294
01B9
037B
01E1
FEF7
FE7C
FE29
0263
0184
0198
00F8
FF5F
00D4
0289
FDC3
0230
0061
02CB
0325
FE3C
FEAB
0142
031C
015F
FF4D
FE76
FF79
017A
FE84
0233
FF82
FE1B
009F
FE4F
FF12
FEBE
002E
FE1E
0167
012F
0248
FE3A
FFE3
0198
FFE3
0067
FDFC
FE42
0270
FE94
0090
FDB8
0174
0016
FE37
01D1
0133
FF39
00FF
FF07
FFF3
00F9
01B1
FF7A
FF2E
FE68
FF57
005D
01DD
FF8E
FE51
FEB9
01EA
033A
FDD7
FEE2
02BA
FFFC
FD06
0096
013C
0276
FF63
FD93
FE12
00A6
01B2
004B
02CA
00F0
FFA3
FDC3
0002
FE00
0185
030A
02F8
006F
0114
0204
004B
01F8
006D
030B
0035
020B
010C
00DD
0048
0375
FE48
FEA5
01B8
FF37
01C8
FE3D
01E7
FF78
01FD
003B
FD61
00A5
0005
026E
FE59
0356
FECF
0000
FFD7
FFD0
FE42
0043
032A
035B
0051
FE5F
FE6C
014E
0078
00F9
02DB
0001
FCD8
0253
00FF
FDB3
01D9
0226
FD7B
028E
FEEF
FFAC
0223
FE3D
FD34
FFED
013A
FD7D
FEBA
FF3E
FDCD
FC6B
0258
FFB4
FD3B
FE95
FF88
FDD7
FD9F
0170
0140
FD6E
0081
FE0B
FEE0
0063
0241
0192
0213
FCE2
0196
FDA3
0228
FE95
0215
FF94
005D
FD37
0266
FCA9
FDC7
0085
FF2A
FFE3
FF7B
FDC3
0222
01D2
00D3
01BB
0015
00C7
014A
FFF4
FE59
025A
00CC
0095
FDE8
FD0C
FEBF
FEAA
0215
FF47
0218
0107
0254
FF72
FDCD
0063
FF0A
FD72
0222
0062
002F
02B2
FFAA
FD37
007B
FFCA
0060
027F
FD98
02E9
FDAE
01D5
FF32
00E5
01D5
FECD
018A
FF3A
FCB0
FD30
FFB2
FFA3
FDFC
FD49
FEBE
013F
FDE7
005B
FE82
007D
0131
FDFB
0046
0129
0104
010B
FDBE
01E0
01D7
0016
0003
0064
FE4F
FD73
00B1
012C
FF31
01C2
FD67
0240
FDE4
015F
0151
00F0
FE42
022D
0017
FDE5
00AA
FF11
002A
FE74
000C
0176
FF75
0022
FDDD
FE48
0255
FEE5
02C9
FFB6
FD88
FF1D
0276
FEE6
013A
FE55
FFD2
0141
FDD9
0279
02CF
025F
026F
FF60
FEDA
FFD3
005A
FEAB
FFD8
FF73
FFD2
015F
01AB
FEB4
00E3
0163
FDA1
0146
FEA0
01F8
FEB0
FF69
02E0
FDEF
01BE
02FF
FFFF
FD3B
0158
FE68
FDA8
FFD3
FF84
FE64
01BE
00A1
FFE9
0230
FD63
0242
FDF3
0183
0217
FEB9
01A2
022E
02D1
01ED
FEA4
0317
FCFA
FFC4
01FB
0032
FF48
FFCD
FDA0
FFBD
00A6
0301
0353
FDE5
00EE
FE4A
FE76
003D
0131
FE83
0022
00BE
FE61
01DF
FF51
040A
FE77
0341
00CC
0161
01E5
020C
FE98
00F4
FFE8
FEB0
014B
007C
FED6
0090
FDFB
00D4
002B
FDAF
02D4
0201
002C
0163
027A
0271
FEC2
FFBB
FE0C
FFDC
001C
FE79
FEE2
02A6
01CC
0110
FFC9
001F
0171
FE7E
01B9
FE91
FF42
0322
02A3
FEBB
0044
0269
02B4
020A
FF7A
0314
FDD9
0037
02F4
FE03
02B6
FE99
FF8A
01DF
00FC
01C4
0063
0001
0042
003D
FEFF
019C
FF6D
0349
FF03
FE02
FF64
FDD2
FFF1
0060
01FF
014C
FE3F
0315
FF2E
FE23
01BA
0065
FD3D
0245
016B
01B0
0028
008E
023B
0282
FF43
01BA
0270
FF83
01A0
00F8
01FF
028B
FE63
01A2
FF7F
FFAE
FE8A
FF2A
FFF1
FE65
FEC6
FE92
0271
FEF6
027F
FE47
0045
FE69
0183
FD89
FEFF
01B7
0122
FFEE
00D7
007F
00DB
006A
FD63
FFCD
023D
0190
0324
FFC1
00F5
00BF
0032
FF95
FE35
FDFC
015D
02A6
034E
03BA
01F1
FF4B
0185
00E1
FED2
FD69
0124
02A2
0026
0148
FF9E
011F
FEA3
0085
01D1
FEF6
FD8C
0026
FD62
FF5D
0069
FF66
0050
FFFF
004A
FF86
FFF9
FF3E
0112
003E
0298
FE90
028A
FEBA
FDC2
FFBC
016F
006E
FEDF
025F
FDA9
FF18
FF5B
0143
FD94
FD11
0185
FE9D
0184
FE4A
FF2E
FE57
01C1
FF1D
FE09
FE6F
FE2D
FCF2
FECD
FD38
FE7D
012D
FEA4
FFF2
0219
FE6D
FD59
01B7
FF62
0147
FF0C
FDBA
0266
FD10
0081
019B
0221
026A
02C1
FF92
FE34
FE29
FF6E
FDA1
0019
0236
FFB8
FFB8
FD5A
FDC4
02A3
FD42
FE6B
FF20
FE70
000E
0170
FFA7
02C1
FEAC
0254
FE59
0215
FFFE
0254
FD5C
0035
0093
0039
017D
FF79
FE90
023E
0226
00F9
002C
FE03
FE4B
FFE0
0146
FCAB
FEFF
FD79
FF47
FF4A
FCC7
FDB8
021A
FFC7
0214
0163
019F
01BD
0240
FE6D
002B
0131
FE63
FD04
026E
FD5D
0057
FCE7
FD39
0040
FDE5
00DA
FE3C
00FF
FDFF
01DE
005F
FCFB
014A
0203
FEC5
FE18
021A
FDBA
FDB4
FE2A
FE7B
FE74
FDD4
FF9D
FFE7
FEC1
016C
FE60
0256
025E
0119
0147
0279
FEAF
0018
01DA
FF2E
FE8C
0106
FF64
013B
0053
0207
FF12
FF2E
FD2A
FF19
FF7F
FFAD
FE18
FD3B
023E
FC8E
00CF
0099
FD8D
FFFA
0196
0251
012D
FF2D
0049
FE55
FD6B
FF3D
FE97
0252
005D
FED8
FFA6
01F6
FDF6
FF78
021C
FD5B
FFE1
0184
FF68
FF0D
00D7
001F
0077
FF8F
0063
01B0
00FE
026D
00F0
FD5A
FCC6
FD29
FDC4
FDCE
FE35
FE57
003C
FF64
FEFF
FE43
0213
01AA
0196
FCEF
FCDE
FC45
FCF9
0189
FED5
000F
FEC8
00BC
003C
FE1B
FEE2
0067
FE56
FE1A
FF98
01E9
00B1
0066
01BE
01BA
FE49
FE2E
0002
FF13
FE3A
FEAB
FEFE
FD7C
FE62
02DE
0337
FF31
02F0
FF64
FEFB
034E
0159
0211
FE54
FF4E
031C
0112
024D
FF2F
FDA1
FDA4
FE27
FEB5
01E3
031B
0230
FF7C
0161
FD83
FE91
00A7
003A
0122
02CE
0082
FF9B
0017
FE75
0028
0307
0049
FF2C
0198
FF9E
001D
FDC9
00B4
00C0
FF4C
02A3
FF78
FE10
02AA
0219
026A
FDD2
FE9E
FE8D
FD1E
0055
0051
004D
026C
02EC
FEA4
FFF6
FE1A
0025
FE07
00DF
FE99
0118
FDEA
FD2A
00B2
FEF1
FE52
FF1E
0105
FFC0
FDD6
FDDC
FDA8
FF50
0184
FD72
FFE3
FFB4
00E6
01D6
FE3D
0000
0310
00B2
FF95
FF92
034E
01BE
0071
FF3A
0253
01E0
035A
FF79
0232
00F4
0181
FEE9
01B0
0039
FFC2
0017
02F6
0258
012F
FEA8
01CF
02D7
00C9
FF9F
0222
0194
FE84
0038
019E
0178
0217
FF6B
024C
01F1
FF79
FEB2
FDF3
FFC5
FFB3
FED6
FF11
FFBF
01E2
FEAB
FCAF
0146
FD4C
001D
00F0
0035
FD90
FFB9
0089
0218
0014
0124
FFAD
FE7B
016A
002E
FD02
00BA
FF0D
013A
FF30
00D5
0138
FFF2
01A5
0187
FEC8
FFD2
FD60
00E8
FDCD
0005
FF47
FD9C
FE1A
01B5
FCDF
FFBF
01D4
FD66
FEF2
0152
00CF
0105
030B
FDDF
0079
FFFB
01F6
FCF0
FF4C
FEC8
FE46
0026
FE9C
0082
FFEA
01D1
FEC1
0207
025C
0033
FF62
0280
0168
FE75
0085
FFBA
0207
017A
FE4D
0155
02EE
0126
FFC8
FE73
FE50
FEDB
021E
0064
FEAF
FF92
019D
00B5
FEFE
FCEE
00E6
FF25
010C
FFBB
FF13
FD2B
FE74
017D
FE14
0234
005E
0055
FFB6
FECF
FDF0
00FC
FFD4
001E
FC2F
0269
FE20
FF05
0138
02E7
FEC4
01A7
02F5
FE3E
FF7A
FE8C
FFEB
FF2C
FF8F
02B9
0081
FEFF
FF57
FE35
00A6
0080
0033
0304
FDDD
02B1
0146
00DD
FED8
0005
FE80
02EA
FEFA
FF7C
0071
00F8
FDCF
00E0
FFA5
FEDD
029A
0251
00AC
FDED
02B2
FD92
0080
00DC
00F4
FE2F
0142
00D2
02E1
FE0D
FDD0
FF50
018A
FFCA
0197
02BD
FF88
0085
00F2
0195
008F
018D
FEB1
01EC
FDFF
0025
FE48
FE19
FF37
0045
020B
0214
01C6
FFB8
0110
FDA6
0283
FE6C
021E
FDC4
0201
FFCD
0015
FDD0
FFC6
FFC2
02DE
FF36
FFE4
FFE2
012A
025A
FD19
FD40
FDAF
00B0
0346
FE16
FF30
FEDF
FFDE
0124
00F7
01D9
035F
FE7B
02DB
01A6
FFBC
026F
FFBB
0315
040A
FE0C
0348
FE4C
0325
FEE0
026C
0204
FEF9
FDA6
02AB
00D1
018C
FD51
033F
FF7F
0254
004C
0215
000E
01C9
0320
004D
FFFF
0230
FDF9
024B
001D
003B
02E7
0014
FF71
FFB5
0118
02D3
0232
01E8
01E5
0311
003A
029A
FF59
028E
010E
0056
01EC
0316
01D1
0115
FE96
FF30
FDFC
00A3
0167
FDBE
FF3A
01DB
0264
FF82
002F
FDBC
019D
001B
FEA0
00E3
FEB6
01C7
0263
0241
FE33
01B3
FE16
0274
FDF7
021B
0064
0242
FDD5
00A9
00C7
003E
FDCD
02AA
FE19
FE7E
02A7
FF92
0103
0272
0137
0207
FDC9
02BC
FF39
FF04
01E2
FF50
0028
FE99
FFE9
FD8A
FEDF
0152
FF57
02CC
FE1C
FDAA
FEE8
0275
FEBB
00D8
0018
FF9C
0275
FE4B
0309
FFD4
0357
0057
00A7
01A5
0325
FDFD
004F
FF36
FFAA
02F3
FFA6
0117
001C
0386
0366
0257
00C2
FEF1
01AB
02E0
FDEE
FF1A
00AC
FF50
0245
FE63
0091
FD10
FFDD
0002
FFEB
FFEB
0070
FDFA
FE73
FF5D
FDE6
0097
FFA3
FD2F
FE3A
FED9
0231
FCF5
0191
FE1C
FFE9
FD08
FDC8
00E7
FEDC
FD0D
00C6
FF5E
0265
0037
0038
FCA6
00A5
FF0E
FF7F
FE98
0061
FEC3
010E
007B
01F4
FF82
000C
FDE2
FE6B
FD18
FDCA
00CD
FD71
FEA4
0070
FDD7
0020
FE41
0177
00A2
FDE8
FD57
FDB5
FCEC
FFBC
FFFD
FEA5
01DB
FD91
020F
FFED
FF60
00BF
FD9D
FD6A
FE87
FFCE
00A0
FE17
02AE
0159
FE2D
01B8
FF6C
010C
FE4B
0250
0109
FE51
FD52
FEB9
0043
FDCA
FE85
FE15
FCFE
00B5
FFCB
FF21
FDF5
0137
006D
00DA
00C8
FE3A
007C
FE5F
FF84
FE2E
0120
009F
0113
0298
0062
FE3C
01A6
FD3B
FFB4
00A2
FEBF
FE46
FF5E
01A1
FE80
FEE1
019E
0141
0064
0069
FD4E
FDBF
0001
FD1D
FDC3
FEB7
FFB2
FFA2
FDA2
FC95
01F8
FEE7
FFBD
0065
FFB2
0262
00C8
005A
0265
FF52
00F0
FF89
FCBC
FFDF
00A0
FF8F
001A
022E
FF9D
FDDE
0057
0039
01DD
0167
005D
FF83
FE8D
FF24
0276
FD18
FE5B
FDE3
0270
FF48
FCE0
FF20
FEB7
FFE7
0222
FF37
0241
FFA1
0194
0075
FE6B
02C3
FFE0
01BC
0267
FFF1
FE15
FDF9
019D
FCDD
FBFE
01BF
FE6C
FCEA
FECB
0280
FDBD
0287
FEB2
FDE2
02AD
00B1
FF5A
031B
FEE3
FFE5
FF94
01A1
FEC1
0192
FF69
FE89
FF24
02B3
FDDB
0235
FE01
FDEE
00A8
FF27
009B
0261
FFF4
FEBE
0060
0332
007D
0180
0116
FDAE
FDB8
0127
FD28
FF79
FD26
FFFA
FD4B
0165
FC1A
FF69
0101
00EF
0050
FD63
000F
019F
FF9C
0105
FE2D
FF4A
003A
FDC2
0058
0185
FC58
0161
FF48
FF7B
01F6
FF69
FF8F
FFBF
006D
FF31
FDB4
FDEC
0356
032E
0251
00F6
0129
FE6D
0040
0253
00C4
030C
FF9C
FF26
00DE
02B9
006A
FDFD
FDBB
FDE3
0066
FD90
00EA
FED5
01E9
0290
FFDD
0283
FDE0
FEB3
FEEA
01EE
FE92
0357
FFD9
FE46
032B
FF8B
0319
030F
01C4
FF82
0396
FEE6
0212
01CE
0214
FE66
01E1
0035
01EB
FF71
01AE
022F
0314
0315
01B7
FFDF
01EE
FF23
020E
0175
0218
FE5B
FED5
FE11
FF80
FFA5
FEEF
FE2A
0300
FEA1
FDA8
01F5
0130
FDC2
0148
FFCB
00E7
00E4
01D6
FFD8
002B
FE5A
00C5
FD6D
013C
FFBD
FDD2
FCD7
03C2
01C5
02BC
FFEE
01AA
FFD7
0032
033E
FF94
01A2
02D7
014C
03B3
00CD
FEFB
01FB
03BD
003A
FFCD
FEBC
0028
022B
0073
FED6
036B
02B1
0268
0244
FF3C
022A
01BC
0001
0093
FF36
FDA1
021C
00D0
FE7C
FEFC
FD85
001F
013B
01AB
0039
FD49
FD26
FDEB
0138
FE27
FF86
FE5F
01EF
FE1B
033C
FD98
0218
012C
FF13
FF38
02C5
022D
FE0E
00AA
FE48
01DF
0139
013C
0045
0010
FF8A
002B
FE15
0270
01A6
FF2E
00D4
FEA6
FF52
FFEE
FF8F
0187
FE3F
FEC8
00DF
002E
0021
0286
FF51
FE07
030F
00AB
0027
00DC
FD5F
017F
023C
FE73
00CE
FF4B
FD85
01BE
FDB4
0286
FF9F
00D0
00D1
0003
FE29
FF9F
02CF
FD7B
010B
0168
FEEF
00AB
02A6
FF78
02D0
FD4B
FF4D
FD24
FF26
0088
FE7C
FF24
01F0
0036
FED0
0152
FE5E
01E7
FF62
FFCC
01AF
0163
0402
FD53
0219
000E
FFE2
FFC6
FF59
FEF0
FF4E
FF1F
0215
FDF3
003D
FFBA
010F
0105
FF24
FFAE
00D1
0154
FF74
FFF1
FF82
FEF2
0054
0144
0066
FD1F
0137
02A7
FEA3
000F
FEF6
01F8
FFB9
028F
002C
0216
FEFB
FDA9
0017
0236
024F
0068
00C7
0140
FFCB
FF11
FEBD
0009
01DC
FD7B
02B0
FEB7
FD2C
FF14
0208
01D5
0024
01DF
017A
006B
0113
FE08
00DA
FDA7
00F9
FD36
FFC1
FE25
0260
FF32
FD9D
FD3B
00AF
FF09
025B
0118
00FD
FFC8
FEF4
010F
027A
0207
01CF
FC37
0295
FD3E
FF9A
000C
0304
FD97
FFDF
FFD6
FECB
0097
FE81
FF81
FF16
FFA2
0267
FFD6
FD0B
FFAB
011B
023F
0180
0151
FF93
FE9A
FFB1
FF05
01F9
FFFC
0060
0190
019C
0227
FDFF
FEA8
007C
004D
FCDB
0077
0009
FFBE
0077
00DC
FFD9
FFFE
FFE1
0211
FD3F
0109
0000
0100
FD13
FBF6
01DA
FEF4
FD49
FCAF
FD8E
FD93
FD70
FEED
FDA3
FEF9
008D
FD43
0173
FE9D
FFBF
009A
000D
015E
0279
0282
0092
FE81
FD7C
FE1A
FEC5
FEC2
0259
FF8F
FE85
0064
0040
0237
01F9
FE14
0143
FFEA
002C
FE01
0268
0319
01BA
FF96
FF16
02E8
0249
0301
0169
FF9F
FE33
FF76
0248
FFB3
001C
FDBA
FDEB
FF22
FE01
012A
FF17
FF43
02BB
FFEC
FFCD
FE79
FF4B
017E
01C2
0224
00D9
FDDA
FE8E
FEAD
0070
FEE7
01A9
0223
0239
010B
02DF
FF35
0170
FF48
0130
0175
022C
00FC
0067
00FD
0276
FE7F
FE46
0280
FFED
FD52
0132
02AF
FFF3
0280
FF12
FE67
008B
FE7C
FE77
FE0D
02A1
02D7
FE09
01F9
FEE0
005C
FCFF
008B
006B
FFFF
0046
026A
FF8A
FF60
0208
FE3E
0275
020B
0149
0020
016A
012A
FE4D
019B
0074
FEF8
015D
001D
00F1
FF5C
FE70
0372
0083
0309
0179
026B
FE01
FDE6
01DE
004D
00E3
00C9
FD67
FE29
FFC3
FEA5
00B5
FEB9
0048
FDAA
010D
FFCC
FEBD
FD26
FD2D
0110
FDE8
FEDF
FF53
FF22
FD37
01CC
01CB
01F2
FE85
020C
FD47
FF7D
FF77
FF20
FF84
FD0A
FDBD
FD5F
FE90
0260
FF35
FF10
FF1F
FD30
FF16
0103
FEE0
FDBA
0167
FF05
00B0
0096
FDE2
FF88
FF41
FD7D
FF17
FEAA
0232
FDC1
FD39
0076
004D
0146
02B6
0008
0166
FE91
01AC
003C
FF06
00BE
027D
0062
007C
FD2A
02E7
FE59
FFC8
00C5
FF51
023F
FFC7
FD1D
01D4
01A9
020F
FD99
0051
FE81
0272
020B
0184
FD48
00C2
FEA9
0278
0186
FE97
0065
FF42
0138
FDB1
0177
FEFF
FCEF
0195
FD1C
FF02
FCF3
00F5
0198
FDCF
FF38
005A
00DB
FF41
002F
FDE3
FE58
FDE2
FD2C
FCD9
01B9
FFAC
FE00
FFFB
FF15
FD52
FF40
00C6
FF2F
0023
00D1
001C
FFEE
FF14
FFD7
01D8
FF1A
014A
0027
01FB
FFC3
00D9
FE78
FFE2
0121
FD4C
017C
FE76
01F2
0104
FD7C
FDCE
008F
0223
FF11
FE3A
FD3D
01C9
023E
00AB
FDB7
0159
FE8C
0144
0194
00D8
FD7A
FE4A
FED4
FCE0
FFB6
FF48
020D
015D
FCF6
0092
0093
FDB8
0154
0139
FE98
FD94
FCEA
FE29
FE78
FDAD
0040
FFB2
FE83
FDA3
01FD
FFCD
0251
FEED
00E6
FFD1
FDAF
00D4
FD94
FF94
FDBA
02B5
FF31
FE48
FDDC
FE31
FFB4
FD6C
0259
0304
024B
006A
FD29
021A
FF7F
01B1
FE83
FFDA
00D2
0033
FF13
01D9
0169
FEEF
00B4
0230
018E
0039
FCFD
FD4B
0037
00A0
FED1
0162
00EE
0233
FDF3
FC69
00DC
01DC
FF1F
FEDA
FCC9
0192
FFB1
0244
FEC8
FF86
FEDD
FE70
FF46
0134
0016
FFDD
FF99
01CB
01BF
FE48
FF82
FFBD
FF08
FF1D
01B2
0139
FEFF
FDCC
FFD2
0219
022C
020A
FF10
FF65
0116
FFF6
0169
01A7
0152
FE39
019F
0061
FE1C
FDD1
001D
0029
FE73
FDD9
FE50
FEC1
FE5C
FDC5
FE1E
FE00
005F
015F
01B0
01FC
000A
0146
FE0F
FEF7
FD96
FE42
FE22
FFE2
015B
FDDE
FE39
005A
FEC1
0138
0237
00DF
02B4
FEA9
FF6D
FDD5
FE89
00FA
0211
FFF7
00D8
025D
01F8
FE6A
0146
01DF
0243
FE32
02DF
FF49
FE8C
01C6
01FB
01FC
FE6C
0279
FFD9
FE62
FEDD
FDB9
FE76
015B
014A
014C
FEAD
0085
FF41
FD5C
01CF
FE28
FE4B
0170
FF04
0053
0238
02DB
FFE0
029A
0275
FE9C
02C5
FE90
00E3
FD44
00B0
0089
03FA
FED5
03AC
FFF3
FEE5
0191
01E1
0349
0247
0036
031D
FEEF
0181
FFB7
006D
0254
FEA5
00F5
FE2C
FDE6
FD84
FDD9
0285
010C
0104
0262
FEA7
FDAD
01CE
0259
FDAB
010E
004A
FECD
01B2
FDB4
00A7
FF0C
0039
026D
FE39
00D9
011C
FE63
FEE7
01A5
00BA
FFB1
0177
FE4F
FFBD
00AF
0218
0244
FE37
0227
FF43
FD36
FCEE
FF2D
000D
02AF
00DF
FF4D
0132
FDA2
0005
FF35
FFD2
FDDD
01D7
004F
FFF6
0133
FEE1
FDBF
FE6C
FD1E
01E9
0169
0226
00DA
01A0
FEAE
FE66
001A
FE43
FF7D
FE2C
00D5
0163
004F
0062
FE0D
007B
00D0
01DA
FF1C
FE23
02B1
00D5
01F3
025F
FE7A
FDEA
0084
FF58
FFE4
0221
FFCA
0185
01DB
0228
0110
FCCB
FCE3
0164
01AB
FD3A
FDAD
FD56
01D2
FF8A
FD7D
0056
FDE8
FF58
FE7A
FDF0
01A0
FE04
00DF
0172
FD18
FFF1
01B2
FDC7
0186
FCBB
0262
FF4B
FFDD
FE6E
0172
0197
FDDF
025D
02B3
FDA5
0217
010D
002A
029B
0262
02EF
004B
015E
0200
0106
FDFC
025A
0057
FF72
02AE
FF84
015E
FE3E
0092
009D
FF19
FD9C
FDFC
013B
FEE1
FD64
011F
FF9C
0161
FF55
02D1
027B
01BF
FEC1
004E
0016
031C
0152
00E0
02A1
011E
0249
FDB5
01CD
FDB0
FFF1
FE6A
FFB0
FFEC
02AA
FDA4
FEB3
017D
02D0
FDA3
0290
02E6
02D6
0268
FDD7
FD8F
0220
0285
021C
FFD6
0010
024E
0225
FE41
FED3
0244
00A6
FE1B
0254
0221
FE34
0041
029C
00E2
FF28
FE22
FD8A
FE90
0137
004E
02C8
FD93
FF85
FF41
FDEB
0031
FFEF
FD3A
FE32
00F7
0115
FDDE
FDEA
00AD
01BA
00BB
01B7
0399
0164
FEA7
FEAD
0155
00FA
FF31
013E
FFE8
0136
FE6E
FE8C
0279
014F
0217
FDD8
0284
02E8
FF58
0313
0145
0008
FF9F
0271
FFF1
02C0
FDF9
FCF8
0210
01B3
FFBF
FDC4
FFCC
FE51
FE5F
FF74
FEC4
FD3E
00FB
0242
00AC
028E
FD43
FFA3
FF2F
0132
FF9F
FD6F
FEDC
010B
FE58
FFC1
FE2D
FEA2
FFA0
FF34
01E5
00EF
FE9E
FD5B
FE00
0102
FDD5
FDFA
FDAD
01F0
FE90
FFA9
FD72
007F
FF6D
01DB
FF69
FE78
FE1F
01B9
0097
0084
01AA
FFD8
0128
00A2
019E
00A4
000F
0229
00E3
FEE9
0110
FE20
02E4
FD62
FF57
009D
FFB0
008C
015F
FEBC
FD49
01A4
02B8
FEDD
FE37
003A
0250
FF81
0290
0196
0050
00B8
FDBC
01BE
005F
01D5
01C0
0287
0126
0142
FF9F
FE42
FCF7
01FD
FF2F
FEBD
FE79
FE04
FD6A
FFFA
019D
FE53
004E
00FE
FEA3
FE5F
FF1F
FEF5
00E0
FF7A
FD5E
FEA7
0079
FE5B
0018
FF28
0081
00F6
001E
015C
00A1
014D
02C1
FF34
00BC
FFDD
00D3
FD9B
FF6D
FFD4
FF9B
FFD1
FDAF
FF44
FFF8
024C
02BC
FFB0
FEC6
00DF
01C2
0270
0164
0178
01BE
028E
FDF7
FE35
FE54
01FD
0046
0198
0019
0355
005B
FFE3
FF3E
010D
00CA
FFDA
01A5
017A
003F
00D8
FEBF
02DE
FF13
FF6D
FEC7
FDE0
000E
030C
0192
FED6
0178
00F7
FDE2
FFE1
0185
FE31
FF87
007E
02AE
FE8E
00F1
00F9
007B
FFAE
0211
017B
0013
01C5
00B1
01F1
0310
02EF
FD06
029C
FF10
FFE7
00CD
0066
0260
FF0F
FEE3
FED0
0080
01C4
FFF4
0240
FEB3
013A
FF04
00B6
FE01
00F4
0115
FEAC
01C7
009E
00B5
0269
0243
012B
FEF7
FF32
FF7C
0010
02AC
0291
FEFC
FE5C
02F0
FE2A
FE0A
00E6
FED8
FF07
02AA
0232
01C4
FF3D
FE58
FF05
005B
FFEA
FEA2
011C
FF09
030F
FF43
FCE9
FEDB
FDAA
FD9C
FFCE
FFAC
01BF
0176
FED9
0135
0074
0294
FE2A
0162
FE99
FE47
FF63
0064
FDB6
FD0B
FE68
FFA8
0029
0225
FEE4
FF1B
FEA4
FF4C
024A
FE19
FFC2
FFA6
FEC9
00D8
01A5
0180
FF12
FFFF
FDBC
00B6
0090
FF5F
FDE6
014D
01E6
0064
FE98
029E
FCD7
0183
FEB6
00AA
FF84
00AA
0131
FF9C
02C3
0269
01A6
029F
FD28
FEF2
022F
FF3E
0042
FEA2
01C4
00EF
FD7A
FEA9
FE12
01B5
0149
01E4
FDC9
01F9
FF35
01D8
00C9
FD57
FF95
010B
FE85
013C
FFD6
004A
FFFF
014F
FDD1
0089
FF6C
FFFE
022D
0284
0088
022E
FE32
00FE
010F
007E
FF02
FCCC
FEDC
007F
FE5D
FF76
027C
FFFD
01FB
FF6F
FF46
FF9B
FFA2
00EC
0313
0015
013D
FE4E
00AC
00A2
FEE9
01A9
FC83
01C9
0032
FD9D
0074
023F
FF84
00D6
014D
02F9
0090
FEFC
FFEF
00BF
027A
01E4
FF90
FEE1
FF27
00E4
02E4
FFD6
FDC1
0112
0187
004B
FC7C
00E4
FE61
019F
0133
0054
0048
FFDF
FD2C
008E
0158
01E2
01AA
00D5
FF6D
02D3
FF41
01FF
02DE
FDAC
0137
FF26
0256
FDC4
0187
FBD9
027E
FD5C
FF57
01E1
0198
0100
016C
FD5F
01D2
FD90
FDEC
01D3
FD7C
FCEE
FDB3
01F7
FED1
FCFC
FDB5
0198
012B
FCF3
017E
FD96
FF63
016D
FD83
00AF
01C9
01F1
FD95
FF0A
01FD
FD16
029B
0241
FE02
FF3E
021F
002A
0298
0200
FD76
FE4C
0118
FF9B
00C4
FCD3
0086
FF95
0175
0057
02BC
FE00
FCDC
0079
0299
FEC2
FC0B
FE29
FC68
0221
FF80
FF62
0107
FF2E
FE22
FE69
FF5A
FFE9
FFD1
00E7
0432
FC9F
FC51
FCFC
00F1
FF60
00AE
FFA1
FDE7
004D
0156
FFC0
FF1B
02F1
FE4B
FD99
FD80
FD93
FECC
023A
FDCD
FED2
FE60
FE52
0246
FFEC
FE22
FE8B
FDDD
02B6
02F7
01F5
FFFE
00E1
020E
0075
02CF
FF44
FF36
01B1
FEBE
0149
FF60
0182
022A
FE22
FD66
FEAA
FE85
00E4
0287
007C
00C6
027E
FEFF
FEFF
FF2E
FE2F
FFA4
0258
FE2F
00D9
FD95
FDCF
FFB9
FFE7
0245
004C
FDCA
FF69
0174
015C
0260
FE02
FFE1
028A
018D
FD8C
0117
FEF8
FFE6
FE53
0114
FE1B
FF11
025A
02BE
001E
FD6B
0144
00B5
FE3B
FDEA
0181
FDDD
0278
0058
FF85
FFB7
FDC5
0175
FD9C
FF1A
FE99
015E
FF91
0186
0018
014B
FF01
FEA9
0350
013C
0283
FF04
FDC0
0031
FF1E
FE16
007F
FF08
0357
FFE0
FEAD
0190
0029
FEE3
FFEE
010A
00D3
FECA
00AE
0024
0003
0208
01C7
FDE3
FDE0
0282
018D
0024
02AE
00B3
01E8
FFEF
000A
FFA8
0058
FE10
0177
FEA2
FF43
0192
FEB7
00F5
FD37
024A
01D1
0163
FD4D
FD53
0150
01D5
0205
003C
FDDC
FDE0
FEEA
0075
FD57
02B9
FE49
00C0
021B
0054
FEEE
0100
FE63
FD73
FFAF
0195
0262
019A
02A7
00AC
FF1E
0119
00B3
FEEC
01C7
0242
0178
FD95
FDC6
03C2
FDB7
FE1A
0029
FD9F
008A
FEAE
00EB
014D
FEF6
FEBC
FEF4
0256
FFA6
0162
01D8
00D5
00C1
01B9
FE20
FF96
01D0
003F
FDAB
01DB
0009
01D4
FF8F
FC93
FFE5
FF4F
FE80
011B
00F2
FC9D
014D
000E
FDDF
034B
FE7F
00B2
FE97
0204
024D
FE1B
0142
FE2C
01B4
02F8
FE46
01CE
FD82
0076
0258
0300
000C
FFE2
FE80
FFC7
0147
FFB2
FE6F
FF2C
0027
0322
031D
0227
FFF6
0299
FF7F
02ED
0397
FE86
022C
FF4A
FE63
FD96
FF62
FEDE
FFF0
0093
02F1
FE22
025A
01F7
FF54
0153
FFF3
FE2C
FF5D
024C
FEC3
FE77
0222
FFAC
FF20
010F
FE1C
FF65
FE17
0078
FE98
FE95
0044
0272
0045
FFB0
FDDE
011A
02C1
FF0A
0310
01BF
0106
02F5
FF44
01FF
FFE4
0329
020E
FF16
003D
0270
00C4
0190
0255
008E
00E0
01AB
0076
01CD
01CB
010D
013D
FDB2
0105
0018
FE1E
0067
FF1C
0308
0048
0162
FFCE
0085
FFA0
FE0E
00DD
FDA7
FD1B
FE79
021B
FED2
FEA7
FFD7
FDEB
028B
00CB
0212
FD28
FFAC
01C7
0262
012A
FF9F
FDE0
FEBB
FE49
0160
02BC
FF84
0249
0231
FE3A
0012
03A6
FE52
0051
0348
FD8A
0289
0127
0091
0263
FF47
01FE
FEDD
FF22
021F
FDD5
0182
0134
030E
020C
03C8
FF0A
007C
00B5
01CE
FF4A
0249
0158
FFBD
FF01
FF69
018F
FFCE
01CC
FFA0
0079
FEC0
FDF4
01B9
01BE
FED6
FE93
011E
FE43
FEF9
FEAB
007E
029D
FFBC
02FE
FFA6
FE10
FF6D
01EE
FD8F
00CE
FF2C
FDCF
002B
0076
FF49
01D8
0251
FFF4
FF20
FE23
0259
FE99
FF03
FFB7
02D7
FF10
0291
FEC5
FF68
FF72
FEA1
FF35
0179
0045
0240
012A
0299
FE2E
FE76
0032
FE91
FDAD
0192
FE31
FD9D
FF69
000A
00D1
FFA1
0138
FE23
0149
01E3
FE2E
FD42
FE12
011E
FF27
FE9A
0188
015A
0013
023E
025C
FD3D
012B
018D
FD74
010B
FEC9
FD5E
02AC
FE2A
0268
021E
003A
FFA7
FF9D
FDD4
FDA5
FFE2
01D1
FF8B
FED7
02AD
FFBE
00C5
0008
FEE9
FFE8
FF29
00B4
0093
00F1
FFBA
FE41
0219
01D5
0285
00B4
0087
FF5D
FEF9
FE7F
0126
FD7A
0125
001F
FFC1
FD4A
FDFD
FFD4
02D4
01A8
FE39
009D
FD74
FF07
FFD6
FE2A
0295
0178
FFF9
FDBE
FE6D
FE33
FEEF
0121
FE2C
FD93
0023
0091
FE8A
004D
FF50
00CC
FD76
FEC6
FDDD
027B
FEA8
0147
FDE5
02C2
FE31
FEB1
FE99
0120
0092
FF47
01D8
FF62
FDFC
FDA9
FE70
FD7D
0219
0153
0270
00D3
FDB2
FDBE
013D
FE0D
FFB5
FD16
FDDD
0072
0169
01FC
FE14
FECB
FF05
02E0
FD0A
FDE8
0264
0166
FE3A
01D4
FFF9
FE18
00E0
FE00
FE91
FE20
02DB
0295
00A0
0105
02D4
FD70
01F4
01F8
006B
0048
FF9E
0269
023D
0086
0286
FF19
0229
FF6F
0075
FF88
FD83
0243
FFEA
005A
FC62
0170
014B
007C
FECF
006F
FFBD
0255
FF57
FD63
FC58
FD66
00C7
FD65
FDB8
FCD1
FD7C
002C
FFED
0219
01F0
0281
018D
00D3
FD6A
01BC
FEBE
00F6
0102
031E
02C3
FFD6
FF14
01F2
01A3
01FD
FFC1
02F3
00EA
FFDF
0359
01D8
01A3
0060
0270
FE80
0242
01BD
01F3
FFC1
0231
FE2E
FE94
0188
029E
FE2D
0197
0268
022A
0238
FE80
01C9
FF6D
020C
FE94
FF4E
013E
027D
FE7C
FDFC
01F4
0393
0101
FFA2
0272
0040
016F
00CB
FEF9
FF0B
020B
FEB0
FF4C
FFBB
0125
02F3
028B
FF29
FF24
0096
FF4B
FDD7
0261
FDCA
0130
0148
0161
0310
FE46
FCFC
FFDD
FFB3
02DB
0112
FF03
009B
01A3
FEB6
FEF6
0245
FD8A
0239
FFE9
00A9
0219
FF1D
0213
FD85
0027
0128
02A0
01C8
FEA1
FECF
FE3F
0166
027D
02B4
034B
FECE
FE2D
01B5
FFDD
019A
02CF
FEAD
002B
01FA
0021
01DB
0360
FEF5
0130
00B8
FE6F
0363
005A
019A
02B3
FDF5
FF1E
FEC5
01B2
011A
02E0
0130
0206
02A9
0255
FEB9
013F
FFD3
FEFA
0199
00A9
FE30
FE2D
0031
006E
FD3F
FF2C
FE51
FEDD
FF80
0399
FF9A
FF05
0168
0055
0106
FF23
0197
00AF
028B
FEB1
028A
028E
FF81
FDC2
FFA6
FF34
02E3
01F9
0343
FFA2
034D
01B0
005B
0299
034D
FDF0
FFF8
0178
FFB0
FE1E
FEF6
00A1
FD85
FF4A
00A0
FEAE
0170
FE6F
00F2
013F
FF17
FFB9
FE51
FDFB
0209
00A5
FE24
019D
017D
FDB0
FFD9
FFCF
FFF7
FFED
001A
0214
FE53
FCF8
FDAA
02C0
FF38
025A
01A0
FE57
FEE4
0196
028A
0022
FF41
008A
028F
FEBF
FEAC
00D8
FE4E
031B
FF01
FF16
0101
FFB9
FEC7
FE85
005A
004C
0139
FF96
00D5
FF57
0223
FF5E
FED6
037A
01B5
0358
023B
02A7
0051
FF8F
006D
FE5F
FED1
0352
017A
01E6
FFDF
0261
FFCA
0301
0336
0147
FDB0
0020
FF03
02B4
000F
FD28
FED7
FF07
00E5
0276
FDCF
02C3
FE58
01C9
01B5
FE9A
0312
FE74
FE8F
00D7
FE80
FFAD
0118
01A2
FFEE
013E
FF4C
FFD9
00C4
FE0D
FFC0
02E0
FE87
FD82
0002
01F4
FF28
01AD
02BE
026C
0247
FD44
017E
0217
FDA6
02DB
01B8
FE0C
01E3
00F5
FF6E
FE7D
FFFB
018A
FF31
FD40
01C5
FF0A
FD09
0083
FFE1
FE85
FD5A
FE2B
0206
FF23
FD58
FFF3
0149
002F
FFC5
FE34
005F
00DD
00B0
0251
FE7A
0242
FDA2
01AD
0222
FED8
FDA5
015F
0311
FD6B
FEA3
FD59
FE52
0192
FFEE
FD81
0139
FFB3
0194
021A
FFFE
FD3D
FEB6
FEC3
0085
FCE4
FDE0
FEEA
00FB
00BF
FCF1
028C
FED2
02E7
0211
FD72
01C8
019F
0235
0139
FED8
FDDA
FE27
FFC1
014C
FD35
0170
FE4D
0193
0232
FF9B
FF7F
0084
020F
FE50
FD1F
0212
0263
0235
00F2
FD39
FD3D
02B1
0128
FE0C
0247
010D
0161
0217
FF73
FDFA
0156
026B
FF75
0200
FCA2
00B3
0116
00CE
FDF3
00CC
01D4
FD50
FFF6
0257
017C
018E
016C
FF50
01DD
00AE
0180
0268
FE91
0251
FEB9
FDB1
0075
0207
FDE4
FE2D
FDD9
FF76
0053
FE5A
FD4E
FEED
00C9
FDFB
0082
0232
0198
0239
001E
02B7
028A
0254
FEB6
FF7D
FF1B
0042
FDDD
00A0
000A
FE92
01D1
FF4D
01B8
02A6
0242
027C
0051
FFAC
017C
0154
025B
FFB6
0141
00C4
FD72
0051
0119
FF60
0160
014C
01E1
0004
017D
0104
0190
FF53
FDBB
FCC5
FD3C
00C6
FCC9
FDCB
FE6B
FEE4
016D
01E7
FDCF
00E6
FFFB
FE69
FDD0
0140
003F
FD5F
FD77
FE95
0043
0176
FD65
FE2C
FE47
02AD
001F
FE35
FFF2
FDC4
FE02
0049
FFBE
0231
01D3
0036
01F4
016A
0162
0145
FD50
0159
FE87
00DD
011A
02A6
FD8A
FE92
01E2
0027
00F9
FE8E
00E8
FFCC
FE1A
FFAB
0043
FE47
0174
FD4D
FE7C
FD13
FD09
0233
0192
0129
0035
FE1A
FED0
0150
FEB6
004B
FE72
FFE6
0144
01E7
FE6A
0121
FF6D
FF12
FE94
0146
FE91
000D
FDAE
FFDC
00A8
00F3
024F
002E
FEC7
0246
FE3A
FEBD
011B
FF40
0223
0169
FD10
FE25
0073
FE5E
0155
FF44
0025
00AC
FF5D
0283
FEEE
FED8
005B
0034
FF03
0197
FE24
FD53
FE94
FE2A
0189
0209
FEC8
02B1
FFD0
FFDC
FE00
0238
FFB4
FEBA
FE2C
FE90
FCEC
FE95
FE0A
00DB
00DE
FF53
00AE
FDC9
0174
0082
0033
FF0E
0193
01A7
00A9
002F
FF21
FD2C
00B8
FD87
0139
FE01
0089
0112
0234
01A8
006C
01DE
014D
FEE8
0036
01FF
FFE7
FE75
FF37
FEFD
FE77
0005
FF5D
0207
030F
0198
0075
00D4
FF18
0147
00D0
FE8C
FF29
FF3F
0142
FECC
002D
00A0
00EF
02F8
FD51
015B
0074
FDB1
FF41
FD9A
02DA
0050
01C6
00EC
FE39
FED5
00D0
03CB
009F
031A
0123
02A4
FDC7
FF8A
0063
FE48
FE19
004D
FFB3
FEB5
FF36
FD60
0207
FF2E
FF90
FE62
00CE
0215
00AF
002B
FD19
02A4
024E
FEB9
0234
00ED
FFD8
FED6
FDBC
FC9B
02E8
0250
01C5
FD72
0268
FFAA
015B
FDDD
0087
00A9
FF57
FFE7
FF8A
FE13
0085
FF14
FE3F
0242
00C8
FEA0
0004
FF9F
00BF
FF49
022C
0248
014F
FF09
00A9
0051
0174
045E
0205
02F6
0315
FE0E
029C
FFC8
016D
02C2
FCBD
00D4
033F
00B4
FE22
FF5D
030E
FDDF
01B8
049B
0011
01DC
025E
015C
00BA
FCC0
FEC4
004F
0099
FDA1
008D
FDA6
FCFF
0032
FD56
0196
FEE6
FCCD
FF72
FE83
0016
FCDF
025F
FDD6
03C6
0201
00C0
FD47
018C
FD7E
00F4
019F
0072
FDEF
FF06
018C
0251
01A2
0119
FE7A
FE60
FF4C
01C5
FE5A
FFFE
FF8E
FEAB
FFE5
FEF0
FCA4
01E6
0287
022B
0087
0188
0286
0193
FEF1
0157
025B
0152
FDC1
FFDC
FEF5
FE1C
FF90
0082
FF52
FD4A
00DC
FF91
FFA4
01FA
00B4
FF49
FF0A
0016
FDA0
028E
0110
FF0C
FFF2
0098
0224
026E
0217
FD8D
0115
01F6
FDE0
FCEC
02B7
FD89
FF1E
000E
01E7
FCC0
FDBB
0036
01DD
020D
FE0C
FC27
FF94
003D
FF8F
FD11
FD37
00D0
FD51
00A4
FEEC
0124
01AE
FF7E
0180
00D8
FEBA
FC16
FCF8
0059
008D
FFA0
0062
FF44
FF90
FC34
01AD
0078
00EB
FFEA
FFE0
FE36
FDB6
0154
FD44
FCB4
0189
FFB5
01AB
0212
FF6D
019F
FD52
0168
FE77
FFC2
FDD0
FE80
FD76
00A1
FF8B
FE78
FED9
01ED
0243
0011
FEA9
FCB1
01A4
FCE0
0237
00A7
0229
FDEA
FF68
FFD1
FDAA
01A6
00DC
FDB5
FFB9
FFD4
FCC8
FF87
FEBD
FDF7
FDE2
01FB
FF59
FEAD
FFA6
0127
00BA
FE9C
02A7
01D1
FEB1
008A
0258
021F
FE94
FFD6
00CF
FD2C
FEF9
FEBE
FE33
01FB
0164
00FA
01B4
015A
0125
FD45
00CD
0313
0154
002F
023B
00A2
FEF4
0256
00D7
016A
01E1
FE88
0287
0033
004D
FD64
028A
FEF5
014F
009E
FE78
FEB4
002B
FCFF
FE0F
FD15
FD92
0055
0165
FD35
0179
FDA6
0038
0030
FD6D
FE0D
FEAD
0145
FE9F
0014
FDAD
FCD0
FFA7
FEBA
FF57
0039
000D
FE10
012B
FDD4
FF02
