00C8
00F1
0086
0047
0096
006B
00BD
0011
00A8
008E
0162
016D
0021
0058
0051
0008
0084
0021
004F
000B
00F2
0032
0039
00C9
0031
0011
0000
0016
0020
0081
0059
0080
0F90
1020
1000
0FDE
1014
0FF5
0FE3
1000
0F9D
1046
0F00
1034
0FEC
0FE2
0FB7
10BB
100B
1007
0FE3
0FD8
0FF4
1008
1015
0F10
0FBF
0F84
0FE8
1017
0FFE
1022
0FE6
100D
0059
FFC0
FFA4
004C
0057
0033
0047
0030
0010
FF96
0033
FF93
002D
FFE0
0015
0057
FFB6
0036
003D
FFF7
FF90
002C
FFC9
0028
FFCE
FFCA
FFD5
FFCC
FFC1
0060
FFE0
005B
0104
013A
0093
004E
009C
0046
00BD
000B
00D5
006D
0158
015A
0008
0050
001B
0067
0068
0018
0025
0046
00E7
002B
0046
0078
0032
002D
FFF7
003B
0020
005E
003E
004F
