FFB4
0068
0014
FFA9
FFDC
009B
FFE7
0024
0015
FFF8
FFFC
0040
FFD9
0024
0014
0022
0035
002B
0047
00BC
003D
002A
FFDF
FFF5
002B
FFE6
002B
006D
0025
0025
000C
002A
0009
0013
0025
002C
0025
0031
0072
FFD7
0049
002D
001F
0036
0011
002A
FFD8
001B
0021
002A
0004
0007
0032
0034
007D
001A
0053
0017
FFFD
004F
FFF5
00BD
00E8
003B
0FB8
105C
1030
0FAD
0FDB
10A0
0FE7
1025
1017
0FFC
1009
1002
0FDB
102C
1019
1038
102D
103B
104A
10D1
1040
102C
0FDB
0FFA
101E
0FE1
1039
107F
102C
1026
100C
1026
1022
1014
1028
1033
1029
104A
1088
0FD2
1067
103A
1022
1034
100C
1021
0FDC
0FF8
102D
1035
0FEA
1009
102A
1037
1098
1043
1054
1016
0FF2
1059
0FF4
1102
104D
1060
0043
0022
0032
FFE3
FFFA
FFF0
0057
0023
FFE4
FFDF
0027
002D
FFE6
0009
0015
0003
0017
002F
FFFC
0059
FFD4
0006
0037
003A
0018
002F
001D
FFCA
0016
000E
FFF0
FFE0
0018
0009
0016
0031
FFE5
FFE6
0022
002E
FFF0
0014
FFE3
FFDD
0015
FFF0
FFCD
001D
0025
FFE8
FFC8
FFFC
0041
0022
003C
FFDD
003F
000E
0023
0000
002B
0033
0043
FFE6
FFBA
0090
001E
FFA6
FFDC
00BD
FFE7
0026
0010
0009
FFEF
0042
FFD7
0068
0022
0064
004A
0034
0068
00BE
004E
0046
FFED
000E
002D
FFF0
003C
0083
0045
0047
000B
003F
001B
0030
0036
0039
0038
004B
008B
FFD7
0063
0032
002C
0036
0010
0042
FFD7
001D
0023
002C
0020
000D
0026
0040
0092
001C
0065
0015
FFF9
0076
0005
00BA
0113
004B
