FFBB
001F
001A
FFCE
000C
FF8D
0080
0040
004F
0035
009D
00EA
001E
0033
FFFF
00FF
0036
000B
FFDD
FF9E
0043
FFAA
00AC
0036
FFF4
008E
002E
FFD7
007D
0010
0021
0023
0060
0035
004E
0094
0029
0015
006C
0152
004D
0054
00F0
00D7
0060
0038
0076
0032
0036
003B
0020
0034
00BE
FFED
0011
FFF8
005C
0030
0004
00EA
00A0
005F
0058
0037
0FB0
0F4A
0F9F
0FA6
0FC6
0F6D
0FD5
1004
1002
0FD9
0FC0
0F4E
1001
0FF7
0FC6
0F69
0F6C
0FF6
0FC1
0F7D
0FF9
0F82
0FF1
0FC6
0FE4
0FF8
0FEB
0FA4
0FD4
0FEC
1006
0F91
1017
0FC2
1002
0FB2
1001
0FE7
0FC0
0FCB
0FED
0FCD
0F43
0FA7
0FEE
0FE2
0FF0
0FEF
0FE3
0FEE
0FFC
0F60
0F8A
0FC9
0FD6
0FC3
0FC2
0FFF
1007
0F87
0FF3
0F98
1016
0FE2
0060
FF7F
FFBB
003B
005A
FFA4
007F
0055
005E
FFA8
FF39
00B0
FFBE
004B
0054
FFA9
005C
0035
0062
001D
FFAA
FFBC
003A
0040
0049
FF9D
003A
0048
FFB3
FFBD
004F
0035
FFA3
0075
0061
00A5
FFAD
FFBF
005D
FF38
0055
0063
FF8B
FF64
0060
003D
006F
0032
FFAA
FFA4
FFBC
FF9A
FF98
FFBE
001A
FFF7
FF9F
0046
0034
0064
FF82
FFA1
001C
FFAD
FFBB
000A
0019
FFCA
0009
FF8B
0079
0029
004C
002F
0057
00AE
0025
002C
FFF2
00D1
0020
0007
FFD7
FF94
003E
FFA9
0095
002C
FFF7
0081
002E
FFD5
0079
001A
0020
001D
0060
000F
0039
006E
0024
0010
0071
00DC
003D
005A
0099
0073
005E
0038
0063
0020
002A
0035
001E
0017
009F
FFE4
0001
FFE8
005E
0029
0000
00F5
008B
0039
0041
0028
