00C2
FF00
FF46
0049
0084
FF80
FF76
FE20
FE93
FE93
019C
0090
FEFC
0070
FDAE
0402
FF82
FE1C
FF6B
FF1B
FDC6
FDC1
0149
026D
FDB8
FE94
01E6
FDD4
0031
FE5D
0092
00ED
0036
FFA0
0261
FE0A
003F
0159
03AD
041B
0253
02EB
0088
FF7F
02EC
01FA
01D9
FEA2
FD6B
020F
FDBB
01D9
0041
FFF3
014E
FECB
02F5
0191
FD20
00FE
01F7
007D
01EB
01A9
01E1
FD1A
00B5
FD1F
016F
FD53
FD3A
FF17
00E6
FD26
0151
FD07
FDC9
FF98
FF2F
0061
FDAE
FFBD
FFF4
0082
0166
008E
FDCF
FD30
0130
0013
00D0
FDD3
002E
FE5E
012B
FFD4
FE3B
FE8C
009A
FF87
0112
FD85
FC8C
FF8B
FF87
FDC6
FE62
005E
FFC8
01B0
FE02
0031
FDA8
FD56
FFCC
FC46
0052
0132
FE31
FD5F
007C
FE99
FF35
FBD9
FF29
FF26
FE56
00EE
0111
0201
FE82
FDF7
FF9A
0192
0218
026E
00E0
FEAD
FE94
01D1
FEBA
FF40
0208
0025
0115
FDAF
FF75
013D
00D0
FEB6
00A6
FF99
FE56
FFEB
00F0
004B
0070
FE78
FE5E
01EC
02A2
01CF
007A
028E
00C5
FE26
005C
FE57
016D
FF5D
FCA8
FE35
01AA
01A7
023F
0032
00B8
FF7C
0153
FD84
FD9E
00B3
FD95
0109
013D
FE32
010E
0253
FECB
0010
FF66
FE24
FE95
006B
FE1D
0029
FE31
FE15
FEE6
00C4
0104
004C
FE09
FFD9
01CC
0153
000D
0372
00CC
FFB7
0158
FE17
FEE1
01C4
014B
0279
FEBF
02A6
0090
011F
023D
0065
00B7
FEAD
0227
FF4A
FE11
023F
FE07
FF8D
004A
007F
FF11
FF7F
02C2
032A
FFCE
FF62
010C
0213
FF0D
FE7A
FFC3
0349
00B0
FE21
FF05
0007
FF7D
022E
FEB1
00AE
01DC
0284
00AE
FF1A
FD39
0118
FEE1
0109
028B
FEF6
00BB
0184
0015
00B5
013A
FE50
0057
01C9
FE57
FFED
FFEA
FF4C
01EC
005A
FEE5
FFC4
0150
FFD3
0253
FE81
FE30
011C
FFB6
0272
FF9E
0080
FE5D
010A
FE27
00C4
01A2
0199
0163
FEF6
FED7
0147
FE85
FCD7
FD76
00EC
FFA9
00F0
002F
019D
0184
FF86
00A9
00CD
024F
FF93
0150
FFE3
015E
0100
FE20
0167
00AF
01A5
0108
0300
01B5
035A
FFFA
0051
0312
0143
FF67
01A1
0106
022C
FE24
00E8
FEDB
0143
FE95
FF10
FECC
FF42
01D1
02C0
003E
0055
02CA
FE80
FE3E
00B4
0320
03EF
FFBC
FED4
FF8D
005F
FFFA
0120
026A
0123
001C
0235
004E
FFAA
01FD
FF13
0205
FDAD
01AE
0267
FF0E
FFBB
FEB8
FFB7
FEC7
0028
00C8
FFE9
022F
02C0
FF9C
02A6
02ED
00D1
FE3B
FF4C
FFFB
FF82
025F
00AE
FF0E
FDEE
FE9B
FE38
FF93
FEB3
0223
FDC5
019A
01D0
FDFC
FED0
FE94
FFB6
FE8E
00ED
0089
FF8D
FD0F
01A9
01EA
FFFD
FE73
FF19
FE5A
FD6A
0151
FE72
FF06
FFC6
FF03
01AF
FF5D
FF5F
011E
0280
011A
00A3
01B5
037C
FE3A
FD81
019B
FEAF
0040
FF46
01E2
01E5
0260
01BA
FDFE
FEF5
FDD6
0203
012C
00B1
FFE0
0134
FF02
011F
FFE8
00C8
FF2B
FFD5
FFDD
0188
FEB0
FE9C
00FD
FF17
FF3E
0265
FF59
FF50
FEE6
0085
01D3
FE1E
018C
FF4B
012C
FE36
FD34
006F
00DF
01B0
FE93
FF1C
019C
017A
0250
004C
0004
0010
0202
FEB2
FF99
FFEC
016B
014D
0136
0028
FF93
0110
FE26
0057
FE81
018B
004A
004F
FE11
0387
FED3
01A2
00BA
0073
FD9F
01C3
014D
0214
020A
FE2B
0089
FF96
FF6A
00D8
FEB3
FEB9
01C5
FFEB
0066
FFB3
01E1
003E
FDB6
FD62
009C
FEA9
FE30
FD9A
0245
FF64
FF56
0161
FE0F
0240
FF00
FFC6
FE86
0117
FFE4
FF72
FD71
00C4
FF61
FE02
01E5
00EE
FDB3
FE14
00D8
021A
0061
FEAC
007B
015F
FE16
FD56
FFFB
FFE9
FECA
FF5A
0032
FF94
01D9
FF63
FDBD
0158
FEEF
00E3
015A
FEFF
0001
0192
006A
FF4B
FF2A
0218
01C5
02C7
FE55
029A
FFB6
0252
FFA8
0124
0105
FE65
FF6D
028E
FF0A
01B9
FF92
02D9
0151
FE8D
0020
FFCA
00E0
02B3
FE12
028D
003C
0247
FDF0
0242
008D
00A5
FE5F
02C2
FF70
020C
FE97
0069
00FD
FE3F
0127
FE89
FF9C
FF9C
02B0
0276
FF54
0087
FF66
FE06
FDF6
00A8
FFDE
FF1E
00C5
FE14
FFC7
0029
FFC9
0125
FDCF
0172
0166
FFCC
FE7B
FE44
FDD8
01C9
FDE3
01FB
0091
00D3
FD4C
FDA0
FE04
FEA3
0053
FF85
023B
FE0A
FE0A
FE7E
00DE
FEEC
0080
0199
0221
0090
01A4
FF53
FD84
00A5
FE7D
FF71
FEDA
FF4A
0037
FDB0
FE7F
0012
FFCC
FD29
FED9
FF14
000A
FEC2
FE5B
0168
FFD0
FF97
FFE1
0182
FDA7
FF92
00CA
01A8
FE54
017B
0001
FE13
FF6F
FE31
FDF2
FFE3
FF5E
FE73
0198
000B
01A8
FFA7
0136
0232
FF4D
FE91
0211
FEC7
0069
01AF
FDCA
0039
FF1E
FDDF
FEA8
FE50
0258
FE39
013F
019E
FF49
FFEF
FFF6
FE8F
FEC8
000A
FF6A
011D
021F
FF05
FEE7
008B
01B8
FEA7
00DF
FEB9
FEC7
0193
FE0A
0123
FDA0
001D
FE42
FF7A
0175
FD7C
FE78
FFAC
005C
011A
FEA4
00C2
FFDB
FF78
003C
0198
0108
00DF
01A6
008D
005F
00C4
FE81
FF25
FDC9
00E0
0199
FF4A
00F0
0299
0160
FDF4
00B7
FE25
FFAC
FF37
FF05
002B
00B2
FF91
FED0
01AC
005D
FF0E
00D9
01B2
007F
0205
00B5
0091
00C0
0065
FFD3
003B
FE48
0150
0103
FD14
01E5
FEC7
0080
000E
FE3F
00A6
0216
0213
FDDD
FE62
0011
0143
0016
0080
FEDB
FEBC
0158
0093
0025
01EC
FD5F
0128
FEC6
019B
00F2
0141
FF17
00E4
FEAB
015A
008C
0053
007D
01C2
FD69
FDAA
FE38
FEF5
FE11
0057
FEE0
000B
FFBB
FCDA
FF53
0092
FD74
0006
FEEF
0009
0150
FFCC
FEAF
FD8C
FDDF
FE4E
FF77
01CE
FE89
FE21
FD75
0078
009F
010A
FFB4
FFB1
FEC5
01D0
FE8E
019C
FF6C
0123
009B
FD1E
FD47
FFFA
00FC
018E
FE7C
0140
00BB
FE16
FE43
FCE6
FE8C
FF8C
FFF6
0089
0055
021F
FFAD
FFAE
0162
003B
00B6
FE34
02CC
00C5
01F2
FF4F
01B6
FFC0
0212
0152
FE14
FEFA
FE07
025B
000B
FFAF
FE8D
FEE2
00F6
FE2C
FF72
FF5E
0126
FEFC
FEC4
FF01
00C1
FF47
00C8
00C9
FE2C
0161
FF24
FFFC
FD49
FFCC
0094
01F3
FF26
FF41
FF17
01C0
FEE6
FFD2
FEFB
0087
0081
FFEE
0263
FE4F
FEFB
0213
FDC4
015D
FDF3
FEB3
FF83
FE13
000B
0098
FFCB
0066
FFD7
01D1
FFD7
FEB4
FFBE
01D6
0015
027E
00C9
FFA4
003B
FED8
015C
0013
0162
026B
FF71
0008
0158
FE69
00EC
FE59
FE7B
01E6
0188
01EA
013E
FF1F
004B
FF5D
FE82
0149
007F
0224
FFD1
FD64
0285
013C
01AE
FF83
0067
00B4
FF03
FE77
FFB0
FF1E
0033
FE8D
FF2F
FE4A
00B5
0081
FF42
FF66
0120
024B
FF63
0111
FF7E
FE4C
FE60
FDFF
01FC
0300
FF98
00B8
FF7E
FE79
FF1C
0116
006A
FE8A
0012
FF2C
FFBC
01C7
FF49
0221
FE5A
02F8
0115
0154
FF96
003B
002E
FE0B
FE1A
FEAD
FECA
FF9B
0217
0062
FE61
0087
013C
FF3F
FEB7
FDE2
FFAA
0188
FE82
0278
0211
0123
FF17
FF23
01E9
FEBF
00AA
00DC
FF56
FE6C
0162
FE87
0093
FDBB
FD81
FE63
01C4
0066
0035
01F5
00F2
00BB
FFCC
FFAD
0033
0093
FFA5
FDDB
FEF2
008F
0055
FD74
FD3B
017C
0066
FEB6
FE3C
FEFA
0128
01B3
FE16
00D7
FFE8
00C1
FFD1
FE10
0015
FDC3
FFAA
FFD1
FE49
00FC
0163
FD39
FEDF
FE9D
FDB5
00C0
FDA7
FE91
0167
FFB1
FEF9
00C4
0123
FDAA
FE8B
FDE1
FEF9
FE26
FD71
FEF7
FD24
FEFD
005B
007B
FEE1
004C
FD17
0152
FD7A
FDB2
FE79
FDD1
01BF
FFF0
FEA1
FF13
00FD
FF65
FEF6
0153
01AA
0177
01BB
FDAC
0117
FF65
022C
FEF4
FFD4
FFEA
00D6
008E
FDE4
02E0
FF76
FE77
0096
00EE
0228
FF3F
0151
002E
010F
00E3
FEC1
FE14
025C
0018
FEFD
00EE
FE8B
012C
0049
FF5F
FF5B
02A1
FFC6
FF54
017B
FE42
0056
FDD8
FF0F
FEAD
FE81
FFB5
00D0
FE96
0276
00C1
FF57
0023
FEB3
FDAA
01FF
0124
003A
01BB
0203
010B
008E
0165
016C
FF6A
021C
FE1D
0095
0048
011D
028A
FFA5
FFA0
FF4A
00FF
00F7
FE28
FEB3
024D
FFD6
0088
0189
02B7
00F6
FED3
0074
006E
017C
00FE
00DC
0191
FFBF
FDBA
0229
0058
01DE
FF9A
00D4
FDE7
FF6B
FEE3
01DA
FF2D
00BD
016A
FEE5
0069
FFF6
FE87
020F
01C8
FE56
0079
FF99
005D
FF9B
FE95
FEC8
010F
FDD8
00E1
FF09
FF8F
FF6E
019C
FFFB
FFED
005D
FF5B
01CD
FF55
FF2F
FC9B
FF12
FE48
FDF1
0107
FDFF
FF2B
FF82
FDA7
FF3C
FCDC
FF45
FFCA
0013
0201
0151
00C5
019E
FF47
00FB
FDA7
0140
00A3
FE0F
FFC7
FE56
00C6
0136
FECD
0004
0080
FEE8
FF8B
FEA7
00B0
FFB4
FDCF
FE48
FFD3
FF31
FF96
00E8
005E
01E6
01F2
FD45
FF25
0170
FDBF
FF3B
FED9
FF2D
00B9
014F
FEE8
0060
FFAA
0097
00BC
02A9
0121
FDCA
00D6
FDDB
FD7F
0032
FD9A
FF68
FE7E
00FD
FE5E
FEF2
0026
0054
FDC3
01D3
FF7D
FED7
002C
0191
0109
FE01
FD9A
FF1B
FE08
FF5A
FEC4
00AD
01BE
0039
013C
0146
0046
0174
011F
FF7C
FDF3
FFCF
FFBA
FF76
FFAB
FFDE
0211
FF0D
00D4
FEAE
FE7F
0107
02B0
FEFA
FF55
FD75
0006
FDBA
FE7A
FF79
0025
FED1
FF4D
FF02
FFBD
0151
00B3
008E
FF57
FF6D
FE66
0166
FDEF
0047
0138
0201
002B
004C
FE3E
FF23
0223
014D
0001
00FF
FFB1
FF59
FE13
01D3
FF9C
006A
01CF
FF3A
023D
00DC
0173
FEE4
0093
FEC6
FFD8
013B
012C
FE8D
01E4
FEE5
0252
FF3F
0088
0109
002C
0243
FD13
FF61
0230
FF40
FFFC
FEC5
FF95
FF97
01EA
FDC2
FE06
010C
0078
0003
FE51
FFA7
016C
005B
FEA8
FFAF
FFAC
FFAB
FD6F
0048
FDF8
FF76
FD96
FF18
FDC6
FEE3
004E
0165
FD76
FFBB
FF6C
FD5D
008E
FE03
00BA
00AA
00DA
FF18
01F3
FE89
FE06
FEBD
00F5
0030
FE11
FEFA
0170
0119
FDF9
0234
FE1A
FE73
FEA9
003E
018A
0023
0073
FE16
0155
FDBA
FEED
FF78
0209
FE4D
FEFF
FE68
006A
FE11
00EC
FFFA
FDFF
0191
FDB2
0123
FF19
0078
0088
FDC1
FE94
0163
FF4C
FFD0
FE8A
00AD
00C9
FF6B
FE99
00AA
023A
FE30
FD1C
0167
0084
0182
FF8C
FF9F
0168
FD81
FDE8
002D
FF9B
0211
FF58
FEC0
0088
0228
01B7
00E2
016F
FF31
FF82
01EA
FD70
0146
FD82
FFCA
0151
00A7
FFE1
0060
0019
01CF
FF30
0050
009B
0227
FFA3
FE8C
027A
0228
FE6B
FDB6
016C
FFD3
FEF0
0094
FFA0
00BE
025E
FE9B
0056
FF20
FF35
FDE7
FE08
00A4
FF79
01C6
FE10
FF27
FF74
FE3C
FF61
FEF3
00FA
016D
FFD6
0186
FEEA
FE19
FFB2
FDC1
0029
0097
FCDD
FECD
015F
01A1
FEC8
0199
003F
FF45
00C8
FE59
0097
0139
FD64
FEBB
FF69
0125
FDFE
0083
FECF
FE04
FF1F
01E3
FFCB
0103
FDC1
FD4F
FE43
FF40
0161
FF02
FFD8
FEE9
01C3
010E
FFEF
00BA
FBA7
0054
FF79
0049
00E1
FF5F
01D7
FE3E
FC61
FEA2
FDA2
007B
FE24
0067
0140
011E
0226
FEA4
00D3
FF00
025D
FFAD
01EA
FEF4
0175
00DC
FE62
FFD8
015A
00CD
017A
00CE
FD98
FDF8
FE6E
007D
007B
0231
FEEF
0065
FF9D
013C
0102
013C
0060
FEEB
01B5
00D5
0274
004A
FE66
FF2E
FDD2
0236
0189
FD5B
0157
FECD
FFB0
0194
FED3
0119
FDD4
00C1
FE16
FE26
0114
FDE0
01DC
FF94
FE41
FE64
010A
FF79
FF56
FEC7
FE9A
01B6
01E9
FFB1
FF4F
014E
FDC7
FE3A
017A
007D
0059
FE96
FE0B
FE38
FFBC
01A9
02A1
FE80
FE75
0116
FD68
FFCE
0102
FF72
FF42
FEE9
FE23
FE64
00A9
0048
FFCE
FEE3
00D5
00C8
0103
FE16
FE31
FE26
011F
FFEC
FFD3
FE12
0136
FEA9
00D1
FF87
FE45
005E
016C
FF07
00BE
022A
0019
FF60
FFBB
FEF8
0006
FFD5
FE4A
00D3
00ED
0094
0009
01CC
017B
00B8
019C
FFFF
FF2A
FF04
FE51
0094
FFB2
FFCD
01F9
011E
FEDB
0038
019D
0036
00DE
FE87
FE71
FE00
FE50
002D
FDC1
0265
FEC2
FECB
0233
0181
0093
FFA6
015B
FEC8
FE59
0030
011A
00A0
01A4
022F
FF58
0219
008F
FE06
FE86
FDC6
0149
FFEC
007B
FF31
0141
FE30
FF5B
004C
0074
FF31
FF6F
0168
FFC5
FF4B
01B6
0056
FE4B
FE35
00FD
FE63
009F
FEF9
FFF4
0095
FE3D
FE66
0016
FF71
FDBA
01C5
FF5B
00F6
0121
FE38
005D
FF6B
FF8A
FEAE
FDCF
FE66
0005
FECF
0145
FF0F
FFC7
FEDB
FE4A
00D8
FE09
0159
FDDD
000C
01F4
FE65
FFA1
020F
0043
FE99
00C8
00C7
FE5D
020F
0194
FE87
00AC
FF91
FEAD
FFFA
FE97
FE3E
FF0F
020E
0017
FDF7
00CC
01B9
0022
FF7E
FF7D
FDBC
0128
FFA9
FF59
01F8
0074
FE28
00C4
FE79
0267
0038
FE9F
FE9C
0178
0187
FFBC
017F
FF26
0216
013F
0224
FF68
FF3B
00AB
007A
FEB6
FED3
0113
00E3
FF45
0150
FE1D
01E8
01FE
FE1B
FFD7
FDE6
FF1E
FFEF
01BD
013C
0114
000F
FF28
0257
0108
FE99
018A
01D8
FF69
FE99
00EF
FEF5
0040
FF99
FDFC
0112
0132
FF02
FDA2
00D5
FEF5
0073
0126
0237
00AC
FF10
017C
FE01
FEAE
FF8D
014F
FFCD
0158
FF69
FEED
01C7
016A
FEE2
FEAB
FE8F
FF82
0004
012B
FD9B
FE95
FEB4
FF79
FDB3
00FE
0179
FDCA
01F1
01C2
01D6
FE32
FDFF
0070
0216
0185
FF7B
FEAB
FDBF
FF8F
0170
FF37
01F8
FE13
00D0
019B
018D
0068
01CA
010A
016A
01B7
019D
FE19
FE83
FF03
0040
FE5D
FE59
FEEC
FDCC
016D
0022
007C
010A
01BA
0246
01FD
00E7
001D
FFCF
015E
0101
FF18
0079
01B1
015B
02F6
0034
FE83
FF63
FFB9
02CA
0051
02BD
020D
00EE
FEEA
0055
FE02
0110
002C
0045
00B0
FF3A
030D
FF95
FE41
00E0
002D
FFEB
040A
FF91
0066
00CC
00C8
00F0
00D9
0107
0407
008F
02DF
01ED
007A
00AF
01CF
FE3C
025A
FEB5
00F7
FE26
FFAE
0308
FF6E
FF12
009C
030F
FFC3
0142
FF6B
FF74
0099
0263
0207
0272
01A4
FF81
0011
FE00
FDD4
0081
0103
01A7
FE00
FFB1
FF86
FE6E
0126
FE53
0385
00DD
FDC0
FEAF
FFFB
FDE1
0042
014C
00EA
01A8
FEFB
0116
004E
FE54
FF4B
007D
0149
FF52
0112
FF0B
FF59
FED9
01B4
0103
FEF3
0071
00D3
0197
FF71
0091
0163
FFD8
0126
FEE9
014B
FE58
FFEE
FFF7
0015
006F
FE03
0266
FDD8
FFE7
FE08
024F
FFF0
009B
0076
FE6D
FFD9
0019
00D4
0105
0163
001A
003E
0141
FEC6
0016
FF2C
0243
FE4F
009F
FCC2
030C
FE85
020F
01C6
00F2
FEF9
0162
0296
01E9
FFB8
008F
FE42
00CD
FFDD
0078
0049
0158
FEB6
FEAA
FEF5
FEE5
0211
0115
009F
0293
01C0
FDE9
FE25
0285
02D5
0206
0077
007E
0114
0011
FD91
FCF4
FFCE
FF79
FE61
01A6
FE9F
01E4
0026
FCDC
0008
FDD7
FED6
FE27
FF76
FE96
FD3D
FEC2
00F8
0358
0101
0036
FFC2
0160
FF6F
FE77
FE84
0054
010A
0046
FE68
02E4
015C
012B
FF5A
0320
01DE
0075
0362
FEA8
011E
0103
FE59
022F
018E
01D7
0039
FED0
01D5
0132
0086
FF22
0323
FF13
FF92
0048
020A
019F
001F
012D
FE11
03A3
0209
006C
033B
00B6
FFD3
00AE
004B
0267
0214
FF74
FE60
0344
02E2
0285
FFD6
020B
0180
FE6C
0217
0140
02B3
007E
FF1A
009B
FF87
FF0C
0049
01C6
0219
FE0C
0027
FF15
FF61
FE19
02A8
015C
003D
00BE
FE46
008A
FFA5
FDF9
FEC2
0164
0016
FDCE
FE61
FFC3
01D7
FE39
FDCC
FF4A
FFA5
0084
FE9E
FE8D
FEF6
FDE0
FFA6
01AD
FE8B
0014
000B
004B
0252
00BC
FF50
008E
FED0
01C5
01C5
FF0D
00CB
FEF0
00E1
FF87
FFDF
FE74
00B5
0199
0198
FE87
FE54
0138
FE6E
01FB
FF84
00EA
011B
FE97
022A
01D6
016D
FF2E
020B
02E5
FEFE
FEE9
0250
00AE
FEFC
002D
0113
001A
0167
0103
009B
FE28
00BD
FE64
0117
FDE6
009E
FFD9
FEFB
FEAB
0266
01B3
027E
0195
0109
FFF7
0257
00FF
01B9
FF39
FECA
01EC
FF35
FFE8
FF60
FF26
0122
0296
0171
0148
0162
00B8
022D
028D
01F8
0080
0010
FF18
FFCB
FEDC
0081
016C
FFA0
FF2E
FD8C
016B
0282
FFDC
FEE8
FFB0
01D6
FED4
00BB
FEE9
0003
FEE4
004A
FFA4
0208
0094
FECC
FE18
FF24
003B
FFDF
FEAB
0183
FF1E
0199
0006
0162
FE21
0011
0072
00BA
FF33
FF36
FE7F
0170
0255
FF27
FE64
01D6
00BD
01C5
0049
FF3D
0171
FE43
FE38
0034
007E
FF5B
FF1A
FE9E
FF63
FEEE
014A
025E
FDFF
FFA2
00A2
017E
FE2A
FE6E
0166
FE88
FDB8
0124
011E
FE0E
011D
011C
FF78
0051
0005
FDD7
FF32
FF23
FDF2
FF2D
01DF
FE2B
FF09
023F
FEA8
0210
0110
FE1C
01BE
00F5
00B8
0188
FE6E
FF72
021E
0265
0144
002D
0130
FFB3
FF3B
005D
023B
FE71
01C4
011F
0154
FFCE
FDFF
FE08
014E
FF99
0139
FE34
FFE7
FEE7
FF6F
0158
FF6A
FFE6
005A
013C
0051
0046
01C5
038D
FFFD
0153
0226
005F
02F2
FE80
00AB
036B
0297
03FA
018E
0107
006F
034C
0132
021B
FF15
FF03
03B3
01C5
005B
044B
FF09
00AF
02BD
01F5
007E
012F
005A
0334
0149
035D
002F
020A
0063
0232
007B
038D
FEF8
042A
0628
0301
01A0
044E
03AB
002B
0240
0374
02C6
04FF
035A
FE58
0181
FE7A
03D5
0184
00CF
05B4
03C0
0058
01F4
010E
0049
018A
0132
0183
0193
FF4C
FFAA
FFE3
01DB
0112
FE10
02E6
0008
FF06
0062
0339
0213
009C
FED9
0186
010B
01A5
FF19
00AF
01BC
0000
0178
0229
010D
0026
00F6
FF83
0130
012C
FE0A
005C
FE55
FECF
FF17
009A
0072
FEB7
0018
FEB1
0227
0122
013E
FF44
FECE
FF3D
0244
0240
FEA9
FF70
0035
01EA
035F
01D5
FF15
0355
FFA0
FE72
005C
00DB
FFC5
FE0D
FDA8
0059
FF1E
FED0
0095
02EA
011B
FDCA
FF2D
0317
00C4
0033
FF18
FC8B
0233
FF8C
FEA0
FD95
FC4C
FE9C
01C3
01BD
0136
FF4D
FE87
0182
FE5A
027F
FF0A
0086
FDFA
FF7E
FFE4
012E
FF9F
015B
0218
001A
01EC
FF01
FC86
FD0E
0219
0241
0138
0029
FCFA
FCE3
FCF4
FC8F
004A
FD5B
0061
010C
FE52
0379
FFCA
02FA
019F
FCF9
FF66
FD01
032A
01F0
FF0B
0132
0438
0302
005C
00CA
0158
023E
00F4
0152
FF38
FF1F
FF3B
019D
04AC
0162
02A1
FFCD
0258
01EE
010E
0588
0027
00E5
02D6
0051
01FE
FE47
00CC
058B
0278
0142
016E
0443
FFB3
0134
0196
040E
02C0
031C
0654
02E2
008E
035B
00B1
0341
02FE
037A
FF4E
061A
031E
FEC5
0193
01DB
0453
FFEE
FEBB
0272
04FD
04DE
FF11
0050
007B
0141
0258
FF4B
0145
FFFC
015E
FEA7
FF9D
FE57
00FC
00D6
FE3D
01C6
FE06
0078
FE9D
FED2
01CC
014B
FED7
00B8
FECD
00B4
0285
FF2B
FDDD
0224
FE97
FF94
01AE
00D4
FDD8
00FB
00B6
0046
016E
FFAB
FE9F
FC8A
009A
FEB1
FCEF
FD2A
010D
FF79
0025
0061
FF55
01CA
01BC
0014
0138
FF7F
0092
024E
FDB5
FF92
FE7A
FEDB
FDA2
FEDB
FEAE
003B
01C8
FFE6
FFF8
01E4
FF90
FFB6
FF45
0048
FFB1
FFDD
017B
00CD
FEEB
FF24
FF14
034A
FF85
01E5
FE91
FE39
FE09
010D
FFFA
007E
FF8F
00E5
00C7
FEB4
0192
02DC
01F7
FF4A
FE20
FF86
0024
FE81
01EE
01B1
01A3
FEC1
0126
029D
01F3
01A2
02CE
FEB8
FF3E
0086
0010
00A1
01F4
0292
FFD3
00AA
00C0
FE51
0066
FF50
0245
0332
0175
01CA
0225
000D
FEC1
00E2
0214
FE7E
FD89
01E2
FF13
FE8B
005C
00F8
005F
FC48
FDC3
FF77
FF3C
FEEE
001E
FF12
00BC
004B
FFF5
FF61
FE74
FF8F
FDD7
FF15
005A
FDEF
FE9B
0167
0103
FE9C
0042
FDD6
FF4E
01CF
FE2E
0054
00F7
FFFE
FF0B
FF84
005B
01E3
005B
0105
00DD
01F5
00A8
020E
0199
02A6
0026
FEF4
019A
FE0D
FE67
0146
FE99
FEC8
021F
0207
FD99
0206
FDC7
FE0E
0244
FF14
0111
FFD5
FFF5
0017
00C6
FF64
0052
01D3
FDC3
0231
01CF
FE55
FEEC
FE62
004E
FEFF
FF03
0147
0141
FE35
01C8
018F
FEEC
0004
00B7
0142
FDD1
01BB
00B7
01DE
FE57
FF5A
015D
FE7E
FFFA
FE10
0104
FFD8
007B
FEF2
0091
01A0
015D
009E
FF1B
0210
FECD
FED8
0095
0191
00CE
0274
FD15
FE8A
0202
FD8C
00B9
016B
017A
0118
0070
FFB1
00DE
013D
0186
FE52
FE26
0031
0050
01FF
00E1
FEBD
0000
00C7
FFF5
00E7
FDF5
FFCC
FE5A
0000
FDC1
FF85
016E
FFB8
FE3D
FF39
FE44
FF01
00B7
FE1D
000F
FE8C
023A
0132
FDD8
FE90
005B
FEF6
009F
FF00
0051
0046
01BF
00E4
0196
020F
FF7D
0142
01CF
00B0
0099
0154
FF3D
01D5
FE4D
009E
01BF
019C
0190
FD57
0100
023B
FE3C
FE8D
FFE1
FD42
01AC
008B
FFEC
FECD
FF30
01D0
018B
01B9
006A
FDA7
FF5F
FF84
0196
0197
FF2A
FFA1
FDA5
00E3
012A
0082
01A5
FF83
001F
FE54
FE1F
FE6C
FF25
018C
0016
0228
FEBE
00C0
004B
FD7A
01CD
0170
0205
01E9
0114
FE59
FDDA
0086
0235
FEDB
0168
01FA
0062
FE4E
017F
0026
FDD7
01D3
0065
012E
FD6D
FF6E
FFFB
0018
0076
0028
FECD
FF39
FE56
FED1
FF1A
FF76
FF81
FE35
01CA
01A1
0067
001E
FE5A
0155
0247
007F
01DA
0034
FF46
011A
FE60
0160
FDC6
0185
01CC
FE4F
FDF6
019A
FF89
00D2
FF5B
00EF
00A7
0036
FFBD
00C8
0120
00B9
013E
018E
018B
006F
FF85
018B
016C
FF83
0165
FE5B
0265
00FE
FE0E
FFE8
FF80
FF13
FDE9
01AE
FE76
00CD
FFA3
FF33
FF9E
FE3A
0032
FFB6
FDF6
FDA9
01E8
FFDD
FE46
FDE8
0205
017D
FEE6
FF47
FEA9
FE60
0176
FF21
018D
006E
FE44
FF17
FDB9
00F0
FF5F
FFC3
FF92
FFF8
0200
FF67
000D
0086
009A
000D
0123
FEAD
FE13
02CA
FFF3
FE1D
00DF
FFE7
FE75
FDBF
FEED
0057
FDAC
0012
00C6
02C0
01E5
FFA3
00CD
0020
FF9D
0011
015C
0032
FF81
FE58
FD95
FDDD
0144
0050
01D0
0099
0027
01EE
028E
00D0
00D0
0091
01BE
01B1
FDDC
01D7
0174
FE67
FF21
FF06
FFF3
0164
0013
0046
FEBC
FEDF
0083
0144
017A
0116
FFE8
01B1
014A
0207
021E
FFAA
019D
012E
0109
00B6
0160
FECD
0037
FF14
0095
FDE2
0085
FE1C
FF44
FF46
01D6
FF31
FC5F
FDA5
FFC2
019D
0058
FE9C
FF62
0145
FEC3
FDE1
FCEE
FF0F
01E5
FE24
FEE9
0102
FDFF
FEC3
00BE
FD5B
0184
FF9C
020D
0302
FF3E
FEF4
025E
0328
FFAB
0127
FFA8
0011
00DD
02A1
FFB2
0127
015E
0214
004D
FDB6
0076
FFB1
00A7
FF6F
FF9B
00C1
FE5B
0290
015A
0152
030D
0212
FF32
0002
FE4E
007C
FEA0
0108
0273
021B
024B
FE65
009E
FEAC
0252
FFA1
000C
0130
007E
FFAB
00EF
00AC
FE71
030F
019A
0166
FE7B
0149
0191
0030
FF52
00CB
00E3
0200
00C6
019F
0069
01E4
FEAD
FDB1
00D0
FF30
FFA9
FDC2
00D7
FEF7
00BC
FC9C
FF37
FE81
00F2
0230
FD4A
FE06
FECB
FDDA
0189
0060
FE70
FDCC
01E6
00F9
FE7E
01CA
FF87
0145
FDB0
FED4
022C
FDE1
FD26
FE84
FED9
00E3
FE9F
0394
FE3F
FE72
FFE3
0207
0184
00F9
0102
FF7B
0211
0145
FE78
FF02
FF8D
FFC6
0120
00B2
023D
FDE1
0155
00B9
FFBA
FF6F
00C2
0140
00BF
FFE5
01AC
FFC4
FDAD
FE95
FE78
004D
0140
0198
008F
FFD7
FFF3
FEAA
01FB
FD8B
0140
FE60
FDD7
023F
0046
0127
00FD
0211
021B
FEBB
FD8A
FE6B
FF04
FF7C
FDA3
FD77
FEB8
FE2A
FEA6
FE41
FF1B
FEF5
FED3
FE69
015D
0027
FD5D
FE64
00E1
FEFE
FF44
FEE6
FF2D
FE1C
007B
0083
FDEB
FE92
01E1
00EA
FD83
FDD8
01CD
0135
FD80
FE3A
FDB6
FF10
FE43
FE92
0007
02A3
00D6
017C
FEB4
00C3
FE6B
FFBE
FFA0
FE16
FF5A
FDEB
026A
0087
004F
FF1E
021B
00A9
FF48
007E
00EF
01A9
01EB
001F
021F
FECC
018D
FEEC
0070
FFCF
0149
FFAD
0034
FF0E
FF38
FE76
FEB2
FD53
00EC
FF1E
FDAC
019A
FF4C
FE6A
0122
FE37
01AA
FEC1
0010
0188
0148
0022
005F
FEEB
FD9E
FDE9
FEC4
0225
FEE5
FDD3
FFA9
FFC0
0186
0021
0220
0220
021B
01C1
023F
0016
017A
0157
0180
0354
FDCE
0296
FE30
FF17
01C1
0038
00F5
016F
FE76
0080
01BE
0126
01E2
000C
0108
01D0
FF19
025E
0056
02F9
0253
01D3
FF35
FEC2
01A8
FE37
029F
020E
FF30
0230
007F
000C
00AC
FFE5
011D
FE4A
018F
00BD
FEA4
0309
0040
FFA9
FFF9
00CA
00EE
0260
010F
00A1
FFD2
FE6B
FFD0
0236
01DF
0002
01E7
01A2
01A6
0136
FFAA
FEE7
00C5
0244
FF62
FCB3
FEA1
0167
0074
FE41
0193
0009
FFDC
01A6
FEAD
FF7F
00BC
0048
FE74
021B
0061
FEDF
FF36
FF13
022C
00C6
FFDA
FFA1
FF27
017F
027A
0251
FF76
0262
FFB3
FE9A
0163
000F
0181
FDE1
FFEC
013A
0246
FF55
0195
FE70
FFA9
FDEA
FFDF
007C
0032
FFA7
FDEA
016D
024B
0086
FF82
0040
0138
FEAF
FED4
FFD5
0095
021A
0151
001B
FF77
FE49
FF9C
0171
01CB
004C
FFE8
FDAA
FF6D
019D
0297
FF22
0158
FE1C
FDEF
FF20
010D
FDD4
FEA2
00A1
FF2C
FF0F
0056
FE5A
FDFE
FE95
0093
FE57
0194
023C
0161
00DC
FEA3
0198
009E
FECE
FECC
FE1D
01A9
FEC0
01B0
FE06
01BC
018B
FE43
00A3
01AC
0090
00DC
FDD8
0294
0191
FE7B
FFD1
01B2
0002
FFA0
017C
FE82
00D8
020F
FE3F
026E
0109
FDE3
0252
007D
FE79
FE63
FF4F
FE91
FD03
FFB1
00E3
FFBC
0062
FF98
0241
FEA9
FE1E
FD41
FFE7
FE42
0164
FF1D
FFC1
FDEC
FF2F
FE5C
0193
FE06
0061
FDD3
0029
01D4
FEBE
FF4E
01FC
FE7F
0086
FDBD
FDA7
0097
00AD
FD6D
008D
FEBC
0255
0045
FDE9
FF4E
FDA4
FDFB
0024
016B
FFD7
004C
FF13
FDA4
01DB
0145
0298
FD34
0196
FEEC
FE69
02A5
FFC8
00B2
FECA
0205
FFFC
FC74
021A
FEE6
FE25
FEE2
FEDA
FEBA
FDA6
01C1
FE51
FFB3
00E5
0141
FF0B
FEE3
0148
FF79
0150
FD38
FE97
FFD4
0000
00D4
020F
014A
FE5F
FE9D
FF57
FF2F
006E
01EC
0179
0018
FF7D
00DC
0009
01C4
0023
000F
00C7
FFB6
FE9B
FEB6
FEC3
008E
FE15
FDF0
00E2
FD1F
FF66
0037
00BF
0125
FFC4
0135
000D
01B2
01C3
FF35
FDDD
FDBB
0162
0087
008F
FE0F
017B
FFD2
0077
0198
01AD
00D1
FEBE
002F
0141
0077
FF4B
021B
016A
0047
010A
FE73
FED1
011B
FF3E
FFC7
FE03
01E5
FFE9
FEBD
018D
01C9
003F
011C
FF69
0256
0003
FDC3
FDDC
FEEA
FEDA
FE73
FF2F
0110
FDD8
0114
FFC3
FF34
0024
FFDB
00BD
FE65
FE6C
FED3
027B
00F0
016E
FDD2
FF01
008F
FE28
FDF0
0065
01AD
007F
0176
FF3F
011E
FF0D
FBAB
000B
008E
FF44
FFE0
FE9B
FF65
FD60
FFB9
0269
FED8
FDB8
FEBC
0155
01F3
FD46
004D
0118
FE27
FC18
0166
FD1F
0190
025E
FFF1
FE08
0083
0027
FFD4
FF86
02A7
FFA8
00C8
002F
0167
FD01
FD81
0199
01C5
0226
0146
024E
FE74
FCEE
FE62
0198
0216
FD6A
00C3
FF20
FD8A
FFF2
0137
FE0C
FE43
FF59
FFDA
0277
FFE0
00CA
0068
FFD6
00A5
0144
00A7
000C
FE68
FEFA
FF28
0181
FFFD
01C5
FFA4
FF4C
FDA3
FE77
00EE
FDC7
0197
008E
00D2
FF30
FF85
FDF7
00D0
FDFB
FF21
FE3C
FE1A
FE03
FF98
00E7
FEEA
017E
005D
FD34
0079
FE12
FFB9
00A3
0130
01CC
FFCD
01D1
FF76
0141
01C0
022B
FDCE
FDCF
FF22
FFE1
FFD3
FF01
0159
FEA4
004C
0126
0098
007D
00D8
0047
005B
00F2
FFE6
FF85
FFC9
FFF5
FF35
FE50
01C9
0060
009E
0230
01CB
018F
0168
FF0F
0224
0038
FE89
0027
FF6A
FEFB
01E8
0072
FF5C
01FD
0223
013F
0145
FF53
00B9
0214
FED5
0155
FF76
015F
0181
016A
01C9
005E
FFF5
FF4C
0251
0004
FF8D
019D
FE40
0088
FE63
01EB
020A
000E
FF3C
023B
01DD
0104
01CD
021D
0033
009C
FFD9
0147
FF00
0078
008B
FE4E
FEB3
01CC
FF47
00C2
01E1
FE7F
FE8E
00D0
014F
FDCC
0183
013A
0211
FE23
FE66
FE32
01FF
027E
FFE5
01BD
016C
0089
FDFD
FDDA
0047
FF0C
FD7E
FDA1
00EF
00E3
FF28
02D6
FE40
FFCF
01F7
0115
FFC1
FDEE
FE1A
FFCE
FF03
00C7
0244
0023
FE60
FFA7
0147
0133
FF0F
0139
FF1D
01C5
FEEE
FF4F
FDCD
00DF
0153
00F2
01A6
FECA
0221
FEE7
01B7
012B
01E3
FE30
0126
FDB4
0210
FEF6
024E
00AC
FE3D
00FF
025E
FF37
00EC
0051
FFE8
0214
0239
FEB3
FF93
FF45
0000
FEC2
0216
FDCC
FEE9
019B
FE0D
FE88
0185
0188
FE10
FEA7
FF0A
FF92
FD66
FE2E
FE53
01D2
0190
00B4
0013
FE03
0236
FFBC
0157
0026
FDDA
FECE
005A
023F
00A7
FDDD
FDC9
013C
FFD6
00AA
FD9B
FF39
FDBF
FF62
01B8
FEF4
00E5
FE93
FE74
FE88
014B
0241
010D
FF08
01BE
FFE5
FE73
0175
FFDF
FEC8
FDDA
FF04
019D
FE81
FDC6
FF8B
FE45
0199
FF09
FDC1
FE2A
FDCD
016E
FE34
FFC0
FF47
0021
01B6
0010
0030
0038
FF2A
01D0
0062
FF21
0012
01A1
007E
FDAA
FF68
FF07
01A6
FECB
FFAF
FF06
FDFC
FFE0
FDF7
FF47
FF72
0191
0023
FFBB
008D
01C5
FEC0
FD86
FEAC
FFC2
019E
0155
FE0E
0193
FFD4
FF97
FF89
012C
0116
01FC
FED3
0172
0123
FEBF
FD52
0176
0048
FF2C
00D3
FF6A
01FC
0026
01E9
FDF0
00B3
018C
FDBF
FE93
FD87
FE62
FF51
FF10
0012
0168
0043
017B
0012
0085
FF74
FF4A
0139
01AF
FDE1
FF28
FF70
FF91
FF35
012D
FE17
FF8E
FF91
015C
0066
0020
FD8B
FE85
FFDF
FF9F
013F
FEFD
0037
FEF6
0108
FEEB
FFB7
0229
0077
0099
001E
FF0A
FFD6
00E9
0212
FDCF
006D
FF87
0016
FE65
0029
FE13
FF47
00DD
FF19
018A
FD84
FEC7
FFF7
FF9D
FF35
01E4
0093
020B
FF4E
0225
FEEB
FF36
01D8
FF38
FFC1
FF08
FFB7
008E
FE46
0091
021F
FF8C
FE58
01A0
FEC4
FE4B
FDDF
FD8E
FD81
0128
FE9E
FFD5
0214
FE59
01D8
00DD
0200
01AE
01FE
FDB1
0157
00B4
00EA
0152
FD50
0148
FE5F
00DF
FF2C
FF35
01EA
FEA3
0058
FF1D
FFB0
0064
01FF
FDB0
FE91
FF35
FEDB
001A
01CA
FD96
FE64
FEF0
01F8
FF57
FE1E
FE0C
00F3
011E
0011
01A5
01BD
0185
0176
FFE7
0112
0048
FEC5
FE5D
018B
023C
0022
0207
FEEC
FE07
FF89
0020
01AE
FDEC
0145
005B
005A
01BB
019D
01D7
FE99
007C
FF14
FF77
FE6B
FFF2
FF30
0029
00DE
00F3
FE0A
002C
FF0D
0147
FE09
020B
FEA6
0105
01EF
00BE
FF03
FFF6
01E8
0151
0071
FF79
FFE5
FE6E
000C
FDD8
FF2E
004D
FFF3
00D0
FD86
01B9
0236
0033
FFDF
FFD2
FE29
025E
01EE
01D3
026E
0158
01FE
0088
0021
00B3
0090
FE97
0233
018B
FE4F
0196
0047
FFB4
0001
FF6E
FE05
0019
FFFE
FE42
01F7
021E
00AE
015F
0123
010E
00C1
FDD9
012A
FDCC
FEC7
00D2
FF13
FFFB
0075
008E
FE31
FE30
FDE9
0015
01A4
FEFD
FEFF
010C
00F4
007D
0127
01B3
FD94
FE52
FE05
0135
FE9A
006F
FEC2
FE6E
008C
FE76
FF0A
00A0
00F5
FDAA
01F9
FF36
0138
FE7A
0139
FE73
0106
01AC
FE08
0144
FE4B
00D3
01A3
FE9D
00C2
FDAE
FE6D
FECE
0122
FF35
01BA
FDAB
FD4C
FFB9
FE10
FF8B
015C
0245
FF1B
FE17
FDF5
018F
014B
FFAD
FEA7
006E
FED5
FD42
0307
FF68
0093
0047
0068
0087
FDE3
00F5
00CB
FFFD
0218
FF00
024D
FE6F
FDA5
01C4
FFAE
00D3
FE72
FDE4
020D
00AF
FFFF
0139
0166
FF88
FF39
FEE8
FE6F
0114
0286
018C
0064
0066
FDE8
0177
015E
FF4D
FFD1
FEE4
00B4
FF73
0224
FE7B
FEAC
FEEC
01B6
016E
0167
0170
FD74
FF10
FF04
01A1
FDB7
FFDC
003B
0112
FE3D
FFCE
FFF5
FDED
FDF7
008E
01BB
FDC2
0103
FE20
FF06
0233
FE40
FF9E
FFBF
0225
FFF8
FF4E
01F0
FD9A
003A
FFCD
0015
028C
00A4
FF29
028F
FE3C
FDF7
003C
00A7
FE22
0038
FEA2
015B
FF6C
FE60
FEC7
0193
0179
FE4F
FE3A
FFC5
FE78
FE89
FEA4
FEB3
018E
00FE
FE2C
0203
FE4B
FF2B
FF07
01BB
FE5B
020F
FF56
FDFD
006E
FF59
0003
FE4D
028B
FFBA
035A
0193
009C
0037
02A6
FEFF
FCBA
FD2A
01AD
0238
02A2
004A
FDB5
FFB0
FF2D
FFAB
01D4
006C
0107
FFAF
00A6
FF51
028F
FD88
FF34
0092
FDA4
018F
FEEA
FEC2
FEF9
0015
0273
03B1
01E0
FEC5
02E6
03DA
FF82
FF61
FF3E
01AA
0009
01B3
0022
FE9C
01E3
FE91
FE16
FF2D
FE8C
00BE
00E8
FF5D
029F
FFBC
00C2
FEF7
00D4
FF83
FDFB
012A
0193
FFEE
FFB3
FE58
FD81
FF1C
00BC
0321
FF5E
FFE7
FFEB
0282
FF8A
0187
FF4C
FFFD
FEB3
00E9
0060
00D0
FE80
FE2C
FEDC
00B8
006A
FFF2
FFF3
01E4
FF86
FFB3
FEFD
0260
FF38
0041
FEC1
0246
0027
0139
0106
013A
FFD8
0355
FDB3
0284
012C
0023
FF03
FFCD
FF20
FD3F
00D4
FEFC
0038
0052
01C9
00B0
0238
FD5E
00A3
FF5C
FDD0
0027
0120
FFFE
01E9
FEA2
01FD
FDF1
FE02
01E2
0089
00EF
FE73
FE6C
0134
FC66
FE51
00C2
017E
0134
FE7D
01DB
0216
00EE
FE0B
FF77
01C2
FEDF
011A
FFD9
0111
0156
0119
00BE
0068
01F9
00DA
008D
0108
FE0F
0059
01A1
00CC
0164
01C8
FFB3
0025
00D5
FF58
0131
00F0
0116
FFFB
FDC3
011A
FED4
020E
019C
0039
FEFB
FE21
FECC
FF58
00B7
00C8
FCC3
FF32
FF99
FFDF
FFD5
0111
0050
FF1A
FFD9
0267
FE12
004E
FE19
0231
FE40
FFAF
FD64
FF7D
FCE9
FE48
0162
FF08
FF4E
0194
FF51
FEE1
FD96
011D
FF0B
FED4
0451
01EC
FF77
FFDA
FFBA
FDE6
0080
FE4B
00B7
FEFF
FFAE
032A
0275
006A
021E
FF63
01FF
0220
FE7D
0043
FEB0
019C
FF3D
0109
FEF1
01CC
029A
013A
001B
0198
00CD
001A
FFBC
FDE7
FDC7
0004
FF65
01AD
00ED
00CA
FF22
0182
0029
FEF9
FE95
FE49
FFA3
02AB
FDAF
0081
FEA2
0141
0134
FFA7
0169
017B
01D4
02AF
FE18
0034
FF5D
FE27
0086
016B
FF3E
FE5F
FE93
0226
0057
00DD
FE75
0088
FFD2
FF16
FF9D
FF56
0022
016A
FE49
FFB8
018E
0296
FE2F
0255
0055
FEB6
0167
FFF8
FF8F
FCF8
0014
FF97
013D
FE75
0221
FF89
0156
FF59
FFDA
02A1
01FB
FF15
FF61
006F
011F
0015
0158
FE9F
02D9
FE3F
00EE
FF95
0064
FFC6
0166
FFAA
FFAD
00EF
FF6F
00D6
026F
0262
0311
0156
FEE8
FFE5
0115
024A
0005
0221
027E
0035
02ED
00E1
004B
0329
FF8F
011D
0170
0064
0206
017B
00E6
FEAF
FF0C
01CC
FF59
0199
043A
FFE7
FE17
00A5
FEB3
01DA
001E
02A0
02D0
0074
0060
0180
FF5A
0064
FE49
01B9
FFB9
FF33
FFD1
008E
0197
FF78
FE8D
002A
FDEC
FEDF
01BC
FF1D
FD3C
FDD1
00B3
0053
FF8E
FFCE
FED5
FE45
FDF9
FEF3
0155
01C1
FF25
0111
01D6
0265
027B
FFB9
FDA8
FE5C
0016
FE65
01FA
000F
019B
FDEE
022D
01B7
029C
01CE
0021
FF2E
0048
01A2
0110
010D
02A1
00EB
FDBA
0253
FD77
00CC
FE71
FEF1
FE6D
FDE9
00C0
00A1
FF66
FF76
FE11
FE00
0187
FEFF
FEA5
FFAE
00A3
FFF3
0118
FEB3
FFFF
FFC1
FEA4
FFA5
FEB5
FF47
0061
FF00
FED4
FF76
0220
FDAB
006E
01E8
0145
00F3
020A
0049
FF17
024C
FFB4
FE33
FE92
02CC
00CE
FEAA
003C
0060
FFC3
00B6
FDD1
000D
004C
FF9F
010E
01F1
00D6
022F
FE7D
FE92
FF4F
FFB8
01EA
FF07
027A
FE5F
00C3
FFE7
FE0A
FDDD
0202
01F0
01C5
FF45
0012
FEE3
FE22
FDD0
019A
FE88
FF67
FFDC
FEF3
00A8
FFD7
FEB3
FE48
00C9
0066
024B
01B4
FE61
0153
FE0C
0117
FFAD
00F6
0177
FF8D
FE24
014A
01A1
FEB0
00D7
FFA5
FF73
01AF
FFCD
009D
FE67
FFF1
FDC3
0121
FF7E
01E1
004D
0192
01DC
FE9C
FF79
0192
0150
0136
00B6
01EA
FD8D
0119
012D
00A4
01DF
0094
FFD3
FD9C
01FF
01C3
FFFE
FE54
FFF1
0073
FDFF
003B
FF5F
01ED
0130
014C
FE9B
0030
FED9
02D0
FFA0
FF94
0134
FF1C
0066
001C
000E
FE4F
00AE
0224
025E
0105
FDBD
FEAA
FE3C
0049
0129
FF90
01A4
003A
FE45
0123
021D
01DC
FE1C
01D6
018C
FF05
019E
FF76
00AD
FF6F
0125
0127
FE0D
00CB
0142
FFD7
FF06
0102
FF89
FEC0
FF87
FE63
FFE3
00C9
FDD7
FF69
02F6
FE74
01BE
FDEF
FE40
022D
023F
FF9C
00EE
0125
01CC
00F0
00D4
01E8
01B6
FF09
002A
01E0
0067
01D1
00EB
024A
0051
00B3
019D
FDC3
00DE
00D6
0175
0166
0150
FED2
FD94
FF91
FFB5
0029
FF42
FEEC
0225
FEF7
FF45
FE3E
0213
01C0
FF50
FF7A
01AD
0179
025D
0014
0037
0055
00C0
FF1F
00FA
005B
0065
021D
0210
FE87
00A6
0096
0273
FEF4
FEFC
0194
018F
012A
FD9A
0127
0215
FD51
01AB
0038
002C
01A8
FFD2
FEE3
FFB8
01BE
012F
FEC1
FE8B
FE34
0091
012C
021F
0022
FFCB
00C9
01C1
FFAB
FE09
0112
00EC
FEC4
FDBF
FF76
FDDD
FFC4
FE21
FFF4
000D
FFE9
0135
FE87
FEDC
FF09
FF8B
FF4C
FF6C
FF6F
FE08
0021
FE05
008B
0142
FF42
FE2E
0045
0026
00D1
025F
FDB0
0068
FF6E
00B0
FF2D
FE8A
FFE9
FE7C
01CC
00AA
017D
FF30
FE77
FDB3
FF14
FE9A
0112
00B7
FE0B
FDF6
0045
FF2F
0007
01D5
FE24
FDB2
01AC
FFE7
FF79
FEC7
0229
FDA7
FEB1
017C
000E
FFE0
0252
0136
0212
FDD5
FEC8
FEB9
019E
0153
0122
FEC0
01C7
0173
FC39
0007
FECD
FE82
FEDE
0040
00D5
0125
FFBA
FF8D
00D2
FFAF
FF57
FD2C
0272
019A
FDB0
FF57
00A6
0186
01E6
FD84
FDDD
0018
FEDF
FEA2
FECE
0003
00B9
00A9
019E
FFC7
FFAE
0079
FE10
FFAF
0249
FF6D
FE5D
FED9
006D
FF4B
0198
023D
FFA7
0076
FFAC
FF12
0229
FEF9
FFAF
FF9B
FF50
00A5
0214
01C1
0256
FF49
00FB
01D2
FFFA
01A5
FF4A
0182
001B
FF6F
013D
0222
010D
FE73
0149
0189
FEB2
0056
FE6E
FE8B
0340
0098
FF53
0091
FE50
FE27
FF30
00E0
00F7
FE65
FFEE
004B
FF68
00A2
FFE1
0220
01A3
FE8E
FECC
FDCC
FE24
FDF0
0128
006F
0001
FFF7
0091
0290
0121
FE3C
FEE3
FE99
FFD8
00D5
FF53
FE05
01A5
006C
0140
0047
0092
01F0
FF75
003A
FD7E
FE4C
FECA
0082
FFA1
0275
FE28
0079
0075
FEEF
0012
012E
01A4
FE00
FE9F
FF7F
004D
01F1
00CF
FFF0
009B
FF9F
00FD
FEF5
FF0B
0181
FEBE
01D9
FFF9
0079
FE4E
FF49
FF65
00D2
007F
0171
FFCD
0213
0213
01F0
00F7
01C6
0185
01CD
0230
0019
FF99
FFE6
0027
FDE6
FF52
0189
FF43
00BC
FE16
0124
0048
0127
FE80
0254
0236
FE23
0021
FFF5
FFE3
0075
0068
007C
0175
00B4
FEA8
014E
FE4B
002E
01FF
FF7B
FD74
00FA
010F
01D4
00C4
005A
FEA1
01D7
FE64
00BD
FF68
FF74
FDF9
FDE9
FE79
FDB7
FE77
FF5C
0150
FE57
FFB4
004B
023B
FF32
008D
FFA5
0102
0182
01A4
FDE7
01EA
003D
04A9
FF92
FE76
FF97
00DE
FE86
FDA4
0212
FEF9
FF33
FF81
FD3E
FF3D
0025
FE2B
FE84
0017
FEB3
0327
0254
FEB3
0268
01F5
FFB6
01C5
FE5C
037F
FF63
01DB
0205
02DA
030B
00CA
0036
FE8C
FF51
0370
FE9E
00EC
FF19
02B8
FEB0
FEA4
013A
0136
FF62
FFD3
0123
046C
0187
0001
00BA
0088
0239
0277
FE0B
006E
FFB0
FECC
FF1D
00E2
FDD5
FD57
FF11
FF0B
0061
FF14
FDAD
02FE
0127
FEDF
FFC6
FFDA
FFAC
00D1
00FE
00E2
01CA
01CD
FE21
FEC9
0059
0299
FFF0
010C
0039
FF63
0186
0041
0150
0226
FFD9
0240
0181
00EA
FF6C
00FD
01F6
021D
0142
FFAC
FD7B
0164
FE81
FE67
FDE5
FE86
003E
017D
FF18
0061
00DA
02F5
FF72
004D
FE7E
0242
01B9
0044
010F
FDE9
FDF8
FEB6
021E
FD4D
022D
003B
0049
FF92
FE7C
FEE2
FF57
0008
FDD3
010B
017E
017B
FEC1
FED7
FD24
021B
0264
FDE6
FEF8
015E
FF4E
FFA4
FFCD
FDEB
0036
02D7
0023
FFDB
FFAC
FDDC
01B5
00D9
004E
FD6A
0105
01A8
FEE6
0095
FE88
004D
FF44
0116
0043
FED4
FEF3
FEF4
FEC6
01F8
FDB6
00EF
011A
FFEF
FFF1
0036
02C4
FE91
FFCD
0624
FFF8
0390
012C
0205
0282
0126
0210
02BF
0188
03EE
0218
FEEE
FFB5
FFF6
FDD6
0005
FF8A
02E4
0070
FF1D
FE05
0282
FFDD
0189
FEF2
003F
FF18
01CD
0215
00C9
01CF
0046
017B
0404
FEC1
FFFF
FEFB
0055
00E0
0143
02DB
02B0
00CD
01A6
FF68
0167
0246
0081
FEED
0337
012D
0181
00F0
0271
02A5
FF8E
0124
03A6
0021
01B7
FF75
0003
FE8C
0135
02BF
FFDF
0149
0009
0265
FF22
00F6
01D8
FF19
004F
FF2D
FEE8
FE93
FE7F
FF8C
FF4A
FDEC
FF68
00CD
013B
0059
00D9
FE9B
00EF
026E
00BF
FEE2
00F2
0008
FFEC
FF78
01C6
FFAC
003F
024D
FD91
FE26
FF90
0150
FDF9
FF53
FF4E
0052
00E9
011E
FE4F
002C
00EA
0032
00B9
FEB0
FEC2
FEA0
01C7
FD44
FE7D
FF05
0079
FF64
000B
006D
00C3
01E1
FFF4
FF66
FF40
FF39
0293
007E
01D4
0058
01C0
FEDC
0160
02B5
FF52
0211
01A1
FF1C
016A
FDF5
0124
FDC6
00A9
FE56
00ED
FF0A
01AC
004A
0240
021E
FEF3
FF88
00AE
0187
FF8B
FE4B
01FA
FFE7
FE7E
021A
FE53
FEE2
FFF3
FFDA
FE3D
0239
01E5
0027
0041
FFA3
015A
0046
017E
0207
0249
00FF
0088
FFA1
FF02
008E
0124
022D
01FE
FF40
FF82
FF36
FFA2
FF73
0169
0051
FF15
FEB7
FE26
FDCE
00DA
0275
FF6F
013C
FE78
FF8B
0100
FEAC
FDD0
FF44
FEBE
017E
FF60
FF4A
FF89
016B
0203
0078
01E1
00F6
FEA0
FF7A
FDF0
0201
FDE7
FDD1
FEFC
0239
FFF3
FDF0
01F4
FECC
FE5A
0004
FEA9
FFC4
0080
001B
00C2
FE4B
01AC
FDC8
FF3E
0000
01AF
FFEC
0036
0071
FE6D
FE6A
FFB8
008E
005E
FFAC
011C
0196
FF21
01C6
011D
0040
0346
FF1F
01CB
0000
FE99
0220
0267
0178
011A
02AF
FFF3
02E3
018F
0014
FFF1
01F4
FE7A
FE7C
00C6
FFB0
FFB5
FF94
FE1C
0289
FEB0
FEA0
FEBF
016E
FDBE
01F2
FFBD
FF62
0164
FD60
FE39
FE36
0011
FEDB
FF76
0156
FD29
0221
FE1E
FF6D
015F
0193
FED4
FE18
FE15
FFBA
FEDD
FFB6
FFEB
014C
FE29
00E8
020F
FF3E
014D
FF28
004C
FF9D
014E
0208
013A
0029
01FA
0270
0116
0006
FFC3
FF1E
FEE1
FFDC
01B7
00E0
FFCA
FF01
0028
028B
0123
FE6C
FFA4
FDD3
00B3
0285
FECC
00B4
FE03
00F3
01FC
FEA9
0164
020E
0254
FF1B
01B5
020F
022C
013B
0196
02F1
00F4
00A2
01DA
00AC
00C4
FE10
FEF7
0149
00A4
01F6
FEB5
FE27
FE9D
024E
0060
00F0
0063
012A
01F7
0033
FE63
FF2F
FE38
0064
0076
00AF
FD32
FDAD
0042
FFD9
0142
0150
000B
01B5
FE92
0022
FD96
FF8C
FF6E
0040
FEF0
FF62
0020
FDC6
FD72
FEC0
FEA9
00FE
FFB1
FD2B
FF29
0240
FDFA
00B4
FE76
FE2E
002A
FFE8
00CD
005D
FD6C
FECC
FE7C
FCEA
FD91
0055
00C4
FF27
FD58
FF2B
FD91
FF8C
FE65
00EC
009B
016E
FDC3
009E
FFA1
022B
FD8C
FDC5
0181
00F6
FF9B
FE76
01B2
0068
FE35
FF05
007A
018F
FECB
014C
0049
FF48
FF14
FEF6
0136
FEE6
FE6A
006E
0235
0075
022B
FEC2
0194
FE77
01D9
FE6F
FF12
0247
FEE3
FE8D
00B7
002A
00E3
FE8C
01C7
02AA
011F
00D9
FE76
003E
FDE2
0017
FF74
FEC2
FD0A
FEDD
FFDB
0049
0270
FFCE
0183
FECC
FDA9
0080
011B
014D
0173
FE5D
0199
00BD
0156
FE27
FFB6
FFA3
0050
00FA
FE58
0052
FF4B
FEFF
FFA8
015F
0200
020C
0020
00E1
010D
0157
FFFE
FDB8
004F
0234
02C8
FEC5
FE68
00CF
FF3C
FEE1
006B
0201
01DD
FFC4
0222
FF72
FFBD
01C1
0083
FE0F
FEB2
FFAC
FE08
00A3
FEFC
017B
FF4A
01D9
012A
FE48
01CD
FF7A
0298
00E2
FE78
00F6
0193
FE5D
FEA5
01CD
FE35
019C
01FA
019B
0030
FE26
FE52
0209
FD8B
000C
00B3
0168
FFE2
FF30
FFF0
0159
FE75
0228
017E
FE29
00C1
FEA8
0139
FEBC
0165
018B
005A
01A9
FDD1
FF87
FFED
FEDE
FE95
00DD
0123
0177
FE51
FF3E
FFF4
FFAD
013A
01EA
FFAE
0087
004C
024A
FFB6
FF2A
0064
FFC8
FDAA
FE01
0238
0016
0040
FF9C
FFCB
FF8C
01CE
FFBB
01E5
0090
003A
FFD1
FE82
00F7
FFA1
01FA
FECF
023C
015B
005A
004D
01E4
003F
016C
0022
01CC
011E
FF05
FFCA
FF1A
FE9A
FE9E
0179
0133
FEA3
01B3
0222
015B
FEB9
00C3
FEA8
0203
01A5
00F7
00D0
FFEA
FEB9
FEFF
009B
FEF2
FE24
01D0
014D
0142
018B
0250
FF45
FF03
00AE
FF50
0061
0175
0022
FE61
027F
0166
016C
FE16
FED3
FEF3
FFA3
004F
FEB5
00F8
FF87
01A6
FE18
FFC0
0041
FFEB
01C0
0141
FEA8
0176
0093
01C4
FF95
0015
003A
FF59
FD96
FE30
FEB3
FEDB
FF3E
00A9
FE14
FEB4
FDAC
FFBF
FF46
FF0F
FF72
008F
FE73
FDEF
0192
00EF
0251
0125
021B
FFCD
00A1
FE9F
007B
FDDA
FE69
FF3B
FF69
FF06
FE31
01F7
0079
FF39
FE02
FDFB
004F
FE19
00BF
0293
01DB
FDFE
0145
FF28
015F
FE23
0232
00AD
FDF6
FF03
FEC5
FDED
FE10
004A
FE3E
0029
00E3
00EC
FF8B
0079
0086
00D6
0096
015E
0167
FE19
FE9A
FDFD
0143
FE7D
0141
FF7F
01C0
0007
0047
FE48
FE00
0131
FE10
01CA
0220
016B
FEFC
FDBD
0230
017F
00C7
00AF
010B
021E
00C1
01DE
FF3C
01D2
FFCD
012D
0060
FF63
FEFC
FE7E
FF8B
FF28
0199
FFBD
FF87
0013
FEDC
FDEC
FE58
FF65
FEF9
003B
00C6
FDF4
01A8
01E5
0285
FFC3
FE73
FE89
FFD6
FE2E
FE51
FF8F
FDDB
01C4
FED1
0041
0185
021A
02C4
FF12
FF96
FE2E
00B9
0003
01E9
FFD8
FE03
01B3
FE90
FF21
FF4C
0076
FF2C
0061
FEBE
0107
FF57
FEDD
01CE
0109
0189
00AA
FEE2
00A9
018B
FF05
FDF8
FF5F
0240
0007
FE40
FFA4
FE64
001E
FEEB
FEB0
00FC
FF1E
FFD0
007F
0220
FE71
FFC2
00EA
0178
FF14
0236
0245
FF52
0206
FE1F
FF24
FF08
0061
0227
00C4
0180
FE69
FFC9
0027
00E1
003C
FEE7
0039
FE25
0175
023C
0082
0320
FDFD
01EF
0276
02EC
FF7D
FEBB
FF47
0064
0006
02B5
023B
01F3
01A9
011A
FE28
FE5C
02A3
013D
012C
FE75
01CC
FEEB
FF4A
0156
0110
FF01
0127
0164
0087
FF10
01C2
0200
010B
0076
015C
FF5B
FE88
01CA
00A0
003C
FF37
00E2
0134
FF6A
FF19
FDC2
FDB3
022B
0273
FF48
FF10
01C3
FED8
FF98
FE1F
FDB2
01F2
004E
004E
FF54
0083
023F
FF75
FF17
0095
FE92
0022
FEBA
00F9
00D7
FEB4
FE56
FF59
FFC3
FFF0
FE20
011A
FEC4
01C6
FF68
0020
FF9F
FEDF
FE2D
FF90
0068
0001
0101
00DA
0002
FD76
FFF8
FD9C
FF7D
FF2E
00AE
FDCF
FFBA
FE7A
01AA
FEAC
00A2
021B
FE8E
010E
009D
00F1
FE46
019F
FDBE
FE21
00F7
FE85
FF93
FE88
0089
FFE4
02F8
0164
FEE8
011B
0265
FF01
0248
0167
00E7
0225
0282
FE7A
FF68
008E
FDFD
0073
FEDF
FFFB
0158
FF9F
FF75
FDD5
0010
0085
024A
027D
FF33
0158
020F
0042
0289
FE26
00E4
0002
00D8
0164
FE79
0238
0016
003B
FEFB
FFBF
0008
FF0A
0069
00E5
0161
01E5
001C
01C3
0078
014F
006E
FFF0
01BF
FE96
00E6
0047
014C
00CD
FE87
FEBE
FFD8
018B
0164
FF4F
FFDB
FF9D
FF1C
FF4D
001B
0181
FF7C
FEC9
0022
FFFB
017E
0228
FD9E
01EC
003C
FFC0
01B8
00FA
0203
0065
FFBB
0140
FDD9
FFFA
FECF
020F
FEE9
023F
FFB7
FFD8
FD97
FFB2
FE28
017A
FEF3
FF5A
FFC1
FF3A
01C0
FFF4
0166
0071
FF55
0146
FE0F
FE65
0197
00AC
007A
022D
0134
FFD0
00F1
FE54
FFF4
FE90
0118
013E
00C0
FF73
014E
0053
022E
0048
023E
FE8E
01F4
00F3
00AF
002C
FF96
FF73
007C
FEC4
01F2
FFB1
FFBF
00D5
FEAC
FFEA
0061
0032
FF98
FE84
FF90
0096
FE96
0110
0154
0134
0162
FDF4
00EF
FF25
013E
00E6
FF76
FE89
0168
FFBB
00CE
FEC0
FDF3
FE93
004E
FE78
FF0E
003A
FF68
FEDA
0253
FE8B
FE55
0220
01C4
FEF0
FFB6
0062
FFFB
FD9C
001E
0140
FE82
01C4
0239
FE4D
FFC3
018C
FF07
FDA3
0171
01E3
FF64
0221
FE63
FFFB
FFD8
015E
FDDC
00BB
FFA1
0030
FFDE
FEE1
0133
FE06
0079
01A7
FF89
00F7
FE8A
FF53
FE22
01F6
0190
0122
00B5
0171
002B
FE59
00EE
0182
0108
0021
FE60
FE88
FE5C
FE21
0149
FED1
FFFE
FDB2
00B6
FE2E
FEF5
FEF1
0191
FDFC
010F
FE2A
FDAA
013B
FE6F
0148
FFCD
021E
0081
FE03
007A
00CE
FFF1
00CB
FF65
FE11
01F1
FE76
01E2
FF31
FE79
FEF8
FF45
FEDB
FED7
FF30
FDE4
FF59
01F8
FFEB
FFD6
0109
01DB
FF3B
FFA9
00ED
FE09
FFC1
FE9F
018C
0185
022E
013C
FDDE
FDA1
0027
FEBF
FEA6
FF73
FF9C
FFF3
0109
FDFE
01E0
027C
FEE2
FF75
FF51
FFF4
01E9
0101
0047
0033
02A6
0244
0264
018E
01BC
FE49
FE0C
FF98
FEC4
01CA
FDC4
01CE
00F0
014F
FEC3
01C7
FEE6
FEF3
0240
0133
FF5D
FEEC
FFBE
FE1B
013D
0132
0175
0136
FF3C
FE9A
FFCE
FDDB
FF21
FE88
FF0D
0057
FEF2
FE51
0198
FE78
01EE
FFCA
FDEA
FDE8
FE8D
01B1
FF79
FEB9
FF9E
FEB1
FFFA
0189
00DE
01C6
0036
009C
FFC2
0242
FE3F
FF34
FFE8
FE9C
FE4D
FF06
0230
FE11
FFBC
0178
FF15
FEFE
FFA9
FFB0
01B7
FE69
00CC
FF0A
0052
FFA8
FFFA
0057
01BB
FD34
FE88
FDDD
FFB4
FE3D
FE6A
013C
004E
014E
FD92
FEF8
0025
022B
FEF2
0054
FF40
FF50
FE93
FE35
FE97
01E2
FE2D
FEEC
FD7F
FFCE
0237
FD38
0186
0084
FF03
FDAA
FFA6
0169
0172
FE45
FE6D
FE35
FD10
FF7C
FFA7
00D7
FED1
01B9
FD7C
0214
FF90
FCBB
FFBE
FF68
FE39
FDC8
FF9F
FDFD
00E4
FEC2
FF55
0168
01EB
FDFF
FE5A
FF22
008E
009F
01A4
FF66
0035
01D7
01F4
FE24
FF06
FEB6
FEEF
FE97
FEF6
0023
FFD9
FFD7
0296
FED6
0058
FF0E
0124
FE94
00E4
009D
0038
01D9
FEB5
FEA4
023A
FE13
FFA3
017E
FED3
0174
FFBB
016B
026A
FE3B
0017
FEB7
0023
FD94
0019
FF51
01C8
0040
FF2F
00BF
FF72
0137
FDE2
013F
00A6
FFA1
FE20
FFBA
0026
0022
FE20
FE07
021D
FFEC
FF9F
FDE5
FEFC
FE67
00DA
0073
FF65
FE9D
00EF
00A3
FE34
FE93
FF24
0222
011A
FFD9
FFCF
FDC2
005F
0166
0079
FF2C
029F
0030
01CD
00D1
0255
FDC1
FE60
0164
00E7
FDC4
0130
FEE6
0254
FF03
00EB
0152
FF4A
0272
FEDB
FE01
FF1E
FFB6
FFED
FFBD
015D
FED6
0218
0062
0139
006F
FF1C
FFB9
00B4
016F
0214
01CD
0032
0099
0130
FF4C
FFCC
FEDE
013F
FEED
FFA0
FEBF
FF1D
0201
FD7F
01BC
FE1E
FE40
00A7
FF49
016A
006D
FE5E
FE32
FE1C
FE74
FFB9
FF61
FF35
FED0
FFDF
0070
FE4C
FE39
FED8
01E1
FEF4
FFF2
0174
FF5C
01E8
020C
00A8
FDD1
014E
FF86
FD7B
FD4E
FF16
FE33
FF5D
FE5E
0078
FEA7
01A2
FDB6
01BF
FEF5
00EE
FF80
00EF
007F
FDB6
0128
FF62
FE77
FDEA
0050
FDC3
FFA5
FF13
FF46
015B
0133
01C2
01CB
FE17
0011
FFFD
00A3
FEE1
00FB
FF81
017C
0089
FF24
00D9
FF90
02D7
FFE2
0095
02A7
0193
005C
00D8
FE43
000B
FF45
0076
01A4
0153
024F
FDC1
019E
0222
0067
0118
FF10
00DE
00A9
007D
FEB2
0231
0164
01A7
00FC
021A
0269
01F3
00CE
01A2
FE8B
0122
004A
FFF2
0183
01DC
01C2
0023
00C1
FE0B
00DD
0058
0210
FE7D
0134
008B
007A
0074
FF93
FF90
015B
FF9E
01AB
01EF
0179
021B
FFD9
0233
FE28
FE47
FDF4
003B
0196
0165
020B
FEDF
0117
FED2
01B0
FE6D
0217
FEF0
FFDB
01DB
01A1
FFA2
FF3F
011C
0157
0143
FE26
FFC4
0146
013F
0309
FD71
0096
FEAF
00FF
FEDE
01D6
FEA0
FFC5
0180
004F
FE07
00E0
0275
FEDD
0217
FE31
FFBD
0199
FDF5
FE2F
028D
01EB
FF45
0201
0271
00CD
FF8B
FE2B
008B
021B
003A
FE9B
01FC
0142
FEA1
FFA8
FE20
FF24
0140
FECC
FF1D
0180
FF41
004F
FF9A
FF7B
01C2
0158
00BA
01CD
FE9D
01F2
FE97
009D
FE07
0230
FFAC
01DF
00FB
0012
0184
0141
0129
0070
FDB6
01D3
0035
001B
FFB5
0183
FDE6
FF91
FEAF
FEFD
0069
FE40
FFDD
014C
0248
FEB4
FEDD
FE21
0003
013E
FFC6
01F3
021A
FFE0
FF09
008E
0170
FE30
001C
FFEB
FE82
FF80
00FC
FECE
01B3
FF90
01AD
FF36
FEE4
0015
FF33
FE61
00EC
FEAD
FE42
0033
01DC
FE72
0113
000A
0142
FEC4
FEE9
002E
FFD0
01A1
FFED
FDDB
007A
FE7E
FDCE
0165
0149
FEEE
FEA4
FEC3
02F5
02D0
FF2A
FFBA
FE2B
FEC6
0179
FDDC
01F9
012F
FEF9
FF97
FF04
0034
0218
FFC6
FEA0
FF97
FE6E
0102
025D
FF4B
FE0F
FD21
FE78
FF85
01FB
FF5C
FFE7
01FF
FEC6
01FD
FF92
FD70
01AC
FE37
FE3F
FF8F
FFA5
FEA9
FFBD
017E
FE6E
FF45
FF77
FF7E
01B4
0124
FE36
019E
FE28
FDC4
FDFF
0021
FEE5
00F2
0064
FEE9
005F
FF53
FF0E
FE83
FF9B
FE3B
FCF2
FEA7
FEA0
011F
00F0
FEAD
00B3
0170
FEF2
FEF7
FE69
FEC9
FF00
FD6D
FECB
FF4F
00E0
0129
FE3A
013F
FEC7
FFE5
FEA5
007F
FF79
FDFC
FF5F
014B
FEE7
00BA
013B
0079
FF4E
0058
FE2D
00DF
0151
FE3A
01BD
FED4
FE3C
0133
FF4C
0143
01A4
0206
FF90
FF56
FEEE
FFC8
FDAD
0164
0187
FE26
FFD7
FE7A
01D1
FF67
FE32
FF80
FE44
FF75
004B
0086
FD1F
0108
FFF7
025C
014A
FE90
FF49
006D
FD95
00C9
00FA
FE70
FEE6
00D3
FF38
FF24
010F
025E
0040
FEEA
FE5E
FDE7
0208
021B
FDFE
FF8A
FE1F
FD63
FEFD
0137
FF58
00F0
0194
00EA
FDBC
FFBE
00AB
FED6
01F3
013D
FDF6
007E
0108
FF9C
FE34
FF4C
0122
013D
0113
FF07
FF44
01BE
01D9
FE64
0112
0160
FFA4
FE3E
FEA7
FF99
FF85
008E
0068
01CF
011F
0026
0087
01F0
0040
004B
0178
0204
FEE0
FDEC
FFFB
0102
021D
FE74
00C2
FE76
FF73
00BB
01C6
0064
003D
FF4F
