00D3
034E
00BD
FE4F
0209
0279
FDD4
FCB9
FFB8
026F
01C0
019C
FEE9
FFBA
FFAF
FF1A
0144
017B
01F6
FE0E
02F8
FF56
01D8
FF56
018F
FDE1
0005
00A5
FF30
0138
FEA2
0008
00FE
0121
FE8D
FF57
FD98
FEB5
FEA5
FF1B
FFC4
FEB6
FF8B
FEE5
FEB1
00B0
FF63
0123
FE33
00DB
FCE5
039B
017D
FCF2
00D3
FF21
0396
FF57
FE9A
FDF5
0009
FD68
FCF3
FE89
FE4D
FEAE
007C
FE7D
006D
0210
0115
FFFB
FE85
FF33
FD18
002E
027A
023D
FE02
FFC2
FF9E
FF46
FEC2
FE69
FD32
FF4F
00D7
FD2D
00AF
FEDF
0119
FFC8
FF11
001A
01DB
005F
FFC1
00E8
FDD5
00A3
00A7
FEB6
01FB
FFFA
019A
016A
FFBF
FF89
FDB2
FFD2
00AF
01F9
FF5B
FFB9
00B4
00E2
00B5
00FF
FF86
0014
0066
FFC9
FE47
FF1B
002C
008A
FDDC
FBC4
02DF
035E
00EE
005A
FF89
FFBF
FFE0
0102
FF33
FE34
FE5A
009A
FF59
FFA4
012F
FE22
007A
FFB3
008B
FE8A
FECA
FD08
0193
000B
FF61
FFC7
FFCF
FCFD
02D0
FEE5
FFC1
FE9A
00D5
0273
FF18
011E
018B
FFE1
FF71
FF9B
FE39
0268
00DB
003C
0148
FFD0
0028
0067
0025
FF8B
0134
01A6
00D9
00B2
FF46
017A
028F
0205
02C2
FF5C
FEE0
01F1
033D
0031
0000
FE92
FE94
FF77
FEFF
FF58
01DE
0203
FFF5
FFC5
013C
0148
FEEC
FD18
0010
FFEB
FC5A
FED9
FEDF
FF19
FE90
019F
0115
0137
FFE1
FFF1
FF15
0166
FF0D
0053
FC02
FFDB
FEAD
FEFF
0060
00EA
009F
0095
FE63
010B
FF8E
008E
0023
02CD
FFE8
0171
0106
FF60
FFDE
0194
FE4C
FE2B
FE43
FEF9
FF99
03B5
0077
FFDB
FF9C
017C
006D
01AB
051C
FD49
FFAC
FD64
0268
FEC2
FF08
01D0
FE94
FF9F
FF66
FE6E
0198
002F
02A5
02F2
0213
0171
0084
FFD7
022A
019D
0029
00FE
026B
00BA
FE32
0245
FFB3
FEAF
0077
025A
FC58
FF9D
00ED
0144
0181
0130
FFAC
FFEA
FCEC
0167
01A5
FDDD
FF63
FDFA
FEC5
0226
FEF0
00C3
00EB
FFD1
007A
0074
FEBA
FF7A
FF80
01B3
FF7D
FFA6
FF3E
0026
00A4
0122
FF87
FD7D
006A
0056
FFC9
FCC8
003D
003D
FF2B
0067
029A
0269
FF91
01EA
FFE9
FFB1
0190
00A5
FD96
0027
FFE2
01F2
009A
FF17
0238
01EB
FF69
010D
FE83
FFF0
005F
FF88
FE0E
FF60
01E7
FFC4
0323
0154
FEDC
00F8
00D9
0284
0237
FF79
008C
00F5
0116
FFD5
0128
0079
01E1
0127
0182
FF3C
01CC
FF11
00D0
0012
FD08
00B4
FEBD
FF1F
FF10
0029
022E
01F5
FD88
FE78
0175
FFB0
02C2
FF2A
019B
FD39
0127
00F1
00A2
FD6C
FF9F
FE8A
FF9C
0085
FF40
FE45
0039
FF7F
0041
029B
0123
01A3
0068
011A
017D
010D
008B
023B
FD2E
FE4A
000B
FE13
005F
FC76
FF0E
FEE5
00B9
FF29
FFB6
0018
FF73
FF0C
0302
FFD3
FD0C
0070
002C
01AF
FE89
FF2D
FE33
01BA
0051
FD8E
FECB
FEB8
0076
01B6
FF94
FF85
0230
FFAB
FCCB
FF9E
FDDC
FDE3
FDF1
FE98
00F3
FE34
FE33
FFE6
FF7F
FD19
FFE1
FEDA
001D
FE5F
001B
FE6A
00CB
0063
FF2A
01B5
FF73
FF39
0119
FEEE
0208
004F
FFF9
0361
FEE5
FEF8
FE64
FF8A
0150
FFE1
0059
010D
012B
FE35
00E7
0020
00C0
00D8
FE79
003F
FFFC
004D
FF2B
003B
FE17
FFE8
00BD
0200
FF0B
01E8
01A8
FD71
FE78
000D
0011
0221
0158
0095
FF1E
014C
FF70
FF95
FF73
FF96
0095
FF58
FF8C
011E
0154
FDBE
FFDE
FE18
005B
FE15
FDC1
009E
FD65
FF02
028A
000E
FDC0
FC62
00BB
FFD4
FF6E
FF09
FF87
FE43
FEEB
FF57
FEC0
FD95
FE70
FEDF
011B
FEB0
0070
FFF0
FE1D
0186
FDC5
FD9A
FE5B
FDF9
FD10
0224
021B
0158
FFA1
00D7
017D
FE96
0044
FEEA
FDBB
0082
FE87
024F
FDF1
00CB
FE59
FEDF
0077
0079
0053
FF3A
0038
FF14
023F
FFDC
FF29
FEEF
FF48
00C9
FF0F
01D7
FD80
01D0
FED3
00A4
FFB9
0002
00FF
FDE9
0088
FE65
FDEA
0172
FE7A
FFC3
018A
0106
FEF1
FF3B
00F1
01AE
FD5E
0021
FE00
0115
01E1
FFD3
0273
FCE2
FF6F
FD95
FE5D
FF6F
FF17
01DD
FD78
0457
002D
01B6
FDA4
FF48
0070
00D6
0081
0058
FD4F
FF77
00C4
003C
FF19
014B
FFFD
0186
FF02
FF75
0036
0120
FE77
0006
02CB
0263
FEC1
FF79
0133
FEF6
FFFE
03D9
00FA
FD38
FE8C
0048
FFCA
FFDF
002C
FD4A
FE71
0165
FFC1
0201
FD69
009B
0019
00E0
00FD
00CD
0047
FFCA
014B
FFA9
FFE8
00B0
FE9B
02C4
0326
FE23
00EE
011C
0112
02C2
018A
0278
0235
FF42
FEE6
FE69
0028
FF8F
FF7B
00A8
0147
01B6
0116
00B3
FD50
FEC5
011A
FEC3
01FA
0102
FDB5
0215
FE8A
0091
FFE6
0085
00CA
FF33
00AF
FF92
FF9C
FE83
FFB6
FDA9
FE83
0256
016F
0025
FFB3
FF09
FEBA
FF63
007D
FF88
004D
FEDA
00F6
00CD
001B
030B
FFC1
FE41
FF6F
FF12
FE15
0035
FF59
FF01
0109
006B
FE4C
00BF
0253
FEE0
00DE
0164
01A3
FF38
0140
017A
FFB7
0219
00BA
00DC
0031
FF81
FDDD
00D5
0120
FED4
009B
0188
FF75
FDFA
0360
FF77
00B0
00CB
013F
018F
FF9B
FF49
0168
0143
FD88
0161
FFF7
0118
00FA
FF7E
0076
FF65
FF4A
00D8
FF2E
FF78
0158
00C4
024E
006B
FF07
0022
FE19
00B9
00FD
0293
FEC1
0126
0159
0055
FFD2
007E
FFB3
FF91
FF9C
014A
FF6C
FE57
02FB
FBDA
FFD5
FFC3
FF5D
FD61
FE97
FE01
FF8D
FF41
FFE2
0277
0140
FEEF
00DF
FE6B
FFD1
025B
0230
FF6A
FFCB
FFD6
FEB4
014B
001F
FDD9
FF42
FE3A
FEFF
0042
0091
00CB
FFA8
0001
01E4
FD5F
00ED
00C4
01D5
FFD3
FFC3
0013
020F
FE72
008C
011F
FE83
002D
FE4F
036A
FDE3
FD8D
0075
00C4
FFDB
00FB
FFBA
FBA9
FF57
FDC6
FFA9
FF64
FDE1
01EC
FF46
00E9
FDC9
FE9F
0176
016E
020B
FEBA
001C
FF61
FEFA
0154
00A1
FF93
FE8C
FB96
01D4
FECC
FD79
FF93
FF9C
FFA9
0031
012A
FFA7
FFF7
0216
0023
FFEE
007F
FF1E
0140
0116
FF68
0274
0028
00E7
001B
01E6
FC53
0388
00C1
FF07
FFD5
0089
001B
005B
0157
FF49
000F
0146
0155
FF19
FF4E
0178
FF0B
FF12
FFB3
FCB6
009D
FFAF
FFF6
FCF5
FF90
FCFD
0131
01E8
FE56
FFA9
FEF7
FF6A
FD99
0242
00F7
00D9
0018
0007
021C
0171
FF5E
FE0A
FE6D
00DC
00F6
FF4F
01B0
01DB
0069
0017
FEF8
FD55
FC40
0280
FF76
007E
035C
01B0
020C
FFE6
0044
01DB
0021
FF19
0026
FE72
0030
FE65
FCA5
FDB0
FF49
FD37
0203
FF24
0131
0130
012E
FFC6
00C6
FD77
FE4F
00C4
FE56
00D3
FFC8
00DF
01E9
0114
FFCA
0008
FEB4
FF1D
FFFE
FED9
0000
FF43
FF13
00EA
FFFC
FF2F
FED7
FF6D
FF74
000A
00C6
001F
0101
FF55
FE6A
FCB2
FD7E
0215
01E7
0188
0132
FFDB
018A
016A
FED0
021A
FF2C
0237
00AC
02A5
018F
0221
004D
FFEA
01A8
00D9
003E
01AD
002F
FD6E
0021
FD66
FDAF
FF3B
FDB9
006E
FECF
008B
FECC
020B
0014
FDF0
0168
FF78
00D5
00B2
FEE8
FFA5
FF09
FF28
FD7E
0024
FF63
0078
FF7E
FF20
00FC
0159
FEC2
FFE0
FE3E
0037
FE22
0182
FF3D
02BE
0050
FE17
FFC1
FF65
01EE
007B
008A
017A
FF1E
FF02
FEF0
00F6
FF79
00A7
FD05
FEEB
FF9A
FEC2
FE39
FDE7
FEEF
00A1
0256
0004
FE60
FE25
0017
FF0D
0114
FF32
005F
03C0
FE4C
FE93
FF04
02A8
0016
0307
FEBD
016A
FE80
FFE1
000F
FD95
00F5
020E
FDFB
003F
FFF7
FFB5
015E
0244
FEF6
01B8
00C9
FF77
0270
0156
0057
FD9B
006E
FE44
FFC9
FEF3
01B6
0203
FFF9
FDE6
0039
FF60
00DF
FF84
0024
FE49
02C4
FF49
0241
00CD
03D6
0078
0115
00D8
FF78
0134
01E7
FD0E
FFE2
021C
0110
FF0F
0111
FF57
00EE
0286
015E
01A8
0045
FF6D
00B7
0066
00C8
FF95
FF4C
FFB6
FF21
FEE5
FFDE
0481
FFE8
0051
FEE9
00DF
0059
FE0F
FF79
FFDE
0306
00F9
012F
FF45
FF80
FDDC
007F
0083
0013
0069
01E2
FDCC
FFD1
0137
0058
FF7A
FFD6
0222
FF93
0202
FDE8
00E5
01DE
0046
FE6C
FF04
FF50
02B5
FEBE
FFA4
0035
0023
0070
FF3E
00FF
FDF9
01D7
FFBD
FF45
0016
FF8F
FFF7
FF70
FF13
FF7B
00CC
00EC
0183
FF5B
0052
FE9B
FFFB
FE3E
00E5
02BD
00B8
FF5B
022D
0141
0254
03BE
0106
FE65
0000
FEA9
01AB
01A9
FE7E
0092
FD27
024C
FEA0
FFA6
FF77
FE33
019B
011B
0091
0077
00C5
0156
0386
FE6B
02E8
FE21
00F5
018C
0212
FBCC
0236
02B3
FF6B
0123
0056
02B4
01F7
0073
01DD
0387
FF1F
FDAA
FD70
00CA
FE0D
0088
FEDA
00A2
FC84
00FB
FFDE
0188
FF17
FF7B
FF2C
FD4B
FEE6
FFF4
FF42
0388
FC64
FF5B
0073
00C9
0004
0043
FC0B
FE25
015C
00FE
013D
FFEA
00F1
0101
FF29
00F7
0112
FE74
FCBE
0155
007D
00EE
FEDD
00E8
FF89
FD60
010C
002B
FF78
FE5E
FEE5
FFC9
004F
0005
FFCD
FFFC
00DB
FEFE
022B
FF5D
FF03
FFDE
002F
FFD5
FFDE
FFAA
008D
00C7
012B
0185
FF96
00DC
FF90
023D
FE1A
FDE3
FEC8
003C
003C
FE8F
0314
FFB1
0013
0091
FEE3
009C
0012
FF55
FF57
009B
FE67
FE38
01D9
012F
FC93
03E6
0047
01B5
0029
FF2A
00BF
FF5E
FE7D
006F
00A7
0084
0098
00A1
FEB6
FFAC
01CE
0150
004C
FE54
FFDB
FFC1
FF77
0213
0006
0106
0154
FF29
0165
FCE9
FE70
FE71
FF63
006B
FFF4
019E
004D
FE3A
01C2
005D
FFC4
0070
0394
0171
FFB8
FFDC
0029
001C
018D
FFCE
01A7
01FD
0148
01E4
FE09
0285
FF4A
008E
FFD6
00F1
00FD
0207
01CB
0067
FEE1
012C
FF5C
FE25
FEF2
01F5
02DF
FF92
FF4E
FE92
FF69
010D
FE0C
036F
FEDE
0016
0293
FF5D
0215
02AE
0399
FE7E
01B7
FEFD
FF5E
0358
013C
FEDD
0070
0036
0238
0312
00C4
01CC
00D7
FFB0
0051
01A9
00C5
FF6A
FFE7
0112
0157
004C
0083
FE2A
018F
FF4A
00B4
FDD7
0247
0326
FFA1
FFF8
FFB3
00DF
FF45
FE00
00C6
0236
0165
0185
01EB
0011
0179
002D
FDED
0200
00BD
FEE7
012A
0282
FE90
016C
FE5A
FF76
FF51
02E6
0122
FFA9
01F2
FE15
019A
FF69
007C
0139
0120
FD05
FFFE
0131
015F
0075
0075
FFBC
00A3
0283
FFC8
FEFE
FE5D
FD94
0231
FF2A
0255
003C
030E
0074
FE90
FF9B
FFEB
FDAE
FF0C
006D
0249
0180
00DA
003D
FCA5
FFCE
0006
FFA6
FE37
FEC1
007C
0159
01A8
006B
FFBA
FDAD
FDB8
FF67
0161
FEAD
FEDB
FF84
0228
006D
FDEA
0118
FFD3
FDA7
FFA4
FF4C
017A
FF5B
002D
023E
FF72
011A
0177
01E2
017B
015D
0088
00FA
FE82
FED1
02A5
FF77
FEB9
014F
00C8
0127
FEDE
FD8E
FE5B
FF85
FE44
0110
FF2C
0236
FE1B
FF39
FEF4
FE5A
FE41
FF30
0041
FFE1
FF95
FEE0
0080
009D
FEAB
FC45
0150
0177
0219
01B2
0121
00AC
006A
FD28
FF56
FEC9
015C
FEA4
0260
0148
00BD
FFCB
0077
FFF9
FEC6
0154
0330
00B5
FFA8
FEAC
FFF2
FFD4
FFAF
FFBB
00AF
FF4D
0027
0070
00ED
FD28
015A
01A2
FEBC
007A
FE22
0024
01D7
0165
FF2A
02B1
FFA0
019A
FFCB
FFFC
0006
003C
00F7
00EA
FFEC
02DA
0165
FDB4
00C4
FFE3
FF42
FF7B
0080
0399
FF2A
FFE6
FFC2
FEB0
FE7C
0188
0272
FDE0
FE53
FE51
FF94
019E
0199
FF42
FFDE
023B
02A4
FD53
0197
019D
0143
FFE7
FDFB
01C1
FF6A
014D
00C0
FC6B
00DE
FF7F
FEA9
00DD
FF43
0113
FD84
FE78
FEDC
00B3
FFC4
FFCB
02FF
FDD1
FFEA
FE51
FF95
009D
FE2B
FEC1
01BB
0118
0018
FDE3
FF30
FE92
010C
FE17
FF15
FF3B
004B
005A
FF3C
FF2F
00EB
FFAA
032E
0027
0179
006C
00E8
0030
0089
01B4
004E
FECC
00B1
005C
FF6D
FDE2
FFDF
FFA6
0229
0177
0280
FDD3
FF71
FF4B
020A
FCD7
FF2E
FE11
00BE
00A6
019F
0064
FD55
FF93
FFEE
FDFC
0277
FF30
0060
FF33
FF40
FF37
008F
FF5F
01B8
FE1A
0039
FF78
FFA7
004F
010D
0061
0015
0119
001A
FE57
FFA0
0166
FF70
0194
FE99
00FA
FF14
0072
0073
005E
002C
0057
0165
FDF0
00DC
FEB1
FDF0
FDF2
FD9F
FFFF
004A
017A
02B6
FEF4
0133
FF68
017D
FFA2
FDF9
FE63
0099
01FE
0143
FE42
FF1A
FE94
011C
0006
01CD
014C
00A5
FDDA
FFE1
008C
0133
0217
FFCF
0080
0096
FEDE
009D
FDD9
FF3B
00D3
00EF
0190
0258
FF00
FEFA
FECD
FCE7
FDB8
FFA7
0041
00E0
0114
0248
FDFA
00DC
004C
FEA0
03B6
FF82
01A6
0036
FFAA
00E5
FEC8
FECD
02F4
038B
02AF
FE59
0047
0007
0028
02DD
FE5B
0188
0066
FF81
FF43
0125
015A
FD9D
FFB7
00CC
FF67
FEC5
FE0E
FFD6
FD97
006E
003E
012A
0182
FEBA
00EB
FED5
FE7A
0120
FF0C
FDBD
FE7E
007A
FD8A
FEBB
FE77
01DD
FDC2
FE1A
FFD2
FFCA
FDD3
FEFE
FE9B
FFE6
FF6F
FD22
FFCC
FFA7
FF10
01B1
0074
0080
FE46
FF95
00BE
FE55
020D
0121
FCE5
FEE6
FF11
006C
FF92
FF23
01F2
FF99
FEF7
FE29
FE75
0128
FD00
011D
000E
016E
0161
FDA4
046B
0045
0173
0195
FF14
0101
FEBF
FD7F
FE5B
FF09
0023
00BA
002E
FFE9
0103
008B
FEA0
0288
0178
FF75
FE7D
0212
FFDD
001F
FF77
02A8
FE77
013B
FFCF
FF3F
0110
FD97
003B
FE6B
FF73
00CB
01DA
0186
02CE
0123
FF50
FFFF
FC1B
FEC8
FEB6
01DC
FD64
0147
0228
FFCB
FCCB
00D5
003E
FD40
FF82
FF31
FFD0
0177
FF59
FCD8
FF2E
022F
0284
FF3E
FEA3
FE0A
FFB5
FE87
033F
FFEB
003F
FCEC
FF99
FD71
FF3C
FF15
FFAE
FF85
FD3F
02CC
00A3
0263
012A
0040
0155
012D
FDA3
FFC6
FECA
0150
0067
FF89
0016
0131
FFF4
008A
012B
FEC0
02EC
0174
FF44
FF94
0133
017D
FFEB
030C
FF6E
FF96
0164
FD63
FF43
FEB7
0074
00FF
0217
FD2D
0111
FEB1
FF9D
FFCA
029A
FFC2
FE5D
0185
FEBC
0160
0152
FFCA
0127
FF0E
FE99
FF02
0083
FEC5
FF02
00F6
00F5
02F4
FE20
0018
FFAA
0017
00C6
02A3
FDE2
FF79
FEE8
FF95
0152
FCB0
002E
FEED
01FC
00BA
FFF9
02F9
0019
0011
FD52
0056
FE1A
0033
FF97
FF7C
019F
0052
012D
001B
FDC4
FE2F
00A4
00EB
FDBD
FE66
00D3
FF37
FF75
0179
00E6
0120
FFF6
00DD
03E5
009F
0216
0083
00A9
0121
FF43
01BD
019C
0086
FEE5
00A1
FF3E
FEB7
FEED
00F6
FD0A
FDBB
008C
00E5
FF80
FFEA
0181
02C3
0237
FFE6
FE77
00FC
FEA9
FE32
FD67
FEEE
0252
FEA8
0026
0248
0056
FF7E
FF53
02A2
0043
FEB5
0157
0202
00EA
0031
FF32
005A
FFE0
FC63
00AF
00A2
FC86
FFF6
0008
003D
0362
FF7D
00F3
FDBE
0009
FEB3
FDD0
01DE
FD77
FEB9
0052
017E
0033
FF16
FEF2
0298
00EF
FF01
0077
FF6B
0123
0023
0011
FF38
0121
FEF9
0196
010C
FFB4
0157
FFCD
FEE8
0150
0076
FF8E
0146
FE20
FF7B
005E
015C
FF92
FDCA
0034
FFC2
FBA6
FE07
01BD
019B
FFAB
FFBA
0144
0093
FF30
FFE1
FEFF
0150
0029
FCEE
0127
FD27
FDEF
FED3
FFFA
FF67
0254
00D7
0090
FEFE
00D3
FDC9
FE81
00A6
FFEF
FED3
FEFA
FF55
FECA
FFE7
FEAB
00ED
01CE
FCED
0068
FE93
FFEB
0094
0027
012D
006C
FFB9
026D
FE90
014F
00BD
0082
FFFC
023A
0142
004F
014E
FE1A
0160
FE53
FDB4
0002
FDB3
FF06
FC47
0156
0174
0016
00C0
FE0C
FE80
0103
FFAC
FFCB
0010
FEBC
0297
00F0
FFDD
FFFA
FE41
018A
002F
FF7C
FEC9
022C
016D
017C
0255
FEDC
FFB2
008D
FFCC
0061
02AF
FF9E
FF3B
FFAF
FBE3
FDF3
FECF
01D6
0244
0184
FEC6
FC72
FE8A
0294
00CD
019E
FE72
002C
FF54
FF35
00BA
FFC1
FDF5
018F
FE48
017C
FFB6
0105
FEBD
0133
FEA6
FE48
02E8
033A
0143
003D
FDF2
0059
00A6
009B
FF91
0127
0126
FD7D
FFD2
00A1
00F5
0086
00CF
0118
00EC
013C
FFF7
FFAC
FF2B
00AF
FF6B
00C7
FE13
FE89
00DC
018D
FFA4
FDC7
FF5E
FF73
FF34
FEBD
003F
FD43
0041
0175
001A
01DE
000D
FCBD
FFB3
FDDA
00DB
0012
0244
0023
FEE4
0102
00A4
FEC1
00C6
FD4D
FF15
001F
FE30
FF43
FEA2
0033
FEB9
FF2B
0145
FE07
009E
FFFD
01FD
0025
0047
017F
FFBB
000C
FFD1
0229
FF7F
00AD
004C
01B4
0262
0011
01E1
FDD2
FDE4
FEF9
FF05
FDB3
FF68
0240
00C4
FD28
00EF
00C8
FFE1
FEAC
0021
00AA
0068
FF17
0070
0000
FD93
02C0
FDDD
0209
FE6A
0037
FF49
FF84
FF21
FEE6
FDBD
003E
FFA3
00CC
01BA
FDF9
00AF
0261
FFB9
047C
FE3E
0175
FF8A
FF5D
002A
0095
FC6F
FE9F
FD82
0102
FF89
0181
00F4
FEA4
0055
00D4
FFFF
FFE3
0231
FF77
00C0
FF9B
0359
03B9
0016
01E5
FF4C
FF1E
FF38
0160
0076
FF97
FE69
FE78
0520
FF8C
00F8
FDA2
FFE3
00C2
0101
012F
FC49
0375
FFBB
FEC7
027C
FDBF
0176
FFBE
FF1C
016D
FF01
FFF9
023C
FFEB
FD61
032D
0084
FF2C
FF40
FE86
0003
004F
009E
0030
FD07
FE1E
0218
0069
0015
0122
FE65
FE31
FF74
0122
01F0
0246
0161
0174
01AA
01EB
FF9F
0106
017F
FE94
0138
FEA9
0293
FFB1
029F
01C1
FEC3
FD2B
030F
009E
01C9
022F
FE9D
017F
0047
FEB4
00A0
FE2C
0013
FF44
FF85
FF94
00A2
0170
0257
FEA6
FD88
FF62
01EC
FFC9
FFEE
017C
0342
FD21
0165
FFFE
FF60
FF8D
FE1C
008A
FED6
01EB
0000
021A
00AB
FE96
FE99
016E
FDCA
FBEC
0041
FFD4
FD5B
00BA
0081
FDC3
0098
FF78
FF65
024C
0112
0027
0288
FE64
00D7
FFFD
FF7D
FFD0
0203
0168
FFB9
FC90
0125
02B8
FDFF
004E
00A5
002D
FF5D
005F
FF38
0052
00E7
0047
0298
00CC
006E
03BB
FD55
009D
FF1B
00B4
FD87
FDE8
FD9B
005D
01CA
FEFF
00E9
FE6E
025D
019B
FDB2
0081
003E
0060
FFAB
FF9D
FEA6
0076
00E0
00DB
01A8
0244
021C
FDC4
FFAC
003E
0104
FFB3
028D
00E2
FE7E
0128
FDB1
0032
011A
FF5B
0094
00D5
FF07
FF57
FE93
FF4A
0114
00D1
01B0
00BA
FE2B
FF66
FEF3
02A9
00B0
00E7
0128
034F
012D
FE3F
FEF9
FF2F
FFF3
002D
03B7
003A
0001
0015
00E7
0028
FF1B
FF28
015E
FF38
00EE
FD37
02D0
0100
FE97
0097
FDC3
FF84
02C9
FF03
FD22
00DD
FF0B
FEE8
FD05
FDAB
FFA9
00EB
014B
00AB
FFE6
01EC
02B2
00CA
FD33
0191
01FC
FFD7
FE18
0074
FFD3
FFB1
01BA
0237
01D9
00B4
FEB7
FFA1
00A6
FFA1
01E3
FFA8
0179
0170
008C
FFCB
0023
FD9B
FF34
FFAC
004F
004D
017E
00A3
FEB5
FF7D
FD73
FE9F
013F
0001
FEF5
0057
FF12
FEFA
FFEB
0029
0311
FF73
009B
00EA
FEEF
FF66
FE49
FF14
FDB1
FF49
FEA7
028C
FFA8
010E
FF25
0170
00E3
00D0
FEF1
0026
01CD
009A
0063
FFFD
0055
FFFA
002C
FFBD
01B8
FDF1
FEF4
01E4
0099
002B
FF2C
FF37
00C4
0281
013D
FFEC
0102
FDF5
00FE
002B
00B3
00B4
00D6
0047
0113
FD4C
022B
FFB1
FF84
FE3E
043D
FD96
FF8C
001A
016D
FDA0
FE51
004D
002C
FF56
FE50
FEAA
FF7C
0228
FEF5
FF5A
01CD
FF13
FDCF
FF35
0045
0097
FED6
FED8
005B
FFBF
0120
FD96
00ED
FDC2
FE39
FC5F
0075
017C
000C
FFB7
FEFB
0164
FD90
FEFD
FFCF
FFB0
FE94
0194
00E1
FFDD
FDD2
00AE
0144
FF34
FE53
0030
011F
01BB
FEF7
04AE
0174
FF86
FFEC
0270
FDFD
0206
00FB
FF86
004D
FE3F
0213
FF70
000B
00A5
0005
FF0F
FE54
03C4
0154
FE8D
FE86
FFC0
00EC
00C7
0233
FECD
FF24
01DF
FDCD
FE77
FFAB
FE6F
0143
FEF4
FD52
01AB
0007
0139
0028
FEEB
FF62
FCC1
FFFF
FF65
FF9D
02FD
FFF7
FD43
0046
FEDF
001E
003C
0042
FECF
FEC8
FFA8
010F
FDAF
0250
0087
FE16
0062
FE9E
01CB
FFFF
00D3
FC73
FD04
010A
FF5D
0008
FF4E
006D
007A
006B
FFBB
029F
0216
FE8D
FE58
FE0D
FF00
FE9F
FFDC
00C2
FF14
FECB
01B5
0118
00F7
00C2
FED6
008C
FEF7
018A
FF2C
0177
FEA3
01D7
0328
FE2E
0070
FD9E
0104
FDD1
FE8D
003D
FD9F
FF0B
0185
0110
0132
FFBC
0130
00AA
FFBA
00C4
003A
FFE8
FF1F
01B0
02DA
026C
FE71
0036
00EF
FE3E
FE43
0035
FCBF
0011
FFC3
0009
00D2
01D1
016F
FEF0
00D7
FE88
FEDE
FFD2
001B
FFE3
FF57
FF3E
FF61
FD54
FD70
0076
FF62
FF50
FE21
02B2
01C4
FE05
0004
0079
02BF
00C0
FF54
00F0
FE03
FEE9
005B
FFD6
0189
0218
003C
FFE2
FF3C
FEBF
0067
FFAA
0205
0140
0013
01A4
FFBD
022F
FF35
FE9F
004C
013E
FF90
007D
0069
FEE3
0095
0141
0237
0128
FE4D
FFED
00CA
00B9
FE05
005B
0035
FD64
FE6A
016F
0126
FECF
0165
FEBC
FFC8
0223
FFB9
FEC4
0319
005C
0243
012A
FF5C
FDA0
010D
FF26
FC65
FF1A
FFF4
FEA0
FE7D
FF2C
01E0
0015
FE53
0179
FDB7
FF7C
0009
0227
FFA7
0159
FD24
0110
0062
FD22
0396
01D0
FFF5
020B
FFEF
0105
FEAD
FE1B
FE89
0076
023F
FEB0
FEDF
0174
FFAC
FE55
005A
0175
FFE9
FEB1
FE4C
FFF1
00BC
FD51
03C0
01B3
FF66
FF84
0004
0035
FEE9
FE1E
01D0
FEC0
00EB
FE26
FE40
01C6
FF1C
FF86
0011
FF7A
028B
FFE4
01BE
FFD9
FE6E
FF13
00E4
01BE
FE30
005D
0243
01FF
FFBE
0062
02BB
FF23
0139
FE62
FC92
FD23
FF42
FF7D
FDAF
002F
FFD5
FD2A
FD36
FE04
0122
0060
FF72
0231
0211
FF83
00FD
00F6
FEF7
0009
FC91
0066
00A9
01D8
03B1
FF14
FFA4
FFB2
0039
00FC
03C4
FF10
0156
FEA6
0181
00D0
008E
0149
FF6D
FF72
000A
FED4
FF6A
FFD2
FE19
FF87
FEAD
000C
FE77
00E0
FFDF
0026
005C
0130
FF4C
001E
FE62
FF0A
FFC5
FECA
00BA
FF5F
FD5E
0116
FE1B
FF79
0291
0228
FF3D
0105
010B
0079
0245
0118
FDC3
013C
00D6
FFB0
FDE0
01D4
0166
0043
FF16
FEF5
00D7
0083
0079
FD24
FED1
FFBB
FEF1
FF2B
FF91
FF41
FF7D
005D
FFFE
FDD7
029D
005F
001C
FE01
0291
FEB2
FDE9
03DC
FDAC
FB9C
001C
02C4
FE09
0167
004A
FF91
FE56
FE4A
0156
FF26
FEF2
01D7
FF17
0042
009D
0070
FF27
FFEF
FDE5
0292
FE1F
FEB9
FEEE
01D0
FEEA
000E
0086
0010
FF7D
00B9
FFDF
0225
FF5D
FCE1
FEF4
007B
FF21
FE0B
FED6
010E
0286
008F
FF8F
FE39
0022
004D
002C
006D
FF7A
FFC6
00DE
FEE8
FF7B
002A
0002
020E
FEF9
014C
FEF7
FEFE
0049
FCFE
FF08
00A8
01EE
0004
FFB7
0042
012A
012F
001A
01C6
FF2F
FE8C
FEEB
FEAF
FFB0
0188
FE36
01CC
FFC6
FFA4
0241
0052
01D8
005A
002C
0032
0127
01A2
02E3
01FD
004B
0169
FFD6
FEC8
014E
FFBA
FFEA
FEEA
FFCB
FE57
FF24
FD53
0321
FFD0
011F
FFE5
017B
FF95
0001
009B
FED4
016B
00D3
0076
0090
FFE4
0070
0043
0133
021A
FFDA
003B
0198
FE08
FED9
00DA
0014
FE07
FFB6
FFB1
FF21
FF87
FD95
FDE5
01E9
00C0
016A
036A
FD69
FDB3
0285
FDFF
FF0F
01C5
021E
FD6B
02D1
FF0B
FE11
0159
00CE
0242
FD04
FF1C
014C
01B3
FF0C
0070
FF39
FD7F
FFB6
FFF8
FE62
FFA9
FD73
FD51
033B
0089
0074
0054
FFB9
FF6B
FF56
FEB5
0092
0035
FF00
FFE1
FF39
FF6A
FFB4
FECD
00AA
FEFA
FFF4
FF7E
01EB
FEB5
FE1E
021B
0005
0056
FE9D
0283
FF57
01B6
FDDE
FD88
0151
FE29
0215
0078
003A
FE39
FF62
010E
010B
0273
0116
0029
0100
0125
03E9
01D6
FC8F
00D0
00FE
FED1
01A8
01A7
FE36
FF5E
FE76
FF36
0069
00BE
0075
004C
00DB
0131
0327
0029
FF7A
020A
FDDF
FF8B
002F
01E3
FFD8
FE75
001B
01AD
FDF9
01C6
FCA1
FEF4
0066
0278
00CF
00B2
FF2F
FFE6
FEF9
FE56
FFF6
FF3E
0089
01EE
FE85
FE07
009D
FF3A
FCCB
00C0
FD95
FFAB
FE04
00C9
FCE8
0113
0023
005F
FDB2
0122
049B
FE77
FEA0
0183
FE58
006B
004A
FF1C
0230
02C3
027B
FFA5
FF47
FFE5
0304
FE79
0068
010D
FF12
FF58
FFDB
FEE6
FEDE
01E3
FE95
004D
FFA5
FFEC
0083
012D
FE2F
0005
0102
FFE2
0024
FFAF
FFF1
011F
01CD
025A
02EE
FE7C
FF4F
0124
00CA
FFD1
FDF4
0021
0246
FEA7
FEA3
00AB
00C9
000A
01BC
0053
FF5C
01EB
00B3
FFF6
FE8F
02F5
FF19
026A
0037
00C2
FFDA
00C8
01C0
01DA
FFBA
FF4D
FFEC
FED8
02AB
FFE5
FFDE
0149
FD8A
FF8B
FFD3
0244
FFC2
FE4E
00AB
FFB2
FFDC
FFDD
FE19
FF3C
FE70
FF06
FF64
FFD4
FF24
FE84
00AE
0044
FEB7
0147
FEED
FF73
FDB2
0193
0254
0004
0035
0194
00A1
FE99
025A
FEF6
FFB8
01D1
00A6
FEE5
FF9C
0172
FE17
01A5
02E6
004B
0070
010F
FC6B
018C
FEA1
029B
025D
01DC
FDA8
FFFA
FDA2
008F
FEE4
00C4
FE4C
FDF1
FF8A
0148
FECB
0114
018A
FEF6
0145
FFAC
00A2
FE89
FFCE
0180
0043
FF06
FFAA
FEDA
01B1
FEF8
FF93
FEE9
FF66
0076
FF9E
FE1A
FF3C
00BF
020F
0130
FE10
FEA9
0055
FE41
0031
FE7C
0115
FE11
0019
0158
FFAA
FEEB
0127
00A7
FF80
011A
FEC8
FF17
FF0E
02AA
FFDD
FEB8
FF7C
0042
01A2
01C2
FF25
00F4
FEC9
FE5C
FFF2
FF97
0290
0069
FE45
01D7
FE02
00FA
FE47
FE05
0097
FD13
0288
01D5
011C
00C8
0281
FF26
FF56
00DE
008F
FE35
FE8B
FF00
FF12
0233
FF79
017B
0052
006B
FF31
FD5C
FD93
FF2D
FD68
FEDF
01A9
FF0A
FD55
FEE1
0064
FE82
FD38
FDF0
FEA2
01BC
0028
0002
FF45
015D
0093
0047
FF59
0067
00E8
00F6
FF5E
FFD0
FFB9
017F
0215
00E1
00D4
027F
0000
01AC
011B
0112
FEBD
FEA2
0029
FF90
FEA2
FEB5
FFBD
007B
0069
FDBF
019A
FF91
02C9
0037
FDE9
0077
0382
01CA
0053
0174
FFA9
01C4
0147
0026
FFD1
FF35
0213
021B
0133
002C
01D3
FEF5
0051
0364
FD52
FDAD
FE3F
FF29
0043
01A7
FF73
0013
FF7E
0096
0335
001C
016F
026E
0041
00FE
FF27
02BB
FE8C
012E
FDB7
FF2A
01EB
FD05
FE07
FFE2
00B8
0106
FF64
016E
0078
0014
007C
FE12
FF0B
0181
FDAA
0016
FF35
FEFC
003B
02AD
0005
0154
017D
FEBF
FFC7
FEA0
FF3C
0184
00AA
FE5A
0184
0037
0026
0197
0044
FFC0
FDF9
FEB5
009C
FF2A
0194
008A
FF2B
00DB
01A7
0010
FFF6
FE6C
01AA
FF18
FF88
FEFE
FF5F
FF06
FF29
FF7F
FE6D
00A6
FF01
FF04
0043
00F3
FF2E
FDDC
0178
0383
006D
FEF0
FFCB
FDBF
010A
FEE6
FEA7
016F
013B
0070
0190
029D
FFC6
009F
FF2C
00BA
FF4A
0392
FFB4
FF91
FD12
FFA4
FE68
0166
FE5E
FE91
FEFE
005D
0039
FE57
FF04
0009
0184
00CB
FF1C
FDB7
FF51
FCBA
FE9A
0067
0135
006D
01A2
007C
FF2F
01F4
FEA6
FFF1
FFD8
FEA8
FF84
0026
FD0E
FE98
001B
0073
02D2
FC87
0294
FFCE
022E
00A0
00AD
0182
FF26
FEB7
FE21
02FF
FF53
FDFD
01D9
001D
FD48
FE9E
FF10
FFB4
FAD6
FE30
FFC2
FF20
FD58
0129
FFB6
0032
0104
FFA1
0099
004E
FDFB
FED4
0071
