015D
FC80
00E7
FFDA
FD59
0128
FC4E
00AD
FF21
0015
FE68
FE95
008B
FEC4
00D1
00AA
00ED
022A
FFC9
FD78
FE04
009C
00B6
FE9C
FF22
FFE0
00F7
0196
0165
FEBA
FF71
FC75
0355
FE1A
018D
01F9
01B7
028F
0244
034B
FEFE
0235
FFF1
FE7A
0349
02D8
FF05
FE8B
031A
FE26
01EA
02F0
FF10
FF1F
FF0A
FF9C
01CC
02DC
0255
FFF3
FE4E
0165
02C6
FF56
FEA9
FD2C
FE9D
FDCD
FCE8
0295
00CE
013B
FD85
0068
FDE1
0255
0121
FEFE
FE0D
FE38
0318
00EA
FCE0
FEDA
0356
0023
032B
02C8
0074
FEDC
02CA
0148
0020
FE23
01A3
FD13
FDC7
FFFC
FF58
00A3
0082
000D
0122
00EB
0193
FCEA
FFC2
FCC1
024A
FD7A
00F2
FD75
0191
017B
FE3D
FEAE
FFAB
FD93
0226
FD21
FF1E
FC96
00B6
FD7E
02D5
0210
01A4
FCB9
FF52
FF74
FE96
FF92
0138
00BD
00FF
01BB
FEE9
FFB8
FD75
FCC1
FCFC
0022
FF25
0114
FEBC
FFBC
004E
FE4C
FF86
01EF
01C2
FD0F
01BC
FE9C
01BA
FDC6
FE2F
FC15
00FF
0016
02F6
012E
FF17
038B
00E1
0349
0059
00FF
017B
FEB9
0407
0156
FF5A
028B
015B
0111
009E
FDC9
FEB7
010E
FDCD
00B8
010F
00B3
FEDA
FDC9
FE6A
021E
0285
0055
FE58
FE37
FD03
FEB0
FE2E
FD45
FDE6
011B
FD8A
0212
02FF
FFDD
FEEB
0203
0141
02AE
0248
0120
033E
FF54
FF68
FD82
027B
FFE8
004E
FEB3
FF44
024D
02BE
FED6
0053
004C
0216
FF44
FEAF
FCE0
010B
0073
011B
01D2
0013
012B
0099
FCAC
FD84
005B
02B0
010C
FC55
FD5C
FC29
00D5
00FC
FE73
011A
FD5B
FD8F
FF32
FFEF
0121
007A
FFA6
01D1
FED9
FF4E
FDE1
0371
01BD
FF76
FE8F
020F
0181
0124
FFCF
0267
FF10
0108
02E1
FD3B
0387
0081
FD57
0116
0044
FE25
0233
035C
FF2C
FF8E
0216
FE1C
00B5
0074
FE9D
0300
FF74
014F
01CF
FD34
FD5F
010E
01C7
FDD9
FDF2
0178
FD83
0141
02DD
FD49
02C6
026A
0286
01AE
01CA
FD68
FF9D
FDEC
0057
0174
025E
FF4C
007B
004F
FE02
FF97
0074
FD5D
00A0
FE19
FD0E
FFDE
0227
FEF5
FF58
0146
FD83
024D
0319
FF3A
FFD3
0016
FC9B
019F
FDC2
018A
0042
027B
02CC
035E
0315
FE8D
FE20
01AA
0200
0084
02B9
01B2
FFA7
00EB
005D
FE48
02F1
FF66
03E1
FE29
FE86
03DB
02DD
0050
01E9
03B3
029B
FFC2
0161
FEF9
FDDB
0195
0169
FF80
FD39
0366
FE03
FF83
FE6F
0062
01B6
012F
FFAD
FE1F
FE7F
001E
0157
FDE8
0143
FF52
FF56
FE3C
02C7
FFEA
FEB4
0182
0074
FF92
0179
FD48
FF22
FF28
FF64
0023
01C1
00B9
FDC9
0269
FD39
FBEC
FF11
FF9C
0128
FEFC
FE2E
FFD3
FD5D
0201
FCA7
FD03
0138
0143
FCAF
FDE5
0270
FFEF
027E
FDAF
003F
FFC5
02C8
023D
0129
FE20
FF9C
FE71
FFB9
FD1A
FFCE
01E2
FD53
01F0
0030
FD90
FE8D
033C
FDE4
0260
FD7D
FFF1
0258
0014
0125
FF78
02E3
0337
01A6
00B4
0287
FFFC
0167
FF1C
0012
FE60
00B6
FEF2
0227
0042
FD1C
02DE
FEB7
FF2C
0215
FF39
019A
0226
FD7C
0192
FD26
023B
FED6
0039
FF62
FFDF
FD54
FBFA
FF77
FF50
FEBF
0046
FD29
FC5B
FF5F
FF75
0215
FD03
009C
FF16
FEAF
FECF
FEA7
FF7F
FD73
0294
012E
0096
FF45
FECD
FFCA
FF92
FCA8
0294
022D
FFE6
FEFC
FD44
FD37
026D
000D
FF3D
01EC
FEB2
FFC2
0288
FDBF
0120
FDAA
04B8
FFD1
FF79
011E
FFE1
0029
0146
FF18
006A
01AC
002E
FE42
FFE6
FDFE
FFED
0172
0001
FEEC
FD23
02ED
0369
0364
FE02
0145
FD33
FF94
FEAE
01E2
FED4
02AB
0199
031C
0175
0055
01DB
FF3C
FDBC
FFB2
027A
FD46
00A8
FEDD
02A1
0096
FF21
FFFF
01FF
0198
FDAF
FD8D
01E8
01CE
FDDA
FE55
FDCE
FCC3
FDD7
016A
023C
0190
FE10
02CC
02B9
FF19
FEC8
FFF9
FFD1
FF88
01EC
FD6A
FF67
0204
0191
FD6C
FF92
0104
00C9
0114
FFCB
FFCC
01EB
FE53
FFAF
02F9
FEA9
02D7
FEF0
0420
03C4
FFD4
0113
00C0
FED1
0242
0114
FD7C
0446
FF75
FF37
FE42
00A5
0218
00A4
01E3
00CB
00E9
0108
0031
FE5B
FEA0
FF86
002B
02E6
0256
FF0C
01B8
01C6
01EB
0060
0268
010E
FEAD
FF61
006C
007B
FD93
0376
022C
0282
FFAC
001A
03BB
00FA
0151
01CA
00EF
00BB
0095
0377
02F4
01DF
01AA
0139
FD62
FDAB
00A6
036F
0373
0222
FED2
FCEB
FFFB
00B9
FE01
FE67
01A5
FD7B
FE71
FFFD
0278
FC4B
0314
FD9D
0195
FE63
0025
00BA
015C
FE0F
0220
FD43
FCDE
02AD
FF13
029C
0026
FEB9
009A
FCE9
00F5
01E3
014C
02E5
FF9E
01A9
0289
FE7F
02FA
FE0D
0328
FFE9
FDB5
0033
FFD2
02A6
FD89
FD03
0321
FCAD
FD87
FDC0
FF31
FD89
00E5
FDE1
FFDB
027F
02AA
0196
002F
FD11
000B
FFEF
02EB
FF9D
0176
0108
00D7
FE8E
00A7
FF12
0259
FEC7
FE84
0157
FF9D
02C7
03A8
030E
FEEF
00C1
0035
025A
0208
0306
0275
00A4
010D
0288
0236
FDCE
01F5
FDA9
FF28
02DE
FF0E
0242
FEDA
FE83
0119
03B0
003F
052F
FF98
FFAD
FF63
032C
0524
FE27
0147
03C0
FE1D
033D
027E
FDF5
01D3
FFAA
032F
FED4
01FD
FE70
006B
0019
FE53
0047
01AB
0406
029E
FD6E
008E
FC9D
FFC8
FFEB
FF9D
0025
01BA
0087
02D8
FDC6
015C
FCEF
FD66
0220
0336
0141
022E
FD1B
0039
FFFE
FEC6
FD2E
FEF2
0025
0246
0199
0076
02D1
FFC2
FE6F
FE2E
035C
0256
008B
FDF3
0022
0190
0186
FFB4
0299
002A
027F
FE88
FD7A
FE38
0166
0331
0142
0068
02C1
FFF2
FDBE
FF64
017F
027A
02B8
FE0F
00E4
0257
FE12
01F6
FD82
0254
FFB1
0230
03DB
FF81
02A4
FF15
FF46
FE74
0265
01C8
0402
04CA
0149
0014
0309
FF9F
FE0E
01CF
FD90
0341
0418
0299
0058
FED9
0260
030B
022A
01C4
038F
FDF5
FF45
FDA8
04C0
0027
FEA0
0348
FF15
FE4F
0059
FE75
0064
FF94
01C9
01E1
003A
021D
0419
007B
023A
FDBE
0393
02F1
04EC
0126
FEFA
021C
016D
01F6
FD38
FD1D
006F
024D
FF7F
0026
00E3
FF5D
FEE6
018B
FD52
02B9
004F
0250
FD4B
00B6
FE0A
0225
0171
FE2F
FCF0
00B5
FFBC
0127
0111
FFB3
019C
01ED
0333
FEFD
00B1
000B
FE6C
FE4E
0196
00D9
FF91
FD3A
02F2
FE6D
FD4E
0162
0117
031B
015A
FF9A
FD6D
FD39
FF9D
FDE2
015D
FD9C
0199
0028
00BF
FD79
02AE
0120
023D
0090
FDFC
015F
FD56
FF0B
014C
FE5C
FFFF
FE49
FFAA
01DB
01C0
FE94
FE1B
0344
FEDE
0081
0012
0199
011D
FEE3
047D
02F2
FE0E
037F
0347
0238
FF77
FDAC
FF6B
FEC6
00AF
FE18
036B
FF27
FF71
0292
FF92
0081
026E
0348
FFD7
FF0B
004A
03F1
004E
FF27
0077
FE7D
0236
FD5B
01E4
FF04
0094
04E5
FEA8
01E3
0017
FE0E
0330
029D
0283
FEA0
0067
024E
0213
FDE3
024A
0357
FE0A
011D
FDC4
FDEE
032F
FEAF
FC04
FF94
FEC3
FDBB
01F2
FD82
FEC9
FDF1
FFE8
FF74
FE9F
0109
FDF9
FE1B
00DB
01A7
FE11
0253
FD9D
FE60
0078
0249
FFBA
FC0D
FFDD
0016
0248
FF9C
02C7
FD31
FCFA
FDA9
00A4
00B4
FD23
FF2F
FFA7
0029
FF20
0122
0236
009B
00D9
FD20
034D
FFE1
0151
FF10
FEB8
FD89
02C1
FE6E
007E
FF21
FD3D
FD91
FFCD
016A
FEFF
FCEB
FE3F
02E4
FFC0
01D5
FEBE
0286
018F
FFC0
023A
FFCF
FF60
FD13
006D
014E
0213
00F2
0162
01A5
FE36
FDE6
0410
02E0
00F5
02AA
01F4
0103
0238
0360
FE05
03E4
022E
0098
FDB3
0374
FE20
0249
FF68
0152
FC73
FC59
FBAA
FD06
00AA
FE37
FBD6
FE19
FD9F
FF82
FED2
FD5B
00BE
025A
FD6C
0176
0071
FEFD
FDF3
FF1B
023F
FBA1
01B8
FFFE
FE77
FE30
FC74
009C
FDE1
FC66
FF70
00D0
02D9
FF1B
FD55
FE64
FD6C
0228
014E
FCE6
024D
FDA9
FD82
0198
FD75
016D
FDF5
FFC8
0366
FD2E
FFC7
0048
FDF6
0152
FE1E
00E5
009C
FD82
00EC
00A2
000B
010F
FE16
02A7
FFB1
017F
00A7
FCAD
FEFA
FFE2
0150
FDCD
FE42
0458
0183
0309
01BB
FE35
03AE
FDD7
FEA3
0259
FF58
0033
0151
0239
0266
FDE7
0289
013F
018C
FCDB
02BD
FE5F
FDC8
FEB7
01FF
FEC7
FE33
004A
FE8C
FF26
FF1B
01A3
FFD5
FB37
FE97
023E
FEC1
FCD4
004F
0028
00E9
FC1F
0110
01B2
FC54
003E
0065
0175
FDE3
FF71
017D
FD44
0008
0047
FC9C
0070
FF05
FD9B
FE27
FF96
0078
01DF
FF6D
FE72
FF4B
00D2
0217
FD35
0085
01D0
FE0C
0298
012F
FF37
FE01
FE19
FD5D
FE68
FE7C
01FB
FD49
FE53
002C
FFA0
FD11
FF8E
00E9
01E1
01A7
031B
FDFC
FF8F
0332
009D
FF02
FCE3
0318
FE2C
010E
FEE0
FEDB
FFDA
00D3
FF28
FF2B
01A6
0270
FF83
0033
0396
02B0
FF63
002E
FD1B
FF51
FF78
019D
0241
FD1F
007E
0183
0172
FFFF
FF01
FD2B
0235
FEB4
FE3F
FEE8
0201
007E
0172
0212
010B
FE20
01C5
FD40
0027
03EA
0243
00BD
FF46
00A7
FEB7
0219
012B
01D4
FE23
033D
0012
FE40
FC14
FDD7
0057
FDD4
FF65
FD69
FD02
01AF
FF23
FD21
0163
00BB
0189
FFD5
FCDE
00CA
01E8
005C
FC2B
FE8B
00B8
0143
FF95
FD89
FDD9
0167
0098
0048
0129
0053
FC55
FB59
FE11
FE78
0166
FDF6
01BE
FC59
01B5
FD2D
FF73
FB8C
FC2F
01C7
015A
FD20
FD45
007D
FCEA
FFC9
FE58
FB81
0156
00A4
FD0F
0146
0289
00CD
FD52
FD11
FC4D
0129
FF16
FD83
00E3
FFE8
FEB0
0177
FCD6
023D
FF16
FE74
FD61
019E
001E
FEB1
0306
FDA7
007E
FD0A
00A4
0255
0241
FFB9
FD11
FE0B
03D6
FDB5
006D
0026
FCC2
005B
FF25
0273
0292
FFB2
0249
FFF5
031D
0168
FD10
FCFA
FF61
0255
016A
02A2
FD9E
FE7C
FEA1
FE45
FDB5
FFDF
FE26
FE82
0156
00CF
0051
002B
FEF1
02BE
026F
005B
0044
FEA4
FE7F
FE41
02AE
FC2E
FD87
00A3
FDFE
FDAE
FFC3
FE68
FEC7
0130
000E
FB71
FD01
FE60
FF54
0162
FEA7
0056
018A
FFA3
00F4
FCF8
FDF4
0197
FC17
01E7
FC7E
FD4B
FF6D
FE91
0259
00B2
FE38
0208
01E2
FDAC
000C
03A0
00FE
FF6A
0162
037E
002A
0465
0060
FF2C
FD89
03AD
FF94
011D
FF2B
FFEC
0261
02EB
0187
0323
03E0
FE96
FE34
FEE7
00D4
FF6E
FE4C
0254
0348
FCB5
FF44
0090
0110
FEFC
FF1F
02F5
02CB
005F
FF0B
FE5C
0303
FE5F
00D4
FF38
0352
FFCB
FE6C
00BE
000D
FF73
FD1F
FF9D
002A
FDD1
FE5C
00A5
01B1
FEAE
021D
00DE
FE1C
037A
01C3
FDC4
009E
0333
01ED
02B5
0220
00CD
FCFA
FEDF
FE1C
00B1
013E
FD4A
FD9F
FD25
032E
01E8
FE81
FD9D
FFB9
FEE2
00BB
020F
FD94
FD40
FFC5
0148
0103
FE76
FE6D
FE71
0293
FEA4
FFB7
033A
FDFB
023B
FE9B
0436
FEBE
03A0
002B
0245
0388
01DC
00C2
01FC
FF6B
005D
FF3C
00EC
0238
FD95
03BF
0334
FF20
0099
FFDB
FF97
0270
01A1
0166
FAC3
FAFD
FF0E
0148
FC8F
FCF1
FA48
0253
FB0A
FCF6
FD3D
FAE6
FF80
FD66
FCD5
FE7E
014E
009F
FF1B
00ED
FF47
FCC0
01C7
FEEB
001A
FE0D
FF54
FD1A
FE4F
FCE7
019E
FE89
02A1
015A
0001
0122
01D7
0095
018A
FE39
FE88
00BE
05AD
02C5
FF7E
FE9A
FE15
FE66
FF3F
FF5A
01F3
FE8D
FFB1
008C
FD44
FFBA
FE14
0183
01C4
FD9E
016F
01B4
FF91
008F
FC2A
03B2
FE15
FDFF
0032
01D5
FECA
FFF0
0085
FE07
FCF8
FE9B
FDD6
02A8
025A
01E4
010F
FF60
FD5D
007D
FE39
FE72
FEA7
02C0
FDA2
FDF8
0360
0305
FDB6
0107
026B
FDB1
FC50
FD7A
FCCB
FF18
01D3
0220
FB1B
030B
FB4D
014B
FD7E
FCDA
FFDC
FDDE
FCCF
FC98
013D
0001
FFE2
FF6D
00B0
FEC3
0072
FD0C
01DA
FD83
0020
FE18
023D
016D
FD6B
FC7F
FF19
01E5
0097
FE0E
FDE6
FD5A
00EB
FDCB
0048
FF16
00B1
FBF6
00C3
FC81
FF40
02FE
FC60
00B3
00E0
0073
FDD9
FDD6
028A
00BE
FEB8
0010
FD7C
024F
0259
FE41
0123
FFA2
010E
014A
007B
005E
FF7D
FE85
0177
FEE5
0220
FD7A
FFA5
FF39
01D0
FDC6
FDE0
FD97
020A
FE7A
0161
0222
0260
0102
FE24
04C2
FEE7
FE27
FEBD
FECB
0346
FE1F
023C
FD94
00AB
00CE
FE42
FE7C
FFDD
018F
FD0E
016B
00BD
02F5
02FD
03CD
FD2E
02DA
01FC
FCF8
0368
0016
0073
01FC
0094
01D9
FF72
000F
FEC5
FCFC
0074
0199
002D
FD38
01BF
FC40
FBE2
0119
01E4
0291
002D
FFA4
FF4F
01FE
FD04
01F9
007F
FFF5
FF1B
FC87
FECE
FD19
FF23
014F
FC9A
FF1B
00B7
FCBE
01AB
FC8C
FFAE
FD55
02EF
FF54
0104
018C
FF94
00F8
0385
039F
00CF
FF79
01F1
026F
022B
FF3E
FEB0
FE0C
0084
04FB
FE3A
0163
01E6
0255
0292
FE94
0133
FDCF
03DE
FDAD
FF7D
FE7A
FF90
0234
FD71
02CE
FDBD
0332
FF34
035A
FD51
FD35
0250
FE7C
FE2B
FD14
02BA
005A
FD5D
02CD
0125
0244
0035
01AF
007E
03AB
015E
01AE
FE41
0074
011A
FF48
FDEF
013B
FE86
FF0D
FFFA
FE2A
FDE8
014B
0024
0006
FFD1
FD6D
FECA
FEC7
FEC9
00E2
0388
0155
FDCF
FEF0
FF8E
FF63
FFD4
FD1D
FF3E
FF2F
0110
0161
FD3D
0041
0241
FD6F
013F
FE23
FD0D
FDF0
FCF6
00FA
FF97
00D9
FD47
FF83
041A
FE81
01A5
020C
FF33
FE20
FEEB
FD13
016B
0336
0376
01AE
FDF3
FEAD
0152
FFDC
FFFD
FD1E
012D
FDED
FE3F
01D8
FE2A
032F
FDB4
0256
006C
02B9
FFD9
0167
FD7F
02B4
00F3
FEA3
02FA
0181
04C1
0134
0427
0191
024D
009D
0409
041D
FEB8
019F
0496
0142
FFC2
0102
FE8D
01A3
FF5F
FF18
000B
030A
00DB
009C
0185
02B6
0002
FF2C
0161
0503
0070
011F
FCEF
FF76
01D8
FE23
FF1A
01E8
FFA5
0196
FF89
FEA2
003C
FDE3
02A9
FECD
00DA
00F4
FD25
0325
0327
0001
FED0
0010
02BB
FC78
FFB5
00B1
FD87
FDFA
FDFF
FFB0
02C3
FF4A
00F8
FF22
034E
0029
02AE
0256
FEC8
0039
000A
FBCA
0074
FD6C
FBA8
FDAF
FCD8
FFCF
027F
FF2A
FD7B
FC9C
01DF
FE64
FD21
021A
0312
0105
0138
FE6C
FDEB
028D
0037
FFAA
FE47
FDFB
03A9
02B0
01F1
0064
FF5E
0227
04D5
0016
026D
03B1
FE05
0308
0145
FDE0
FF7C
010A
FECF
0104
034F
02ED
0286
FFB5
0040
01F9
FEDD
00B7
00ED
FE88
FCC9
FD96
0135
02C6
0249
01E9
FD9F
02F7
FD9D
FD37
000F
0197
FE27
FE6D
00DC
003E
0076
FFE0
0048
0287
FE30
00DF
FED3
FE57
FCC7
013A
0216
FFBF
FDF9
FE7C
0126
0168
018C
FDA4
0132
0138
FDA2
01AB
FD19
FEF7
FEF3
FDE6
0256
006C
0199
02A2
02C8
FE9F
0138
0149
0130
FF10
FE30
FF61
0166
0357
FE5F
FDC3
01C5
FEEF
0053
025F
00FD
FE0D
0236
015A
0144
004E
FEB8
0066
FEEB
FEC9
FF8E
0121
FCAF
FEAC
FEEA
FF8A
02EF
FFDA
01E0
FDFF
FDD0
FF0F
FD9C
FD3C
01BC
01AA
01EC
00CA
FE39
007E
0045
0010
FECC
FD37
FCD2
FCB8
0270
0156
FEAD
0170
FFA7
FE96
FFAC
FD85
FCBA
FFFF
FD13
FC6F
FFE1
0255
FF1A
FDC5
FE42
FD2F
FCB8
FD8A
0180
0084
FCD8
0037
FFA8
005A
01E1
FD7D
02EB
FFF2
0454
FE00
00B1
0158
04C3
023E
024E
00B4
02A2
0049
0411
009A
0337
02E2
0278
00CD
04A5
02A4
02D8
0258
0021
FF04
FF56
0122
FF9F
FFAC
FDD5
01C6
01D8
0000
0265
00B3
FE5D
0270
0174
FF29
FED1
02D3
FE3F
004C
FFA4
FF45
FB16
02A1
FEDA
FE75
02AF
0284
01A6
FEA3
FCFF
FCFD
FEF4
0232
FD63
FDB0
0290
0254
FD0D
003F
FC96
0069
FDC4
FF58
010E
FE58
FEF2
FE60
0004
004A
00F0
FE89
0159
FF26
FE9E
FF05
007E
FE8D
FCD7
FEA0
FDFE
FE77
02FF
FEE8
FEC0
0076
0017
0258
0325
FD3A
FDF6
FE86
FE32
FF3D
002E
0250
006A
0296
FF92
01DB
00E0
FD34
0413
002C
FE4F
FDD8
006C
02DA
FD3A
037E
00EE
0218
FF8F
FD42
0161
FECF
02F0
FE37
0355
037C
02FC
020A
000D
0203
0216
0379
02F9
0085
0272
00AC
FEB9
0269
017B
020A
FF2E
FD6A
FE7B
03A3
FF78
0347
FF00
00A4
021F
0127
033A
FF68
001F
0093
03A5
0309
FF36
00B0
036F
0034
0046
012B
0300
FF07
0063
FE66
FCA9
009A
0151
FE59
004A
FDE9
0202
FE96
FF87
0100
FD95
02B7
00E8
0248
00DE
028F
0192
021B
0079
FDAC
0222
0019
FE5F
FD0B
0173
FE67
0238
0105
FF58
FED0
0283
00E3
004E
029D
025D
02F2
01F4
007B
0128
FFC2
FEAF
FC80
0278
013B
FE96
0116
FDDB
FF52
FDCA
011A
FE5A
FDFF
FE42
FDEF
01D9
0142
FF86
FE52
FF29
FFED
FF0D
0134
FE27
FEDF
FEAD
02CC
034D
FECA
0483
0197
02B3
FE8C
029A
FDB1
03A5
FEC6
FEF8
004F
FD5B
0102
FF61
0220
FDB1
022E
01C0
0318
0129
0207
FE22
0232
FF20
0160
01C5
FE9A
0259
01E9
FCDE
FCC1
FCE4
FF19
FED1
FE75
FA40
FEBD
FBD1
FEF0
FA55
FD6E
FEE8
FE57
FC63
014F
FCAC
008E
FD55
FB61
FEE5
01D5
0090
008E
FEA9
01B9
FEED
014C
00CF
0118
FD92
FD4E
FF78
FF7D
012A
01FF
FF15
FE82
01E3
FFCD
FEF2
009D
05C8
0084
FEE4
02DB
02F5
FEC2
0274
00AF
FDF4
007A
00B0
FF63
01FA
00BF
003E
034C
FE1D
0165
FE30
FE0F
02C4
FF82
FF6C
0151
FFFB
004A
0190
030D
027E
FEF7
FF9F
FDB2
FCFD
0288
0190
01A4
FE7A
0067
FED8
FFC9
FED5
FF44
01CB
0210
0159
FD37
FF36
FDF6
0248
FFBE
01EC
FDFA
0268
FEE2
FBDC
FEC5
0125
FF9C
FE5B
FDAA
FBD6
FE7E
FDD2
028C
FDBA
FBF5
00EE
0243
0023
0081
FE75
FD98
00D7
FE0C
FD36
FF35
FFDE
0020
026A
FF6C
001F
01DE
01EF
015E
01F3
FCF2
FD5E
024E
FEBD
FD55
FBBE
FF62
FD17
01E9
009F
FB8A
FA3D
FD8E
006D
FCA6
FF99
FE3A
FD4F
009B
FD8E
FD37
F9A7
FEF3
FE5E
FA9A
0296
FD62
00D0
0210
FEF4
FF98
00E2
FDEE
037D
00E0
FF1C
002E
0017
FFE5
0183
00D9
009C
01DE
057E
FF00
0249
0051
01D1
FFE5
0280
0295
FEA0
FE70
FE2A
FD59
FF18
02AD
FE45
02F8
FF6D
0104
FF72
FDB6
FED7
FE87
021C
006B
0275
FE75
FDBD
00C5
00CB
FFE9
FF8C
FF2D
011C
033C
FFB8
0215
0166
FFD4
0269
FEF6
00C6
FD2F
0123
014D
FF83
FDDC
00E8
FF05
01A7
00FC
FF1C
0127
FF75
FE4C
0076
0025
FF02
0050
FB5F
FEA6
FC1F
0349
FE98
FEB7
FDF5
FE8F
0195
FE66
FCA1
FC68
00F7
02C1
015C
01F8
FBAA
01A8
FEED
FF5E
FC8E
FC98
FFBA
FD22
FFC9
01E3
FF41
FF3A
0223
FDD0
FE02
00DE
00B5
008E
0055
02C8
0196
0240
0159
0416
0206
025A
0007
FE8D
0013
01E8
01DB
001D
02B1
FE9B
00F0
01CF
0051
FE9D
0046
FDCB
0049
01C3
011B
01B0
FD78
FFEF
FFDE
01D5
0166
023B
FFDE
FF55
021E
FF87
FDC3
FDD1
013C
0000
FF24
01CE
0092
0090
02B3
FFF9
FFAE
001C
0045
FBCD
FD9B
FEE5
0163
FECC
00E0
FDE0
FDDB
FE38
0001
02D8
FC75
0008
02B3
FE71
01BB
0108
FF14
FD14
FE2E
0037
0169
FCFB
FD39
020E
FD0E
FF4E
02A6
020F
FFBB
FEFE
00DD
00BE
FDDE
0279
02E6
0287
0094
03A6
00B4
02CC
03FE
FF34
03BE
0260
022F
0283
FF0A
FD34
0265
FE15
FF29
0099
001E
FF7B
0125
FFA7
0155
FEC5
0241
FE37
03CC
FECF
0117
FFC5
FE83
003A
00E4
FF64
FD6B
FF3F
0378
FD86
FE3F
FD0A
FCE6
FE11
01C8
FCF9
FF98
028C
FE25
FD45
FEBD
FFFE
FD7D
FFAF
FDEF
FCE8
FD3D
FE9E
FFEF
0295
FD0F
FE99
FD63
FEC8
FD23
FCF2
0169
FEB1
FEFA
FC5C
FECC
000E
0095
014B
FF7D
FD44
FFBE
FFA3
0198
FEC0
0033
002B
FEEF
FE0C
FEB1
01C2
FE4E
0149
001B
0272
FDAE
FFFF
FED5
FF9B
FF70
FED9
FD70
FED9
01A7
025F
FF15
003C
008F
FF2A
FCDA
FEEA
038A
FFAD
0050
FDEA
FD99
FE70
FF14
0203
FFBB
FDFA
FD90
FD27
0027
00B6
016A
0279
FD4E
FF6B
FEF7
FCA7
0220
FF99
02C6
FFE1
0253
0278
FE51
FDCE
00F3
FFE6
FD3C
FCB1
014B
FE0D
0250
FF8C
0137
FFEF
FBCB
FFA1
0061
FE09
002D
FC67
FD92
FDE6
FE79
FD3B
FFFE
01FC
019D
FE05
FD45
001A
012C
00BD
FDBD
008B
0018
FD0B
01AF
FEFF
01D3
FE9E
00F1
FE34
035A
0189
0327
01E6
02B7
0239
0295
02C7
00A1
0117
02DE
0077
039A
FF23
0070
0408
03A8
FFD8
FECD
00C4
02EE
01F2
000D
FF84
FEDE
0367
0366
FF4B
FF33
0118
FD10
FE31
FFAE
014E
0060
FF79
FFBA
0242
FF2E
00FE
0169
0230
00CD
FFF8
FE47
014D
FDF7
FDB8
0345
0166
02A2
0176
009C
FFBE
01D6
FF50
017B
017E
FF77
001D
005F
FEBD
FF4E
02EC
0067
FE18
0103
FDD7
028B
0016
016C
FD07
FDEB
016D
FD5D
FD58
FCE7
02D2
FD8D
FD91
FC4D
0348
FD5F
FFA6
00D7
0258
FFF6
FF2C
FEC1
FE67
FD98
02CB
FF5D
FFA9
01FD
FEA4
FE71
FD58
0096
FF29
019B
FF22
0395
016B
027D
0285
01F3
FDB9
02F8
0234
01ED
01BC
0366
034D
FE69
036B
FE72
FE3A
FFEF
0304
0268
FF45
FED0
02D9
FB9E
00CE
FCE0
FD5F
FEBC
FDDC
FDED
02B3
FF9A
00FA
FB54
FE1F
01A6
009C
FE68
028E
FFE1
00D9
017E
FDE9
FD5B
010E
FD04
FE9F
FD31
FEFE
0255
027C
0098
FF4D
FD57
FDC3
0179
FE8D
03A1
01A4
FEBC
0210
FE53
01CB
030C
02CE
0455
FE1B
FDB6
0384
FEB6
0169
FFA8
FE48
0179
02F9
FF32
00B0
0247
0173
033E
0072
FDC0
008C
0238
00D5
0344
FEBA
FF6A
022D
0320
FF56
FCCF
0055
FEFF
FFB2
FED2
FF1E
FE06
00B6
0270
FE96
012E
FFF5
FD1C
FF04
FCD9
FD7F
01F0
FE1D
FD94
00CD
0202
0077
FDF7
FEA3
FEC0
FCD4
FE65
006F
FBC9
FCEC
01A2
00E5
01C0
FD2E
FF87
FFB0
FEF6
00BE
FAFB
FF9D
FD65
0298
0065
0233
FC91
001C
00E9
FBDA
FF38
FCED
FCFD
FF84
FCFE
018B
02BF
004F
FFD8
FE7A
002B
0061
0125
02C3
FDD3
004A
FD51
01E5
FF82
FF16
FFB8
02A4
FF78
0053
02C6
FF36
025C
FE5B
035B
FE6E
0111
FE9B
0258
0232
0152
FD22
FF06
02AF
00FC
01DB
0188
030B
FFB9
03CD
0090
00B4
FCBC
FE5C
0092
0039
0008
018D
0356
0060
FDA7
FFF6
FEE5
0180
002B
016E
0182
02FC
FF27
FED4
01BC
0098
FCE6
FF9D
028A
01F2
02A3
0250
FF62
FCEF
FC1A
FFCA
02BB
0068
02CC
FE4D
FD21
0388
0170
FE11
00C5
0077
0325
FCF9
014C
0260
FFD0
FEEC
FD63
013C
FEC8
0268
FD5F
FCAB
FD2B
00AF
FD0E
FE97
0227
01A2
0100
029B
02D0
0137
FF04
FF47
01BB
0296
FF2B
FF84
040B
FEDB
021C
0303
03E9
00F2
0228
0341
FEBA
0121
FF6A
FE9E
FDE2
02E8
0370
FD83
FE10
FD93
03A5
030B
0030
02E5
FF3B
FDA9
FBEE
FE95
FE0C
013D
FC4C
FEC5
FEAE
FDAB
FCA0
01C2
FF96
FF67
FD08
00BD
FFDE
FDD9
01E4
0117
FE67
022B
FCAF
0112
FF83
013D
FE06
FE29
FFC9
FFA0
01FC
00E4
FD2E
FD5D
0053
FDD6
004F
FFF2
FF25
0163
00B2
FE92
FF78
0282
0214
0136
FFF0
FFB6
00E4
FD6F
0262
FDAF
0020
0254
0287
FE3E
FDC8
01DE
FF46
0406
FFD0
FDF4
007D
FD2D
0232
FECA
01C6
FDA6
0150
FF43
FECD
0086
FD2D
FE7F
FF14
FE7F
FE9F
0227
01B4
FF2A
006C
0144
00FD
02D8
02D8
00FE
FD98
FDE1
0014
FE7F
02E6
019E
FF0B
FF91
0226
FF8E
FEB8
FE5E
0044
FF90
FF5A
0075
FF0A
FF12
0077
FECE
FD91
FD23
FE3F
FF68
FD44
0062
02A7
FD01
005E
00CD
003C
FF6F
0240
01E5
FBE6
0218
FF72
0107
014F
FE30
FDF3
0002
0200
FFED
FD17
FDC3
FFA0
041D
FD8F
FD73
FB6F
FCA3
FDB2
0161
0511
FB7F
0344
FCE8
0129
03B2
FF4F
0057
008A
02BA
FFAE
045F
0156
FD27
031F
FDA6
FEA3
FF64
FF14
FE18
0083
FEE7
FFE4
FDB5
02FE
FF7F
FD88
FF39
FE26
FF4E
0253
FEB5
03F3
FF31
0218
FF31
01EC
022C
FFC6
01E8
024B
FF3A
0236
002F
01A4
009A
FCC7
FF6B
0017
FF36
0181
FF73
FD35
0107
FC9C
0043
01CF
FC7F
00BA
FD48
FD38
FF81
0206
007D
029E
02DE
FE13
FDDB
FF7E
FFB2
FE77
019C
FF6A
FF48
0160
03ED
03AE
FFE9
006B
FAC9
02A9
FE1E
FD5F
02F8
03A3
00AB
00F7
FF75
03EB
0000
FC96
FF48
0033
FD75
FDB3
FE1B
0308
FE81
FFA3
0067
01DD
0126
00E2
FF7D
0475
FEEF
02E5
FF6E
FDFA
FFB2
FE9A
FA85
01A9
004A
FFFD
FDFF
FD71
01BD
FFBA
021E
FE48
FFA6
FEAC
01D9
FD06
0272
FE1C
FF5E
FD85
FDA9
0096
0104
00A0
FE76
0202
030F
015C
FD31
FE47
FED0
015B
FE4F
FEC8
013D
000F
00F6
FFD4
031A
FF0D
FF33
FFD0
0269
FE89
0029
FEBD
FEDD
004F
024D
FFC4
FD7C
FFB5
01D0
FEC3
011F
FD39
01CD
FFF7
0048
FDC9
FECF
0279
00C9
FFEA
0114
FEAF
0025
FD44
FE64
009E
02FA
FE54
00CE
FD97
FE49
027F
FF4C
FF3B
FEDE
00D8
02BE
0116
FCEE
FD62
FEFB
FE6D
FD75
02B5
0206
FDAF
FDAD
020C
FCC7
0240
FD48
FF44
FCD9
FDB1
FF9E
FD83
026F
02A3
004E
0152
FD88
FEB2
FF56
FE25
FD8E
FD8C
FFB5
00F1
00B4
FD5B
01D8
FC6A
FDE2
FE57
02F4
019E
0261
FDFF
0047
0007
0130
FFAE
0037
004D
0111
01DA
FF1A
00D7
FD18
02C2
FD8C
018D
FEFC
0305
026C
00C5
0577
FCC0
FC16
FEE9
0227
036A
FD3A
013F
0117
01DF
FE7F
02D0
0410
FDD7
FFBF
FE1D
FD30
0017
01BB
0191
FFE3
03A7
010F
038C
00EE
01DE
0156
0094
FFFB
00F7
0302
02F8
01C0
FDFA
005D
FECA
FF9A
FF39
FE28
FEF4
01CE
FE70
0338
FF79
FEA1
0191
0005
01AE
FCA8
028B
0260
01BD
FE56
011E
FF31
FE97
01D8
FE0C
0176
FEBE
FDAD
FF10
01CE
0143
FE09
FD51
FEDA
FDCA
026E
FF01
FF20
03BD
FE30
FF4A
0083
01A2
FD8E
FD7B
0178
013B
00E5
0017
0032
FD99
02CE
02C8
FC4B
0234
01DC
FD5A
00C5
FF6C
FD22
FF37
02B4
01EE
03BC
FC83
FEA7
FCD2
FFCF
0439
FD5A
00F2
FF07
0363
0158
0198
FE63
FE25
FED1
FE1A
FE3A
032F
0036
FDC1
016F
01AC
02CB
FDB5
FDB3
0138
FFE3
FCFE
00D4
FF4E
FEEF
FEE3
FC54
FF36
013B
FC84
FF22
FF27
FE44
0053
00A1
0038
FE1A
01C9
0033
0026
021E
FD25
FFBF
FC71
023B
FB8D
FFAF
FDCF
0016
00A0
005A
FF79
FEBC
FDF1
007F
01CF
00BB
FE15
FFBC
0218
034C
FDA4
FF93
02C3
0284
01D0
FD21
0059
FD37
01A9
FF9F
018A
FE47
FF31
0197
FF07
02E7
FF4B
FEF5
FDF8
00E9
FF49
0255
0326
0213
01A4
FE9E
FFCE
FD4B
FF2B
03A0
0328
FE05
00A5
0042
01B9
FEB7
0154
0319
FFF1
0057
FDE8
FFC2
FDB3
0011
0232
FDA9
FF39
FD1E
000C
FEA7
0089
0249
FEF6
FE6B
FEB4
FF21
FDA2
FECF
0046
0181
FEA8
FE47
FE82
0081
FC98
FEA9
0064
FF5B
010F
003D
FD97
00D8
FEDC
0091
FD20
00FA
FFFB
FD6B
00FE
FC0B
FD57
0079
FC91
FC48
0125
005A
00C4
01FE
010E
0053
0139
FFB8
