FFC1
00E8
FDD5
00A3
00A7
FEB6
01FB
FFFA
019A
016A
FFBF
FF89
FDB2
FFD2
00AF
01F9
FF5B
FFB9
00B4
00E2
00B5
00FF
FF86
0014
0066
FFC9
FE47
FF1B
002C
008A
FDDC
FBC4
FEAD
FEFF
0060
00EA
009F
0095
FE63
010B
FF8E
008E
0023
02CD
FFE8
0171
0106
FF60
FFDE
0194
FE4C
FE2B
FE43
FEF9
FF99
03B5
0077
FFDB
FF9C
017C
006D
01AB
051C
FD49
01E7
FFC4
0323
0154
FEDC
00F8
00D9
0284
0237
FF79
008C
00F5
0116
FFD5
0128
0079
01E1
0127
0182
FF3C
01CC
FF11
00D0
0012
FD08
00B4
FEBD
FF1F
FF10
0029
022E
01F5
FE64
FF8A
0150
FFE1
0059
010D
012B
FE35
00E7
0020
00C0
00D8
FE79
003F
FFFC
004D
FF2B
003B
FE17
FFE8
00BD
0200
FF0B
01E8
01A8
FD71
FE78
000D
0011
0221
0158
0095
00F1
01AE
FD5E
0021
FE00
0115
01E1
FFD3
0273
FCE2
FF6F
FD95
FE5D
FF6F
FF17
01DD
FD78
0457
002D
01B6
FDA4
FF48
0070
00D6
0081
0058
FD4F
FF77
00C4
003C
FF19
014B
001B
030B
FFC1
FE41
FF6F
FF12
FE15
0035
FF59
FF01
0109
006B
FE4C
00BF
0253
FEE0
00DE
0164
01A3
FF38
0140
017A
FFB7
0219
00BA
00DC
0031
FF81
FDDD
00D5
0120
FED4
FE4F
036A
FDE3
FD8D
0075
00C4
FFDB
00FB
FFBA
FBA9
FF57
FDC6
FFA9
FF64
FDE1
01EC
FF46
00E9
FDC9
FE9F
0176
016E
020B
FEBA
001C
FF61
FEFA
0154
00A1
FF93
FE8C
FB96
FF24
0131
0130
012E
FFC6
00C6
FD77
FE4F
00C4
FE56
00D3
FFC8
00DF
01E9
0114
FFCA
0008
FEB4
FF1D
FFFE
FED9
0000
FF43
FF13
00EA
FFFC
FF2F
FED7
FF6D
FF74
000A
00C6
03C0
FE4C
FE93
FF04
02A8
0016
0307
FEBD
016A
FE80
FFE1
000F
FD95
00F5
020E
FDFB
003F
FFF7
FFB5
015E
0244
FEF6
01B8
00C9
FF77
0270
0156
0057
FD9B
006E
FE44
FFC9
FF13
FF7B
00CC
00EC
0183
FF5B
0052
FE9B
FFFB
FE3E
00E5
02BD
00B8
FF5B
022D
0141
0254
03BE
0106
FE65
0000
FEA9
01AB
01A9
FE7E
0092
FD27
024C
FEA0
FFA6
FF77
FE33
FF90
023D
FE1A
FDE3
FEC8
003C
003C
FE8F
0314
FFB1
0013
0091
FEE3
009C
0012
FF55
FF57
009B
FE67
FE38
01D9
012F
FC93
03E6
0047
01B5
0029
FF2A
00BF
FF5E
FE7D
006F
0157
004C
0083
FE2A
018F
FF4A
00B4
FDD7
0247
0326
FFA1
FFF8
FFB3
00DF
FF45
FE00
00C6
0236
0165
0185
01EB
0011
0179
002D
FDED
0200
00BD
FEE7
012A
0282
FE90
016C
FE1B
FF39
FEF4
FE5A
FE41
FF30
0041
FFE1
FF95
FEE0
0080
009D
FEAB
FC45
0150
0177
0219
01B2
0121
00AC
006A
FD28
FF56
FEC9
015C
FEA4
0260
0148
00BD
FFCB
0077
FFF9
FF30
FE92
010C
FE17
FF15
FF3B
004B
005A
FF3C
FF2F
00EB
FFAA
032E
0027
0179
006C
00E8
0030
0089
01B4
004E
FECC
00B1
005C
FF6D
FDE2
FFDF
FFA6
0229
0177
0280
FDD3
FFA7
0041
00E0
0114
0248
FDFA
00DC
004C
FEA0
03B6
FF82
01A6
0036
FFAA
00E5
FEC8
FECD
02F4
038B
02AF
FE59
0047
0007
0028
02DD
FE5B
0188
0066
FF81
FF43
0125
015A
FD97
003B
FE6B
FF73
00CB
01DA
0186
02CE
0123
FF50
FFFF
FC1B
FEC8
FEB6
01DC
FD64
0147
0228
FFCB
FCCB
00D5
003E
FD40
FF82
FF31
FFD0
0177
FF59
FCD8
FF2E
022F
0284
0056
FE1A
0033
FF97
FF7C
019F
0052
012D
001B
FDC4
FE2F
00A4
00EB
FDBD
FE66
00D3
FF37
FF75
0179
00E6
0120
FFF6
00DD
03E5
009F
0216
0083
00A9
0121
FF43
01BD
019C
FFBA
0144
0093
FF30
FFE1
FEFF
0150
0029
FCEE
0127
FD27
FDEF
FED3
FFFA
FF67
0254
00D7
0090
FEFE
00D3
FDC9
FE81
00A6
FFEF
FED3
FEFA
FF55
FECA
FFE7
FEAB
00ED
01CE
FF91
0127
0126
FD7D
FFD2
00A1
00F5
0086
00CF
0118
00EC
013C
FFF7
FFAC
FF2B
00AF
FF6B
00C7
FE13
FE89
00DC
018D
FFA4
FDC7
FF5E
FF73
FF34
FEBD
003F
FD43
0041
0175
0055
00D4
FFFF
FFE3
0231
FF77
00C0
FF9B
0359
03B9
0016
01E5
FF4C
FF1E
FF38
0160
0076
FF97
FE69
FE78
0520
FF8C
00F8
FDA2
FFE3
00C2
0101
012F
FC49
0375
FFBB
FEC7
0098
FF78
FF65
024C
0112
0027
0288
FE64
00D7
FFFD
FF7D
FFD0
0203
0168
FFB9
FC90
0125
02B8
FDFF
004E
00A5
002D
FF5D
005F
FF38
0052
00E7
0047
0298
00CC
006E
03BB
02B2
00CA
FD33
0191
01FC
FFD7
FE18
0074
FFD3
FFB1
01BA
0237
01D9
00B4
FEB7
FFA1
00A6
FFA1
01E3
FFA8
0179
0170
008C
FFCB
0023
FD9B
FF34
FFAC
004F
004D
017E
00A3
FE39
FC5F
0075
017C
000C
FFB7
FEFB
0164
FD90
FEFD
FFCF
FFB0
FE94
0194
00E1
FFDD
FDD2
00AE
0144
FF34
FE53
0030
011F
01BB
FEF7
04AE
0174
FF86
FFEC
0270
FDFD
0206
FD9E
0104
FDD1
FE8D
003D
FD9F
FF0B
0185
0110
0132
FFBC
0130
00AA
FFBA
00C4
003A
FFE8
FF1F
01B0
02DA
026C
FE71
0036
00EF
FE3E
FE43
0035
FCBF
0011
FFC3
0009
00D2
0227
FFA7
0159
FD24
0110
0062
FD22
0396
01D0
FFF5
020B
FFEF
0105
FEAD
FE1B
FE89
0076
023F
FEB0
FEDF
0174
FFAC
FE55
005A
0175
FFE9
FEB1
FE4C
FFF1
00BC
FD51
03C0
FF5F
FD5E
0116
FE1B
FF79
0291
0228
FF3D
0105
010B
0079
0245
0118
FDC3
013C
00D6
FFB0
FDE0
01D4
0166
0043
FF16
FEF5
00D7
0083
0079
FD24
FED1
FFBB
FEF1
FF2B
FF91
FFA4
0241
0052
01D8
005A
002C
0032
0127
01A2
02E3
01FD
004B
0169
FFD6
FEC8
014E
FFBA
FFEA
FEEA
FFCB
FE57
FF24
FD53
0321
FFD0
011F
FFE5
017B
FF95
0001
009B
FED4
0273
0116
0029
0100
0125
03E9
01D6
FC8F
00D0
00FE
FED1
01A8
01A7
FE36
FF5E
FE76
FF36
0069
00BE
0075
004C
00DB
0131
0327
0029
FF7A
020A
FDDF
FF8B
002F
01E3
FFD8
02F5
FF19
026A
0037
00C2
FFDA
00C8
01C0
01DA
FFBA
FF4D
FFEC
FED8
02AB
FFE5
FFDE
0149
FD8A
FF8B
FFD3
0244
FFC2
FE4E
00AB
FFB2
FFDC
FFDD
FE19
FF3C
FE70
FF06
FF64
0042
01A2
01C2
FF25
00F4
FEC9
FE5C
FFF2
FF97
0290
0069
FE45
01D7
FE02
00FA
FE47
FE05
0097
FD13
0288
01D5
011C
00C8
0281
FF26
FF56
00DE
008F
FE35
FE8B
FF00
FF12
012E
FDB7
FF2A
01EB
FD05
FE07
FFE2
00B8
0106
FF64
016E
0078
0014
007C
FE12
FF0B
0181
FDAA
0016
FF35
FEFC
003B
02AD
0005
0154
017D
FEBF
FFC7
FEA0
FF3C
0184
00AA
FFCE
022E
00A0
00AD
0182
FF26
FEB7
FE21
02FF
FF53
FDFD
01D9
001D
FD48
FE9E
FF10
FFB4
FAD6
FE30
FFC2
FF20
FD58
0129
FFB6
0032
0104
FFA1
0099
004E
FDFB
FED4
0071
