FEA9
FD2C
FE9D
FDCD
FCE8
0295
00CE
013B
FD85
0068
FDE1
0255
0121
FEFE
FE0D
FE38
0318
00EA
FCE0
FEDA
0356
0023
032B
02C8
0074
FEDC
02CA
0148
0020
FE23
01A3
FD13
FD03
FEB0
FE2E
FD45
FDE6
011B
FD8A
0212
02FF
FFDD
FEEB
0203
0141
02AE
0248
0120
033E
FF54
FF68
FD82
027B
FFE8
004E
FEB3
FF44
024D
02BE
FED6
0053
004C
0216
FF44
FFDE
0227
FEF5
FF58
0146
FD83
024D
0319
FF3A
FFD3
0016
FC9B
019F
FDC2
018A
0042
027B
02CC
035E
0315
FE8D
FE20
01AA
0200
0084
02B9
01B2
FFA7
00EB
005D
FE48
02F1
FF78
02E3
0337
01A6
00B4
0287
FFFC
0167
FF1C
0012
FE60
00B6
FEF2
0227
0042
FD1C
02DE
FEB7
FF2C
0215
FF39
019A
0226
FD7C
0192
FD26
023B
FED6
0039
FF62
FFDF
FD54
FDCE
FCC3
FDD7
016A
023C
0190
FE10
02CC
02B9
FF19
FEC8
FFF9
FFD1
FF88
01EC
FD6A
FF67
0204
0191
FD6C
FF92
0104
00C9
0114
FFCB
FFCC
01EB
FE53
FFAF
02F9
FEA9
02D7
02E5
FF9E
01A9
0289
FE7F
02FA
FE0D
0328
FFE9
FDB5
0033
FFD2
02A6
FD89
FD03
0321
FCAD
FD87
FDC0
FF31
FD89
00E5
FDE1
FFDB
027F
02AA
0196
002F
FD11
000B
FFEF
02EB
035C
0256
008B
FDF3
0022
0190
0186
FFB4
0299
002A
027F
FE88
FD7A
FE38
0166
0331
0142
0068
02C1
FFF2
FDBE
FF64
017F
027A
02B8
FE0F
00E4
0257
FE12
01F6
FD82
0254
02F2
FE6D
FD4E
0162
0117
031B
015A
FF9A
FD6D
FD39
FF9D
FDE2
015D
FD9C
0199
0028
00BF
FD79
02AE
0120
023D
0090
FDFC
015F
FD56
FF0B
014C
FE5C
FFFF
FE49
FFAA
01DB
00A4
00B4
FD23
FF2F
FFA7
0029
FF20
0122
0236
009B
00D9
FD20
034D
FFE1
0151
FF10
FEB8
FD89
02C1
FE6E
007E
FF21
FD3D
FD91
FFCD
016A
FEFF
FCEB
FE3F
02E4
FFC0
01D5
FE16
02A7
FFB1
017F
00A7
FCAD
FEFA
FFE2
0150
FDCD
FE42
0458
0183
0309
01BB
FE35
03AE
FDD7
FEA3
0259
FF58
0033
0151
0239
0266
FDE7
0289
013F
018C
FCDB
02BD
FE5F
FD1F
007E
0183
0172
FFFF
FF01
FD2B
0235
FEB4
FE3F
FEE8
0201
007E
0172
0212
010B
FE20
01C5
FD40
0027
03EA
0243
00BD
FF46
00A7
FEB7
0219
012B
01D4
FE23
033D
0012
FFB2
0249
FFF5
031D
0168
FD10
FCFA
FF61
0255
016A
02A2
FD9E
FE7C
FEA1
FE45
FDB5
FFDF
FE26
FE82
0156
00CF
0051
002B
FEF1
02BE
026F
005B
0044
FEA4
FE7F
FE41
02AE
037A
01C3
FDC4
009E
0333
01ED
02B5
0220
00CD
FCFA
FEDF
FE1C
00B1
013E
FD4A
FD9F
FD25
032E
01E8
FE81
FD9D
FFB9
FEE2
00BB
020F
FD94
FD40
FFC5
0148
0103
FE76
FE6D
FC2A
03B2
FE15
FDFF
0032
01D5
FECA
FFF0
0085
FE07
FCF8
FE9B
FDD6
02A8
025A
01E4
010F
FF60
FD5D
007D
FE39
FE72
FEA7
02C0
FDA2
FDF8
0360
0305
FDB6
0107
026B
FDB1
00AB
00CE
FE42
FE7C
FFDD
018F
FD0E
016B
00BD
02F5
02FD
03CD
FD2E
02DA
01FC
FCF8
0368
0016
0073
01FC
0094
01D9
FF72
000F
FEC5
FCFC
0074
0199
002D
FD38
01BF
FC40
FFD1
FD6D
FECA
FEC7
FEC9
00E2
0388
0155
FDCF
FEF0
FF8E
FF63
FFD4
FD1D
FF3E
FF2F
0110
0161
FD3D
0041
0241
FD6F
013F
FE23
FD0D
FDF0
FCF6
00FA
FF97
00D9
FD47
FF83
02C3
FF4A
00F8
FF22
034E
0029
02AE
0256
FEC8
0039
000A
FBCA
0074
FD6C
FBA8
FDAF
FCD8
FFCF
027F
FF2A
FD7B
FC9C
01DF
FE64
FD21
021A
0312
0105
0138
FE6C
FDEB
028D
0236
015A
0144
004E
FEB8
0066
FEEB
FEC9
FF8E
0121
FCAF
FEAC
FEEA
FF8A
02EF
FFDA
01E0
FDFF
FDD0
FF0F
FD9C
FD3C
01BC
01AA
01EC
00CA
FE39
007E
0045
0010
FECC
FD37
010E
FE58
FEF2
FE60
0004
004A
00F0
FE89
0159
FF26
FE9E
FF05
007E
FE8D
FCD7
FEA0
FDFE
FE77
02FF
FEE8
FEC0
0076
0017
0258
0325
FD3A
FDF6
FE86
FE32
FF3D
002E
0250
004E
029D
025D
02F2
01F4
007B
0128
FFC2
FEAF
FC80
0278
013B
FE96
0116
FDDB
FF52
FDCA
011A
FE5A
FDFF
FE42
FDEF
01D9
0142
FF86
FE52
FF29
FFED
FF0D
0134
FE27
FEDF
FF6C
0151
FFFB
004A
0190
030D
027E
FEF7
FF9F
FDB2
FCFD
0288
0190
01A4
FE7A
0067
FED8
FFC9
FED5
FF44
01CB
0210
0159
FD37
FF36
FDF6
0248
FFBE
01EC
FDFA
0268
FEE2
021C
006B
0275
FE75
FDBD
00C5
00CB
FFE9
FF8C
FF2D
011C
033C
FFB8
0215
0166
FFD4
0269
FEF6
00C6
FD2F
0123
014D
FF83
FDDC
00E8
FF05
01A7
00FC
FF1C
0127
FF75
FE4C
0001
02D8
FC75
0008
02B3
FE71
01BB
0108
FF14
FD14
FE2E
0037
0169
FCFB
FD39
020E
FD0E
FF4E
02A6
020F
FFBB
FEFE
00DD
00BE
FDDE
0279
02E6
0287
0094
03A6
00B4
02CC
FCDA
FEEA
038A
FFAD
0050
FDEA
FD99
FE70
FF14
0203
FFBB
FDFA
FD90
FD27
0027
00B6
016A
0279
FD4E
FF6B
FEF7
FCA7
0220
FF99
02C6
FFE1
0253
0278
FE51
FDCE
00F3
FFE6
005F
FEBD
FF4E
02EC
0067
FE18
0103
FDD7
028B
0016
016C
FD07
FDEB
016D
FD5D
FD58
FCE7
02D2
FD8D
FD91
FC4D
0348
FD5F
FFA6
00D7
0258
FFF6
FF2C
FEC1
FE67
FD98
02CB
FF6A
022D
0320
FF56
FCCF
0055
FEFF
FFB2
FED2
FF1E
FE06
00B6
0270
FE96
012E
FFF5
FD1C
FF04
FCD9
FD7F
01F0
FE1D
FD94
00CD
0202
0077
FDF7
FEA3
FEC0
FCD4
FE65
006F
02BB
0068
02CC
FE4D
FD21
0388
0170
FE11
00C5
0077
0325
FCF9
014C
0260
FFD0
FEEC
FD63
013C
FEC8
0268
FD5F
FCAB
FD2B
00AF
FD0E
FE97
0227
01A2
0100
029B
02D0
0137
0150
FF43
FECD
0086
FD2D
FE7F
FF14
FE7F
FE9F
0227
01B4
FF2A
006C
0144
00FD
02D8
02D8
00FE
FD98
FDE1
0014
FE7F
02E6
019E
FF0B
FF91
0226
FF8E
FEB8
FE5E
0044
FF90
01CF
FC7F
00BA
FD48
FD38
FF81
0206
007D
029E
02DE
FE13
FDDB
FF7E
FFB2
FE77
019C
FF6A
FF48
0160
03ED
03AE
FFE9
006B
FAC9
02A9
FE1E
FD5F
02F8
03A3
00AB
00F7
FF75
027F
FF4C
FF3B
FEDE
00D8
02BE
0116
FCEE
FD62
FEFB
FE6D
FD75
02B5
0206
FDAF
FDAD
020C
FCC7
0240
FD48
FF44
FCD9
FDB1
FF9E
FD83
026F
02A3
004E
0152
FD88
FEB2
FF56
0143
FE09
FD51
FEDA
FDCA
026E
FF01
FF20
03BD
FE30
FF4A
0083
01A2
FD8E
FD7B
0178
013B
00E5
0017
0032
FD99
02CE
02C8
FC4B
0234
01DC
FD5A
00C5
FF6C
FD22
FF37
02B4
FF2B
03A0
0328
FE05
00A5
0042
01B9
FEB7
0154
0319
FFF1
0057
FDE8
FFC2
FDB3
0011
0232
FDA9
FF39
FD1E
000C
FEA7
0089
0249
FEF6
FE6B
FEB4
FF21
FDA2
FECF
0046
0181
