0355
FE1A
018D
01F9
01B7
028F
0244
034B
FEFE
0235
FFF1
FE7A
0349
02D8
FF05
FE8B
031A
FE26
01EA
02F0
FF10
FF1F
FF0A
FF9C
01CC
02DC
0255
FFF3
FE4E
0165
02C6
FF56
02F6
012E
FF17
038B
00E1
0349
0059
00FF
017B
FEB9
0407
0156
FF5A
028B
015B
0111
009E
FDC9
FEB7
010E
FDCD
00B8
010F
00B3
FEDA
FDC9
FE6A
021E
0285
0055
FE58
FE37
FD34
FD5F
010E
01C7
FDD9
FDF2
0178
FD83
0141
02DD
FD49
02C6
026A
0286
01AE
01CA
FD68
FF9D
FDEC
0057
0174
025E
FF4C
007B
004F
FE02
FF97
0074
FD5D
00A0
FE19
FD0E
0143
FCAF
FDE5
0270
FFEF
027E
FDAF
003F
FFC5
02C8
023D
0129
FE20
FF9C
FE71
FFB9
FD1A
FFCE
01E2
FD53
01F0
0030
FD90
FE8D
033C
FDE4
0260
FD7D
FFF1
0258
0014
0125
FE02
0145
FD33
FF94
FEAE
01E2
FED4
02AB
0199
031C
0175
0055
01DB
FF3C
FDBC
FFB2
027A
FD46
00A8
FEDD
02A1
0096
FF21
FFFF
01FF
0198
FDAF
FD8D
01E8
01CE
FDDA
FE55
FCEB
FFFB
00B9
FE01
FE67
01A5
FD7B
FE71
FFFD
0278
FC4B
0314
FD9D
0195
FE63
0025
00BA
015C
FE0F
0220
FD43
FCDE
02AD
FF13
029C
0026
FEB9
009A
FCE9
00F5
01E3
014C
FD6E
008E
FC9D
FFC8
FFEB
FF9D
0025
01BA
0087
02D8
FDC6
015C
FCEF
FD66
0220
0336
0141
022E
FD1B
0039
FFFE
FEC6
FD2E
FEF2
0025
0246
0199
0076
02D1
FFC2
FE6F
FE2E
00E3
FF5D
FEE6
018B
FD52
02B9
004F
0250
FD4B
00B6
FE0A
0225
0171
FE2F
FCF0
00B5
FFBC
0127
0111
FFB3
019C
01ED
0333
FEFD
00B1
000B
FE6C
FE4E
0196
00D9
FF91
FD3A
FC04
FF94
FEC3
FDBB
01F2
FD82
FEC9
FDF1
FFE8
FF74
FE9F
0109
FDF9
FE1B
00DB
01A7
FE11
0253
FD9D
FE60
0078
0249
FFBA
FC0D
FFDD
0016
0248
FF9C
02C7
FD31
FCFA
FDA9
FF70
00D0
02D9
FF1B
FD55
FE64
FD6C
0228
014E
FCE6
024D
FDA9
FD82
0198
FD75
016D
FDF5
FFC8
0366
FD2E
FFC7
0048
FDF6
0152
FE1E
00E5
009C
FD82
00EC
00A2
000B
010F
00E9
01E1
01A7
031B
FDFC
FF8F
0332
009D
FF02
FCE3
0318
FE2C
010E
FEE0
FEDB
FFDA
00D3
FF28
FF2B
01A6
0270
FF83
0033
0396
02B0
FF63
002E
FD1B
FF51
FF78
019D
0241
FD83
00E3
FFE8
FEB0
0177
FCD6
023D
FF16
FE74
FD61
019E
001E
FEB1
0306
FDA7
007E
FD0A
00A4
0255
0241
FFB9
FD11
FE0B
03D6
FDB5
006D
0026
FCC2
005B
FF25
0273
0292
FCB5
FF44
0090
0110
FEFC
FF1F
02F5
02CB
005F
FF0B
FE5C
0303
FE5F
00D4
FF38
0352
FFCB
FE6C
00BE
000D
FF73
FD1F
FF9D
002A
FDD1
FE5C
00A5
01B1
FEAE
021D
00DE
FE1C
02A1
015A
0001
0122
01D7
0095
018A
FE39
FE88
00BE
05AD
02C5
FF7E
FE9A
FE15
FE66
FF3F
FF5A
01F3
FE8D
FFB1
008C
FD44
FFBA
FE14
0183
01C4
FD9E
016F
01B4
FF91
008F
010E
014A
007B
005E
FF7D
FE85
0177
FEE5
0220
FD7A
FFA5
FF39
01D0
FDC6
FDE0
FD97
020A
FE7A
0161
0222
0260
0102
FE24
04C2
FEE7
FE27
FEBD
FECB
0346
FE1F
023C
FD94
FD51
FD35
0250
FE7C
FE2B
FD14
02BA
005A
FD5D
02CD
0125
0244
0035
01AF
007E
03AB
015E
01AE
FE41
0074
011A
FF48
FDEF
013B
FE86
FF0D
FFFA
FE2A
FDE8
014B
0024
0006
0070
011F
FCEF
FF76
01D8
FE23
FF1A
01E8
FFA5
0196
FF89
FEA2
003C
FDE3
02A9
FECD
00DA
00F4
FD25
0325
0327
0001
FED0
0010
02BB
FC78
FFB5
00B1
FD87
FDFA
FDFF
FFB0
018C
FDA4
0132
0138
FDA2
01AB
FD19
FEF7
FEF3
FDE6
0256
006C
0199
02A2
02C8
FE9F
0138
0149
0130
FF10
FE30
FF61
0166
0357
FE5F
FDC3
01C5
FEEF
0053
025F
00FD
FE0D
FE5D
0270
0174
FF29
FED1
02D3
FE3F
004C
FFA4
FF45
FB16
02A1
FEDA
FE75
02AF
0284
01A6
FEA3
FCFF
FCFD
FEF4
0232
FD63
FDB0
0290
0254
FD0D
003F
FC96
0069
FDC4
FF58
FCA9
009A
0151
FE59
004A
FDE9
0202
FE96
FF87
0100
FD95
02B7
00E8
0248
00DE
028F
0192
021B
0079
FDAC
0222
0019
FE5F
FD0B
0173
FE67
0238
0105
FF58
FED0
0283
00E3
FF78
FF7D
012A
01FF
FF15
FE82
01E3
FFCD
FEF2
009D
05C8
0084
FEE4
02DB
02F5
FEC2
0274
00AF
FDF4
007A
00B0
FF63
01FA
00BF
003E
034C
FE1D
0165
FE30
FE0F
02C4
FF82
037D
00E0
FF1C
002E
0017
FFE5
0183
00D9
009C
01DE
057E
FF00
0249
0051
01D1
FFE5
0280
0295
FEA0
FE70
FE2A
FD59
FF18
02AD
FE45
02F8
FF6D
0104
FF72
FDB6
FED7
FE87
FD78
FFEF
FFDE
01D5
0166
023B
FFDE
FF55
021E
FF87
FDC3
FDD1
013C
0000
FF24
01CE
0092
0090
02B3
FFF9
FFAE
001C
0045
FBCD
FD9B
FEE5
0163
FECC
00E0
FDE0
FDDB
FE38
0095
014B
FF7D
FD44
FFBE
FFA3
0198
FEC0
0033
002B
FEEF
FE0C
FEB1
01C2
FE4E
0149
001B
0272
FDAE
FFFF
FED5
FF9B
FF70
FED9
FD70
FED9
01A7
025F
FF15
003C
008F
FF2A
FF33
0118
FD10
FE31
FFAE
014E
0060
FF79
FFBA
0242
FF2E
00FE
0169
0230
00CD
FFF8
FE47
014D
FDF7
FDB8
0345
0166
02A2
0176
009C
FFBE
01D6
FF50
017B
017E
FF77
001D
0179
FE8D
03A1
01A4
FEBC
0210
FE53
01CB
030C
02CE
0455
FE1B
FDB6
0384
FEB6
0169
FFA8
FE48
0179
02F9
FF32
00B0
0247
0173
033E
0072
FDC0
008C
0238
00D5
0344
FEBA
0090
00B4
FCBC
FE5C
0092
0039
0008
018D
0356
0060
FDA7
FFF6
FEE5
0180
002B
016E
0182
02FC
FF27
FED4
01BC
0098
FCE6
FF9D
028A
01F2
02A3
0250
FF62
FCEF
FC1A
FFCA
004F
FFF2
FF25
0163
00B2
FE92
FF78
0282
0214
0136
FFF0
FFB6
00E4
FD6F
0262
FDAF
0020
0254
0287
FE3E
FDC8
01DE
FF46
0406
FFD0
FDF4
007D
FD2D
0232
FECA
01C6
FDA6
02FE
FF7F
FD88
FF39
FE26
FF4E
0253
FEB5
03F3
FF31
0218
FF31
01EC
022C
FFC6
01E8
024B
FF3A
0236
002F
01A4
009A
FCC7
FF6B
0017
FF36
0181
FF73
FD35
0107
FC9C
0043
FE89
0029
FEBD
FEDD
004F
024D
FFC4
FD7C
FFB5
01D0
FEC3
011F
FD39
01CD
FFF7
0048
FDC9
FECF
0279
00C9
FFEA
0114
FEAF
0025
FD44
FE64
009E
02FA
FE54
00CE
FD97
FE49
02F8
01C0
FDFA
005D
FECA
FF9A
FF39
FE28
FEF4
01CE
FE70
0338
FF79
FEA1
0191
0005
01AE
FCA8
028B
0260
01BD
FE56
011E
FF31
FE97
01D8
FE0C
0176
FEBE
FDAD
FF10
01CE
FE15
FFBC
0218
034C
FDA4
FF93
02C3
0284
01D0
FD21
0059
FD37
01A9
FF9F
018A
FE47
FF31
0197
FF07
02E7
FF4B
FEF5
FDF8
00E9
FF49
0255
0326
0213
01A4
FE9E
FFCE
FD4B
