FFFF
FF2E
FFB1
0050
00AD
009D
0042
003E
021D
00CF
FED5
FE30
01A7
FEBC
FFDE
FFAE
00D1
FF18
FEDB
0198
FF91
013E
FF89
0033
010B
FF2A
FFB3
FF4F
FE24
00BD
FFD8
0106
FF75
011C
FFBB
00C1
022E
FEA7
FFCD
FF26
00C7
FFA6
FECD
0040
FD53
FF50
FEFC
00BC
FEBA
FEAB
FF57
002D
005F
FFB5
004D
FF9E
FFD0
FF3E
0041
FFA7
008D
0250
FE18
FE7A
01D7
FF31
FF69
00F6
FF72
FF20
FFFE
FEA5
003C
003C
FFCC
00E8
0191
FF5F
FF14
FFEC
0235
0078
0208
0136
0112
0045
0065
00B0
00FE
020E
0032
00BB
FDE9
00A5
00D7
0097
0077
0126
FF5C
0088
009A
FEC7
FFD8
00F7
0050
FFDC
01D1
001E
007B
0051
0014
FE75
008B
01ED
0036
018C
032E
0042
00CA
00B8
FF73
01BE
001A
0386
0024
00D5
FF38
FED1
0048
002D
000C
FF5A
008D
0083
0317
FFC3
01A8
FFFC
FE92
FFC6
FF4F
FF93
0011
FF43
0275
FFF3
FDE2
002F
0131
FFCA
004A
0105
00F5
010A
016C
00B2
017A
0328
0267
FEC4
FE9F
FF98
0021
009C
FF49
0199
0072
0053
00C8
0116
0069
00D4
007F
FFF0
FF6D
00A8
002E
FF15
FF84
0131
FF53
0085
003F
FFA3
002A
009F
FF1B
FFB6
FD6B
00E5
FF94
0016
01F9
0091
00BF
001B
FF30
FE3A
02AA
0040
FF00
024A
00E5
00E7
0039
FE6C
0170
FF2B
00F2
FFF9
003C
FF75
000A
FEFF
FE2C
0142
FCF7
FEC1
FF56
FF1E
0073
FFA5
FFBA
001E
0058
0050
0170
0278
012E
00FF
FFD1
FF6B
00D8
005E
01BF
FFF3
FFD3
FFA8
0165
01AB
FED1
01A9
0128
0255
0072
019A
FFBC
0081
FF78
FECD
012E
FF61
010C
0185
002B
FFC0
008E
FED2
FEEF
0041
FF09
FF54
FE3C
002D
FFE6
FD84
FF11
FFD0
00D9
FFF3
FFB4
FF6B
FF26
01AA
004E
FE7C
FE90
FFC0
009F
0072
002E
FE67
FFAE
FF7F
0129
FF11
00A9
020E
0070
01C7
FFEB
FEE7
FF8E
011D
0175
0004
002D
FDF6
FF27
0063
0025
0043
003D
0262
FF26
FF60
0027
000E
00C1
FF37
013A
FF2F
00EE
0108
0161
FFC3
FF4D
000F
FE32
FF70
FEAA
FFA1
0104
FF9E
FF24
00AA
01C6
001B
01A9
0029
FDBA
00AA
00EF
017E
0009
FE4A
00E1
0024
00BD
FF1A
00EA
0020
000C
0050
0137
FFE2
FE5D
FF36
FE75
0082
004B
FFBC
010D
FF0B
01E3
01F9
01F0
00DC
FF9F
FEEC
0164
0049
0147
0150
FE27
0018
FF32
00C6
011B
00A5
0006
FFF3
FF86
008C
FEF2
00C3
02BF
02B8
FFB0
002C
0293
013D
FF8B
0003
002A
FF1F
FF9D
001E
FEAB
FC04
FF76
FF5A
FE32
001C
FE92
FFB7
FF3F
FE36
FFC3
010C
FF2F
FFB2
010E
0109
001B
FFE6
FF9A
FF20
0055
0129
FF7B
014F
005E
FECD
FF38
FF60
FF13
FF3B
003F
FE68
FF0A
000A
0098
FF08
009F
006C
FFAD
FFDF
000C
000B
FF23
0017
FDB6
016A
FEF8
FD6B
0069
021A
FFBC
FE45
FEDC
0125
0108
FE4D
0004
FFF0
FF4D
FED8
00DA
FFF6
FF96
FEFB
FF93
0002
FFEC
FFB8
FF40
005A
0077
0037
0163
00C1
FF4B
FFD2
FDFF
0223
0062
FCF5
FF84
FF73
FF6F
FEA1
FFC4
FF43
FE74
FDE1
FF37
FFEF
FEB5
00CD
FFB7
FFD4
0099
001E
014C
FF00
FE4A
005C
0194
FFDE
0049
002C
0110
00CF
FE73
FEF9
FEF8
FFF3
FF2A
FE60
FF58
0031
0074
FD47
FFF2
012E
FF9A
FFD3
0011
0018
FE7B
0034
FFB9
FE6D
FE12
FE8F
0094
FEEF
FF67
0151
00B5
FE13
00C6
FFE4
FF85
FFDA
FF04
0065
FF74
FE95
FF48
00D3
FDCA
FEAF
FF5E
00E6
005B
FF08
FFAC
FF91
FF96
003A
000E
FFB4
FFA1
00A8
006C
FF26
FEAF
012B
FF0D
0111
FE3A
00B7
FF3D
FFE6
017D
0000
FEC6
0067
FFAA
00B4
FFE8
FF3E
0068
00DB
FE8F
0143
00D8
011F
0050
FEFB
00EB
FFE5
0140
FE95
00BD
01FF
022C
0012
00A3
FFAE
FE31
00A0
01A3
010D
FFF9
002C
FEB7
00A5
0035
FFA5
0151
022A
0027
0020
016F
004D
005B
FFFD
01AE
0167
01CF
00F9
FF3C
00C3
00DB
0085
FF42
FED0
0032
02A4
0004
00E4
0039
00A8
017C
00E6
0150
00CA
000A
0148
0125
FF58
FFAD
FFEB
FE8C
0138
FFD0
FE67
0096
0136
FF4C
FCB2
00C9
02AA
0013
FFE4
FF4A
015C
0259
022A
00C1
FE0D
0091
0183
0003
00E8
00C0
FFC6
0185
0151
0005
00DD
0010
0047
016B
FE6B
01C6
FEF0
000F
FFA4
015A
FEE7
024C
00E6
FF41
014C
00BA
017E
0006
00D6
FF7F
FEA2
004B
00EF
FDBD
00F2
FF09
0110
0026
FFB9
01D3
001F
009D
0094
FF74
0194
0150
FF77
FF39
0134
01AF
002D
FF6D
FDD5
0025
01D1
FF47
012C
019F
008C
FF0D
FFC4
FF0E
013C
FEA9
FF30
FFA1
FE8E
FF1F
FFE9
FF1F
FE09
FE95
FD06
FD58
FFD2
FF01
FFFB
FD35
FF48
FEA2
FF05
FED3
FFE0
FFCF
009C
FF2F
FDFE
FDED
FF17
0171
000D
FD05
FE84
011F
FFBC
FE5E
0047
0113
FEA9
FFF1
FF38
006C
FF93
FEC8
0151
0036
FCA3
FD95
0184
FE5E
FE1D
FD4B
FC71
FE8E
0111
FE30
FF4F
0086
015C
FEC5
FCE1
001D
FE69
FF3A
FEB8
FF94
FF19
FFC8
01A5
00DC
FFA9
00AF
009B
01F8
0064
0089
FF2C
FFF4
00E7
014A
FFD4
FFFF
0189
000A
00C5
0007
FFAD
0078
FE55
FEB6
0211
FFD4
FF49
FFA0
FFA0
005A
FF04
003D
0008
FF51
FE76
00B2
00EE
FFE0
0099
0082
010A
0003
FEE5
0007
00D2
001E
FF8D
00E6
FEB0
00A6
FF6D
FDB6
FEFB
0177
0017
0039
0220
00C6
0076
FFC1
FFD4
009A
FFBC
FED6
0125
00A3
00BA
FFF3
00D5
0010
002F
000A
0019
014B
0051
FEFD
00F8
00E3
017F
FE14
FE27
FE88
004B
004A
FFB3
0101
00E0
0058
0000
009F
0132
0001
FFD0
0064
FF91
0048
00B9
0026
FE45
FECA
01A5
00F8
00E1
01F6
0074
FFE1
FD7E
02CC
00A3
FD8D
018A
00B4
00D0
FFCD
FF84
FFA3
FEE3
FFCB
FEE9
FFB0
00CE
012C
00F9
FF8A
016C
FF6C
0095
FD3E
FF76
FE34
FF22
FE9E
FE31
FFFA
FFB7
008F
FFDE
FF3F
FF9C
FFC8
01AE
FFD2
0127
0026
FE4C
FE3B
FF44
FFAE
0151
0159
0067
FD4E
FF70
0040
00BA
FFCE
FFDE
0195
FFD6
FF0B
FF4A
FEA2
FFB6
0026
FE71
FF80
FE59
FE95
01C2
FF94
00B6
FE73
FF18
00CF
01E0
FF7A
FFE0
FFE5
FEF9
013C
007C
006E
0086
FFFD
FFFC
FFAB
FF6D
014D
0214
013D
0038
FF05
FEC5
00C4
FF26
0092
FFA1
0155
02E9
00A8
024F
0082
FF59
FFD9
FFBF
FFCB
FEF3
01B4
0121
FFC5
0079
FEC5
002D
FEB4
FF53
FF12
01EB
013A
FFA4
FE37
004D
0154
FF43
01B1
FFCC
017E
0021
FED1
FFD3
FD2B
FE5E
0149
FD22
FFA1
FF4A
FDB3
FF36
FF23
0072
FE9A
FEC3
0071
00F3
FF2C
FFED
FFD0
FFB1
010B
FF53
FF5C
FF0A
0078
FE67
0042
FF4D
FFF0
FFFC
00A1
FEB8
FF89
FE42
FD77
0062
FF06
0025
FD17
003C
0015
FFAE
FE54
0103
FED5
0031
FF8C
FFE3
FF8F
FC6B
0091
FFCB
FF84
000A
0039
FFA1
FFE5
FF5D
FF28
FD83
00E1
0024
FE13
FFEE
010E
0030
FF84
0067
FE9A
00BD
FD98
00A2
FCF0
02A2
FF9C
01EA
FFCB
FF23
FEFC
FEE0
FEC1
001B
FEA9
0002
FF73
FF99
0049
FDA3
006E
FE8C
0131
005E
0154
FFDA
FF6D
FFD0
FF6E
000B
FF9E
0237
FFD2
0147
0028
FFF7
00AD
0082
009B
FFC3
FE29
0201
FCC4
000C
FD11
FE1F
FF10
FF82
FF02
FEAD
0037
FF49
0121
0009
FF5C
0183
01AF
FF3E
FFF5
FFB4
0075
FF44
010B
FEAB
FF85
FFC5
0050
0079
005F
0048
0175
0159
FDFF
0072
FF1E
FE7D
FFF0
00C6
0093
0096
FF4B
00F3
0115
00F9
00E5
FFF1
00FF
FECD
FF2B
00AC
FDBA
00BE
003B
FE51
FD79
FE82
FFEF
FF01
FFD3
FF6A
FDF7
0111
FEAF
FFBA
FFB7
FFC8
0060
00E4
FEE0
01EF
FF0D
FF4B
FFCC
FF3D
006E
FEFD
FF76
0136
FF5F
005A
00E5
FF94
FF90
01B5
0124
0006
FF26
FDAF
FDB5
0087
006A
0038
FE93
0158
FEB1
0020
FFA2
FF9C
FFF5
FFD4
00ED
0046
FF19
0056
FF7F
FFAE
FE97
FE0E
FFCF
FE91
FEE9
FE4C
FDFB
FEB0
FFC2
FD8C
FE9E
010D
01F0
0019
FF01
FEB9
0076
FF4B
0030
0085
FFD1
FFBE
FFBA
FDDD
FF63
000E
011A
FFBC
01C3
FFA0
00E6
0014
FF18
FE99
FE81
FDB7
00D3
00AE
FEEB
00A1
FF2F
00A8
FF1A
00C8
FEDF
FEC8
0020
FFF3
000F
FFCE
0170
00BE
FFA3
FE33
FEEE
0170
0034
006F
FF69
FFF2
0055
FFEE
FF5A
FFB4
0067
FEF1
006D
FF23
016B
FFB2
0052
004D
0093
FFC4
FEB9
FFCB
FE98
FFD1
00B3
FFA4
0260
FFBC
003C
FEE7
005E
0007
00B6
FEDE
0143
0161
00CD
FFD1
FF48
FF26
FF10
02FB
FFBB
00E7
0148
01C2
008F
01EB
01B4
010E
FF5D
FEA7
0137
FF99
FED2
0027
FF99
00A0
0066
0037
00A5
00B6
011D
FF60
003A
01C6
FFA7
005F
0075
FFBB
FF57
00B9
01DD
008C
FFD9
FEC5
0128
00F9
FEAD
0188
0152
FFD3
FED3
FFDD
FF7F
0232
FF59
FFC3
FED9
FF7E
0056
FFBC
FF2C
FF70
FFBD
01EB
00E8
FF40
FEE9
FE61
FE74
FF98
000D
FD6F
00C5
FFA9
0093
FFC1
001C
0091
FF96
FF94
00FF
01DF
0005
FF81
0105
FD4B
0023
011F
00A4
01FE
0080
FFDA
0099
0179
00EC
00C0
0056
0078
0053
FFB9
0177
FFE2
FF99
0153
0133
FF76
FEEE
FF2B
014E
FF3E
012D
006A
0197
FF96
0086
FF00
FFBD
FEE4
FEDE
FF11
FF81
FF63
FFA5
001E
FFB4
FF81
01B5
FE9E
FEAB
FF75
FF56
FF0A
FFAA
00D2
FF18
0020
FFCD
FFD9
FE78
002C
FF2F
FFAF
0012
0087
00BD
0057
FF26
FF84
013B
0147
008B
FEC9
019B
FF8E
FE54
FFE7
FF66
0078
00EE
00F3
FF63
0044
011A
FE90
FFC2
0020
0039
0064
012B
00F7
002C
FF34
FF2B
0006
002C
01F0
0069
FFAD
0000
0127
000E
FEBA
FEC5
FEE2
FFCD
0182
FF3D
0164
FF23
004E
FFC5
00C4
FE8D
FFE6
FDF0
FE05
0048
FE6E
005C
FF2E
00B5
0000
FFF4
019A
FEF8
FFDD
001D
00C3
017C
FF89
FFD3
FE80
01A6
FF2B
003C
FF4E
0017
FFDB
FD73
FEA1
FFDD
FFB8
FDFF
FF7A
FFFC
FFDF
009F
FF5A
FD81
FF09
01E7
004D
00CD
FFA5
FF66
FDFF
0050
FE83
0021
FF4E
0152
003B
0078
0007
FF35
FE3F
FF4E
FFFF
FF69
FE45
00E5
FE68
002A
FFE9
FFCF
FF04
FE48
FE31
FF1D
FF92
005B
FE7A
FFFF
FFF7
0040
00C5
FFC3
FE98
0071
FE2F
014B
000E
FDDD
FFB8
FFE2
FF8A
018D
0061
001D
FF62
FFBB
0050
0015
0134
0023
00A3
FF7F
FEAD
02A5
012D
FE54
0095
0052
FF1F
000C
00C8
008A
0070
FFF3
0197
FFD1
FFBA
FFD1
FFA5
01A8
0065
015B
FE6F
FF36
0049
FFFB
FFAB
FFF1
FFEE
0092
037D
FE9B
011F
0073
FFF3
0241
FF77
FF93
0135
0195
00BD
00E6
FF19
00CD
FEE0
0015
012B
FF1F
0124
FF9C
FFDA
0162
FFDA
0028
010E
009D
0181
0109
001E
00AE
FE3B
0109
00CE
0160
0042
0011
FF5E
0049
FFAB
FFE8
01FD
FF64
FEFA
FFA3
0089
FF85
00BA
FF9F
00FC
00F5
006A
FFFC
FEAB
00C3
00C5
0004
FF05
FF73
FFFD
00E1
FFE8
0027
0164
FF52
0043
00C5
FFFB
01AF
FF1B
FE83
002F
FFD7
FFC5
FEDE
FF21
FFCE
FE47
010A
00DD
FFB6
0022
002B
002D
FEF3
0020
FF9E
00F9
FFDC
FFD3
FF9E
FF82
0022
FF20
0077
004B
FEEB
0077
FF39
FEB6
FF8E
FF80
FF10
FF7E
FF74
00A3
023A
0055
014E
0056
FE5F
FF1C
006A
012C
0039
FE9E
FFE3
010C
00AB
0031
0055
014A
0156
005F
FF99
FEA3
FFBF
FFFF
009C
007A
FFC2
01FA
FFD2
FE90
FF62
FFAC
000B
FEFB
FEC0
00FB
0072
FF02
FFFB
FFAD
FF8C
FFCF
FF51
0101
FEAA
FF5B
FFB4
005F
FF32
FF78
00B3
0039
001F
FEEF
0050
FE9A
00A2
0281
004E
0051
000B
FFE4
FF9C
0096
FE7D
FFF4
FF4E
003C
0077
FF7C
FD6C
FE05
00FE
FD62
FEBC
0042
0130
FFD0
0110
00F7
0092
FFD4
00B4
FFE7
0141
007A
FFD4
FF55
0031
0065
FF93
FF29
00D7
FE3C
FFAA
FF13
FF06
FFEC
0044
FF15
FFDA
0168
0033
0198
006F
FFE0
FEE0
FEC1
FF13
0190
FEBA
FE80
FF4F
0069
0066
FFEF
FF26
0234
0031
FE1C
FF3D
00C4
00CE
FEC2
0073
FFEC
00A5
00B7
01BC
010B
FF74
018F
00A0
0006
FFA8
FEF8
00CD
FF93
012C
02C7
FFB7
010A
0114
00C1
FFA5
012A
012F
01BC
FF6A
FFCB
FF5D
FF2C
FED8
0131
FFED
FFB6
FFA7
FF4F
FF47
FF9D
01F6
FF78
FFDC
FFA9
FF51
0165
0073
0082
00B0
000C
FF33
00E0
00EE
012B
029B
FFF6
0186
0105
FE5B
00F4
0053
0149
00E1
013F
008B
006B
0032
00DF
0006
0199
0187
FFA3
0010
0253
00BD
FFD0
FF75
FF1A
FF6D
0069
FFFD
0041
FFBE
FFAC
FF2F
01DC
0036
00BC
0003
FF8E
FEA1
FF84
002C
00EA
FF04
005F
0168
0052
FD29
FF69
013D
FFE4
FE7E
FFC5
00E5
0083
FFFE
0087
0006
0004
026B
FF7D
FFCA
FE30
FFFD
008C
019C
0029
FFEA
0022
0119
FDD3
006A
FECD
FED5
FF7B
FF72
0074
005B
0096
FF16
001B
009D
FFFE
0091
FD99
0080
FF20
FEA9
011A
FF87
0038
00F2
FFC6
FFB5
FF62
01C8
0078
FF50
005D
FF31
FEAB
FE31
FFDD
FFC9
FEB5
FF0F
FE35
00C2
FF5F
FFFD
FF21
FE86
FDB0
FD1F
01A6
FFA2
000D
0091
FD92
FFF7
FF82
FEF3
FFC8
FF25
FEBE
FEFE
FF6F
FF48
FDF2
FCF6
FF52
FF8D
FFF4
00FE
00A2
FEC3
FF91
FFA9
FFC0
FFE3
FF37
0087
0115
FF82
FFB9
FE9D
01E5
FFCB
001E
0070
FEE3
FF93
0095
0057
0050
00A4
000E
FE94
00C0
FF50
FEF8
0104
016F
0129
01A9
FF41
0021
FF56
0086
003B
00DB
FEB8
0145
00EB
0219
FEF2
0022
0061
0269
0128
FEB2
FFE5
0004
000D
00EB
00E1
00C5
FDF5
0079
0026
FEE4
FF78
FE26
00A6
01C0
FFEF
0043
00F8
0139
FF4A
00A1
001E
FF75
00EE
FFD8
00EA
FEEC
FFCD
FFB7
FE9A
00F8
02F6
FEE7
01F3
00E5
01C0
00A6
FE92
FF36
0173
FF8F
00CF
0232
007B
03F2
FF3F
FF29
004D
001D
000B
FF7A
00A5
FFE9
000A
FEA0
FE21
005E
003B
FE94
FFC8
FF5D
FF53
FF99
FF4F
0114
FE42
FF25
FF88
00BA
006D
FF0F
016B
FFFA
0014
FF19
0160
0028
FF2F
FECF
FE12
00A6
FFB0
FF43
FEA3
FF70
FF35
FEF7
FF6B
007C
FE48
0153
FF7C
FF00
FF84
002C
FCFA
FFDC
0004
FF58
FFE5
006C
FD78
0061
01DA
FFEE
0133
001E
FFCC
004B
0069
FECF
0113
FF76
004A
00B0
00B6
FED7
00F5
FF0F
FF47
FD73
0179
FE50
FF9E
FF0C
FDE3
FFD9
FEE0
FFB7
FFE6
FE48
00D6
FE9F
00FB
FFB3
FF78
0036
FFC7
0177
FFFA
0094
FE2B
FF9B
FF3F
0052
0028
FF42
00F3
FF64
0158
000D
FEE8
FF93
FF2B
002F
FFCE
010C
0025
FF7F
0004
FDA0
0059
FED1
FDFB
008D
FDD3
FE23
FF92
FE61
0016
FFD1
0094
0190
FF96
00B9
FF8B
FE43
FE97
004F
003F
0087
FF22
FFC8
002D
FF14
0039
0047
0156
0100
FEF5
FE5B
FF1D
FF57
FE78
01B3
FF71
0021
01B8
FF8B
FE3A
FEDE
005B
FE29
0057
013A
00A8
FEA4
0117
01B4
0075
0182
FEF1
0086
FE44
FEA9
FEE0
FF5F
FFCA
FECE
FD8D
0025
00F5
FFB8
0035
FF47
FFE5
FF99
FFE8
FED2
015F
FD6D
0075
FED7
0069
FE64
FEE7
FEE6
023C
013F
FE3B
FED0
FF0B
FE92
FE42
014A
FF23
FFDF
FD39
FE8F
004E
00EF
FF77
FF39
FEFA
FFAC
00C0
0231
FE5E
FF8B
00DB
FE9F
FF66
0052
FF23
FE63
024C
02A9
FFBC
FEE9
0092
FDE8
019F
FFE1
0092
FF95
0047
0008
FF15
00D3
015F
0172
0069
0121
FF8D
00DE
FFC3
FF6F
FFC8
FF3D
FF54
0014
0015
FF48
00CB
FFC1
FFA6
01CC
0147
005D
0002
FF51
FF66
FE84
0073
FEFA
FF59
FFB8
00ED
01E8
FE5B
018A
FF4D
FFB2
0038
00FF
008D
FF0B
0111
00C1
0202
FE94
FE63
0094
00AB
0022
0020
0129
0170
00C4
FF6C
FFF2
0256
00A6
FF18
01B6
00BD
FFAB
FFDD
0157
002E
0021
00B0
00C2
0183
FF2F
03E7
FFBB
FF6A
00EA
007B
FE96
00CB
FFF7
012E
0091
0088
027A
01A5
0107
01E4
FF0C
FF9E
0152
0106
00D1
006D
00BD
FE5D
FFA6
0061
01F5
FF93
FF66
FF47
FF07
0126
003D
FF26
FF75
01DC
FEEE
0036
00BE
0012
FE71
FEAE
FD6D
FEC4
FF03
0012
0057
FEAB
FFF2
0146
0081
FFB6
FF62
0171
FEE5
0094
FFA8
FF9E
00F9
00D1
FF82
013C
FF5D
FF13
FF6F
FEC6
FFC6
008E
FFF3
FF25
FE65
FFE6
FE1E
0006
005F
FEDD
00F0
FEF1
FE34
FF0E
0331
00F4
0057
0003
FFA4
0046
FF8A
0168
011C
0029
00BF
00CF
0219
FFCE
016D
0066
FFB5
FF8E
00F7
00DF
00A1
FF32
FEA9
0049
FEDB
FF45
0247
FFC9
02EE
FFD1
FF78
008C
013E
0172
FEE6
0102
FED0
FFA2
FE67
0107
FFD6
FD84
FF2F
FEF4
FFE7
FE8E
00D2
0238
00EC
0223
00CC
00FE
FFB0
0077
0173
0204
FFE6
FFE1
0106
02A6
00C8
FF95
FEF0
FF92
0005
016F
0097
002D
FFC3
FEC0
011E
0163
FFA6
FF73
006E
0077
FF3F
00F9
FF3E
00F5
FEEB
00E2
FEBC
FF29
0051
FE5A
0113
000A
003C
FEDE
0011
0151
FF71
00A6
FFA2
FF63
0056
FFEF
FF04
FFF8
00D0
0114
FFD3
01CE
0090
FFC9
0147
00A0
FE54
00E9
FF49
0056
FF2D
FFD3
0016
FF65
FF08
014B
FF52
00E4
002C
FF0F
FC7E
0054
0037
FEB5
FEC9
FF52
FF54
012B
FF35
015B
FE8C
0008
FDE0
FF06
FE86
0004
FF1F
FEFA
FFF5
FF72
00CA
FE59
0175
0060
FF5E
FFC6
FFB3
FFA1
014E
FF8B
FEFE
FFB6
FF9A
0168
FEC1
FEBC
FF93
FF43
FFB3
FF96
FDDD
FF6A
FFD6
013A
FE58
FFA4
021F
FF36
00D6
0233
0133
FFC6
FFBA
FE89
FE25
FF1E
0022
00C0
009F
006B
01AD
0027
FE1E
FD67
FF7B
FEBA
007B
FF94
002E
0026
FF61
00BC
00B8
0129
FE1C
FFD2
FFC6
007A
FFA4
FFC0
0082
0024
0202
022C
003B
FFF8
FFAE
00EC
0014
0016
004B
0017
FF93
0023
FF92
001A
FE88
FFDE
00F6
0016
FFFD
0019
FFB6
0060
004C
0020
016B
FF08
0191
FF5E
FE7D
01D4
004C
0047
00AA
FF84
FFC1
0062
FF10
0203
FEBC
00A8
022F
0129
FF01
001C
006F
FF61
02C8
01CE
FFB7
0122
0129
FEF1
00FC
0164
0118
00D1
0150
FF92
FEDD
02B5
FF4A
FF95
003F
0224
006F
0216
0042
FFAB
0095
01BA
FF36
0252
0108
000D
010B
004F
0186
0094
01B7
FE9A
0243
00EE
00D3
0085
FF9C
0091
00D0
00EB
01C8
00E2
0046
FF20
0012
00F1
019B
FDDE
FF74
005C
0065
0053
01B7
0186
00DC
0023
0170
0180
FEEC
012E
02EF
FE9B
01F2
005B
FF27
0055
FE83
0229
FF59
023A
019E
01F1
0042
FEB0
0087
FFF2
FF14
0085
012E
FEED
005B
00BB
FF7A
FF57
FF95
0042
00AE
FE87
FF2E
003E
007F
009B
011A
005B
0092
0088
FF8F
FF94
FF16
FFB0
0025
FF40
FD06
015A
00B3
FF40
FE55
003E
FF94
FF76
0065
FF29
FF89
0182
00F8
FFAB
FF36
FEE8
FFDB
FFC2
009D
01D2
0088
FDCE
00F7
FF62
FD7A
FF28
FEDD
01BC
FF03
FE70
FE42
0103
FED8
002C
021E
FEED
FD7C
FF3A
0097
FF31
0201
FF8A
FF89
FF76
FFAB
011E
FF0F
00B8
0032
FFCE
FFD8
FF68
0052
0047
FF48
FF98
FF57
FFA9
FF08
FFCF
FF12
0036
FF31
FE2D
00C2
FFF8
FF6C
012F
0141
FE73
FE4D
FF0E
FFA4
FF77
FEAF
005D
01F6
FF61
FE48
00A0
029B
0094
00F9
00C0
0132
00B9
FFB9
0209
FFA3
0113
005A
00D9
FF13
0351
FF29
0032
FE1D
FF2C
FE56
FF18
FEFA
FE95
FE36
FEC0
00D1
FF96
FF8A
002B
005B
015D
0048
FF5B
0056
FF31
0188
FD65
0066
FF97
012D
FF85
FEB5
FFA7
0046
FEC4
000F
0185
0224
FF38
009F
000B
0020
FC93
001C
00CB
0003
0062
0186
0174
0110
FEC3
0073
00CC
FE92
FFC4
FFD0
0018
FED9
FEDE
FF98
000A
005A
00AF
FD8B
0182
FEC2
FECA
FFF6
FEBA
003B
00B1
FFD2
01AE
FEA4
0126
FDBF
00B2
0109
00D6
0080
0089
00B1
0085
FF82
FEF1
FF8E
FF3B
02EC
FF42
013E
FFE2
FFF1
0043
0033
009D
FDE0
FC67
0138
FDD9
028B
01DC
00AE
0318
FFDF
0108
FFD5
00CA
0090
0063
FFA5
FFC9
00F0
FE89
FE94
011D
FFD6
0006
00DA
FFC3
FF93
FF55
FF65
FEAA
FF52
0139
0129
FEF1
FF37
0076
FF53
011A
013C
0151
FFED
00BB
0087
00CB
0000
FE04
0212
FF7A
FF67
FFB5
0188
005F
FEF5
01FA
FFFC
FF4A
FFD3
01C0
014C
018D
01FC
0268
FE9C
FEE9
0086
0068
006B
01A1
000E
FD8F
00BD
0029
000B
01E8
0140
0038
009A
FF3C
0082
FFC0
00C0
0099
01F6
0147
008B
0211
FF83
FE0E
0114
01B8
FF4B
002D
00B1
FEE0
FF8D
FF4B
FF00
00D5
007A
FEF0
018E
FEA2
FE90
FFB5
0008
FFDD
00D3
FE12
0009
00E4
FFA2
FEFA
01A4
FF4B
FF81
0064
0185
FFB6
0017
0034
FF16
0272
00FC
00D5
007D
FF49
FEDC
0234
FF1F
00D4
FF40
FD8A
0068
FD21
0068
FF49
FF77
004B
0166
00EC
0010
0188
002D
FF9F
013D
0080
0088
FF2A
00E0
017C
0058
0275
FDEC
FF8A
0068
FF2F
016E
0144
FD8B
00D6
00C6
FFF3
FF28
FFA2
FE90
012C
01D2
0000
FFB0
FF5A
0042
FF5A
0160
00EA
FEED
FDEE
0232
00AA
FF89
FE8C
0065
FF87
00D6
0096
FF0C
019F
01E5
008F
FFD7
00B1
FE9A
01A4
FFEB
FFFE
00B6
FF9B
FF6E
0188
0052
005A
009D
01CD
0006
FF8C
0101
0071
0142
FEB2
00F7
002C
012F
FEE1
027D
FF7A
FFC5
01F0
FEC5
00B3
0010
FFBE
01C7
FEE2
FF69
FE87
0009
FF7B
010C
FF03
0005
0095
00C3
0059
0117
FF5F
02AD
0155
00F1
FF8C
FFB3
00C9
026D
007C
FF21
FE6F
FF6A
0085
00A7
0041
FFD6
0104
FFE3
FF91
010D
0060
FDD7
FE3E
FFA6
FDB0
0199
0104
001C
FF77
00B2
0032
0062
FFB1
FE8A
007F
028B
0190
FF14
003B
FE7D
00AC
0031
0092
FEAB
001C
0231
01BE
0065
FF37
FEB6
FFD8
018A
0050
FE47
0233
FF42
011F
0291
020F
FFCE
0045
00DF
FE8E
FF6A
00DE
01A6
0099
01E8
0145
FF9B
FDB9
FFAA
FF45
0220
FF95
FEC4
0003
018E
FEE5
000F
FFAD
FEBF
0200
00A1
0146
FEEF
0114
FF15
007E
FF4B
00E8
FFBB
008C
0274
0047
0041
FF99
00C8
005A
0089
00B3
0063
FFE6
FE94
001E
0031
FE1D
FF8F
0137
007A
01B3
FD76
FFCC
FFED
FEFB
0070
0016
FF3C
0034
0174
FF48
0123
0124
0147
003A
008C
FFF9
FFD2
FEF9
0206
FF4B
00F2
0028
0089
FE65
FD59
FE7F
FDAC
0025
FF95
FFB6
FF60
FF2F
001E
FEE6
0049
FEA4
FF70
0039
FF5E
FF63
FF61
FFB7
01C2
0037
00CE
FFD5
007F
FDD2
FE42
FF21
00DD
FF43
FF09
00BA
FEC9
00AC
FF61
FEB4
FFEB
0194
FDD3
FF2E
FDBF
00BA
FF46
FE61
FE8E
0079
01A3
022F
00CD
0081
FF20
018D
007B
FED2
001E
0065
004F
0000
0065
FF0C
00A7
FFB8
FEB2
FE56
FED9
005B
FE10
FFC9
007E
0107
FD29
FF43
FDE9
FF68
003D
0118
007F
FFF9
FE5A
00A6
0039
00A9
FFDD
FF71
FF77
0076
FF3E
0090
015A
017E
FF6E
0141
FF52
FFDD
007C
0063
01B8
0142
FFF6
FE18
002E
FE6F
0131
00AA
00A0
00B7
0098
0096
FFEE
FF99
FF33
FDEC
0086
011C
0003
FF8A
018C
FF27
0028
FFC6
0066
0055
FF78
0008
00D7
0107
0179
FFEB
011A
00A1
00A0
0062
00FC
002C
001C
FF5A
FF56
0019
010D
FEC5
FEAB
FFCC
0033
FFFE
008D
FEEA
0012
0049
001C
FF78
FE64
FEE9
FE48
FE6A
002B
FFE7
FF5F
0050
0077
0030
FF31
FEC2
01DF
00E0
FF99
FFD0
FF45
0165
0044
0051
FEFF
0102
FEFA
FE23
FF7C
FF06
FEE7
FE76
0074
0037
FEFD
0002
FF42
FE8D
FF31
FEDA
0064
FEAA
008E
FF30
00ED
FFF2
013F
FE2E
FF22
0160
FFB2
FF6E
FF36
013E
008C
015F
FF98
FFDB
00C9
014E
00CD
FF8C
01E5
FD8B
FF9F
0170
FFEA
FF20
FE69
0125
0058
00D8
FF38
FED1
0069
FFC0
FE43
0137
0088
00DC
FFA1
0113
0137
0189
FF4D
0017
0011
017B
0026
FE73
FE1E
0028
FEB0
FFBD
0031
003B
0093
006C
00F2
0022
FFA6
0005
FE39
018B
FF4C
FECF
FF2F
FECD
FF9F
00A6
002C
FFCE
FF7E
FFF7
FEEA
0104
FF80
FFE1
FF49
FDFB
FEF0
00EE
FF2C
FFCE
FE1D
0251
0093
FEFC
0097
FE1F
FF34
0213
FDFD
FEC2
FFD0
007B
FF3F
FF8F
0003
FE2A
0189
FF02
0049
023A
0123
00EE
013F
0185
0179
007B
FF8F
FEE2
FEB3
00B3
FF3B
FF72
0009
0001
0029
FFF1
00B1
FFCA
FFB0
0043
FF4C
0024
FF75
FFC4
00C1
002A
FFA0
00B4
FF94
0276
FFF8
FEFD
FE22
FEB1
004A
00BB
004F
0131
FECD
FF6A
FFBC
00FE
0118
00CC
00AA
0188
00A0
FF50
FFE5
FFA5
FF9B
007E
001B
FECC
0086
009C
0071
006B
FF93
FEAD
FFBC
FFDC
0027
016C
0071
0096
FE66
FFB2
0054
0040
000B
FFBB
FF05
FF5D
0150
0057
0019
FF69
0100
0036
00B0
FECA
FEF8
010B
FFA9
0040
00C1
FF23
01BA
FEB5
0067
FDD5
FFEF
FF5E
0032
FFD7
FF47
00AD
FF5D
FEDE
FE64
FFF3
0079
FE7C
0172
0018
FDEE
FE90
0146
FEAA
FF6A
FE32
FECE
FF7D
FFF4
0008
FECB
FEF4
FF6D
01BE
FEC4
0139
FEEA
020A
FFEB
0069
FE91
02A5
001B
FE6C
FEE6
0026
003C
00A6
FF71
000B
0053
FF97
FFA7
002D
00D0
FEFF
01EC
0086
FF17
006D
FDDA
0005
0143
00B4
0050
005C
FF60
FFE5
002D
00F6
FDA8
FFF8
0127
FF23
005D
00A4
FF42
FFFD
FF34
0006
FEBE
006D
00B1
FFF0
00CF
FFE3
0084
FE62
FE36
FFE0
FF5C
0149
0031
0016
0021
FF44
FFED
0044
00A4
00CA
FF34
FF5A
FFF1
FFB9
000D
0018
0195
012C
FEE1
0014
FFD8
0068
025A
FFEF
01EB
0175
FFCA
0051
FEA6
02D7
FFFC
FFB5
008F
0090
011C
FF6D
001B
0029
007E
0085
0097
FF68
00C0
0069
FEF1
0001
004E
0166
0287
0131
00E0
FF6F
001F
0231
FF32
FFC5
0139
01CB
004B
00F2
0038
FEC8
FEC8
0047
0164
0008
FF6E
0077
004D
0183
0064
FE55
0111
FD50
FE51
FFE6
FFFA
FF95
01E1
00A2
009B
FF09
0170
004A
FF3B
FF3B
FF97
0042
002A
FFB8
02DF
02F0
020C
00E2
FE27
FF3C
010A
FF9C
01D9
FF70
00F8
0192
008A
008F
014A
FFD6
02C2
FF68
FFDB
00B3
0195
0002
001C
FF62
FF29
0071
FE45
0048
FF21
005F
FFBA
FED2
FFA7
0067
013D
FE82
00A2
FE9A
FF89
FF3D
0041
0130
FF39
FEDF
005E
FDEF
FF77
FE9C
0067
FF03
017E
FF81
FFA0
FF5A
00DB
FE4E
FF35
00BA
FFA0
FF99
FE07
013A
FF4C
0146
0009
FF5E
FEC5
FFF6
015E
FEB4
00B9
FE9B
0096
00B8
FF66
FFAA
FDBA
011F
0060
FF63
0076
FED1
FDEF
FFC2
FF4F
0019
000A
FF25
FD6E
00B9
FFB7
001A
000A
0090
0075
0095
0103
0073
00D3
00D7
FEBB
003F
FFF0
FFBE
0100
FE5F
0055
FF7E
FFA0
0090
00BF
FF50
FFCC
FFEF
0014
FE52
00C3
0015
00CB
020D
0118
FFEB
FE8F
009B
02C4
001D
FF60
FF79
0060
FFDB
0030
0085
FFB4
0017
FFA5
004B
0371
FE9D
FF87
FF1E
0134
FE70
00D5
FFB2
FE3A
0025
FF16
0062
003D
