0111
0201
FE82
FDF7
FF9A
0192
0218
026E
00E0
FEAD
FE94
01D1
FEBA
FF40
0208
0025
0115
FDAF
FF75
013D
00D0
FEB6
00A6
FF99
FE56
FFEB
00F0
004B
0070
FE78
FE5E
01EC
02A2
01CF
007A
028E
00C5
FE26
005C
FE57
016D
FF5D
FCA8
FE35
01AA
01A7
023F
0032
00B8
FF7C
0153
FD84
FD9E
00B3
FD95
0109
013D
FE32
010E
0253
FECB
0010
FF66
FE24
FFFB
FF82
025F
00AE
FF0E
FDEE
FE9B
FE38
FF93
FEB3
0223
FDC5
019A
01D0
FDFC
FED0
FE94
FFB6
FE8E
00ED
0089
FF8D
FD0F
01A9
01EA
FFFD
FE73
FF19
FE5A
FD6A
0151
FE72
FF06
FFC6
FF03
01AF
FF5D
FF5F
011E
0280
011A
00A3
01B5
037C
FE3A
FD81
019B
FEAF
0040
FF46
01E2
01E5
0260
01BA
FDFE
FEF5
FDD6
0203
012C
00B1
FFE0
0134
FF02
011F
FDD8
01C9
FDE3
01FB
0091
00D3
FD4C
FDA0
FE04
FEA3
0053
FF85
023B
FE0A
FE0A
FE7E
00DE
FEEC
0080
0199
0221
0090
01A4
FF53
FD84
00A5
FE7D
FF71
FEDA
FF4A
0037
FDB0
FE7F
0012
FFCC
FD29
FED9
FF14
000A
FEC2
FE5B
0168
FFD0
FF97
FFE1
0182
FDA7
FF92
00CA
01A8
FE54
017B
0001
FE13
FF6F
FE31
FDF2
FFE3
FF5E
FE73
0198
000B
01A8
FFA7
02CC
00C5
01F2
FF4F
01B6
FFC0
0212
0152
FE14
FEFA
FE07
025B
000B
FFAF
FE8D
FEE2
00F6
FE2C
FF72
FF5E
0126
FEFC
FEC4
FF01
00C1
FF47
00C8
00C9
FE2C
0161
FF24
FFFC
FD49
FFCC
0094
01F3
FF26
FF41
FF17
01C0
FEE6
FFD2
FEFB
0087
0081
FFEE
0263
FE4F
FEFB
0213
FDC4
015D
FDF3
FEB3
FF83
FE13
000B
0098
FFCB
0066
FFD7
01D1
FFD7
FEB4
01BB
FDAC
0117
FF65
022C
FEF4
FFD4
FFEA
00D6
008E
FDE4
02E0
FF76
FE77
0096
00EE
0228
FF3F
0151
002E
010F
00E3
FEC1
FE14
025C
0018
FEFD
00EE
FE8B
012C
0049
FF5F
FF5B
02A1
FFC6
FF54
017B
FE42
0056
FDD8
FF0F
FEAD
FE81
FFB5
00D0
FE96
0276
00C1
FF57
0023
FEB3
FDAA
01FF
0124
003A
01BB
0203
010B
008E
0165
016C
FF6A
021C
FE1D
0166
FDEF
0047
0138
0201
002B
004C
FE3E
FF23
0223
014D
0001
00FF
FFB1
FF59
FE13
01D3
FF9C
006A
01CF
FF3A
023D
00DC
0173
FEE4
0093
FEC6
FFD8
013B
012C
FE8D
01E4
FEE5
0252
FF3F
0088
0109
002C
0243
FD13
FF61
0230
FF40
FFFC
FEC5
FF95
FF97
01EA
FDC2
FE06
010C
0078
0003
FE51
FFA7
016C
005B
FEA8
FFAF
FFAC
FFAB
FD6F
0048
FDF8
0067
0140
011E
0226
FEA4
00D3
FF00
025D
FFAD
01EA
FEF4
0175
00DC
FE62
FFD8
015A
00CD
017A
00CE
FD98
FDF8
FE6E
007D
007B
0231
FEEF
0065
FF9D
013C
0102
013C
0060
FEEB
01B5
00D5
0274
004A
FE66
FF2E
FDD2
0236
0189
FD5B
0157
FECD
FFB0
0194
FED3
0119
FDD4
00C1
FE16
FE26
0114
FDE0
01DC
FF94
FE41
FE64
010A
FF79
FF56
FEC7
FE9A
FE28
00C4
FE79
0267
0038
FE9F
FE9C
0178
0187
FFBC
017F
FF26
0216
013F
0224
FF68
FF3B
00AB
007A
FEB6
FED3
0113
00E3
FF45
0150
FE1D
01E8
01FE
FE1B
FFD7
FDE6
FF1E
FFEF
01BD
013C
0114
000F
FF28
0257
0108
FE99
018A
01D8
FF69
FE99
00EF
FEF5
0040
FF99
FDFC
0112
0132
FF02
FDA2
00D5
FEF5
0073
0126
0237
00AC
FF10
017C
FE01
FEAE
FE6D
FFD9
0019
00D4
0105
0163
001A
003E
0141
FEC6
0016
FF2C
0243
FE4F
009F
FCC2
030C
FE85
020F
01C6
00F2
FEF9
0162
0296
01E9
FFB8
008F
FE42
00CD
FFDD
0078
0049
0158
FEB6
FEAA
FEF5
FEE5
0211
0115
009F
0293
01C0
FDE9
FE25
0285
02D5
0206
0077
007E
0114
0011
FD91
FCF4
FFCE
FF79
FE61
01A6
FE9F
01E4
0026
FCDC
0008
FDD7
FED6
FF18
FFCB
FEDC
0081
016C
FFA0
FF2E
FD8C
016B
0282
FFDC
FEE8
FFB0
01D6
FED4
00BB
FEE9
0003
FEE4
004A
FFA4
0208
0094
FECC
FE18
FF24
003B
FFDF
FEAB
0183
FF1E
0199
0006
0162
FE21
0011
0072
00BA
FF33
FF36
FE7F
0170
0255
FF27
FE64
01D6
00BD
01C5
0049
FF3D
0171
FE43
FE38
0034
007E
FF5B
FF1A
FE9E
FF63
FEEE
014A
025E
FDFF
FFA2
FFC5
FE0D
FDA8
0059
FF1E
FED0
0095
02EA
011B
FDCA
FF2D
0317
00C4
0033
FF18
FC8B
0233
FF8C
FEA0
FD95
FC4C
FE9C
01C3
01BD
0136
FF4D
FE87
0182
FE5A
027F
FF0A
0086
FDFA
FF7E
FFE4
012E
FF9F
015B
0218
001A
01EC
FF01
FC86
FD0E
0219
0241
0138
0029
FCFA
FCE3
FCF4
FC8F
004A
FD5B
0061
010C
FE52
0379
FFCA
02FA
019F
FCF9
FF66
FD01
FEC1
00E2
0214
FE7E
FD89
01E2
FF13
FE8B
005C
00F8
005F
FC48
FDC3
FF77
FF3C
FEEE
001E
FF12
00BC
004B
FFF5
FF61
FE74
FF8F
FDD7
FF15
005A
FDEF
FE9B
0167
0103
FE9C
0042
FDD6
FF4E
01CF
FE2E
0054
00F7
FFFE
FF0B
FF84
005B
01E3
005B
0105
00DD
01F5
00A8
020E
0199
02A6
0026
FEF4
019A
FE0D
FE67
0146
FE99
FEC8
021F
0207
FD99
0206
FE56
FED1
FF1A
FF76
FF81
FE35
01CA
01A1
0067
001E
FE5A
0155
0247
007F
01DA
0034
FF46
011A
FE60
0160
FDC6
0185
01CC
FE4F
FDF6
019A
FF89
00D2
FF5B
00EF
00A7
0036
FFBD
00C8
0120
00B9
013E
018E
018B
006F
FF85
018B
016C
FF83
0165
FE5B
0265
00FE
FE0E
FFE8
FF80
FF13
FDE9
01AE
FE76
00CD
FFA3
FF33
FF9E
FE3A
0032
FFB6
FDF6
FDA9
0069
01E4
FEAD
FDB1
00D0
FF30
FFA9
FDC2
00D7
FEF7
00BC
FC9C
FF37
FE81
00F2
0230
FD4A
FE06
FECB
FDDA
0189
0060
FE70
FDCC
01E6
00F9
FE7E
01CA
FF87
0145
FDB0
FED4
022C
FDE1
FD26
FE84
FED9
00E3
FE9F
0394
FE3F
FE72
FFE3
0207
0184
00F9
0102
FF7B
0211
0145
FE78
FF02
FF8D
FFC6
0120
00B2
023D
FDE1
0155
00B9
FFBA
FF6F
00C2
0140
01DF
0002
01E7
01A2
01A6
0136
FFAA
FEE7
00C5
0244
FF62
FCB3
FEA1
0167
0074
FE41
0193
0009
FFDC
01A6
FEAD
FF7F
00BC
0048
FE74
021B
0061
FEDF
FF36
FF13
022C
00C6
FFDA
FFA1
FF27
017F
027A
0251
FF76
0262
FFB3
FE9A
0163
000F
0181
FDE1
FFEC
013A
0246
FF55
0195
FE70
FFA9
FDEA
FFDF
007C
0032
FFA7
FDEA
016D
024B
0086
FF82
0040
0125
FFC4
0135
000D
01B2
01C3
FF35
FDDD
FDBB
0162
0087
008F
FE0F
017B
FFD2
0077
0198
01AD
00D1
FEBE
002F
0141
0077
FF4B
021B
016A
0047
010A
FE73
FED1
011B
FF3E
FFC7
FE03
01E5
FFE9
FEBD
018D
01C9
003F
011C
FF69
0256
0003
FDC3
FDDC
FEEA
FEDA
FE73
FF2F
0110
FDD8
0114
FFC3
FF34
0024
FFDB
00BD
FE65
FE6C
FED3
027B
00F0
016E
0033
009C
FFD9
0147
FF00
0078
008B
FE4E
FEB3
01CC
FF47
00C2
01E1
FE7F
FE8E
00D0
014F
FDCC
0183
013A
0211
FE23
FE66
FE32
01FF
027E
FFE5
01BD
016C
0089
FDFD
FDDA
0047
FF0C
FD7E
FDA1
00EF
00E3
FF28
02D6
FE40
FFCF
01F7
0115
FFC1
FDEE
FE1A
FFCE
FF03
00C7
0244
0023
FE60
FFA7
0147
0133
FF0F
0139
FF1D
01C5
FEEE
FF4F
FDCD
00DF
FEFD
0037
FEF6
0108
FEEB
FFB7
0229
0077
0099
001E
FF0A
FFD6
00E9
0212
FDCF
006D
FF87
0016
FE65
0029
FE13
FF47
00DD
FF19
018A
FD84
FEC7
FFF7
FF9D
FF35
01E4
0093
020B
FF4E
0225
FEEB
FF36
01D8
FF38
FFC1
FF08
FFB7
008E
FE46
0091
021F
FF8C
FE58
01A0
FEC4
FE4B
FDDF
FD8E
FD81
0128
FE9E
FFD5
0214
FE59
01D8
00DD
0200
01AE
01FE
0245
FF1B
FE17
FDF5
018F
014B
FFAD
FEA7
006E
FED5
FD42
0307
FF68
0093
0047
0068
0087
FDE3
00F5
00CB
FFFD
0218
FF00
024D
FE6F
FDA5
01C4
FFAE
00D3
FE72
FDE4
020D
00AF
FFFF
0139
0166
FF88
FF39
FEE8
FE6F
0114
0286
018C
0064
0066
FDE8
0177
015E
FF4D
FFD1
FEE4
00B4
FF73
0224
FE7B
FEAC
FEEC
01B6
016E
0167
0170
FD74
FF10
FF04
FDD0
0027
0120
FFFE
01E9
FEA2
01FD
FDF1
FE02
01E2
0089
00EF
FE73
FE6C
0134
FC66
FE51
00C2
017E
0134
FE7D
01DB
0216
00EE
FE0B
FF77
01C2
FEDF
011A
FFD9
0111
0156
0119
00BE
0068
01F9
00DA
008D
0108
FE0F
0059
01A1
00CC
0164
01C8
FFB3
0025
00D5
FF58
0131
00F0
0116
FFFB
FDC3
011A
FED4
020E
019C
0039
FEFB
FE21
FECC
FF58
00B7
0064
FE49
01B9
FFB9
FF33
FFD1
008E
0197
FF78
FE8D
002A
FDEC
FEDF
01BC
FF1D
FD3C
FDD1
00B3
0053
FF8E
FFCE
FED5
FE45
FDF9
FEF3
0155
01C1
FF25
0111
01D6
0265
027B
FFB9
FDA8
FE5C
0016
FE65
01FA
000F
019B
FDEE
022D
01B7
029C
01CE
0021
FF2E
0048
01A2
0110
010D
02A1
00EB
FDBA
0253
FD77
00CC
FE71
FEF1
FE6D
FDE9
00C0
00A1
FF66
FE40
022D
023F
FF9C
00EE
0125
01CC
00F0
00D4
01E8
01B6
FF09
002A
01E0
0067
01D1
00EB
024A
0051
00B3
019D
FDC3
00DE
00D6
0175
0166
0150
FED2
FD94
FF91
FFB5
0029
FF42
FEEC
0225
FEF7
FF45
FE3E
0213
01C0
FF50
FF7A
01AD
0179
025D
0014
0037
0055
00C0
FF1F
00FA
005B
0065
021D
0210
FE87
00A6
0096
0273
FEF4
FEFC
0194
018F
012A
00A2
FFE1
0220
01A3
FE8E
FECC
FDCC
FE24
FDF0
0128
006F
0001
FFF7
0091
0290
0121
FE3C
FEE3
FE99
FFD8
00D5
FF53
FE05
01A5
006C
0140
0047
0092
01F0
FF75
003A
FD7E
FE4C
FECA
0082
FFA1
0275
FE28
0079
0075
FEEF
0012
012E
01A4
FE00
FE9F
FF7F
004D
01F1
00CF
FFF0
009B
FF9F
00FD
FEF5
FF0B
0181
FEBE
01D9
FFF9
0079
FE4E
FF49
FF65
01B9
0044
010F
FDE9
FDF8
FEB6
021E
FD4D
022D
003B
0049
FF92
FE7C
FEE2
FF57
0008
FDD3
010B
017E
017B
FEC1
FED7
FD24
021B
0264
FDE6
FEF8
015E
FF4E
FFA4
FFCD
FDEB
0036
02D7
0023
FFDB
FFAC
FDDC
01B5
00D9
004E
FD6A
0105
01A8
FEE6
0095
FE88
004D
FF44
0116
0043
FED4
FEF3
FEF4
FEC6
01F8
FDB6
00EF
011A
FFEF
FFF1
0036
02C4
FE91
FF36
FFA2
FF73
0169
0051
FF15
FEB7
FE26
FDCE
00DA
0275
FF6F
013C
FE78
FF8B
0100
FEAC
FDD0
FF44
FEBE
017E
FF60
FF4A
FF89
016B
0203
0078
01E1
00F6
FEA0
FF7A
FDF0
0201
FDE7
FDD1
FEFC
0239
FFF3
FDF0
01F4
FECC
FE5A
0004
FEA9
FFC4
0080
001B
00C2
FE4B
01AC
FDC8
FF3E
0000
01AF
FFEC
0036
0071
FE6D
FE6A
FFB8
008E
005E
FFAC
011C
FE76
01B2
0068
FE35
FF05
007A
018F
FECB
014C
0049
FF48
FF14
FEF6
0136
FEE6
FE6A
006E
0235
0075
022B
FEC2
0194
FE77
01D9
FE6F
FF12
0247
FEE3
FE8D
00B7
002A
00E3
FE8C
01C7
02AA
011F
00D9
FE76
003E
FDE2
0017
FF74
FEC2
FD0A
FEDD
FFDB
0049
0270
FFCE
0183
FECC
FDA9
0080
011B
014D
0173
FE5D
0199
00BD
0156
FE27
FFB6
FFA3
0050
0015
003A
FF59
FD96
FE30
FEB3
FEDB
FF3E
00A9
FE14
FEB4
FDAC
FFBF
FF46
FF0F
FF72
008F
FE73
FDEF
0192
00EF
0251
0125
021B
FFCD
00A1
FE9F
007B
FDDA
FE69
FF3B
FF69
FF06
FE31
01F7
0079
FF39
FE02
FDFB
004F
FE19
00BF
0293
01DB
FDFE
0145
FF28
015F
FE23
0232
00AD
FDF6
FF03
FEC5
FDED
FE10
004A
FE3E
0029
00E3
00EC
FF8B
0079
0086
FED8
FF98
FE1F
FDB2
01F2
004E
004E
FF54
0083
023F
FF75
FF17
0095
FE92
0022
FEBA
00F9
00D7
FEB4
FE56
FF59
FFC3
FFF0
FE20
011A
FEC4
01C6
FF68
0020
FF9F
FEDF
FE2D
FF90
0068
0001
0101
00DA
0002
FD76
FFF8
FD9C
FF7D
FF2E
00AE
FDCF
FFBA
FE7A
01AA
FEAC
00A2
021B
FE8E
010E
009D
00F1
FE46
019F
FDBE
FE21
00F7
FE85
FF93
FE88
0089
FE4D
FFC3
018C
FF07
FDA3
0171
01E3
FF64
0221
FE63
FFFB
FFD8
015E
FDDC
00BB
FFA1
0030
FFDE
FEE1
0133
FE06
0079
01A7
FF89
00F7
FE8A
FF53
FE22
01F6
0190
0122
00B5
0171
002B
FE59
00EE
0182
0108
0021
FE60
FE88
FE5C
FE21
0149
FED1
FFFE
FDB2
00B6
FE2E
FEF5
FEF1
0191
FDFC
010F
FE2A
FDAA
013B
FE6F
0148
FFCD
021E
0081
FE03
007A
FE5A
FF22
008E
009F
01A4
FF66
0035
01D7
01F4
FE24
FF06
FEB6
FEEF
FE97
FEF6
0023
FFD9
FFD7
0296
FED6
0058
FF0E
0124
FE94
00E4
009D
0038
01D9
FEB5
FEA4
023A
FE13
FFA3
017E
FED3
0174
FFBB
016B
026A
FE3B
0017
FEB7
0023
FD94
0019
FF51
01C8
0040
FF2F
00BF
FF72
0137
FDE2
013F
00A6
FFA1
FE20
FFBA
0026
0022
FE20
FE07
021D
FFEC
008B
007A
0074
FF93
FF90
015B
FF9E
01AB
01EF
0179
021B
FFD9
0233
FE28
FE47
FDF4
003B
0196
0165
020B
FEDF
0117
FED2
01B0
FE6D
0217
FEF0
FFDB
01DB
01A1
FFA2
FF3F
011C
0157
0143
FE26
FFC4
0146
013F
0309
FD71
0096
FEAF
00FF
FEDE
01D6
FEA0
FFC5
0180
004F
FE07
00E0
0275
FEDD
0217
FE31
FFBD
0199
FDF5
FE2F
028D
01EB
FF45
0201
FEA5
007F
FF79
FDFC
FF5F
014B
FEE7
00BA
013B
0079
FF4E
0058
FE2D
00DF
0151
FE3A
01BD
FED4
FE3C
0133
FF4C
0143
01A4
0206
FF90
FF56
FEEE
FFC8
FDAD
0164
0187
FE26
FFD7
FE7A
01D1
FF67
FE32
FF80
FE44
FF75
004B
0086
FD1F
0108
FFF7
025C
014A
FE90
FF49
006D
FD95
00C9
00FA
FE70
FEE6
00D3
FF38
FF24
010F
025E
0040
FEEA
FE5E
FDE7
