FFBB
000A
0019
FFCA
0009
FF8B
0079
0029
004C
002F
0057
00AE
0025
002C
FFF2
00D1
0020
0007
FFD7
FF94
003E
FFA9
0095
002C
FFF7
0081
002E
FFD5
0079
001A
0020
001D
0060
000F
0039
006E
0024
0010
0071
00DC
003D
005A
0099
0073
005E
0038
0063
0020
002A
0035
001E
0017
009F
FFE4
0001
FFE8
005E
0029
0000
00F5
008B
0039
0041
0028
