01E1
FD1A
00B5
FD1F
016F
FD53
FD3A
FF17
00E6
FD26
0151
FD07
FDC9
FF98
FF2F
0061
FDAE
FFBD
FFF4
0082
0166
008E
FDCF
FD30
0130
0013
00D0
FDD3
002E
FE5E
012B
FFD4
FE3B
FE8C
009A
FF87
0112
FD85
FC8C
FF8B
FF87
FDC6
FE62
005E
FFC8
01B0
FE02
0031
FDA8
FD56
FFCC
FC46
0052
0132
FE31
FD5F
007C
FE99
FF35
FBD9
FF29
FF26
FE56
00EE
0108
0300
01B5
035A
FFFA
0051
0312
0143
FF67
01A1
0106
022C
FE24
00E8
FEDB
0143
FE95
FF10
FECC
FF42
01D1
02C0
003E
0055
02CA
FE80
FE3E
00B4
0320
03EF
FFBC
FED4
FF8D
005F
FFFA
0120
026A
0123
001C
0235
004E
FFAA
01FD
FF13
0205
FDAD
01AE
0267
FF0E
FFBB
FEB8
FFB7
FEC7
0028
00C8
FFE9
022F
02C0
FF9C
02A6
02ED
00D1
FE3B
FF4C
01C5
02C7
FE55
029A
FFB6
0252
FFA8
0124
0105
FE65
FF6D
028E
FF0A
01B9
FF92
02D9
0151
FE8D
0020
FFCA
00E0
02B3
FE12
028D
003C
0247
FDF0
0242
008D
00A5
FE5F
02C2
FF70
020C
FE97
0069
00FD
FE3F
0127
FE89
FF9C
FF9C
02B0
0276
FF54
0087
FF66
FE06
FDF6
00A8
FFDE
FF1E
00C5
FE14
FFC7
0029
FFC9
0125
FDCF
0172
0166
FFCC
FE7B
FE44
007D
01C2
FD69
FDAA
FE38
FEF5
FE11
0057
FEE0
000B
FFBB
FCDA
FF53
0092
FD74
0006
FEEF
0009
0150
FFCC
FEAF
FD8C
FDDF
FE4E
FF77
01CE
FE89
FE21
FD75
0078
009F
010A
FFB4
FFB1
FEC5
01D0
FE8E
019C
FF6C
0123
009B
FD1E
FD47
FFFA
00FC
018E
FE7C
0140
00BB
FE16
FE43
FCE6
FE8C
FF8C
FFF6
0089
0055
021F
FFAD
FFAE
0162
003B
00B6
FE34
0055
FD74
FD3B
017C
0066
FEB6
FE3C
FEFA
0128
01B3
FE16
00D7
FFE8
00C1
FFD1
FE10
0015
FDC3
FFAA
FFD1
FE49
00FC
0163
FD39
FEDF
FE9D
FDB5
00C0
FDA7
FE91
0167
FFB1
FEF9
00C4
0123
FDAA
FE8B
FDE1
FEF9
FE26
FD71
FEF7
FD24
FEFD
005B
007B
FEE1
004C
FD17
0152
FD7A
FDB2
FE79
FDD1
01BF
FFF0
FEA1
FF13
00FD
FF65
FEF6
0153
01AA
0177
FDDB
FD7F
0032
FD9A
FF68
FE7E
00FD
FE5E
FEF2
0026
0054
FDC3
01D3
FF7D
FED7
002C
0191
0109
FE01
FD9A
FF1B
FE08
FF5A
FEC4
00AD
01BE
0039
013C
0146
0046
0174
011F
FF7C
FDF3
FFCF
FFBA
FF76
FFAB
FFDE
0211
FF0D
00D4
FEAE
FE7F
0107
02B0
FEFA
FF55
FD75
0006
FDBA
FE7A
FF79
0025
FED1
FF4D
FF02
FFBD
0151
00B3
008E
FF57
FF6D
FE66
FF27
FF74
FE3C
FF61
FEF3
00FA
016D
FFD6
0186
FEEA
FE19
FFB2
FDC1
0029
0097
FCDD
FECD
015F
01A1
FEC8
0199
003F
FF45
00C8
FE59
0097
0139
FD64
FEBB
FF69
0125
FDFE
0083
FECF
FE04
FF1F
01E3
FFCB
0103
FDC1
FD4F
FE43
FF40
0161
FF02
FFD8
FEE9
01C3
010E
FFEF
00BA
FBA7
0054
FF79
0049
00E1
FF5F
01D7
FE3E
FC61
FEA2
FDA2
007B
FE24
FEF9
FFF4
0095
FE3D
FE66
0016
FF71
FDBA
01C5
FF5B
00F6
0121
FE38
005D
FF6B
FF8A
FEAE
FDCF
FE66
0005
FECF
0145
FF0F
FFC7
FEDB
FE4A
00D8
FE09
0159
FDDD
000C
01F4
FE65
FFA1
020F
0043
FE99
00C8
00C7
FE5D
020F
0194
FE87
00AC
FF91
FEAD
FFFA
FE97
FE3E
FF0F
020E
0017
FDF7
00CC
01B9
0022
FF7E
FF7D
FDBC
0128
FFA9
FF59
01F8
0074
0272
01A4
FF81
0011
FE00
FDD4
0081
0103
01A7
FE00
FFB1
FF86
FE6E
0126
FE53
0385
00DD
FDC0
FEAF
FFFB
FDE1
0042
014C
00EA
01A8
FEFB
0116
004E
FE54
FF4B
007D
0149
FF52
0112
FF0B
FF59
FED9
01B4
0103
FEF3
0071
00D3
0197
FF71
0091
0163
FFD8
0126
FEE9
014B
FE58
FFEE
FFF7
0015
006F
FE03
0266
FDD8
FFE7
FE08
024F
FFF0
009B
0076
0199
0198
FE87
FE54
0138
FE6E
01FB
FF84
00EA
011B
FE97
022A
01D6
016D
FF2E
020B
02E5
FEFE
FEE9
0250
00AE
FEFC
002D
0113
001A
0167
0103
009B
FE28
00BD
FE64
0117
FDE6
009E
FFD9
FEFB
FEAB
0266
01B3
027E
0195
0109
FFF7
0257
00FF
01B9
FF39
FECA
01EC
FF35
FFE8
FF60
FF26
0122
0296
0171
0148
0162
00B8
022D
028D
01F8
0080
0010
0049
018A
0132
0183
0193
FF4C
FFAA
FFE3
01DB
0112
FE10
02E6
0008
FF06
0062
0339
0213
009C
FED9
0186
010B
01A5
FF19
00AF
01BC
0000
0178
0229
010D
0026
00F6
FF83
0130
012C
FE0A
005C
FE55
FECF
FF17
009A
0072
FEB7
0018
FEB1
0227
0122
013E
FF44
FECE
FF3D
0244
0240
FEA9
FF70
0035
01EA
035F
01D5
FF15
0355
FFA0
FE72
005C
00DB
01C8
FFE6
FFF8
01E4
FF90
FFB6
FF45
0048
FFB1
FFDD
017B
00CD
FEEB
FF24
FF14
034A
FF85
01E5
FE91
FE39
FE09
010D
FFFA
007E
FF8F
00E5
00C7
FEB4
0192
02DC
01F7
FF4A
FE20
FF86
0024
FE81
01EE
01B1
01A3
FEC1
0126
029D
01F3
01A2
02CE
FEB8
FF3E
0086
0010
00A1
01F4
0292
FFD3
00AA
00C0
FE51
0066
FF50
0245
0332
0175
01CA
0225
000D
FFE1
FD42
01AC
008B
FFEC
FECD
FF30
01D0
018B
01B9
006A
FDA7
FF5F
FF84
0196
0197
FF2A
FFA1
FDA5
00E3
012A
0082
01A5
FF83
001F
FE54
FE1F
FE6C
FF25
018C
0016
0228
FEBE
00C0
004B
FD7A
01CD
0170
0205
01E9
0114
FE59
FDDA
0086
0235
FEDB
0168
01FA
0062
FE4E
017F
0026
FDD7
01D3
0065
012E
FD6D
FF6E
FFFB
0018
0076
0028
FECD
FF39
020D
0302
FF3E
FEF4
025E
0328
FFAB
0127
FFA8
0011
00DD
02A1
FFB2
0127
015E
0214
004D
FDB6
0076
FFB1
00A7
FF6F
FF9B
00C1
FE5B
0290
015A
0152
030D
0212
FF32
0002
FE4E
007C
FEA0
0108
0273
021B
024B
FE65
009E
FEAC
0252
FFA1
000C
0130
007E
FFAB
00EF
00AC
FE71
030F
019A
0166
FE7B
0149
0191
0030
FF52
00CB
00E3
0200
00C6
019F
0186
0021
0220
0220
021B
01C1
023F
0016
017A
0157
0180
0354
FDCE
0296
FE30
FF17
01C1
0038
00F5
016F
FE76
0080
01BE
0126
01E2
000C
0108
01D0
FF19
025E
0056
02F9
0253
01D3
FF35
FEC2
01A8
FE37
029F
020E
FF30
0230
007F
000C
00AC
FFE5
011D
FE4A
018F
00BD
FEA4
0309
0040
FFA9
FFF9
00CA
00EE
0260
010F
00A1
FFD2
FE6B
FFD0
0236
0145
0298
FD34
0196
FEEC
FE69
02A5
FFC8
00B2
FECA
0205
FFFC
FC74
021A
FEE6
FE25
FEE2
FEDA
FEBA
FDA6
01C1
FE51
FFB3
00E5
0141
FF0B
FEE3
0148
FF79
0150
FD38
FE97
FFD4
0000
00D4
020F
014A
FE5F
FE9D
FF57
FF2F
006E
01EC
0179
0018
FF7D
00DC
0009
01C4
0023
000F
00C7
FFB6
FE9B
FEB6
FEC3
008E
FE15
FDF0
00E2
FD1F
FF66
0037
00BF
004C
0126
0098
007D
00D8
0047
005B
00F2
FFE6
FF85
FFC9
FFF5
FF35
FE50
01C9
0060
009E
0230
01CB
018F
0168
FF0F
0224
0038
FE89
0027
FF6A
FEFB
01E8
0072
FF5C
01FD
0223
013F
0145
FF53
00B9
0214
FED5
0155
FF76
015F
0181
016A
01C9
005E
FFF5
FF4C
0251
0004
FF8D
019D
FE40
0088
FE63
01EB
020A
000E
FF3C
023B
01DD
0104
01CD
021D
01C5
FEC0
FD86
FEAC
FFC2
019E
0155
FE0E
0193
FFD4
FF97
FF89
012C
0116
01FC
FED3
0172
0123
FEBF
FD52
0176
0048
FF2C
00D3
FF6A
01FC
0026
01E9
FDF0
00B3
018C
FDBF
FE93
FD87
FE62
FF51
FF10
0012
0168
0043
017B
0012
0085
FF74
FF4A
0139
01AF
FDE1
FF28
FF70
FF91
FF35
012D
FE17
FF8E
FF91
015C
0066
0020
FD8B
FE85
FFDF
FF9F
013F
010E
00C1
FDD9
012A
FDCC
FEC7
00D2
FF13
FFFB
0075
008E
FE31
FE30
FDE9
0015
01A4
FEFD
FEFF
010C
00F4
007D
0127
01B3
FD94
FE52
FE05
0135
FE9A
006F
FEC2
FE6E
008C
FE76
FF0A
00A0
00F5
FDAA
01F9
FF36
0138
FE7A
0139
FE73
0106
01AC
FE08
0144
FE4B
00D3
01A3
FE9D
00C2
FDAE
FE6D
FECE
0122
FF35
01BA
FDAB
FD4C
FFB9
FE10
FF8B
015C
00D4
FF83
FDFB
012A
0193
FFEE
FFB3
FE58
FD81
FF1C
00BC
0321
FF5E
FFE7
FFEB
0282
FF8A
0187
FF4C
FFFD
FEB3
00E9
0060
00D0
FE80
FE2C
FEDC
00B8
006A
FFF2
FFF3
01E4
FF86
FFB3
FEFD
0260
FF38
0041
FEC1
0246
0027
0139
0106
013A
FFD8
0355
FDB3
0284
012C
0023
FF03
FFCD
FF20
FD3F
00D4
FEFC
0038
0052
01C9
00B0
0238
FD5E
00A3
FF5C
FF59
FFDA
02A1
01FB
FF15
FF61
006F
011F
0015
0158
FE9F
02D9
FE3F
00EE
FF95
0064
FFC6
0166
FFAA
FFAD
00EF
FF6F
00D6
026F
0262
0311
0156
FEE8
FFE5
0115
024A
0005
0221
027E
0035
02ED
00E1
004B
0329
FF8F
011D
0170
0064
0206
017B
00E6
FEAF
FF0C
01CC
FF59
0199
043A
FFE7
FE17
00A5
FEB3
01DA
001E
02A0
02D0
0074
0060
0180
FF5A
FFF1
0073
FDFF
003B
FF5F
01ED
0130
014C
FE9B
0030
FED9
02D0
FFA0
FF94
0134
FF1C
0066
001C
000E
FE4F
00AE
0224
025E
0105
FDBD
FEAA
FE3C
0049
0129
FF90
01A4
003A
FE45
0123
021D
01DC
FE1C
01D6
018C
FF05
019E
FF76
00AD
FF6F
0125
0127
FE0D
00CB
0142
FFD7
FF06
0102
FF89
FEC0
FF87
FE63
FFE3
00C9
FDD7
FF69
02F6
FE74
01BE
FDEF
FEA2
FECE
0003
00B9
00A9
019E
FFC7
FFAE
0079
FE10
FFAF
0249
FF6D
FE5D
FED9
006D
FF4B
0198
023D
FFA7
0076
FFAC
FF12
0229
FEF9
FFAF
FF9B
FF50
00A5
0214
01C1
0256
FF49
00FB
01D2
FFFA
01A5
FF4A
0182
001B
FF6F
013D
0222
010D
FE73
0149
0189
FEB2
0056
FE6E
FE8B
0340
0098
FF53
0091
FE50
FE27
FF30
00E0
00F7
FE65
FFEE
004B
FF68
0239
0277
FE0B
006E
FFB0
FECC
FF1D
00E2
FDD5
FD57
FF11
FF0B
0061
FF14
FDAD
02FE
0127
FEDF
FFC6
FFDA
FFAC
00D1
00FE
00E2
01CA
01CD
FE21
FEC9
0059
0299
FFF0
010C
0039
FF63
0186
0041
0150
0226
FFD9
0240
0181
00EA
FF6C
00FD
01F6
021D
0142
FFAC
FD7B
0164
FE81
FE67
FDE5
FE86
003E
017D
FF18
0061
00DA
02F5
FF72
004D
FE7E
0242
01E1
FFF4
FF66
FF40
FF39
0293
007E
01D4
0058
01C0
FEDC
0160
02B5
FF52
0211
01A1
FF1C
016A
FDF5
0124
FDC6
00A9
FE56
00ED
FF0A
01AC
004A
0240
021E
FEF3
FF88
00AE
0187
FF8B
FE4B
01FA
FFE7
FE7E
021A
FE53
FEE2
FFF3
FFDA
FE3D
0239
01E5
0027
0041
FFA3
015A
0046
017E
0207
0249
00FF
0088
FFA1
FF02
008E
0124
022D
01FE
FF40
FF82
FF2F
FE38
0064
0076
00AF
FD32
FDAD
0042
FFD9
0142
0150
000B
01B5
FE92
0022
FD96
FF8C
FF6E
0040
FEF0
FF62
0020
FDC6
FD72
FEC0
FEA9
00FE
FFB1
FD2B
FF29
0240
FDFA
00B4
FE76
FE2E
002A
FFE8
00CD
005D
FD6C
FECC
FE7C
FCEA
FD91
0055
00C4
FF27
FD58
FF2B
FD91
FF8C
FE65
00EC
009B
016E
FDC3
009E
FFA1
022B
FD8C
FDC5
0181
00F6
FF9B
016C
0022
01CC
011E
FF05
FFCA
FF1A
FE9A
FE9E
0179
0133
FEA3
01B3
0222
015B
FEB9
00C3
FEA8
0203
01A5
00F7
00D0
FFEA
FEB9
FEFF
009B
FEF2
FE24
01D0
014D
0142
018B
0250
FF45
FF03
00AE
FF50
0061
0175
0022
FE61
027F
0166
016C
FE16
FED3
FEF3
FFA3
004F
FEB5
00F8
FF87
01A6
FE18
FFC0
0041
FFEB
01C0
0141
FEA8
0176
0093
01C4
FF95
FE69
FFC9
0027
00E1
003C
FEE7
0039
FE25
0175
023C
0082
0320
FDFD
01EF
0276
02EC
FF7D
FEBB
FF47
0064
0006
02B5
023B
01F3
01A9
011A
FE28
FE5C
02A3
013D
012C
FE75
01CC
FEEB
FF4A
0156
0110
FF01
0127
0164
0087
FF10
01C2
0200
010B
0076
015C
FF5B
FE88
01CA
00A0
003C
FF37
00E2
0134
FF6A
FF19
FDC2
FDB3
022B
0273
FF48
FF10
01C3
0053
022E
0048
023E
FE8E
01F4
00F3
00AF
002C
FF96
FF73
007C
FEC4
01F2
FFB1
FFBF
00D5
FEAC
FFEA
0061
0032
FF98
FE84
FF90
0096
FE96
0110
0154
0134
0162
FDF4
00EF
FF25
013E
00E6
FF76
FE89
0168
FFBB
00CE
FEC0
FDF3
FE93
004E
FE78
FF0E
003A
FF68
FEDA
0253
FE8B
FE55
0220
01C4
FEF0
FFB6
0062
FFFB
FD9C
001E
0140
FE82
01C4
0239
0052
FFA8
FFFA
0057
01BB
FD34
FE88
FDDD
FFB4
FE3D
FE6A
013C
004E
014E
FD92
FEF8
0025
022B
FEF2
0054
FF40
FF50
FE93
FE35
FE97
01E2
FE2D
FEEC
FD7F
FFCE
0237
FD38
0186
0084
FF03
FDAA
FFA6
0169
0172
FE45
FE6D
FE35
FD10
FF7C
FFA7
00D7
FED1
01B9
FD7C
0214
FF90
FCBB
FFBE
FF68
FE39
FDC8
FF9F
FDFD
00E4
FEC2
FF55
0168
01EB
FDFF
015B
0133
01C2
01CB
FE17
0011
FFFD
00A3
FEE1
00FB
FF81
017C
0089
FF24
00D9
FF90
02D7
FFE2
0095
02A7
0193
005C
00D8
FE43
000B
FF45
0076
01A4
0153
024F
FDC1
019E
0222
0067
0118
FF10
00DE
00A9
007D
FEB2
0231
0164
01A7
00FC
021A
0269
01F3
00CE
01A2
FE8B
0122
004A
FFF2
0183
01DC
01C2
0023
00C1
FE0B
00DD
0058
0210
FE7D
0134
FE0F
FD21
FE78
FF85
01FB
FF5C
FFE7
01FF
FEC6
01FD
FF92
FD70
01AC
FE37
FE3F
FF8F
FFA5
FEA9
FFBD
017E
FE6E
FF45
FF77
FF7E
01B4
0124
FE36
019E
FE28
FDC4
FDFF
0021
FEE5
00F2
0064
FEE9
005F
FF53
FF0E
FE83
FF9B
FE3B
FCF2
FEA7
FEA0
011F
00F0
FEAD
00B3
0170
FEF2
FEF7
FE69
FEC9
FF00
FD6D
FECB
FF4F
00E0
0129
FE3A
013F
FEC7
FFE5
