FFC2
00CD
0059
0039
0043
033B
FF30
00EA
00A6
FFA3
00DA
FF27
FFAD
FF3D
FF8F
FFB8
FFD2
0085
0113
0069
FF68
FFB1
FF08
FFAF
FE95
0087
0167
0041
FEB2
00DA
FF66
00AC
FFE1
FEE6
FDF6
00A3
0038
00C0
FEC3
003D
000B
FF18
FFD9
FF8A
0011
0013
FED3
005E
0048
00C5
FEE9
FFF8
FECA
FF94
FF6B
00CD
FFB3
00B3
00FD
0033
0020
FDE0
FF5C
FF99
FEF8
007E
0108
FF74
0046
01C2
FF37
FFC6
FEEC
0030
0060
01E8
FE23
008E
0032
00FA
0145
0127
FF3D
FFC2
FF4B
0056
FFDD
FF74
0042
0199
FF8E
0112
00E6
FE9B
013A
000D
FF5F
015A
0073
0099
005D
00C1
024B
FFE4
00C9
0101
FE59
005B
0052
0208
0158
FF5F
FFD4
004E
000D
FFC8
007C
0081
FF7B
FFC3
FFFC
FF1E
01CE
FEA0
0122
FFBB
FF9F
0071
FF17
FFA6
FE2D
FF66
FF63
FE08
FD72
FFEC
FE62
FFB7
FE43
FEA6
0116
FEA5
014F
FE6A
006A
FFAC
0051
0195
0107
FD74
FE1C
FFAB
000C
0062
FE84
FF99
FFAE
FF3B
005A
00D9
FF99
FF0C
0036
0011
FF4B
001B
FFED
00FF
FF6A
01FA
FE91
FF85
FEBD
FFDE
FE83
FDB6
FE7F
010F
FF6E
FE57
FFB6
FF03
FED0
FF05
FFDB
001D
FF6E
0122
FF4A
FBBA
0014
0134
0211
00D0
FFF9
0081
FFE6
FE1E
FDC4
FFB5
0058
FE92
FF44
FFF5
0011
0061
00BD
FE2E
00EA
FF94
FDAA
FF76
FF4D
FF94
FF5A
002C
FEEA
013C
00E4
FDEC
00C1
FFB5
0041
0079
FFF2
FFEF
FF73
00FD
0102
FEC1
FE86
000C
FFBA
0107
003B
0016
003A
FED1
FEDF
0029
FEF2
FE9F
FEF3
FEC5
011F
0031
00BB
FF79
FFD6
FEA2
0156
FEEB
00A6
FE97
FE95
FF2C
000D
00C2
FF6D
00B3
FEE9
FF7B
FFDD
00AF
FFA3
FF71
00C9
FFFC
0036
FF5A
0259
FFA9
015B
FF46
0227
FEFF
004B
FEE6
FF63
FF0D
013E
016D
006B
FFA2
FF1D
005F
FF7F
021E
02F4
FE47
0044
0127
FF2A
0044
0197
FFCE
01B5
006D
FFC8
FF1B
00A5
FFFA
00AD
FFFA
0119
00B8
FE90
011A
FE23
0067
023F
FFD7
FF4E
0134
00FE
FF8D
FFA7
0039
FE42
FF53
FEEF
FF83
FEDD
01A5
00CF
FEF9
021A
FF0E
FF25
FE3D
FF80
FFB1
0178
FE40
FEC6
0037
FF48
FE1B
002B
FF5C
FF70
FE31
FFB5
FEFA
010A
00C3
FED0
FD43
FFB7
FF74
FE8D
FF54
009B
0008
0024
002E
FFB3
0060
FDFE
FFF5
0057
FEBC
0115
0034
FE60
FF57
FF4C
0015
FFAC
FEBA
FEF8
FDB0
FF03
0013
FF4A
015F
FF66
FED0
00BC
FEC0
FFD5
FD53
FF6A
FF00
FE66
0008
FF8B
0121
FF63
0184
007A
FEDA
FE8E
005C
FF72
00A3
010C
0069
FFDA
FFB2
FF40
00A4
01D0
01A9
00B2
0132
0280
011D
FDB7
0085
00EB
FF94
FF35
0039
FF71
FEE1
FFCC
FE97
FF59
FE7F
FDC0
00FF
FF12
FFB2
02D5
0038
001F
FF8A
FEA1
FFB5
FFBB
0113
FF45
00D1
002B
FE7D
0223
FF7B
00DF
00FB
FF00
00BD
FED9
FF28
FF8E
0194
00F7
0164
FFD3
00D1
FFD1
0063
FF48
00B6
00DF
FFC9
FE9E
0006
0068
FFD0
FE2D
0335
FF09
00DB
0291
00A3
006B
00BB
0121
001C
FFCC
FFF2
0074
01DE
FE66
00BD
FF0C
0039
FEF5
FF2B
FFEA
FFC1
008C
0062
FFE4
FF32
00C5
0016
0098
0168
0269
FF7E
012C
00BF
022A
0078
0005
0094
0173
FD09
FFA2
0066
01FF
01D5
01DB
FFD7
FFFD
FF58
0177
022B
0035
FF7F
020F
FF5D
FD35
0077
FF0A
FEC1
0012
FEC0
FF4F
012E
009D
01DA
01C0
FEE1
0230
FF01
FEE7
FDF2
0066
FEBF
FE49
FEFC
016A
00EA
FF9E
FF3A
FFE1
FE8C
FECF
FF00
00B3
FFC1
FF41
002C
006B
FDF9
008D
FFDE
FEF7
013D
FE0D
0096
FF66
FF85
00B3
0047
FFBC
FF81
00B1
00E1
FED3
0035
FEA3
018A
FF78
FF35
FE81
00ED
00BF
0120
0036
FD83
FDD1
FF21
FE50
01DF
FFB0
00D5
FFBF
FFA8
002C
FE58
FE3E
FF14
01B4
FF7F
0141
0028
FFDB
0058
002D
FF69
010A
0013
FF7B
FFD3
FEE8
00FD
FFCF
01D7
01AC
FFFD
002F
FF24
001C
FF05
FF74
FF62
0156
FE6E
FFDC
01FC
FE2B
FE4D
FFDB
0067
001A
000E
0124
FECE
0065
FF4C
013E
FEE3
FF88
015E
FFFE
0005
003E
FF7E
FFFA
01D0
FEDE
FF89
FF9B
026D
0163
0088
010A
FE8D
00D4
FF07
FFA3
0061
FFFC
000F
FF4E
0113
0063
00BF
0050
FE72
0127
FFE9
FDAF
0058
0034
FE34
FF58
0144
0054
0047
FE62
FF6F
FD48
FEE6
FD12
FE7C
0101
FF26
0191
0023
00FB
00EF
003E
014A
00E6
0053
FF06
01C1
0059
0081
003F
FFD4
0105
0227
FF91
FFC7
FF71
FFB1
0103
004C
FF26
FE4C
002B
FF11
FFEA
0288
00F5
0209
FF68
FFDB
FD3C
FF8A
FEE8
FF98
014A
0090
FEE3
FF8D
FF11
FF81
013B
FF70
FFC1
FF6D
FFB6
014D
FF72
0171
FFD3
FFE2
FFEB
FF95
0080
FDE3
FF3F
01D4
0034
FFCF
FD71
FD06
016E
0040
0103
FFA2
01BA
000F
0127
FFDE
004A
FEE5
FD1D
FEC2
FF73
00FF
0240
0057
FE56
FE5C
0049
FF5A
FF2D
FF0D
FFE0
FFA6
FE4C
FE2F
00CC
FEA7
FFD3
00B4
0101
FFB4
012D
FF97
FF27
FCE8
000D
FEE5
0126
FEF0
FE26
FF41
006B
0179
0005
FFFF
FF7B
00D7
FF95
FF46
FF9B
FEFB
FFD3
00B8
FF41
0315
0043
00BA
0088
012A
0045
FEFE
FF5B
008D
FE61
0175
FF70
FE7E
FF44
015C
009D
00A6
FECC
02EC
FF69
0006
FEC4
FFAE
FF22
000C
FED9
0267
017A
0008
FE9E
FEC1
FD57
FE74
0023
FEAA
FEA8
FF24
FE24
FF69
FEEB
FFAC
FF7F
FE90
0182
FF99
FE67
FF3B
009B
FF92
FF27
008B
FF3C
FF2A
0076
001D
005E
002B
FF59
00E6
00AB
017F
FF97
FFB0
004A
FF03
FFCF
FFC1
FFFE
FF01
FEC5
FEFC
FF4A
FF8E
001B
FF70
FE79
FF93
FF30
FE82
FF71
FF89
FDC3
FF46
FD23
FDAE
0014
FF96
FF76
FF04
FEF2
FF18
FF94
008D
FF99
FF49
FFE8
FEE1
0065
FEF0
0089
0031
00D4
0041
009F
FFCE
FE36
0052
FE77
01E1
00A1
0081
FEF5
002E
FFB9
FEC9
008A
00E1
FDB7
01DC
FF15
00BC
026C
02E8
0030
FF2D
0078
0052
0042
015E
0002
0039
0195
FF97
01D3
01A2
0040
0038
FFDB
FFA7
0034
0077
0121
FFD5
0002
FFB5
0042
FDD4
00F1
FEFE
00AF
010F
FEBA
0101
00DF
0220
01E3
01B9
FFFE
FF1A
0267
0385
00C0
FF8D
00E2
FF58
FFF2
FFF4
FE8C
0130
01EB
0165
0199
0004
0001
0023
016C
FD96
FFE6
00ED
0279
001C
FF4F
FE73
FFB7
FF4B
FF73
FEA1
FEA6
FFA2
FEE9
FEC8
FE8D
FE88
01B5
FDD9
FF26
00E0
FFB6
FDC0
009E
FF2D
FFE8
FECB
FEA5
FE87
0069
FFA6
FFC7
0175
FEE5
FE8D
FFED
FF6B
FDC5
0058
FFDF
FF54
0093
FF27
0072
FE32
FF6B
FE13
FE38
FDBA
FF3B
FF1D
FF6F
FD78
00F4
FEA4
FE37
FDA9
FF03
FF3D
0021
FEB7
0166
FEEC
FF4E
0094
0010
FE45
FF38
FF05
004B
FFCD
FDBE
0078
FFC8
0130
0096
00BC
014B
016C
0043
00E6
012C
00A7
0007
000E
007E
0226
0046
0159
FE6D
0253
01EB
0075
FFE9
005F
0199
0150
FFC4
006A
00ED
0003
0000
0145
0141
01E8
FF2A
010E
FEB9
0088
FF6D
FF0D
FE1E
0095
FFC2
FF88
FF95
0055
010D
00E3
FFC0
016B
012E
FE8E
010B
FF51
FFCF
FF6E
FF84
000F
0031
0066
00B9
00E8
FF86
0014
00A7
019C
FFB1
0127
0034
FE4E
0080
005B
FF4A
0045
FF66
0133
0063
006C
FFE6
000D
0025
0110
0058
0070
0016
FFAA
0020
0022
00EA
0229
FF0A
FE65
0140
00AE
FF10
01F7
FFBD
0256
01BC
FFF8
01C1
FF93
0043
FEFB
FFD8
00DD
FFF8
0263
FF4E
00D4
00F7
0061
01D4
0183
0335
013B
0008
00E1
01FE
FFC8
0068
0042
FF6F
009F
0205
FFF8
FFC4
00CA
0040
FFF3
0097
FF07
00CF
FDFB
0214
FF4D
00D0
FF68
009B
0010
FFA0
FFBC
FF68
FED3
00B2
000E
FFD5
017B
0271
0129
0074
0053
003F
001D
02B9
00F6
FE63
0014
FEB3
013F
00B5
0058
FE45
013B
FEEF
FFE6
FF1A
FFDC
0138
017E
00A7
FFCE
FFFA
004B
FFE5
FF33
00E2
0153
008C
0077
0029
00BB
0069
FFDF
FE85
0129
FFDE
0266
FF17
00C7
FFCF
016F
FF34
0069
FE78
FE95
02DE
FF42
FE19
00AA
FFF3
0096
00BF
005C
009E
00B1
010E
00B1
FFC1
0088
FF9E
00A2
0178
00B1
FEE5
FD90
0025
0005
FF24
009E
016F
FEDA
FFCF
FEDD
00BD
0172
00BB
01B3
015E
FE0F
FFDB
FF27
02D9
01AA
01ED
FEBA
00F8
011D
FFB6
00C3
0076
018E
025B
FDC7
FF43
01F6
00B6
FD9B
00B4
0003
FE2C
0192
0074
FF3B
00BC
0167
0083
013A
FF68
00E2
FEE3
FEC0
0162
FE74
020F
0068
FF13
00F9
010D
00B3
015A
FF79
FF3A
0247
FEAF
00AE
FF48
009D
013F
FFFA
001A
FE7B
00F7
01A6
FEF3
FF58
00BC
FF95
FF5C
0097
00A1
00FA
0077
FFDF
025E
FECB
0089
FF5E
0081
00A5
005E
0236
014B
0066
FF94
00E8
01E9
FFCF
FEC6
003B
0161
FF4F
FFF6
00CC
015F
FDA7
FEAF
0197
00CD
001C
011F
FFAB
FFCF
00FD
007E
FF5F
01FE
01BB
01A0
FEC8
0010
0032
0038
0052
02BC
FF4E
FF70
027C
0125
003A
00A7
012B
00F4
00C8
0000
FFC8
01AD
FFD3
0028
0209
0277
0123
0017
FF12
000D
FF55
FF41
FFDD
0062
FFA7
01D3
0207
026E
001C
01FF
008D
FEDD
FEBB
009D
01EC
0012
0045
FDDA
FF05
01C6
0171
FEFB
0155
FD7D
FFBD
000C
0146
0088
00FB
0204
0162
00C7
0083
00E2
FFD0
FFD7
FF25
0111
012C
0183
00C5
FE8C
FF53
FFE4
00BC
00FD
013C
FEBD
FF02
013B
FFDD
0020
0030
0232
FF1F
00CB
FF5A
0032
013F
FEA4
0218
FFB7
01B8
00AD
007D
0194
FFE2
00F3
0031
0065
FF40
0042
016F
014F
00CF
009F
0190
FFF4
036F
020D
029D
0196
FECD
0048
024B
01CF
00DE
010A
FFF5
FF84
013A
FEA6
FFA2
0028
0129
FFAC
FFD2
01BF
FF7F
FFA1
FDC5
FEBC
0035
0151
FFDD
0145
014F
FF7B
0080
FF68
0042
013D
FF0F
FDFA
FDEE
FE38
FEDA
FE56
000F
014C
01B3
FE67
002D
FF09
0004
00BA
FECC
012C
FF88
FE47
0060
0082
FF3D
00BD
006C
FD7A
FF4F
FF22
FF92
0235
0079
FFF3
FFC0
FF46
00AD
0026
006D
01EF
FFE5
FFFA
00F3
001D
00EF
FF27
0060
FD80
FD6E
FF5F
0157
FF75
0110
0036
FF81
005B
FF2D
FFBB
FFC0
0066
002E
0219
008F
FEA6
0170
FFB5
005C
FF92
0249
0047
FF87
FF84
FFFB
FE46
00F5
0062
FF9B
0082
FFFA
0116
000A
00BA
00A3
0134
01C3
004B
FF74
FF94
0135
FF2E
FF58
0251
02AE
0029
0033
FF1C
0065
FE44
0014
FF32
00EE
FEE5
008A
FF30
00C7
FE19
009D
FFE9
FF22
0053
01FC
0014
00D3
FEB0
004E
005C
01D2
018C
FFA5
007F
007D
003F
0036
00CB
0080
013C
FE87
015B
0034
FFF7
FF70
FE79
FF74
FFF7
0187
FF8E
FF49
014E
0117
FFF4
021A
FFE6
FFF4
FEF0
0135
010E
FFEF
FE45
009A
FFE4
00C7
FFAB
FFAB
0114
FF83
00C3
008A
01DE
0112
0047
00BC
00AD
01D9
0156
FDB5
0079
01C2
FEDC
008B
00B4
0260
0116
00F3
FF96
006C
FED6
00B8
0062
0059
0065
01AC
FFA4
FF54
01D9
FF3B
004C
0063
0042
FF9F
FF9B
0068
0147
018E
001E
004F
FFE1
FFD8
FF7E
01DB
006B
FF09
01F3
FF61
0152
FFBC
0140
0151
0111
0025
0142
00BF
0077
00CD
FF36
0083
0151
FDCE
00F4
FF55
01F4
00E8
00C7
0197
006C
FFEE
FEF8
0033
0096
0017
FE72
FF9B
0148
FDA9
FFD8
FFBD
00EC
0004
0165
FF16
0115
FDD8
FF10
FF67
FFC6
0094
0029
FE75
FF5A
FFC3
FE09
FE1A
0167
FEE9
FEEE
FED8
FFE3
0008
FF5B
FFC2
010E
FFCF
FF74
FF76
FE7B
FF1D
00C2
001B
FDF5
00CC
FE9F
0010
01B7
0051
FF94
FE66
01D0
FFA7
FF2E
001E
FFF7
00B4
FE46
FE76
002C
FE61
FF91
FE22
FFFD
FFF0
FF3F
FDD7
0015
012A
FE16
022E
00F1
FF4A
FF7A
0010
FFDD
005B
FED3
FF81
FF3E
006B
00F3
0035
FF10
00C3
0063
0288
0049
00A0
0228
000B
FFB2
0190
FF16
FF47
FFEE
FFC7
004A
0091
00B1
00F5
0194
FFA6
FF37
008C
0022
016B
01BA
FF94
01B9
FFBC
FF4D
FFE8
00B7
00A7
FF59
00E9
0002
0121
0077
00CF
00BD
0181
004D
FE39
004C
FEA7
01ED
0051
FF26
0281
0076
FF7E
FF18
00AF
0058
FEDB
FF4B
01D6
FFE9
FF14
002C
0138
FEED
FE8F
FF0E
FF92
FE7C
00C2
FFEE
0006
0137
FF05
022E
0052
FE6E
FF0C
FEBF
017A
0104
FFB8
00AD
FFBF
0055
0194
0012
00BA
013F
FE4C
FF36
0013
FFE4
0055
0302
0005
FECD
00C1
FFC7
FFE6
0016
01C7
FF88
017D
0142
00C7
FF3B
0045
FFDD
FF9D
0207
00BE
FF81
FE67
0039
0381
014B
00A4
0109
00F8
FF72
00D3
0070
FFF6
FF62
FE11
00D4
009A
0129
FFB5
FF17
FFF8
FEEE
FE31
FE5D
FE37
FFCE
FFFF
FF51
FD84
00A7
FE75
FE30
FF76
FEFE
FE8D
FDF7
FEE1
FEC8
0075
00D8
FEE8
0041
FF11
00E0
00CB
FF5E
0048
002A
FE69
0263
0154
0098
0057
FFE6
FF94
0050
01D8
FE7B
00DD
FF57
0014
007C
0140
FF7D
FFFB
0011
FED9
FFBD
FF0F
FF7F
005F
008F
00C6
FFF6
FF52
000E
0098
01AA
FF8E
003A
0028
FF3D
00A2
0206
FFFC
0168
00F8
0043
FEF4
01D1
FF4C
FEAD
01E6
0060
FE0B
00CE
00EC
00C9
FEC9
FEDE
FED5
FEDD
0018
FF97
017B
000A
00FA
FE56
FED9
FFEA
01C5
FF13
FE5E
00D2
004B
012C
FE57
00FE
FFCA
0033
FF9D
FF8D
FF2B
FFA1
FFC5
FFEB
00C4
FF35
01C3
FEF4
FF62
FEE9
007E
FF81
0138
00A0
00D8
FE72
0015
FF63
008E
FFE5
023D
00B1
FFE2
0234
00C8
FF3F
019A
FF9E
002B
FF83
0148
FFB4
009F
015E
FEB8
0066
0092
00F4
FFBC
FF64
0288
0066
FFC6
001E
FF82
01FF
FF8F
FFC5
FF66
01CC
0137
01DF
00E7
FFF7
008F
005E
0185
0102
FFD3
01BB
FDCD
0045
FFB3
003B
0093
017E
0005
0150
FDFB
013F
00D8
FE86
FFCF
FFE1
0237
01B2
FFB4
004E
FF8A
FF01
00EA
015F
FF78
FFA4
FF1E
FF32
FE7D
0050
FEA7
015E
0060
FFD9
FE5D
0167
FF0B
01C9
FF3B
012D
FE7B
FFAD
FD93
004A
FF19
FE34
FF93
016D
FD72
007B
003E
FF35
0128
FFAD
FFA4
0036
0088
FFDE
0021
FFDB
0147
FF02
FF14
0049
0231
FF1D
000D
0024
FE2E
FE64
FEDB
FD8A
FF7E
FEA8
FEEA
0157
FECC
005D
FDB7
015C
0110
FFD6
007E
FF10
FFEB
FF01
FFB7
005E
01D8
0036
0057
FFD8
003D
00EB
00F2
0084
021D
0086
FFEF
FF11
FFA4
FDE9
011D
01C6
FF33
FF78
01D8
FFB9
FF7B
FF8D
FE70
001E
006C
0021
FFF6
0197
0049
FFA1
01C6
013D
FFF5
FEC3
FF24
FFF2
0042
021C
00E2
FFA0
0084
FF84
FFD3
018C
00C5
0093
FFBF
FF0A
0008
0232
FDE5
FED7
015E
00C4
0137
000A
020E
FFA3
FFA0
005F
FF87
FE08
0154
FF1A
FF3E
00A3
0059
FFEC
FEE2
00B3
FFBE
FF03
00C0
FF2C
FFEA
FFFB
0015
00B4
0107
0019
00AF
FF80
FFBE
FEF8
FFAA
FF74
FF65
FF5E
FE80
0081
0128
0160
FF91
004F
009E
FFB5
0120
FFFF
FFEB
FFB5
0182
FEDE
00AE
00AA
FFE1
0247
0056
FF9E
0098
0106
00F1
00E6
0098
0007
0178
FED4
0024
00E0
0015
FE85
0182
FF1F
01DD
FF45
0065
FE88
00DB
FFBD
FF42
018F
FFA2
00F7
0037
0073
FF6F
FF23
0031
003C
FEA9
FF0C
00CF
FFEB
FEE5
FEFD
FF2B
0133
00AA
FF82
FF5F
FE04
FF74
FEE5
FF9F
FFE5
FF04
FFE2
00F1
0054
FE6B
FE8B
01A1
008E
014D
FEA6
FF29
FEFA
0223
FD82
007E
0008
FFD5
FE6C
FFCC
0180
0119
FF06
0003
0005
FF2B
FFC5
01C7
0101
FEA8
0110
FE08
FF16
FF76
00F4
0086
FF25
FF83
FE0C
FDD4
0008
FF70
FFFD
FDE9
FF11
FFE3
FFCF
FFF0
0055
FE3E
FFC7
FFA5
0021
0052
FE22
0029
FFF7
FF45
00EC
FF1A
FFCF
005D
0116
FD12
FE59
FE35
00A6
FFE8
002C
FEE0
01E9
0003
FEDC
FF7D
FE19
00F9
FF0A
FE4A
001B
0009
FF87
FF29
FF6E
FFCF
FF0B
FF81
FF60
FDA4
FF4B
00A0
FF5F
0211
FF03
00C9
0025
FEBE
FFD3
0012
FFB5
02AD
01D8
FF48
FE70
01F9
008C
015E
0012
007D
0023
0202
0060
FF4E
00A1
FEFA
FFC9
005A
0027
0133
0162
006E
007D
00CC
0284
FF4C
01A4
0007
FEE7
FFCB
FF98
00D6
0098
008B
015D
01CE
00C3
0198
FF89
006A
006E
00D2
005C
0087
FE9E
01A1
FDA7
FF69
FF68
0078
0160
0168
003F
FEC4
0167
0062
FFC3
00BA
00BC
FF3D
0124
0291
01A3
00F8
0058
FF93
FF08
006A
FF98
00FB
0121
00E8
005A
FF75
00E5
FEE1
003C
00CF
FED3
01D2
FFFA
FFFC
FF02
FF82
FEE9
02D5
FE7D
008B
00A8
0015
0105
FE58
004A
FF49
004B
FFE2
FEB2
FFC1
001B
FF33
0061
FF10
FFEF
FFB8
00F4
0000
0060
0132
0153
0051
FFE2
FFD9
005B
FE7D
00E4
FFFA
FFC2
FE99
FE8E
FFF2
FEFA
00B2
FFC9
FEE0
FF9A
FF7D
006D
0029
0159
FFE7
025C
FF82
FFE0
FFD1
009F
FE56
003C
FF53
FE2A
FDCF
005D
FFC5
FFA7
FE3A
FFB9
00C8
00C1
010D
FF91
005B
FE7F
0128
FE88
002D
016A
FF8E
001C
FF79
00EF
FD9E
FF61
FEC7
01FC
008E
00FA
0196
01AD
FE2C
FE06
FF25
00D3
FE74
FFFF
018B
FEDA
00D2
FFAF
FFDE
00FC
FEF7
0063
FFBA
00E2
FF19
FEDB
0173
FEBE
003A
FF77
FCA3
FE5F
00B5
FFAE
02C9
0131
008B
0035
00CA
FEB6
0049
0066
00A3
FE55
FF5C
FF3D
FEDB
00B6
017C
001B
FF64
0040
01E4
FFFF
0047
FED5
00C9
0125
010D
FF6D
01B8
0014
FF61
01FB
013C
0101
00D8
0086
00EB
FF5C
FFBA
0067
FFF9
FE70
0103
00CE
009B
FE00
0197
01B9
FEE6
0052
FF4B
FEA5
00DF
FE70
015C
0162
0173
0077
000D
FF3C
FFDB
0135
FFB7
FFD6
0163
0023
00B4
FF21
FFA6
028A
FF20
012F
FEAE
FF3A
FEA5
01A0
0075
FEAF
FE82
FFEE
0053
FE34
FF37
FFDC
0047
FEF5
0189
002B
FF02
FEAE
FFA8
FF7A
FFC9
FFC4
FEC8
FEF4
003F
00DD
004C
FFBE
FFB2
FF72
005F
FEE8
0293
FDE4
FEF5
00CD
000A
FF84
00F6
FF90
FFCB
0210
011F
FFBC
009B
007E
FFEF
FE78
016C
FF5B
FF71
FFF0
FF7A
008B
FD72
0073
00CA
FF97
FEF6
FF85
00BA
00AC
FF19
FFFE
FDAC
FF80
FE79
FF6F
0219
FF7D
FDEA
003F
FEA3
FE79
00B7
FE38
FE3A
FF99
FFA2
FEEF
FFCF
006F
0150
FE4B
005F
FEB3
FF9E
FF46
FE9A
FDFD
00BE
FDEF
0040
FF5B
FFF8
00C5
01C9
0011
0041
FF60
FF9C
0072
FF7A
0101
FF99
FF41
004F
FF8F
00B5
FF7D
FDEE
FEF9
00BF
FDEC
FF08
FE84
009A
00DB
FF91
FE99
FF25
FF90
FFD9
0154
0185
FF97
0244
018C
FF29
0152
00C5
FF56
FFBA
FE66
0088
013A
008B
01C2
0231
000C
0309
00BA
FF83
00A8
023B
0065
0064
FF48
0050
01F8
0015
FEC0
00CA
FFAB
00F3
FFCC
011B
FEB2
00EE
005A
01B3
FF40
00D0
FF77
FDE3
FE7E
00EF
0039
0165
FF63
FEC7
FF1A
FF66
FFBB
00C6
0075
FFB7
0320
FFFD
00F0
00B3
FFE2
01E8
008A
00C9
0060
FDCA
0002
012D
FE94
FEE5
FFC9
FED2
FFC4
FF74
FFDA
0014
0213
0037
0075
FF7F
FD72
0210
FED0
FF9D
FF65
FFF9
007E
FF52
00FD
0025
FF0D
FEAA
0091
FE6D
FF10
FE89
000F
FF5E
0118
FFCE
FFB1
FDD6
006E
FFAD
FE0A
FECA
00AB
008A
017B
FEF3
FFFE
FFE6
FE9C
00C2
FF85
0097
FFAE
FF31
FE91
FFB7
FFAE
FEF5
0113
FFFA
FEF4
FCF5
FDCA
FECA
01F4
0138
FFF7
FE4A
015E
038D
000F
FFF8
00B4
00D5
FFD7
002E
0192
0305
00C9
000F
0111
FFEF
0140
0141
00FC
01A8
0049
FF70
00DE
FF41
0146
FEEB
00BE
FF33
0035
0018
01E7
FDCE
001C
FFD7
FF03
0028
FEFB
00BD
0097
FF32
FFEF
005D
FF31
FFB8
00B7
0212
006F
0050
FEBB
FF6C
026E
025F
FFAA
FFF9
00D6
FEB9
002D
FFF2
014D
00FE
0127
FFC2
FFE5
FE76
FFAC
FF29
0170
FDFD
FFE7
FEF4
00BE
FE6D
FF04
FFD8
00E3
FF89
0209
0048
FEC7
00D7
FD7E
FE5E
FFB2
FEE0
0142
FEAF
0047
FE76
003E
FFDE
FDA1
013E
FEB2
FFCA
FF61
FFB1
FF9A
FFFB
0057
0131
0061
FFBF
FF1A
FD11
FF9A
FE45
0083
FFC8
00C9
FE65
FF67
FF93
FF04
FEE6
FF1A
FD76
0013
005A
0107
FE8D
FEC5
00B7
FFA6
FEA1
FEE1
FEAD
FE11
00FB
FFFD
FCA8
0127
0121
FEEA
FEAB
FFCC
FF53
0047
FF50
FE33
021A
00AA
01C1
000A
0262
022C
01C8
FF7C
FF4E
FEDE
020D
0036
FDF5
010C
FFEB
0076
00FE
0048
009B
020A
00B8
0023
00DC
001E
00C7
02AE
FDF4
013A
0238
FF76
0042
FF3A
FE6B
009B
00A8
00F4
0111
00B7
FF04
0208
FFED
01C3
0143
FFD3
014E
FF30
FF36
016C
0162
015F
FF5F
FF20
006E
FFB0
00EB
015E
FF36
000C
FFD8
FE6A
FFAE
00C8
FC86
FF4A
FD09
FEB0
FE69
0066
FDE6
FF7A
FD93
0166
FF4A
00B3
00D6
010F
FE62
0067
00A2
00ED
000F
000E
FDE1
FF5E
FFAB
FF52
0119
FF5C
0025
FFAC
FFF9
FDB3
FFF8
0050
FEC0
FFA4
0006
0140
FF20
FF7B
FD6F
FE79
00C8
0122
007F
0007
0017
FF16
FFFB
0085
FF87
01E8
FB4A
FFF1
FE9A
007E
FDD9
0088
00F5
0080
FF4F
0072
01D4
FEEA
0061
FF50
FFA2
0006
FFB4
00B4
01BE
FE20
FFB1
FE6D
027F
FDA2
FE88
FFF1
0161
FEE7
011E
FEF0
0150
0164
0093
0010
005D
FF72
017C
0098
FFE4
FEDC
0108
FE17
FDF9
FEB7
FF34
FFF5
FF9E
011F
FF1F
FE7B
FEC5
00C7
FFBF
FFB0
FE75
FE5D
00D0
FE7D
00ED
00AF
0124
0044
FE66
FE24
FF6F
FED2
FE3A
FFE8
019E
0014
FEEA
FEF6
FEDB
0148
0096
0018
FEC7
003E
FEFF
007F
01AA
FF7C
00AB
FF22
005A
019F
0070
0124
FEB5
FE9F
0239
FF9B
010B
0085
0194
FF52
FFA7
FF5F
00E7
FF75
FF67
FF86
00F4
01E8
0015
FF6A
0089
0038
0197
FF6C
FE67
000C
00E4
00BE
FFA1
0091
0062
FF28
001F
0142
0194
0128
FEC3
01F6
FE5D
FEAD
0129
007A
00DF
FFF6
008A
FF9B
00A0
FF67
0051
0099
FE82
FFDA
0029
009A
FE73
001E
FF41
01AB
FFF2
FE90
FE6C
FE72
FD1A
0005
FE8A
FF4F
FFB5
000D
FF8A
FFFE
0152
FD42
0178
FE88
01AA
0047
FFFC
0086
FF06
0025
FE78
FEA8
FDC1
FFA0
FF82
FF8A
FFC9
FF0C
FF94
FF66
FD4C
FECA
01FA
FEA1
FEBC
00CF
010F
0055
FFA8
0064
0040
FE92
01D1
FED3
FED2
0189
005F
00DF
0024
FF2E
0044
019C
FFB8
FF36
FF67
FF95
01C5
FF5D
00E8
FFBE
005A
FF99
FEAD
00C8
FFBE
0076
002F
004D
0234
00DF
00AB
0102
FF37
00DB
FF4B
FEF0
FF1B
FF65
01BE
FDD9
00A4
00A1
013B
FFC6
FF49
FFFC
01B2
00C4
FFD5
FFC7
009C
0293
0174
0037
FF5E
0046
0088
00E9
00B7
002E
0147
FFA3
FF3F
FFD9
0019
00F7
FDAE
FF62
0051
FFBA
00A9
01A5
00DB
0086
FF37
0120
0159
FF6A
010C
FFE1
00A4
FF36
0067
FF2C
01A8
FF1B
0207
FE61
0036
00C6
00ED
0101
FED2
001E
01C7
0087
FF54
FF18
FFD8
01CE
FFCB
0116
006B
008C
FFC9
0189
FF29
00E7
0191
FF89
00F4
023D
00FE
01AE
FF75
00AA
FF34
FE38
00A3
00A4
0017
0284
FF9D
00B5
FF1E
0107
016E
0089
FDFC
01E6
0080
FE93
013C
FF9C
0162
039F
00DB
00F3
0083
FF64
FFBC
FF94
FF2C
FD97
021D
009D
FF02
0052
FF45
FFCD
FEF7
FFAB
0090
017F
0174
01B6
FE79
FEDB
FF3E
007C
FEC5
FE8C
FFC1
012E
008D
0119
FEB8
FFB4
016D
FED3
0013
FFEC
0013
00C1
0018
FE7A
FFA8
0056
0107
0009
010B
0062
FFE1
FF42
FFAF
0097
0052
FF8E
00E5
0008
01A0
0169
FFEC
FFF9
FF2D
0010
002F
FF19
FD63
FF42
FF9F
0048
FF98
0059
FEAF
FEDB
0042
002C
FFE2
00C4
FF59
009B
0168
002F
0039
FEF9
0076
004D
FE6C
019B
01DC
0122
018A
FFE9
0037
0084
00A2
028C
00D5
02E0
0194
01FA
FF85
FFCB
00B8
FF1A
FF81
00C7
013F
0054
0079
0102
FFC0
FE3B
00CD
00AB
FFB0
00F6
FFD0
00AB
FFAA
FF50
0187
FFC1
00AB
0212
FF46
FF93
00F5
FE93
0075
000B
FF58
011F
025E
0080
0205
0109
001A
0044
000F
FFAD
00A5
FFFE
01D9
01C0
009C
00A6
024D
FE80
02A0
FE7A
01E6
0138
01E6
0253
014A
0052
FEED
FF92
010F
011B
0232
0123
0083
FF82
FF5E
0117
00AB
010D
FF77
012D
006C
FFEF
FF16
00E4
0046
006B
FEEC
FFDC
01EF
0044
01BC
0114
FF2E
FED7
FFAC
012E
000D
00C9
00B8
FE96
00CA
FFC4
0193
00EF
0397
FE5A
0118
00A7
002F
FF9E
FE77
FEE7
01B7
FF7A
FF53
0005
FEFD
FFD5
012C
0150
FF5C
FEF7
FEFD
0037
FFC5
FEEC
FF21
00CF
01EF
0176
0095
FEDE
01B4
FEDE
0259
00BD
FF50
FDFC
FD5A
002B
0081
FF1A
00AA
FDF0
FDE0
0029
FE24
FF84
FF19
0080
FFCE
FFE4
0100
FE0E
FF71
0262
0157
0006
0000
0179
0001
019C
00E7
FF7F
FFF9
FE58
003E
0159
01E1
0085
FF84
FFA2
005B
FEC5
FF06
FF7B
FE15
FF89
003E
FE05
FEBA
FFBA
FF0D
FF7D
FEDF
FFC2
FDFA
FEAE
FE81
FEE1
FF33
FFA6
0143
00A6
002C
006C
FF8D
0080
015D
0135
FEB4
0021
FED0
001C
00CF
FF51
FF3F
FFD3
007F
012C
0054
FD70
FE69
FF29
FE34
FFF8
FFAA
014F
0053
FF7D
009F
01C4
0117
FEFC
0036
FF99
0087
01B8
FE50
0116
FF3A
FE3D
FF37
FE81
FFCA
009B
FE99
FE66
FF0C
006D
FF3F
0161
FEC3
013A
FEB7
FFF2
FFB1
0029
FF05
0106
FF5C
00DA
FFE5
FFE2
FF8F
FF22
FF36
0026
FEEB
FED4
FFB3
009C
FFED
FE88
FE69
FFDC
FEBD
FD4D
FECE
0050
0016
0053
FE38
00C1
FF22
FE9E
FE0F
FF99
FFFE
FE45
FDA3
FE79
004D
FF6C
0059
FF13
0182
FF05
FF99
008A
FFDD
FF97
FE3E
0066
FE4E
019B
FF76
FFAC
0119
FEF4
FF75
FDD9
0080
FF9B
01C3
FFEE
0052
00F6
FF67
FF86
00CA
FE87
FFDB
00BD
FEC1
FD18
02AC
0005
FF74
007B
FF6B
FE8C
FF3C
FF9D
014A
FF3F
FF22
FF65
FF34
0101
FF5A
FF22
0127
FECE
FF92
0037
0139
FF71
00F0
0023
FF82
FFE6
00CF
0006
FD99
0007
FFC6
003F
002E
FFB0
FE8A
00DD
FFDD
FEAB
FEDB
FF88
010B
FFFD
FFE0
003B
002E
00ED
01C6
FFA2
FF35
01AF
FFE3
0182
FF32
FFBA
01BC
FFA4
FF1C
FF56
FF5A
FF86
FF6B
FC81
FD61
0003
005D
00E6
FE85
FF7B
01D8
0059
FFBB
FF9E
FFB7
FF55
01C2
FED3
FF7C
00B1
FF11
00FB
FF4F
FF30
0146
FE97
FFBA
000C
0006
0051
FFBF
002E
019D
FEF9
01DF
FF0A
FFD3
0022
FFC9
FDAD
FE88
FE7A
026C
01D1
00DB
FF2B
0067
FFB4
00F0
003A
016E
FF8E
FFE0
01CF
FF2A
005A
0126
0070
FE4B
FF2D
00DC
FE09
0058
00F1
FFEA
00FD
00F1
FFFF
FF25
0004
FEC6
FFC8
009C
FEF8
FDA0
0198
0030
000F
FFD8
FE4F
FED5
FEA9
FF5C
FE98
FEAC
01F1
00B3
FEF6
FF37
FE54
FFEE
FFBC
FF3A
FF9C
FD3E
FF8A
FE42
0107
FF11
FEA5
FE1C
FF55
0062
016C
009C
FE48
FF9D
012D
00EE
FF90
FD50
0011
00AB
FF2B
FE35
FF5E
008F
