0043
0022
0032
FFE3
FFFA
FFF0
0057
0023
FFE4
FFDF
0027
002D
FFE6
0009
0015
0003
0017
002F
FFFC
0059
FFD4
0006
0037
003A
0018
002F
001D
FFCA
0016
000E
FFF0
FFE0
0018
0009
0016
0031
FFE5
FFE6
0022
002E
FFF0
0014
FFE3
FFDD
0015
FFF0
FFCD
001D
0025
FFE8
FFC8
FFFC
0041
0022
003C
FFDD
003F
000E
0023
0000
002B
0033
0043
FFE6
