FEAA
0156
016D
FF90
FFF6
0250
FEFC
FE40
01C8
00BF
0184
0033
00C7
0249
01D8
FE64
FF18
0034
02A3
FE63
02A8
FF15
FE05
00E1
01FC
FFF4
FF7B
FEB2
0220
0253
00E3
023D
005B
FF1D
FF25
0001
00F6
FF9D
02B4
FF86
FE38
0021
FDE0
FE9D
01DC
029F
010C
FF7D
FFE2
FF9F
FED2
0076
003A
007A
02A8
0053
FF80
FEDE
003B
02C8
FE67
FFF4
01B7
00B7
0118
0007
0073
011B
FFB5
0045
0124
FFAC
025A
0260
0192
0203
0187
FE8E
FDBA
FE1F
0151
015B
01FC
0114
0184
FE23
0039
01FA
0238
008A
00BD
007D
FE31
0159
FE60
FECF
00E5
024D
00F3
FF98
FF9B
019A
FF3E
006E
036E
FEDC
FDDC
FE59
0089
FFB8
0043
0193
0135
FEBE
0142
FEC2
0174
FE75
0056
01DD
0259
00E3
FED7
FF31
01AF
FE87
FEDA
FEBF
0081
0181
028C
FD96
FE04
FF4D
0271
FECC
FF57
027B
0240
0185
0199
0052
0287
0140
0139
018E
0006
FF26
0101
FFDA
0265
0275
00AC
FF3A
FE35
01A9
FF1F
FF3D
0276
0024
0216
0125
0058
FDED
FE14
0123
0196
FE66
0084
0024
0288
015F
013E
000D
FF16
0150
0115
0175
024A
FF95
00F0
FF2C
00A3
025B
FEE2
FFCD
FF63
0206
015E
0169
01DC
0028
FE75
01DF
026B
0127
0202
014B
021E
00F7
0072
FF20
01F8
01C8
0171
FEFF
FDE1
FFDF
FF9C
0016
0060
FEAC
00FC
FF85
FFA4
014F
FF96
00F2
FE14
0099
FEB8
0115
FFC4
FDF0
FDAB
01D2
00B1
FF34
FE76
029E
FFD9
FE2D
FFE9
01F7
FF8D
FFDC
001D
0005
FEB1
005A
FF76
01F4
023F
0062
0207
0151
0044
0229
02EB
0242
0240
0225
0048
01AA
FFBE
006B
FD82
011C
025B
0116
FF4D
FE81
0146
0113
0076
006C
0133
00D7
FDAF
0025
FEC9
FEBE
FFAC
FE80
0339
FE8B
00AB
027B
FD39
0063
023E
FFAA
0192
010F
0158
FED6
FDD9
FF71
FE24
FE4B
0257
01D0
017E
FF79
001E
0099
01C9
FF34
FEB6
0252
006E
02EF
0166
018C
0266
FFD4
038B
00A0
FFD8
0085
0105
0167
FF8D
019F
010A
FF49
0009
FD94
000D
FF38
FDFA
FF08
FEC4
01D5
FDCD
0117
FCE8
01AF
FEEB
0022
FFF2
0214
FF8B
FEB4
00F3
FE19
013F
00B4
001B
026F
FD8C
FDA9
FDF1
0000
FFC9
0056
FF62
FDFF
FE25
FE4D
FE6A
FF60
FE65
FDEB
0115
FEED
FF58
FF55
FF77
0165
FF79
00FA
FFA6
0065
FFC7
FEEC
01C8
009D
FDA6
FDB1
FF3F
01B2
FFEA
FE87
FE14
FE73
FDFE
FDE2
0190
0079
0019
FEC1
FE2D
027C
