FFB4
0068
0014
FFA9
FFDC
009B
FFE7
0024
0015
FFF8
FFFC
0040
FFD9
0024
0014
0022
0035
002B
0047
00BC
003D
002A
FFDF
FFF5
002B
FFE6
002B
006D
0025
0025
000C
002A
0009
0013
0025
002C
0025
0031
0072
FFD7
0049
002D
001F
0036
0011
002A
FFD8
001B
0021
002A
0004
0007
0032
0034
007D
001A
0053
0017
FFFD
004F
FFF5
00BD
00E8
003B
