FFBA
0090
001E
FFA6
FFDC
00BD
FFE7
0026
0010
0009
FFEF
0042
FFD7
0068
0022
0064
004A
0034
0068
00BE
004E
0046
FFED
000E
002D
FFF0
003C
0083
0045
0047
000B
003F
001B
0030
0036
0039
0038
004B
008B
FFD7
0063
0032
002C
0036
0010
0042
FFD7
001D
0023
002C
0020
000D
0026
0040
0092
001C
0065
0015
FFF9
0076
0005
00BA
0113
004B
