FFD1
FF56
0009
00BC
FE21
FE56
004F
0169
FFCF
FE6D
0031
FF5F
01D4
0094
001F
0079
0167
FD72
0126
FF67
FFBF
FECD
020C
FFF8
FF27
00A5
FEF0
FFB2
003C
FF84
0061
FEB6
FFC3
FE9F
FF55
FDDF
0035
01D9
FE24
00C2
FED2
FFA4
FEF2
01AD
014A
0062
FE61
FFE8
FDE1
FE88
0020
FFEE
004A
004E
001F
0111
FCD2
FEFE
FFFA
FF3C
000D
01E0
FE88
0109
00D9
013F
FF56
FDDD
0117
00D9
FF52
0153
FFB3
FF31
0102
0131
FE97
FFF2
019A
00A7
FFE3
0201
0122
0151
00FB
0048
FF3C
01AA
FFF6
026E
00C1
00FC
FFB4
0196
010A
00E1
01A8
FEE4
00F1
0124
FE8C
00F8
0265
FFE8
004D
010F
FE26
FEBF
FF73
0065
FFAD
00A4
00E9
00E1
011D
FEAA
0232
0116
FF86
012E
0066
01CC
01CE
0050
FF78
002C
01CA
0032
FFCB
018F
0000
FF70
FFF6
FC74
00A6
FDE1
0169
FD61
FEB8
FD18
FF64
FDA5
FF73
FEBC
FE4E
FF65
FF83
005B
00EA
FF4B
FEA6
FFB1
006B
FE28
FDEB
FE33
FF41
FDAB
FEF3
FE54
FFFF
FF1B
FEF9
FF89
FF6E
00D4
FFC7
FF72
FEB8
FE79
FE2E
FDD6
002B
FF29
FFD9
FE67
FFE8
FF66
FF85
FEAB
FF55
FF15
010E
0043
FF24
FF2C
008B
FDB9
FF15
FC93
FEFB
0084
00B2
FF67
FEA3
FF5E
0063
FE58
FFEA
00F6
FFCE
001F
FF92
FF69
FFF8
FFE6
FE70
005B
00F5
0174
FF2F
0123
FF44
FE09
FFA0
0056
0043
FF70
FFF7
FE69
FE61
FEC8
FFEC
000F
01D6
008E
00EE
FFE4
0059
009C
FED6
FFD4
FF43
0072
FFE2
025A
FE9A
0200
00A9
FFAB
FFAF
FEA3
FF5C
FEA8
014E
02AB
00B4
01EA
FFB1
FFF2
00F1
0011
FF8F
FF02
FE0E
FF97
0007
FF8F
FEC9
FEF2
FFBF
FDE0
FD9E
FE68
FFCD
0079
FFB9
FF7E
FF86
FF0B
0078
FEED
0008
FF10
0016
02BF
00A5
01AE
FE68
FF9A
FFF3
001D
FEB1
0093
FF1E
FFFF
00E3
FF4A
FF32
FEFE
FEE9
0110
0090
0103
FFB3
FE1F
FEF4
FEAD
FE33
0048
FFD9
00F2
FFFE
00A9
FFE0
FFB4
00C4
FEB2
FFC1
FF96
01D7
FF0F
FF36
00E7
00C4
0051
0120
FF32
FF46
01A2
0161
FEF6
FF28
FF4D
0041
FDF2
FF0F
FFCC
FFAA
FF42
00D9
FF05
FEC9
FE68
FE4B
FEB6
01DD
FF0D
FEBB
FFD5
FF7B
0132
003F
001B
0093
0004
FE45
FF3B
FED5
FEA2
0088
FF4C
FFB5
FE5B
FE07
FD49
00F1
FEF9
FD8A
FFA4
001A
00C4
012D
00A7
FF44
0140
FE16
FEA8
FEFB
0097
FE7D
FFF6
FDA7
01F7
FFFE
FF24
FFC8
FFF3
FFA8
FD9C
FFE5
FFC5
FE60
FE68
0084
0007
FF61
0194
FE40
0186
0035
FFD0
0083
0053
0138
0100
00B5
018A
FF2F
0078
FF6F
FF02
00AC
007D
FFE6
00F2
0028
00F9
FF98
0144
0021
006A
00DB
FF41
FDE4
011D
FF77
FFB6
023B
FF79
0068
FD51
FF6C
0180
01C0
FE0E
FECD
002D
FE96
FF76
019F
01C0
001B
021F
0167
FEB1
001D
FF4C
FF91
00F4
FF0F
00DC
0018
FF06
FF9A
00FB
0213
FE61
FEBC
004B
FFF6
0106
FEEE
FFC7
FEC6
0082
008B
FF7A
FFBF
0035
0188
0058
FF83
0316
FE3D
0016
FFBB
007D
0214
0071
001A
0074
002E
0172
FFC6
00A5
0137
01A9
FF51
00C0
FDFD
0262
016D
007D
00E2
014D
02CC
FFEB
0167
003F
00A6
0008
FFC9
01BF
0018
FE9A
0056
FF88
FF66
FFC7
FF01
FE99
013D
FFFB
002F
FF05
0083
01CF
0281
016C
FE87
FFF7
00F8
FEF7
FED4
0028
00DD
FF6F
FF13
00EA
FFAB
FFFD
007C
0014
01D2
FF66
00D3
0025
002E
FDFA
FF95
FF03
FE9C
FDDD
FF1C
0150
FF1A
FF9E
00D8
006A
FE59
FEC5
FE64
FF7C
0043
00B6
FF66
FF1E
FD7E
0015
FF26
0014
FE9B
0069
FF59
FFAD
00EB
FF8F
FF5E
FF8A
FF91
008C
FF14
001A
FDB0
FE45
FF8F
005B
FE14
FF65
FF4E
004B
FFCC
FD93
FD82
00AB
FFA8
00D9
009E
FF93
00CF
007A
0036
FF73
01C5
0013
FF37
00FE
FEF4
00C3
0032
0172
00E0
00E9
0056
FE71
002D
FF69
00F9
FFE1
FF42
FFCD
FFB2
FF63
0081
00CD
01BD
009F
00F1
01C3
018F
016F
0076
0129
01F9
0124
000E
001D
FFB5
FED8
0097
0088
FECE
002A
0053
0036
0010
FF12
FFE1
006E
FFBE
01F6
FDC0
FFDB
0025
0196
0131
00C4
0145
FFB5
FEB8
FF7A
FFB4
FD24
0017
FF97
FED0
FFA1
FF8B
0083
0095
FF0D
FFB2
014A
FF47
00CF
007D
007C
0174
FF70
0177
005C
0144
01AC
011D
01A2
FED8
0003
FFDA
FF8A
000B
FEB6
0145
01D3
0025
00EF
FF00
0095
FFE2
0075
0044
FFF1
01BB
FFF7
01D4
0018
0093
FFE8
005B
FE26
FF8C
016B
FFB6
00F6
0071
FE44
013F
FFFA
FFED
FFFE
01AA
0126
02E0
011F
000B
00E3
FF8E
FF97
003F
FFD3
FEF7
FFE5
0019
0326
FF88
0040
02ED
FEE0
0224
FFF1
FFF7
FFE1
FE11
FE34
FE65
FF06
FEEF
01A1
FCA2
0084
FF0F
0092
FE69
FF8A
FF53
FF81
0009
0068
FF27
FEDF
0001
FEA3
0164
FFBA
FEEA
FFDF
0055
01CF
0031
000C
0118
006F
010A
0097
FDF4
0158
00A0
003A
FCBC
FF6A
FE8D
FF35
FEA0
00D7
FF1B
FFF3
015F
00D6
0133
FE68
FDC7
0075
009F
FF8B
FFD0
FFA0
01FE
FFE2
FFEC
FE33
0028
FD90
FEAE
FE0F
FF34
00F8
001E
00C2
FFE6
FF60
FF07
00CA
00AA
FDDC
0013
0069
FF7A
0031
FFCB
0123
FF67
001B
0015
00B4
FF4C
FFEC
FF24
FF5C
007F
00A2
FFC2
0027
00DE
FFD4
007D
FFD8
00A0
FF5D
0177
0075
00FA
FF1D
FDF4
FF46
FD87
FE90
FF12
001B
FF6C
009B
FEB9
001C
00AC
FE46
FFB0
FF1F
FF31
FF74
FF06
FF13
FE5E
FCB4
0034
FD0B
FF4D
001D
003E
FF88
FF35
FFA1
FE73
0023
0057
FF61
0198
FFC8
FF96
0067
006A
00D1
FE55
0019
001C
FFD0
FE13
FE90
0082
01B5
FECA
FF5D
FEDF
FF68
FE30
005B
0047
015A
FE8D
FF37
FF8E
FDA1
FE7C
0007
FF0C
00EA
FE0C
FE11
0228
FF69
FE98
FED3
FF24
FD44
008B
FDCB
FDB1
FEF6
FE17
0037
0167
0005
00CB
012E
0014
000C
002C
FFF8
FEA6
01FA
0219
FFE9
FE5C
0227
009B
FFB7
FFE2
FFAF
017D
01C5
0165
FEBA
00C9
FFF2
00B7
0108
0280
004B
019F
00A5
0020
FF7A
012F
005F
FF52
01DF
0121
FEAD
FF51
0088
FF18
010E
008E
FEE2
0028
01B9
0053
00C5
FF9E
0140
FF43
00D5
0134
008A
00B4
FF12
FFA2
FF8B
FFA4
008D
01B9
FF21
0003
FFC1
FEEC
FFD4
01D1
FF04
FFD6
0071
FED7
FF42
FFD6
FF25
00C5
0038
FDAB
FE44
00EC
FDB5
00E2
FFF2
FF64
008C
FEF2
FEBB
FDC4
01BB
FFFA
FF8E
FF0D
FD96
01C9
FF28
FE11
FF92
FFAF
FE64
FF7E
FFD6
FE88
FEA6
FFBF
FEC8
FEB0
FFC1
FF0D
0016
0009
FF97
FFE9
FE42
FEE3
FFC7
FE33
FDF7
010C
FEC8
FFE8
FD75
FEDD
FFB7
FEEB
FE7E
FC9A
FCFA
FEB8
0196
0056
FEC2
FE95
00C4
019D
FF25
0069
01D3
00FC
01B6
FEF8
000C
FF73
0017
00B5
FEA3
0181
FF36
00E1
FEE7
00F0
FFB2
0107
00C2
004C
FF5C
FF9E
0081
FE9B
00E8
0137
FFB0
0151
008E
010B
FF63
001E
00F7
0017
0166
0017
FF90
FF8D
0141
00FA
FFC2
0098
0085
FFD3
FEE5
00D9
FF8D
002B
FEF8
0153
FFCC
0103
FFC8
001C
00B8
00E7
FFC4
0017
0177
FEC2
FF2E
FE66
01AA
0038
00BE
0010
017A
FF74
0000
FEA3
022E
0133
00B2
0071
FEBE
0166
000F
009D
0140
FFBF
FFF3
FF62
FEA4
0005
02AE
005F
FF4C
FF7D
006D
006E
00F7
0146
FFA6
0082
0031
02AA
FE79
005B
00AF
FF2E
0054
00DC
009C
0092
013A
007D
FFE9
011A
FEF6
0177
00A9
FED6
FF72
019C
FF23
0158
012A
026A
001C
030D
FE9C
FF52
011C
02CE
FFD2
008C
0015
0084
FF1A
0073
0088
FFFB
01A4
0076
FF97
00DD
01DB
FFD0
FFA6
0242
FFAF
0355
FF7F
005F
01B6
0148
0036
003C
FEC7
001C
00DE
014F
0205
0049
0188
02AE
00CA
0054
0190
00C2
FF2E
0180
015D
0179
01A1
008E
0025
FFF5
005A
FFF5
0163
016F
FF85
00D5
02EC
FEE6
FF84
007C
0173
FF89
FFF7
016D
FE8D
0040
0050
01C1
006C
FF90
0022
FE60
01F7
00B5
01E9
FDDF
003F
FED9
002F
FF4C
020E
005C
002E
00EC
0110
017B
00A6
FFBA
0084
FFF5
0046
014A
FF62
00EF
0084
00FB
0049
0109
00C6
017D
00F2
FFCB
0073
0009
FDF8
00F6
0194
FFF1
FEF9
FFE5
FFD6
FF43
FF72
FEAA
0166
FFE7
0178
FFC4
0078
FF9E
00CE
00D0
FE0E
0004
00B5
FF52
005F
0236
01C4
039E
019A
00C0
00CA
01B0
FF9C
00A6
011F
0005
FFF5
FEDC
01A2
FED0
00FD
00A8
FF3D
006B
0123
FE96
FF83
0095
0163
0269
FFF4
00D8
00E5
0149
0058
00B1
018B
FFB8
0164
FEAE
FE23
026F
00E4
0093
005A
003D
0247
0119
FFBA
FF86
FE8A
00E9
00C0
FFF4
0145
009B
01C0
0037
FF9E
FF70
0166
02BE
FF0B
0121
00A1
0089
00F5
0124
00DA
01AA
027E
0358
FED3
FED6
01B5
FF04
FF4F
FEB1
01D7
0045
008D
007C
01AE
FF47
0038
00FA
00AB
FFB4
FE96
01BB
FFD7
0081
0264
00F1
015D
FE81
FE94
0015
02F9
019A
00AF
003B
00D1
0079
00C1
01A6
00D4
000F
0127
FF3B
FFE1
019A
FFD0
00D2
00B6
FFF7
01F4
0296
0288
015D
01F3
0064
00E8
0262
FFFA
023B
0176
011C
FF00
FFB4
02E0
00EF
02E0
0142
0132
01DC
00E4
00CC
0068
0123
FF98
FE90
00FF
00A5
FF75
002E
00A6
00B1
00C5
0027
FFB2
00D2
000A
0060
005B
01E9
0104
0072
0218
017C
FEF4
0007
0247
FFA5
FF4E
005A
018D
0100
0021
FF64
018C
FF4D
027E
FFBA
FFCF
00FE
00B7
FE33
FF90
0115
00AC
FED9
0004
0027
0289
000C
0087
013E
FFCE
00EB
01F1
0128
008C
FD6C
00EB
FF2D
0146
FE45
0263
0107
01C2
FF8A
FEEA
FF96
0169
0178
0129
00B0
FFB1
0139
010C
0149
00F3
FF98
FE02
FF83
FE73
012B
02CF
FE0B
FF9C
FDB7
FEA0
01A2
00A9
FF93
FF54
FEAC
00EC
00B1
004A
007F
FEC4
010F
FE81
0050
FF3F
017B
FED5
FF3E
0138
016A
FEF7
FF06
007F
FE5C
003A
0066
0051
0033
FF69
FE5B
FFBB
FEFE
008B
007A
FEEC
002F
FF1F
FFA8
005C
FFA2
00BB
FF79
FDD9
FFD8
FED4
01F2
00F7
FEAD
0076
00D1
FF1D
0069
FECA
008A
018D
0240
0025
010F
00C9
0049
FEBB
FFFA
0165
00C2
008C
0056
0023
004F
FF8C
022D
00C3
FF62
0160
FF72
005F
00E2
FF52
0185
FFFC
FF0E
FD4A
012A
01E1
0194
00A7
FFD9
0008
00AE
00A8
00A3
FF54
FFB3
FF0F
FFFF
0146
01E5
0116
00CA
01CE
00E8
0071
0093
0119
FEDA
FF41
FE72
007E
0131
0001
0050
FEDB
FFE3
0393
FFA4
0071
0011
0048
0218
00E2
FF1A
00D4
00B3
00D2
FF1D
007F
FFAD
FFF1
014C
FF43
0089
0008
FF03
0058
FF71
009A
FF55
0122
0190
FF30
0093
016C
0003
FF4C
0122
024F
FEE3
0252
0240
028C
FEBD
00CA
00DB
00D1
00A5
FF93
FF8B
0141
0068
FFF4
01D5
FF8A
01AD
000A
005C
00B3
FF0E
0171
00A5
00DF
01AA
00AD
0021
0134
022D
FE0B
FF86
00B0
FF07
FEF7
00F9
0186
0016
004D
FF86
023F
FF6E
FEDC
FF72
0092
019F
0228
016A
0100
FEDB
0220
FE9B
FF73
FF3E
FDD3
FD9A
019E
FFF6
01C1
0147
02A7
0169
0098
FF3B
017A
01F5
FF63
00AC
00A8
01C0
004F
00E1
FDF8
0091
028A
00B2
009F
001B
008E
006C
FEDC
0043
0088
0109
005A
FEE4
01AB
FE52
00A8
0042
01B8
0195
FE52
FF88
FEE0
00C7
FE9E
FEA3
0000
FEB0
FD4F
0021
FEDF
FF7C
FD80
00AF
FF4E
FF95
0097
FE60
FF68
FF0E
FEDB
FE74
FE72
00F7
FF8D
FE2F
00B1
FEA0
FFAB
0175
FE94
0048
00C8
00CD
FFF1
FD12
001E
FEB5
FF75
FE0B
FF3C
FF7C
FFF7
FFC6
FF30
FF59
FEA4
FF1B
FFDA
FDFF
FC78
FF63
FE98
FFF9
FF7A
FDE2
FD7C
0110
FFE2
FF47
FC52
FE07
FE71
00A9
0075
FF0B
FEC0
00D9
FFBC
FFCB
FF6F
0111
01B3
0021
0233
FFFA
01D6
FFB8
FF32
0003
FF21
0147
00BC
01A6
FF01
FE72
00AE
0209
FEFC
FFB6
00B8
0020
00AC
0116
0047
0063
FEC8
007C
00C4
0088
0010
01A3
0157
FEA1
FE5F
0209
FF3C
FFBD
014B
FEF5
009C
00C3
00C9
FFCE
FFC3
012F
00E7
015E
01FB
00C2
0035
FEF2
0171
0101
02FB
0130
FED5
00DD
0192
00F9
FF8E
FF56
00AE
02A5
FF55
009A
00EC
FF27
0084
0021
0007
00AB
01A4
00E7
00A7
0081
FF4D
0082
0141
FFE3
0207
FF77
0118
FFEB
0139
FFF0
FECB
FF4D
00A2
015C
0271
0097
002C
022B
025C
FEAE
FEEF
FF94
00D6
00E9
0042
0039
0134
FF75
00F4
FEA3
0076
00D5
002D
00BD
0080
0244
FFCF
0104
FE89
0196
0050
005C
FF4F
013D
00E4
FE53
01CB
FE83
0057
FF5D
FE86
FFB7
01E3
00FD
FEFF
00A5
FF4F
0105
00D1
00A3
FFB2
008C
0247
FF38
FF2A
FEFB
FFB0
00FB
0012
007B
0034
FE45
FFCA
001C
FFF5
FF90
0044
00C1
0060
FF89
0095
FDD5
FFEF
FDA0
0076
FFAE
FF40
FE3C
FF15
FF8F
FF69
0081
0009
FFD9
0146
FF5E
008A
00DC
0135
FEC2
011C
FEE5
0076
003F
003D
00F2
018A
FF59
FEC7
0182
FF62
FF0A
FF54
014D
FF6E
FFA8
009A
FFD2
003A
FFAA
FFCD
FF7D
FF94
FF03
0034
FF3E
0053
009F
FF3C
FEA3
FFE3
0084
FE5B
FF11
FEBC
FFCE
FF57
FDAA
FF22
FFD7
FFC2
FF35
FEEB
FED7
00C5
FFF3
FD99
FD4E
003D
0069
FF2C
FFE8
FDE9
FEC8
FEE2
00F6
FE3A
00D7
0156
FE5C
FDE8
FF54
009E
FE92
FF9D
FF0E
FF71
FFE9
FEC5
FFFB
FDE2
FEA3
FF35
007D
015B
FF77
FF89
009A
014B
009B
FF35
FFB6
FF8E
01BC
0158
00A7
FFF7
00FA
00CA
FF27
FF0E
01C1
0153
02CD
0067
00DC
FFB0
010B
00CB
FF3D
00D9
003E
0064
004F
015B
FFBB
00DF
01E1
0013
00FB
FFF8
FFE5
008E
FF76
0078
FFAF
FF8C
024B
0085
0199
0244
0071
015B
01B0
012D
022A
0277
FF1F
FEEF
0143
0148
FEB3
FE50
FF9F
012A
01EF
FF43
004D
FEE7
FE68
FFC8
FF03
FFBE
0089
FFB0
0052
FF95
0178
FE4A
FFF7
FE68
FF28
FE5A
0004
FE8A
FEB2
006F
FF51
FE3D
022E
FFFD
00F8
FEA3
FFAD
FF3F
FFA0
FFB6
00C0
FDCC
FF2E
003B
008A
00EB
FEA2
FF93
FEC8
0020
FF53
FE75
FE6B
FFA6
0031
0010
005D
FFCE
FEE1
FF70
0008
009B
FD8A
FEA6
FF76
01D1
000D
FFA1
012C
FFC0
FFBC
FEF0
FE40
FE7A
FFB6
00E4
FEF5
008D
FF71
0098
0045
FE93
009D
FEF4
00B3
0165
0053
FDB0
00E7
002A
0160
0106
FFB1
01E5
FE1F
01CE
FF99
FFE7
FE52
0022
00F6
0009
00AC
FF3B
FFC9
0007
00E6
FFBF
00F5
017D
01E8
0166
01E0
00A6
01EF
0014
FF7A
00E7
0075
FDE3
FFFE
00D6
00C3
FFD7
0135
FF7D
FFCF
01CA
02D3
FEA9
01AF
000C
0149
007E
004A
0271
006A
FE40
FF63
0195
0129
01C9
FEFA
0234
FF9B
FFB3
00BB
0186
FD8A
001F
00A6
005A
004A
0006
FE72
00F0
0156
0102
FFBE
00DD
00FA
FF68
FF03
000A
0157
001B
FF13
00AA
FF20
FF76
017B
FF98
FF99
FF6C
0004
FF8A
00D2
FF63
0039
0187
FECF
01CD
00A7
0183
FF65
0061
0005
01DD
FFB7
FE8A
01A4
FEB0
021F
FE51
007F
0147
FFB6
0022
0064
01DF
0110
0023
0126
0033
00BE
FFE0
FE6F
FD2B
00B2
0048
FEE6
FDF6
FD7D
FDCB
016A
FF1F
FDD0
FF55
006D
0064
FF14
00DE
FF4B
FE6F
FFA5
FF7E
FD77
0013
FFB3
01B9
FF0C
FFC7
FFB9
012B
003E
00C0
FE45
FDEA
FEBC
FF09
FFB8
0077
FE49
0057
FFE6
FF9A
00E3
FFC6
FF16
001A
FFE8
FF7E
FF17
FF76
FDFA
0073
FE8B
FF73
0082
FF9A
009A
FE6E
FEDD
0036
FD96
0052
FE58
FE7D
0034
01C1
FDF5
FE7E
FED4
0178
0055
0002
00AE
FEC0
FFAF
007A
FFE6
FEFA
FFEB
0031
FF1F
00EA
FE88
FEB7
FCC8
FE8C
0092
FE17
FF9C
FF49
FDD0
FD94
01E8
FF0E
FE87
FE84
FE69
FEBD
FFED
FF60
FFBC
FEC8
0044
00BD
00B7
FF20
FEAC
0029
FDA1
003A
00B9
FEE6
FD91
017C
005B
FF88
FFDE
000F
000D
01AC
01D1
FF00
FF01
FFE7
FE88
FD75
01B5
012D
0019
FFC7
0026
01B6
00EB
00FA
015A
0130
FFD0
0012
FE92
FFD2
0077
00B6
0061
008C
FFCE
00CE
00C7
02A8
FFB1
0053
FF24
015F
0110
FE6C
00C0
FFBE
004F
00B9
FF94
FFAB
026F
0099
0216
FEFC
0141
00DB
FF6C
FEF3
0001
017F
0069
FF65
00A2
FF6C
FED8
FF99
00EA
00EC
00BA
00F7
00A1
FF2B
0306
0282
000E
0258
008A
02B8
037E
00F6
FF4F
00A4
000D
FEE5
FF5A
FFBD
00ED
00E5
0208
FF8C
FFD9
01CC
FFD5
0036
0190
023F
FF4C
00CD
0004
01A3
FF49
00BF
022A
00DD
034E
025D
FFE5
FF75
009C
FED2
FFAD
FFB5
FF25
FFF2
0158
00AD
00A9
0079
0053
017C
FED6
009A
FF2F
0047
FFF6
FF1B
0045
00D0
FFC4
00FD
00AF
00FC
0065
FEF7
FFA8
FF35
004A
FFA4
FF1B
FE52
0027
012E
026B
00BD
0057
FDCB
005C
0037
00D7
FFB9
FF34
FFAE
0033
FE88
028A
FDE6
00E0
001D
FF29
FECE
FDAC
FFD6
FECE
0143
0156
FEE3
FF6F
0023
FE9B
FFAE
005F
FFD6
FF01
FD67
0097
0004
000B
00B7
FD1B
0154
FF1A
00EC
FE69
FF36
FE56
FF63
FE3E
FE74
FEFB
020C
0023
FFB2
FF63
FFC2
00DD
00C2
FD98
FF57
FEB4
FFE5
0063
0141
FF8B
FF6C
005D
FF23
FD57
FFCE
0069
0116
0017
FD7D
FFF9
0031
FF15
FF97
FEE8
0061
00D9
FF9C
0000
008D
FFDF
FF65
FDED
00A6
023E
00C2
0109
009A
0156
0093
0146
FF75
0079
0046
0080
FF8E
008B
01F1
0173
FF30
0302
FF6A
01C7
0036
FFBD
FF17
011F
00C4
FF5A
0126
0076
020B
0029
0047
FFB6
FEB0
FF94
FEE9
0059
00B3
0021
002B
004D
FFBC
FF47
01EF
FE43
005A
01BF
0119
01E7
FF83
FFE7
00E2
006F
FD91
FF71
FDBE
FFF0
FFFA
0071
FFC7
0059
0027
FFC3
FEFD
00FC
FF71
FFC2
FEFA
0028
00D2
0042
FFEF
FF56
0278
0049
0068
FFC4
008D
02B3
FF9D
FF9F
0039
FF66
01DB
00DF
FF33
FF60
0244
00B9
FE7B
00C0
00C4
FF2E
FF4A
0234
FF87
0079
FFB5
001F
FF1B
FF2B
FE43
FE16
FDF3
FFC4
0093
FFF9
FF73
0066
FE05
FE2D
FFB1
FF43
FF61
FF1A
01AB
FF9E
FF8A
0170
FF65
0004
FFD3
FF37
FF7B
022D
FFC4
00FE
FEFF
FF0D
FE40
FEC5
FF4D
0177
000F
FECF
003A
FFC7
FED6
FF00
00EE
FFF8
FFBB
003B
FFAF
FF00
FF42
00D9
FDCC
FFA0
FEF1
FF3A
FFF1
FE99
FF22
FE3C
00A0
FDA1
FF26
003D
0184
FF25
FD64
0009
FECB
FF70
FF45
FFD3
FFE4
FE86
007C
FF7A
FEA2
00B0
FED2
FE3A
FFFE
FE92
FFF3
0151
005D
FFD1
004C
FFBB
FF2E
FF1C
FFBA
FF85
0128
004B
0001
0187
FF44
00AD
0095
0078
0214
0003
0129
FFC6
01B1
00CB
017E
0098
00A4
0033
FEA3
FF97
0101
0072
0287
020D
FEC8
008F
0018
00AA
FE3F
FFF9
FE7B
0105
00D7
FF3C
0046
0182
01DF
0074
0274
FEE5
00B0
020C
0119
00C7
0094
FE9E
003D
003C
00FC
0031
0134
009C
0108
01DE
008D
FE28
0108
FD70
FE45
013C
FF37
007A
FF7E
0039
FEEC
0173
FE08
01AE
0026
0029
FFAA
0093
FDA2
FD89
FEFB
FEA6
FE07
000F
0092
FFE8
FE92
0033
FF1B
00BF
FEB7
0024
0095
002E
000B
FF26
014E
FEEE
FEA3
FED3
0091
FFB7
FEAF
FF58
FF8B
FFF0
0034
FF4C
00CF
FE33
FF98
FF62
FF61
FE9D
01A8
00EF
FED7
FD07
FF23
00FC
FF53
002E
0005
FFFF
01A9
00D4
FE40
0146
019D
FF8E
FFF5
FF14
0081
FFE3
00BA
00D1
00DC
0177
00A7
FD5F
0091
0111
FFCE
FEDA
0023
00C1
FE8C
FEE6
FF65
007A
0066
0125
FFC2
FE8B
0095
FF18
FFF2
00E0
006D
FFCD
000B
00DF
FFE9
0274
FF2B
FFF2
006F
0236
0090
0030
00F1
0168
FF0C
00B4
0135
00C1
0011
0011
00CE
FF41
01CB
008A
0100
0054
00BD
01C6
FF3B
01BB
FF49
0174
01AB
0090
000E
01F8
FEA8
0010
FE0A
FF38
00D1
01B6
01B0
FF06
0133
FF4F
FF25
FF66
FEA7
FE54
FF2D
015F
FFC6
0038
00EC
FEFF
0026
FF9A
FE34
00F2
FDF0
0094
FFEB
004D
FF58
FF7C
FFE7
FE31
0068
00D4
FE97
FF4A
FE79
00E3
00E7
FF4B
00BB
FF89
FF68
FFE9
FFD9
FF16
0016
FEC1
FFB3
FFFD
FFA3
0112
FE82
FF2F
FF3D
FF67
FF66
0142
016C
015F
FF34
007D
01B0
0025
FF7B
FF68
00E1
FF06
01AB
FE8E
FE78
00E2
01C5
01F1
FE69
01A5
FFAC
FF69
00FF
00C2
00C2
019B
00AC
FF41
FFB2
FDD0
00CA
0113
0225
01AC
00B6
0209
00C1
0088
FEFA
012D
FEBD
FF39
00FD
FF4E
0168
FF70
00C6
00D7
FEE0
00B9
012B
00D0
01E0
0022
00FD
0297
FF25
0196
FEDB
018B
00D2
00B0
0229
0110
0037
FE52
FEE5
0072
0068
0155
FDDF
FFFC
FEF8
FEBD
FF89
FE23
FD75
FF6B
FE78
0143
FF2D
0012
FEA1
FE7E
0010
0094
FF39
FF53
FFEE
FFED
FFB0
FFDF
FE5A
FDB2
FEFA
FE03
FF70
0009
FF02
FF43
033A
FE05
0132
FCAA
FFAD
FFF3
FF99
FF2E
00A1
001E
FF2E
0005
FFAE
00CA
FFFA
0064
FF38
FE6F
FEBF
FFE1
FE4C
FF28
0013
0165
FD87
0035
FE15
FD01
FEBA
FFEA
FF17
FEB3
0155
FF84
FF4A
FF57
FEEF
0051
00D0
018A
FF50
0212
FEC3
FEE2
0044
001C
00AE
FD97
01F7
FEA3
FE61
FF49
FCE0
00E9
FF26
FE37
FFE6
015F
FFF3
001A
0084
FFA3
0131
00ED
0122
FEBB
FE70
FE14
FF91
FF53
0035
FEFE
0180
FFC6
FF5C
FE1C
FEB9
009B
FF8E
00BE
FFD9
FDBE
0032
FF4D
FF66
FF04
FF84
FED9
00E9
FF85
FE86
FFDE
FFF4
0028
0136
004D
0103
FF1E
FE16
015F
0100
01BE
FF04
FF37
014D
FE6B
FFA7
002F
002C
00F6
00D7
00CC
00E6
0062
FF3A
0043
0166
FF4A
FFFC
FEBD
01F2
00C8
0213
FF90
FFFA
FFE5
01B3
0043
FDD1
FE8A
FF2F
00C0
FE94
00E9
00B4
FF68
0000
FE82
FE12
FF7F
FF39
FF18
FFE0
0117
0186
0158
FFFC
0090
FF78
005F
0287
FF3E
01CE
FFD8
005E
017F
FE51
0092
0082
00D5
007D
FEC0
0108
FE99
014C
FEED
FEB1
007A
FF53
0060
0151
FF51
FF44
0010
FDBD
00BF
0095
0126
FFE3
FE6A
FF77
00F5
00E7
FF42
0086
0035
014F
FF68
FFA5
FF25
0006
0002
00DF
0123
0001
0074
00C4
FFC4
FDBE
FF2D
FEB5
FE77
FFF5
01DD
FFEA
0036
FE01
0240
0095
0138
00A2
034E
FF75
0078
0241
FE5D
FE16
00BA
FF7E
FEF1
0142
FEF5
01BA
019D
FF55
FF85
00C4
000A
0075
01A3
0188
FF8E
FDD4
FF78
00C9
0154
00F1
FFFC
FFA6
005E
0152
0019
00AC
00F7
00BE
FFDB
FF67
0274
01D2
0149
0147
FFC7
0224
00EA
FE87
0019
008A
00AB
01AE
0105
FF30
FEB9
0173
0099
FFDC
01AD
00CC
00C9
0161
0106
0015
00E2
FF9D
0142
FFD8
024D
01E9
0098
01E9
0180
00E5
0128
FFAC
00BC
FFBB
0093
0249
00FB
FF60
FD2A
0148
FF30
0006
0026
00B8
001F
0276
0180
01D0
002C
0084
00EF
FFD9
00DF
01DD
01A0
0122
0018
001D
0163
0056
0089
0087
FD80
013D
FE3E
0131
FFAB
FFD2
01A7
FFCC
01BB
02BC
00AE
014C
0045
018F
FFD5
0054
FFD0
0029
FFEB
002D
00ED
FF39
0207
FE51
FFF3
FFFC
0271
00A5
0153
033E
0024
015D
00AD
0195
02EE
0117
FEAA
00C3
FFD4
FDA3
0185
FEFE
FE1F
FFE4
0065
FF72
FF08
FE13
0079
FE16
FFE4
FF0D
0032
001B
FF4D
FEE2
FEC1
FEFF
FE31
FFFA
011D
0074
FF48
002C
005F
FE20
FDD4
0034
00F6
002C
0099
0148
008C
FF98
FECB
FFC4
009C
FE79
0041
FE60
0061
00A7
FFAF
0056
00D1
FED2
FFA0
FF2C
FF42
FFE3
00A6
FE84
011F
FE4F
FD9A
FDFB
008E
FE58
FDB4
FFA5
006A
008E
0279
003F
FEF8
00F5
008D
002B
027A
FFA0
FE69
003F
FEE4
01DD
FE96
FF16
FEF9
005E
013E
FF5D
01F9
017F
006B
00F7
01A2
0182
FF5D
FF75
00B9
00F1
FE9C
FF39
0362
0148
00BA
FFCD
0057
0003
028D
FFD6
0083
FFCD
01ED
0233
FFCC
013B
0284
008D
010C
FFBA
0107
0134
FFCE
01E3
0296
FF69
017E
005B
00E9
00CA
FF3D
0045
02C4
FF17
FF80
0212
0081
0043
0054
01FE
00F9
FF2C
FFBA
018F
00B7
0171
001C
FF33
007A
00D1
0126
FFFE
FE33
0072
012A
0142
004B
FFD1
009D
00AE
026C
00C3
FFC4
FFD7
FEBF
0078
00A4
00B2
010E
FEB7
006E
00E7
FF4E
FE53
00A5
00F4
0204
000F
0076
FFCB
FE9B
0244
FF68
01E1
0091
FFB6
01B3
0136
0117
FEA9
0050
0033
FF58
00E3
002C
FF95
010B
008A
00D2
FF7A
0032
FFB2
FFF0
FD3E
FF09
FF10
0079
011F
FF76
0200
FFFE
0213
FF2C
FE20
0124
0130
FFF9
0186
FE71
FFCB
01B5
FF53
0086
0017
0182
00F9
FFDB
FF31
FE32
FEF9
FF75
009F
0249
FF8F
FFA2
0147
00E2
FFA3
FF70
0093
FD83
000E
FF13
0096
FF01
003A
FEDD
009D
0120
006D
009C
0028
FF3A
0019
FF7D
FF7E
0151
020A
00D4
0090
020D
FF30
0160
FE76
FED3
0023
FE9B
FED2
FE54
0205
0072
00A8
00AB
FEFB
FF88
FF0F
FE4C
FE76
FF87
FE8E
FF34
FFF7
FFBE
0119
FF0A
FFC6
FECD
FEF0
00EF
FEBB
FE96
0128
FCFF
FF77
FEF0
FF97
0067
FFC1
00BA
001E
FEEB
01DE
FDD4
007B
FF38
FEF1
FF45
FF86
013E
FFE7
FCF6
0044
FEF4
007B
FEF3
FF70
FF86
FF3D
FECA
FDC9
FFF9
FFB2
008B
FF6D
FDDE
FE25
0065
FDB8
FF5E
01AC
0083
009F
0091
00F3
FF0B
009F
0198
FFB6
01D4
FEF2
FF3E
FD72
FF00
002C
FE69
FEB8
002A
FF52
FF79
FD86
0210
FEBE
FE04
FF55
FE3D
FD82
FFF1
FF78
FFD7
FEE3
FEE1
FF1B
0091
FF7F
FF87
00D8
FD4F
0105
FEEA
0066
FF8A
FED9
FFC4
0051
00DB
FFF0
00B2
0144
FFA7
FF00
FDAA
FE59
FEAA
FE76
FF03
0131
FF13
FE19
FD43
009A
FF77
000D
0086
0062
01E0
0101
FF28
FF83
FFA9
FFB4
010C
0075
FF9E
FE5D
0092
0009
FF16
01CC
02C6
FFB2
FD73
FD91
00CB
0156
003D
FFE8
FF4F
FE82
FE74
FDA3
0031
FF2C
011A
FF69
016B
0022
00A1
0119
0089
FED7
FF19
FF9F
00F6
FFE4
0002
FF2D
0117
00B7
FEB0
FF6F
0011
FF62
009B
FFA0
FDA3
FDC1
001F
0087
007C
FF3E
01B9
0144
0033
003D
0199
FDD2
015D
0063
00C9
FEA7
01E8
011C
0006
0018
002E
FFA8
FEFA
FE97
FF57
FFCF
0112
00BC
FE12
FF8F
FFC2
026E
FF85
FE19
FF8B
FF72
FE38
FFA4
FF48
001A
0079
FFBA
014E
007F
FD9B
FF8B
FFD8
FEB1
022D
FF6A
FFE6
FE7C
FE45
FF5C
00CD
0081
0044
01DF
FECE
FEFA
FFD7
FFE9
0092
FDFE
02D9
FFAC
FE74
02CF
FF7C
FE1D
FFA1
FE9E
FF01
FEEF
008B
FE46
0000
FFA5
0129
FEA8
0034
0290
FFD9
FF5B
FFA7
002E
005B
FE10
FEC6
FDD7
FF57
0017
0040
FE68
FEC9
FF94
FFAA
FFB7
000F
FF35
FE67
0044
FEFC
00FD
FF7E
FF17
0003
0070
0178
0045
00AB
FF8C
FED1
FF66
0004
FF34
FF88
FF81
FFD6
003B
00AE
FEF0
FF4C
0047
FF71
FFC0
FF39
FE4F
FFEB
01A5
FFDE
FF87
0023
FE3B
FD2C
FE44
FE46
FE92
