0180
0052
FF86
FF52
FFDB
FFCB
FFE1
FE32
FDC7
FEE1
012C
FE9A
FE04
0199
FF54
FE53
0203
FE2C
FE78
018A
024E
00B4
FF20
FF40
FEDA
FE5E
01B2
FEE3
0115
FFBD
FEB1
FE6F
FF0D
0049
00B4
FE1E
FDF8
009C
02F3
FE80
01CB
0130
FF45
FDD3
FE9A
0090
00F4
FED9
027E
01CD
008E
01C9
005C
0125
018A
0243
FECA
01FB
014F
008D
00D9
01E5
FFEA
018F
FDD0
FF74
FECF
FEB2
FE47
0135
FDF8
0287
FF96
0250
017A
0023
0031
FE3A
008A
FF88
FF70
01FB
FFE1
0030
FE46
FE93
0007
FF49
FF4B
FF45
015F
016A
0115
FFEC
FF39
FECD
02C9
FF3F
01FA
00A7
008A
00BC
FEE0
0104
FF86
FEF2
00BB
0056
FDF0
0132
FDDD
FFD5
FF56
01D6
FE46
0020
0202
FFF0
0159
FE6A
FF75
0256
FF55
0175
FE14
008E
FE7C
000A
FF7F
028B
00E6
01DA
FD85
0135
FF12
00B5
FE94
FFEB
FECA
FF36
FF95
0336
FEF5
0207
FE7F
FEF3
0203
FEEC
FF95
FE79
00CA
003C
000A
FEE4
FE6E
0029
FE13
017D
0148
0178
026E
FF62
FFE3
0256
00CD
FE5B
FFDA
00C0
FF41
00A1
0229
FF31
FF57
020A
0169
0179
0080
0268
FFF7
FDEF
FF98
FE2E
01FD
01C6
FF7C
0163
FE2D
0142
01D5
FFFD
FE94
0236
FEE4
01FB
FEDF
FDF8
01A8
FF89
FD99
FF73
01A3
FE04
01DB
FE81
FEDB
01F5
01C3
FE43
015F
0069
0107
013B
0026
0010
FFB1
00E8
FDFB
FDE9
FEBF
FF4D
FDEE
FE73
011C
01BF
FE5B
FF23
017F
0081
0061
026B
FE83
0106
0062
00EE
FE1B
0064
FF18
01E7
01D2
FF26
FE71
FEAD
FEDA
FE33
0237
FF0B
00C0
FF7D
0298
FF7F
01F6
0230
0093
FF1B
0092
007E
FE2F
0305
00FA
0059
01A8
FF6C
0019
FF5E
FF29
00C1
FDE7
00D4
0064
FFF1
FE6D
FFCB
00F3
FFAE
0138
0008
FF7E
00BF
0125
008F
FE32
FE0B
FE7A
FEFB
FF56
01B9
0232
0025
026F
028C
01DC
0145
0258
0234
FEAA
FEBF
0163
018F
00C8
FEF6
0224
0113
019F
01CC
0171
FEB0
01B2
0085
017C
010F
030C
00B6
0114
00B8
018B
00BF
0217
005C
0090
FF2D
005D
FF28
FF86
FDA6
FDAC
0156
FF93
FFA5
016F
FFFB
0162
020D
FF45
FF58
FF50
FF9E
FFA6
FE3B
00FE
0282
0188
FD60
FFAE
FDE1
FE2D
013B
FD91
00E5
FE4E
0028
FE11
FF4B
00FA
0028
FFFB
FE6E
00AE
0055
0082
FF1A
01F9
FE73
FF9A
FEE6
FDFE
FFE2
0114
FE1D
FEC1
FFB4
FE6D
00D0
027A
004A
FE62
014B
FE18
FE6C
0104
FD70
FE47
00F9
FE65
010B
