FFDB
0063
FE7C
FFA6
FFA5
FFB2
FF6A
FD72
FD86
FDB7
FD6C
021C
FD92
FF18
FF72
026F
FF8D
010C
FDCB
FEAF
0018
FB82
001F
017D
0198
0100
FDB4
FE79
FFCB
FFBC
FD7F
FF14
00E4
015A
004D
FE82
0094
0109
000B
000C
FFB6
0155
FF48
004F
0123
00D4
0149
FF21
FED1
0098
0061
FE84
FE8E
FF68
0051
FDA1
FFD2
0013
0106
FFC1
FE00
FEE5
FE83
002C
FF50
000C
011E
FFC4
00AB
0126
00DB
FF6E
FF9B
FF04
FF72
016C
02BE
0067
003C
024D
FE7A
FFD9
010B
0152
010C
00CB
0057
02CB
FE69
FF5E
FEBF
00BC
FF8C
021C
00D0
02CD
00E8
00C8
FC06
FD77
FF13
FF89
0045
FD2C
01D4
FDD5
019C
FF4F
00A1
00AD
FF74
FD85
FEC0
FDC3
FFB7
03AE
FF6C
FF78
FE1E
FF0C
005B
FD23
FEFC
0056
0230
FDF0
FEFE
0121
FDDD
FF16
0252
FF22
008B
004B
002D
FEF5
01B2
FF8E
FFC1
02D1
00E0
0140
001B
0086
013D
011D
FF4E
00CE
0100
FFE3
0102
FEBC
0091
FFD0
FFF9
001C
0112
FEDF
0066
0100
FD54
FB93
0025
FFB1
01E4
FE27
000A
FFE0
FE52
037B
0092
01DA
004C
029C
021A
FF4B
01BB
FFAF
00CC
FEE1
FE59
0124
FEDF
0214
009E
0054
010A
FF1B
FE30
FD50
0158
001C
0266
0150
020E
00E5
002E
FF2D
FF52
015A
FF0A
FF94
0165
01FA
03B0
FFE1
017C
020D
0023
007C
01FD
009F
003D
FF10
FEFC
00F7
FE5C
FFD4
FC7E
FFC0
FEEB
0323
026A
FF17
006D
FF46
FF15
007E
FE1B
FF70
012D
001B
0047
025F
FEDA
FFDB
00FE
0012
009C
0126
03BD
FCC3
FFD7
0009
0003
022A
FF06
001E
FF1C
01D2
01A4
002A
0214
000A
FF78
FE26
FF58
FFCC
FEA7
FE9C
FE68
00F2
00C8
FF43
0093
0067
0086
FF5E
01BA
FEF4
FFFE
010C
FF71
0323
FF0B
0083
0261
00B5
FF02
000B
FD9D
FE64
0048
0012
0052
0060
0006
01C1
FEB0
FBFC
FF9A
FDF3
FF57
FCEB
FDE0
FDE8
FDCD
FE3C
00DC
FFAF
0077
0021
FF02
FFA0
009A
0258
0213
001A
0053
FD7B
FFA8
FCFC
FFC8
016A
FE22
016A
00C4
FEFE
FFD5
FE84
FD70
007F
FF89
00A5
FFDB
FFA3
FEB8
FFAF
007D
FFFE
007D
FEF7
FF44
FFED
FE0C
FE91
FDB0
FF2B
FBCD
0163
FD1A
FFEC
015E
FE29
FF2E
FEEA
FE91
01B6
FE0B
005A
0054
FE51
FFB4
021A
FEBE
FFBF
FDE6
01B3
0233
FE07
FF6F
0046
FFA1
FE4D
012D
027C
0028
00C1
FF2B
021F
0237
FF00
FD3C
FEDA
FC6C
FECB
001F
FE0C
008B
0049
FFE0
FFB7
FE94
FE16
00AA
0071
FF41
FF66
FFA2
006D
0418
FFC9
FFB1
FFED
FE37
0353
FFC0
FED0
FE8D
FF83
FDC2
0201
022A
0080
FF35
00B0
016A
004A
00EB
01E7
015F
015A
FF99
FD85
0105
011A
FE12
FFBC
011A
009B
025F
FE44
001B
FF68
FFF9
0095
FF44
FEAE
FD60
0032
FEB9
001F
02CC
0125
0054
FD8C
FE74
FF67
FF6E
FFE2
FC12
FE0B
FEE4
FE4A
0001
00CE
FDD2
000E
FCD2
000E
FDF9
011F
FFCF
FFF4
FB70
0228
0014
FFC1
FF07
FF2A
01ED
FD4B
FBB2
FF82
010B
FF6C
019A
00A8
000C
FFD9
FEA5
00E4
010E
FE3E
FD69
FFA9
FEEA
FFD0
FFE9
FE79
FF89
00E9
FE87
020B
FE63
011F
0095
0057
01B0
0398
0132
FF15
008F
00FB
016C
0029
01DC
FFAD
FFCB
FD6E
FDF8
FEEB
0020
02BA
FEF7
0071
002D
FFB0
01B9
FE67
0057
00EB
0167
FFE0
0146
FFEC
FDBD
01B0
FE49
FFEC
0232
FF5D
0234
0173
FD63
0088
FF06
03B5
00A0
FDFC
0230
FF7D
026C
0108
0108
005B
00DD
FDAF
0099
FE78
002F
FEFC
033D
01BF
FF64
FE9B
026E
009A
00B0
0046
0111
0151
0118
FFBA
FFC9
FE3A
FF1F
FCF7
FDED
0043
FF3F
0042
FEB5
FFC9
0104
FD68
FFFF
00AE
FD0D
0069
FF90
0275
FE3C
FDF5
00BC
FF28
FF1D
FFE8
00B9
00CC
01C5
FFA7
FEF5
FE81
FF93
0176
FEE2
0256
FE53
014A
01D8
00E6
0047
FF33
FFB1
02D4
FDE6
01B5
008B
02C6
FF21
FF3F
FFE8
0170
0079
013D
0195
01DA
03D2
0211
0064
FF6F
0136
FDE0
0208
01C1
FDAB
FFDE
FEE3
0052
FF63
0051
021E
FD80
03E6
0292
FEAA
0133
0051
FFB5
025D
FFC3
007B
008E
FFD8
01F2
FFE6
FEFF
014C
00B1
FF6E
FFC5
FDC4
FF36
FF98
002A
0180
0017
FF34
00BC
FF8A
FF56
0160
FE9A
FE38
FE44
00A7
FFE8
FED4
FEB4
0085
FDE6
0080
00D0
FFF8
FDF6
00ED
01E1
FFAC
0164
00FE
0061
FEBD
FE67
01BA
03B2
00A2
0007
FF72
FDB4
FE16
FE33
FDBD
FDF6
FE56
0092
FEA0
FC9A
FE8D
FF1B
FF54
FF5C
FD4E
014D
FF4C
FE7A
0169
FBBD
FED1
FFC4
0108
0299
FF85
FF35
0090
030A
FEBF
01A7
00E7
00DE
0019
021B
0029
FFAE
02C1
021D
FFBC
0261
FF49
00EC
FF91
00E0
01CA
FF8B
002A
0141
0025
0027
FE06
FEA8
01B5
FFE4
FFA5
FDB6
FEBB
00C5
FEF6
FEFA
0165
0051
FFFC
FE6F
FEA7
0053
04C6
FEF0
00A3
0172
FDB4
02D4
0095
FED5
FF6A
0138
FED0
FF21
00CF
FFC3
000C
007F
0236
00A4
FEBC
0116
FFBF
0261
FED4
FF21
0264
FF4C
FEC3
024A
FF50
039D
FEA0
0106
000A
FF13
FF7C
FF2A
FFE3
00E7
005C
0101
028F
FF4D
00E2
00B8
0096
009E
02FD
0046
01D4
00BD
007C
FD6A
01AF
FF79
FECD
00A7
FDCC
009B
006D
017B
01EB
FEDD
FF95
007E
FEA1
FD5C
FF47
FF54
FFE0
FCA7
FEA6
FCC7
FFAA
0243
FFFD
FD97
FFD9
02DE
00A3
FFF3
0038
FEA6
FE52
0131
016E
FD9E
009A
FEBD
00FD
FEDE
00A4
FEF1
0194
03A8
02EE
FFED
000B
FFBC
022D
FED5
0238
0200
002D
0166
0249
003D
002B
FEFA
0123
0133
02AB
FD3E
013B
FEF4
01E6
0245
0113
00AD
01B5
00D8
FD45
009F
FDC0
0051
0186
0184
FEB6
0043
FEE7
FF41
017C
0207
0087
FEA4
FFC1
FEFB
FEBA
FFB8
FFCE
019C
005A
00DD
FED3
0141
009C
FF24
FECF
FEF5
0063
0070
008C
FE07
004D
FF84
018C
FDA2
01C0
01AA
FEF4
FFA6
0087
022E
007B
02EA
0164
FFD5
FEB2
01E1
FF6B
FF4E
00EA
01B3
0290
0228
FE6F
FEDD
FFAF
FFD6
005C
01EA
015D
0134
FC98
0099
012D
0191
02A2
00B8
FE34
01D1
FEA1
02F3
FDAA
0040
FE39
000F
FDBC
FDC9
FC87
FF5A
01A4
FFA8
FEDC
00C8
009E
FEE1
FDAD
FE9C
FE5A
001C
005B
0244
FEDF
FFBA
FFF5
0220
FDFA
FDEA
FECD
041F
FEE8
FF84
0183
FF55
FE84
FF29
FDDF
0136
01A1
020A
FF7A
0057
FCFB
FFC5
FF83
006C
0252
FF03
002A
FE68
FEA2
FD99
01DA
FD2D
FF44
FBAC
00D6
00C3
0255
FEF4
FF35
00BF
004D
FD9C
FE63
015C
FEAF
FFAD
FE3B
FE4C
0160
0063
FE96
0272
FEF1
FEAA
FDF5
FEDE
FEEA
0314
FF2F
FEDB
FE83
00A5
01B3
0250
0015
0108
0114
01F1
