FD46
FDD5
FE1F
FE08
FDEE
FD10
FE80
025F
01EC
0007
FFC2
FF78
FFDC
FE32
FEE2
FE13
0018
FF3A
FF22
FE25
0060
FD72
0053
0058
FE9B
FE23
FDA9
0059
FDC9
FD5F
0269
FF53
01FF
022B
0021
0035
02E7
FDA4
01F9
020A
0024
0208
012A
FDB6
02DD
01C1
033D
026E
0370
FED7
FEF2
FE21
FE3B
FEBD
0063
0147
0047
FDBD
0044
FF02
0141
FE65
011F
0220
0044
FD2D
00EB
01A3
000F
FD61
01AE
0049
FDD0
FF64
01B8
0299
FE1D
0238
00A3
FD59
0172
FE9F
0031
00BD
0016
FE28
FCF4
FDC0
FF91
FEDA
FE11
FFC0
FED8
FEC8
FD37
FFC2
003C
0232
008F
FFA4
01C7
FE12
003F
FE5C
017E
FDA4
0013
FEF5
FEEE
FDEA
FFBE
0058
FC95
021D
FE44
00BF
01F7
005D
0283
FDB0
FDBA
FD4F
00CF
FD6A
0034
FEEA
0208
FE7D
026D
01D9
00EE
0067
00F1
FECC
FE86
FEB0
012E
FDC2
FD4E
0207
FF4A
0236
FF61
0161
02A7
0214
0193
0294
01C6
FF64
FD65
FEC2
FFA8
FEBC
0016
FFE6
0285
017A
015C
FE72
FFFA
FE1E
FE64
01E7
FE27
0021
FFFE
013B
FF94
020A
FF1E
FE4F
00B6
00D3
FE7D
000F
FCCD
01F8
012F
FED1
FD7D
FF92
FED3
0081
0173
00A0
003B
0255
FCD5
FCF7
FCEA
0162
02A4
FEAE
FF54
FD8C
FDC7
0195
0175
032B
0208
FDF2
0237
FF08
0218
FDF3
02C0
00BF
0050
01E0
01DD
FF0B
FE49
FE4F
FF6F
0203
FD76
0003
0079
FDE8
01C1
FDB9
01C9
FFA3
FF05
01C3
0251
FDCB
0022
021F
024C
FFF0
FEDB
FFFB
01F9
FDA1
006A
0004
FF63
FDD8
FEAE
FEB1
012F
00E1
FEBE
024E
01D2
00FF
02A0
0237
FE69
0297
FFE5
FEDA
022D
FE0E
FF99
FEB2
FE3E
FF1B
003A
FCEF
FDCC
FF1B
010C
FF66
0051
FE21
005A
FEB2
FD39
FD8F
0025
FF8F
FFB0
0239
0173
FED6
0126
00B3
005C
FD9F
FE9D
0152
FD89
FFF5
FF9C
01F3
FDCA
FDCA
01B5
FE59
FF98
FFD8
FEBD
00ED
FE3C
00CD
01CE
FFE6
FDEE
FE72
019A
FFD6
018B
000F
FE77
FEFF
0243
FD86
FF21
FF7B
01B4
0271
00FF
FE97
0317
017A
007B
00EC
008E
0268
026E
FE0A
0174
01D9
01DF
020E
FD6C
FE5A
00E2
0173
FD1A
03FB
FF7D
FF52
FDC6
022D
0013
FF72
FEE8
FF80
FD14
01C4
FF76
FE6A
FDA2
FE25
0407
0261
024C
FE9E
000F
0196
0281
FE67
0275
FE1C
FF4D
021F
0196
0144
002D
0033
01D3
FECF
FF66
FE8B
0176
FEA8
01F8
FEF5
FFBC
029A
0104
FF8D
FF21
0009
004F
0200
0295
FE76
FDFA
FF81
0171
FF59
0193
0065
FD76
FFAF
01E0
FF15
0261
FEBC
FEB4
003C
FD28
0181
FD57
FD84
FF94
FF64
FC98
FF14
01A9
FE0C
0170
FE3E
FEFA
FD49
FF3F
FE26
FBC3
0233
015F
FDEE
FF3A
0119
021D
FFEA
0175
FF61
FD8F
FF40
FCB4
00F7
FD0C
0114
00EA
FC88
007C
0263
0095
0004
0108
FF03
01CE
00AB
FFCF
000F
FCC4
FED2
0062
FD5C
FEB6
FD57
FDDD
FF3C
FFFD
FE53
0164
FEC9
FF21
005A
027A
FEB1
FE38
FF11
FED4
0211
02F2
FF3E
0309
FDBD
FF4F
013E
01E2
FDEA
FE3B
FD89
FDD0
026C
FE50
02C0
0251
FDA5
FF0B
02B3
00EA
FDDF
011B
FD8C
FEE8
004A
0182
FFE8
0073
0155
023E
FE1E
FF06
0069
0100
FE72
0199
FED1
0107
01E0
0183
01D1
FCAC
FE41
0108
00F8
01B9
FDC0
0200
FFAC
FC98
011D
FE0B
FDF9
01B4
02AD
02D7
FEAE
FD7C
0257
FE3C
02F8
01DD
FDF7
FE34
0117
FE3A
02AA
FFE9
FFD2
028E
012C
00C0
022F
0117
01DE
010E
0272
01A7
01F3
0286
FDB8
02D2
0217
FD98
00E9
0066
FE21
01F7
FF54
FF2E
02C9
FE9B
FE0F
0176
FE6E
0107
02C4
01AB
00D1
FE54
02CB
003A
FE22
0010
FD7E
FECD
0080
FE02
02AC
FE9C
0135
FF7A
01F6
0162
01AF
FEE4
FEC5
0176
008A
0002
0111
02BE
FDE8
005B
FE3A
01E5
0055
FF20
02AA
02EA
0038
FF69
FFF3
0015
01CA
FE75
FCD9
016F
FDEA
018F
005D
FE97
FEE8
0274
01FF
0164
01CB
FFA9
FE72
FFFE
02FB
02F3
0225
FDE4
02F3
0173
FF09
011D
0062
02B6
FE94
FF8B
01DD
010F
FFC7
01B2
FE64
0099
023C
0179
0182
002D
FEB1
FE8B
02F3
FE9B
FFD1
016E
0169
011F
FE3A
00AB
0257
FD70
02CD
FE30
01D7
FF71
FECA
FF1A
014D
0202
00F2
01D5
0017
008E
0242
FE63
013F
0058
FE82
0099
00D7
01E8
00C0
031F
FFBA
0150
FFFA
0196
03B6
FF1E
FE06
02F5
0019
0005
FDB3
02D8
00F9
0254
FDFE
FDE5
0291
FD93
010C
FE71
0382
FEB1
FF86
0243
FEC2
0342
0179
0294
02DF
FEA1
FF86
01F0
0079
002E
0256
FF45
FF93
028F
0182
FE37
FDA7
0172
FE9E
FE51
FED1
018B
00ED
FDA8
0169
00D2
FD65
0270
FF69
0157
011C
FE3C
FF84
0235
FE92
023A
0127
FF6B
FED8
0057
0086
00F2
FE68
0371
007B
FEE7
FFDA
FDED
FD77
028B
FD93
FEA8
FD1B
01ED
0120
00DD
003F
FF87
FD9C
FF41
FCBE
020C
FF83
FED0
FF53
FFFD
FD8B
FCD2
00F8
FE37
FDF5
FFC1
FFA2
FFD2
FDF9
0131
020E
FE1B
0012
0121
FD68
FE00
0291
FF16
FED5
FDAA
FF47
018D
FFE9
FF85
FFEE
0154
0037
0136
FF54
0129
0109
FEBC
FFBF
FED8
FC50
0225
FE5A
02E8
01AF
00B1
001E
007C
0258
FDAF
FE82
FF32
025C
00E7
FD89
FF3F
0275
0076
02D3
FD8C
FE3E
0332
FD6B
0188
FE80
FFAC
02E1
FEDD
FFA5
0291
01A4
FFAA
FE4E
0070
00E9
00CF
FF2B
015F
FF64
FE7B
FFD8
0113
FD6F
0067
FDFC
FE42
0270
FE94
0090
FDB8
0174
0016
FE37
01D1
0133
FF39
00FF
FF07
FFF3
00F9
01B1
FF7A
FF2E
FE68
FF57
005D
01DD
FF8E
FE51
FEB9
01EA
033A
FDD7
FEE2
02BA
FE0B
FEE0
0063
0241
0192
0213
FCE2
0196
FDA3
0228
FE95
0215
FF94
005D
FD37
0266
FCA9
FDC7
0085
FF2A
FFE3
FF7B
FDC3
0222
01D2
00D3
01BB
0015
00C7
014A
FFF4
FE59
FE55
FFD2
0141
FDD9
0279
02CF
025F
026F
FF60
FEDA
FFD3
005A
FEAB
FFD8
FF73
FFD2
015F
01AB
FEB4
00E3
0163
FDA1
0146
FEA0
01F8
FEB0
FF69
02E0
FDEF
01BE
02FF
FFFF
0314
FDD9
0037
02F4
FE03
02B6
FE99
FF8A
01DF
00FC
01C4
0063
0001
0042
003D
FEFF
019C
FF6D
0349
FF03
FE02
FF64
FDD2
FFF1
0060
01FF
014C
FE3F
0315
FF2E
FE23
01BA
006E
FEDF
025F
FDA9
FF18
FF5B
0143
FD94
FD11
0185
FE9D
0184
FE4A
FF2E
FE57
01C1
FF1D
FE09
FE6F
FE2D
FCF2
FECD
FD38
FE7D
012D
FEA4
FFF2
0219
FE6D
FD59
01B7
FF62
FFE7
FEC1
016C
FE60
0256
025E
0119
0147
0279
FEAF
0018
01DA
FF2E
FE8C
0106
FF64
013B
0053
0207
FF12
FF2E
FD2A
FF19
FF7F
FFAD
FE18
FD3B
023E
FC8E
00CF
0099
FD8D
031B
0230
FF7C
0161
FD83
FE91
00A7
003A
0122
02CE
0082
FF9B
0017
FE75
0028
0307
0049
FF2C
0198
FF9E
001D
FDC9
00B4
00C0
FF4C
02A3
FF78
FE10
02AA
0219
026A
FDD2
FFAD
FE7B
016A
002E
FD02
00BA
FF0D
013A
FF30
00D5
0138
FFF2
01A5
0187
FEC8
FFD2
FD60
00E8
FDCD
0005
FF47
FD9C
FE1A
01B5
FCDF
FFBF
01D4
FD66
FEF2
0152
00CF
0105
FDCF
00E0
FFA5
FEDD
029A
0251
00AC
FDED
02B2
FD92
0080
00DC
00F4
FE2F
0142
00D2
02E1
FE0D
FDD0
FF50
018A
FFCA
0197
02BD
FF88
0085
00F2
0195
008F
018D
FEB1
01EC
0115
FE96
FF30
FDFC
00A3
0167
FDBE
FF3A
01DB
0264
FF82
002F
FDBC
019D
001B
FEA0
00E3
FEB6
01C7
0263
0241
FE33
01B3
FE16
0274
FDF7
021B
0064
0242
FDD5
00A9
00C7
FF0E
FF7F
FE98
0061
FEC3
010E
007B
01F4
FF82
000C
FDE2
FE6B
FD18
FDCA
00CD
FD71
FEA4
0070
FDD7
0020
FE41
0177
00A2
FDE8
FD57
FDB5
FCEC
FFBC
FFFD
FEA5
01DB
FD91
FE8D
FF24
0276
FD18
FE5B
FDE3
0270
FF48
FCE0
FF20
FEB7
FFE7
0222
FF37
0241
FFA1
0194
0075
FE6B
02C3
FFE0
01BC
0267
FFF1
FE15
FDF9
019D
FCDD
FBFE
01BF
FE6C
FCEA
FFDD
0283
FDE0
FEB3
FEEA
01EE
FE92
0357
FFD9
FE46
032B
FF8B
0319
030F
01C4
FF82
0396
FEE6
0212
01CE
0214
FE66
01E1
0035
01EB
FF71
01AE
022F
0314
0315
01B7
FFDF
01DF
0139
013C
0045
0010
FF8A
002B
FE15
0270
01A6
FF2E
00D4
FEA6
FF52
FFEE
FF8F
0187
FE3F
FEC8
00DF
002E
0021
0286
FF51
FE07
030F
00AB
0027
00DC
FD5F
017F
023C
01D5
0024
01DF
017A
006B
0113
FE08
00DA
FDA7
00F9
FD36
FFC1
FE25
0260
FF32
FD9D
FD3B
00AF
FF09
025B
0118
00FD
FFC8
FEF4
010F
027A
0207
01CF
FC37
0295
FD3E
FF9A
FF9F
FE33
FF76
0248
FFB3
001C
FDBA
FDEB
FF22
FE01
012A
FF17
FF43
02BB
FFEC
FFCD
FE79
FF4B
017E
01C2
0224
00D9
FDDA
FE8E
FEAD
0070
FEE7
01A9
0223
0239
010B
02DF
FD0A
FDBD
FD5F
FE90
0260
FF35
FF10
FF1F
FD30
FF16
0103
FEE0
FDBA
0167
FF05
00B0
0096
FDE2
FF88
FF41
FD7D
FF17
FEAA
0232
FDC1
FD39
0076
004D
0146
02B6
0008
0166
FDB7
0159
FE8C
0144
0194
00D8
FD7A
FE4A
FED4
FCE0
FFB6
FF48
020D
015D
FCF6
0092
0093
FDB8
0154
0139
FE98
FD94
FCEA
FE29
FE78
FDAD
0040
FFB2
FE83
FDA3
01FD
FFCD
FE5C
FDC5
FE1E
FE00
005F
015F
01B0
01FC
000A
0146
FE0F
FEF7
FD96
FE42
FE22
FFE2
015B
FDDE
FE39
005A
FEC1
0138
0237
00DF
02B4
FEA9
FF6D
FDD5
FE89
00FA
0211
FFF7
FFBD
00AF
0218
0244
FE37
0227
FF43
FD36
FCEE
FF2D
000D
02AF
00DF
FF4D
0132
FDA2
0005
FF35
FFD2
FDDD
01D7
004F
FFF6
0133
FEE1
FDBF
FE6C
FD1E
01E9
0169
0226
00DA
FF55
02D1
027B
01BF
FEC1
004E
0016
031C
0152
00E0
02A1
011E
0249
FDB5
01CD
FDB0
FFF1
FE6A
FFB0
FFEC
02AA
FDA4
FEB3
017D
02D0
FDA3
0290
02E6
02D6
0268
FDD7
FD8F
FF34
01E5
00EF
FE9E
FD5B
FE00
0102
FDD5
FDFA
FDAD
01F0
FE90
FFA9
FD72
007F
FF6D
01DB
FF69
FE78
FE1F
01B9
0097
0084
01AA
FFD8
0128
00A2
019E
00A4
000F
0229
00E3
FFE3
FF3E
010D
00CA
FFDA
01A5
017A
003F
00D8
FEBF
02DE
FF13
FF6D
FEC7
FDE0
000E
030C
0192
FED6
0178
00F7
FDE2
FFE1
0185
FE31
FF87
007E
02AE
FE8E
00F1
00F9
007B
FEC9
00D8
01A5
0180
FF12
FFFF
FDBC
00B6
0090
FF5F
FDE6
014D
01E6
0064
FE98
029E
FCD7
0183
FEB6
00AA
FF84
00AA
0131
FF9C
02C3
0269
01A6
029F
FD28
FEF2
022F
FF3E
01AA
00D5
FF6D
02D3
FF41
01FF
02DE
FDAC
0137
FF26
0256
FDC4
0187
FBD9
027E
FD5C
FF57
01E1
0198
0100
016C
FD5F
01D2
FD90
FDEC
01D3
FD7C
FCEE
FDB3
01F7
FED1
FCFC
FF60
0182
022A
FE22
FD66
FEAA
FE85
00E4
0287
007C
00C6
027E
FEFF
FEFF
FF2E
FE2F
FFA4
0258
FE2F
00D9
FD95
FDCF
FFB9
FFE7
0245
004C
FDCA
FF69
0174
015C
0260
FE02
02B9
FE49
00C0
021B
0054
FEEE
0100
FE63
FD73
FFAF
0195
0262
019A
02A7
00AC
FF1E
0119
00B3
FEEC
01C7
0242
0178
FD95
FDC6
03C2
FDB7
FE1A
0029
FD9F
008A
FEAE
00EB
0272
0045
FFB0
FDDE
011A
02C1
FF0A
0310
01BF
0106
02F5
FF44
01FF
FFE4
0329
020E
FF16
003D
0270
00C4
0190
0255
008E
00E0
01AB
0076
01CD
01CB
010D
013D
FDB2
0105
002B
0076
FF49
01D8
0251
FFF4
FF20
FE23
0259
FE99
FF03
FFB7
02D7
FF10
0291
FEC5
FF68
FF72
FEA1
FF35
0179
0045
0240
012A
0299
FE2E
FE76
0032
FE91
FDAD
0192
FE31
FEA8
0147
FDE5
02C2
FE31
FEB1
FE99
0120
0092
FF47
01D8
FF62
FDFC
FDA9
FE70
FD7D
0219
0153
0270
00D3
FDB2
FDBE
013D
FE0D
FFB5
FD16
FDDD
0072
0169
01FC
FE14
FECB
022A
0238
FE80
01C9
FF6D
020C
FE94
FF4E
013E
027D
FE7C
FDFC
01F4
0393
0101
FFA2
0272
0040
016F
00CB
FEF9
FF0B
020B
FEB0
FF4C
FFBB
0125
02F3
028B
FF29
FF24
0096
028E
FF81
FDC2
FFA6
FF34
02E3
01F9
0343
FFA2
034D
01B0
005B
0299
034D
FDF0
FFF8
0178
FFB0
FE1E
FEF6
00A1
FD85
FF4A
00A0
FEAE
0170
FE6F
00F2
013F
FF17
FFB9
FE51
FE0D
FFC0
02E0
FE87
FD82
0002
01F4
FF28
01AD
02BE
026C
0247
FD44
017E
0217
FDA6
02DB
01B8
FE0C
01E3
00F5
FF6E
FE7D
FFFB
018A
FF31
FD40
01C5
FF0A
FD09
0083
FFE1
01D4
FD50
FFF6
0257
017C
018E
016C
FF50
01DD
00AE
0180
0268
FE91
0251
FEB9
FDB1
0075
0207
FDE4
FE2D
FDD9
FF76
0053
FE5A
FD4E
FEED
00C9
FDFB
0082
0232
0198
0239
0174
FD4D
FE7C
FD13
FD09
0233
0192
0129
0035
FE1A
FED0
0150
FEB6
004B
FE72
FFE6
0144
01E7
FE6A
0121
FF6D
FF12
FE94
0146
FE91
000D
FDAE
FFDC
00A8
00F3
024F
002E
FD51
015B
0074
FDB1
FF41
FD9A
02DA
0050
01C6
00EC
FE39
FED5
00D0
03CB
009F
031A
0123
02A4
FDC7
FF8A
0063
FE48
FE19
004D
FFB3
FEB5
FF36
FD60
0207
FF2E
FF90
FE62
0072
FDEF
FF06
018C
0251
01A2
0119
FE7A
FE60
FF4C
01C5
FE5A
FFFE
FF8E
FEAB
FFE5
FEF0
FCA4
01E6
0287
022B
0087
0188
0286
0193
FEF1
0157
025B
0152
FDC1
FFDC
FEF5
FCE0
0237
00A7
0229
FDEA
FF68
FFD1
FDAA
01A6
00DC
FDB5
FFB9
FFD4
FCC8
FF87
FEBD
FDF7
FDE2
01FB
FF59
FEAD
FFA6
0127
00BA
FE9C
02A7
01D1
FEB1
008A
0258
021F
FE94
