00AC
01DB
0174
00FB
FEB6
003A
010F
0094
0124
0016
00A6
027C
01DC
FE68
0275
FF42
017E
022A
0124
004A
FE11
00DA
FFAC
025E
FD8D
0177
00E3
0044
FFE2
FE08
FFF5
0228
02D9
FF4C
0024
FFAD
029C
015A
FE75
00BC
FF15
01B3
FFF8
FF61
FF0E
FF4A
FE3D
02BC
0074
00D3
00ED
0095
FE3E
02A2
FE9C
010F
0223
0242
0046
01BA
00A1
FF7C
033D
00F8
FDE2
FF68
FD1A
FDED
0262
0225
0110
FDE4
FDE7
FD0A
01FB
0267
FEF1
02A1
00CF
023F
028F
009D
FEB5
0138
FD05
00C3
FEAF
FFEF
FE97
01CA
FF0B
FE1C
FF07
01A7
01DA
FFB6
015D
003F
FF0C
FFB7
00D9
FE01
FDC2
FD06
02AA
00FF
FEAD
00E0
FD98
FE14
00DA
FD8E
003F
023B
FD6C
FFAF
FD8D
FDC6
0162
0168
FDC2
009E
FD41
00F0
0216
00D6
FEEC
FD65
00AC
01F9
0066
FFEB
0265
FE6F
023F
0203
0055
FF9A
0156
FF2F
FE2A
01B7
00B7
019F
013D
FDFA
FDD5
01FF
0065
0136
0067
02B1
FEEF
FEDA
FE42
FE9D
0168
FF57
026A
FE57
FED6
0005
0081
FF6D
00D7
0084
FEC0
FEB2
FDFA
FF60
FD4D
FE85
FCF1
FEAD
FE0B
005E
015B
018B
FD47
FFEA
FEB8
FE2C
FE9D
FF3A
FFD0
FE67
015C
FEDD
0140
FD49
00A0
0206
FFF5
FE29
0094
0056
0109
FE18
FEC9
FEFD
FF9F
FEAE
01C9
FE49
FEC8
0186
01F2
FFFF
FF60
FF75
01F2
FDAB
036A
FE80
FD7E
FEB4
0092
FE8F
FEF5
00DE
FE11
01AC
00A9
FF0B
FDAB
01C1
FDF1
FE85
0289
FF4E
00D6
01AC
0215
FE8F
FDCE
FE8E
021E
FE2E
02F1
FEA2
FF62
0155
FF42
0176
014E
FFA5
007D
FDD8
FDC5
FE7C
FF78
FFBF
019A
FF4D
FFD8
FE1E
022A
FDBD
00F4
009C
FE55
007C
0252
FF40
FDC8
01C6
FD0C
0252
007E
01B6
FDC2
01CF
FEF7
FE9C
FF0E
013F
01E2
000C
FFBB
01AC
FDA2
FD19
FD70
FF7E
00DC
FD90
FD8E
FD53
02E7
FD88
0005
019E
FF94
028E
0234
FE90
02C2
0285
FF01
015A
0329
00B7
FE6D
009A
FFEB
FE55
0168
FE78
0055
0220
FF93
000E
FF18
FF11
FE8A
FD50
FED9
FD44
FF5B
0105
FE38
FFB6
FDB7
FF5A
002A
0037
FEE9
016C
FE96
FF17
003E
00A1
FDA6
FFD7
FF9C
01D4
FEB6
0080
FE31
01FA
FE49
FD35
FE21
FE46
010C
FDD6
FE59
01A9
01C6
01F3
FF20
FD9B
01A3
FF9F
001A
0074
0112
01D1
018A
FF07
01B5
FF2B
029D
02BD
0010
027A
FDFE
FEA8
FE15
0162
FDC7
01A5
FDC0
0191
0021
0185
FFEC
FDFD
FFEA
FEA9
029F
FE4E
0321
0120
FDF4
FFF0
FD5C
FDAF
0279
0173
FFB3
FE25
0184
019E
FFF7
FFB3
00E6
FD52
01D9
FEB3
01BD
0126
020C
0249
FF6F
000B
FE77
0099
0084
00D2
01E4
01E3
FF05
000C
01B6
01CC
FF0D
FEA3
01C8
00FF
FE2A
FE96
0090
FEDA
006F
001D
FDB4
FF50
0084
0100
00D4
FFC9
00C1
FF22
FE35
FC98
FD8B
FF45
001B
0131
FF4C
023D
00FE
FDB9
0233
FF93
FE5A
0095
0297
002E
0213
FFAD
FF77
FF27
0052
0086
FE5A
0218
02DC
00E6
02E2
FFCA
0341
FF9E
0248
0156
01C0
FFD3
015E
02B3
00FB
01EF
02D1
FF8C
0365
FF75
FE40
FF23
FE0C
FDE0
FD60
FE15
FFA1
FFDB
FF37
022E
FE1E
01B5
FFB4
01F0
FF0E
FDAC
FFE5
0091
FD96
015F
FC8C
FE67
FFC4
00B6
0110
FEBA
FF2F
0144
FFCF
025A
FD09
FDD6
FD49
FEF7
002B
FE50
FF80
FEA6
017B
029F
0141
01A3
003A
FF8F
FF28
FE27
01A7
0034
FFEC
FE1B
FF63
FFCF
FE94
FEAE
012F
FE10
FEC5
018F
015D
032C
FDE3
0222
FF99
006D
017C
00CD
0332
024A
00FF
0013
0125
FDCE
FF20
0170
0005
02CE
0062
FF0B
02A0
009C
01E2
028B
FFC7
FDFF
FEA9
FE5A
FF91
0266
006E
016C
0128
FEA7
01D8
0167
FF0F
FFE2
029B
FEBD
FF38
00A0
FEF2
011D
FFF9
0076
00F2
0307
FF4E
FF3F
FFF1
0196
FD3E
02A7
0024
FF5A
FFF3
FEEA
FE4A
0393
FF1C
FD80
00F2
FD97
00C0
0226
FFD5
02F7
FFA9
0219
0078
035C
FEAE
0105
FF1D
FF17
FEFF
FFF3
FEA2
01FF
FE60
0151
FF0C
006E
02A9
0259
02AC
00C9
FF83
0006
023E
0099
FFA6
FE1D
0054
014E
012E
01CC
016B
FE33
0003
02BC
00D8
FEAA
FF8F
FF50
008B
FFA9
005C
021B
01C6
FE23
01C5
0240
0347
0042
FEBB
FF07
FE4F
FFC7
FDE0
01BD
0202
00A3
FEF2
FD41
02E0
FE09
02D3
FF11
FF68
FF17
011A
0058
0270
FEF2
FEA7
0047
FD9D
FE16
FEB6
FF94
0146
032B
028D
015C
01D5
01F6
0219
030F
FDDC
00A1
0366
0124
0399
FFAD
0165
FDBE
00A2
FF95
02D1
FF80
029C
FFD7
0230
FDAC
FDA0
00AE
008B
02BC
0255
024E
FE94
022E
0218
FD8A
FFD5
FE56
02B4
FF00
FFF2
FF60
00A9
FEA6
033C
02C5
02D4
FDF7
0015
02AE
0071
FF6F
FFBC
FFE2
0303
0098
034F
02F5
FE46
01B6
FF95
004F
FED7
FE66
FE3A
FFBF
0239
021E
FE5E
FE42
00EB
FDB2
FE0D
FD53
FD82
0178
FD38
01DF
FF20
FF62
FCEE
FE03
FC77
012A
00AB
00AE
FF08
0040
FDE0
FD13
FDA2
0226
FFD7
00A1
01BD
01C0
000F
0152
FDF0
026B
FF46
FE2E
033D
FF14
FD30
FFA1
01AB
FD30
FE40
0165
027D
FEE5
02B4
FFFD
FEAF
00E6
FDB9
01A9
03F3
FD54
01DD
0071
0176
FE1C
FCE4
FD4A
0183
00CF
FDE3
0295
0063
FECA
00A2
FF13
000C
FEE9
FE07
0101
0293
01E3
0375
017F
0100
0256
000C
032A
00CD
FEBF
01E6
FF7E
FEEC
01AD
016E
02CE
01C1
02D4
001C
FF09
0289
FDC3
0230
0061
02CB
0325
FE3C
FEAB
0142
031C
015F
FF4D
FE76
FF79
017A
FE84
0233
FF82
FE1B
009F
FE4F
FF12
FEBE
002E
FE1E
0167
012F
0248
FE3A
FFE3
0198
FFE3
0001
FCD8
0253
00FF
FDB3
01D9
0226
FD7B
028E
FEEF
FFAC
0223
FE3D
FD34
FFED
013A
FD7D
FEBA
FF3E
FDCD
FC6B
0258
FFB4
FD3B
FE95
FF88
FDD7
FD9F
0170
0140
FD6E
0081
012C
FF31
01C2
FD67
0240
FDE4
015F
0151
00F0
FE42
022D
0017
FDE5
00AA
FF11
002A
FE74
000C
0176
FF75
0022
FDDD
FE48
0255
FEE5
02C9
FFB6
FD88
FF1D
0276
FEE6
013A
FDAF
02D4
0201
002C
0163
027A
0271
FEC2
FFBB
FE0C
FFDC
001C
FE79
FEE2
02A6
01CC
0110
FFC9
001F
0171
FE7E
01B9
FE91
FF42
0322
02A3
FEBB
0044
0269
02B4
020A
FF7A
FD69
0124
02A2
0026
0148
FF9E
011F
FEA3
0085
01D1
FEF6
FD8C
0026
FD62
FF5D
0069
FF66
0050
FFFF
004A
FF86
FFF9
FF3E
0112
003E
0298
FE90
028A
FEBA
FDC2
FFBC
016F
0240
FE6D
002B
0131
FE63
FD04
026E
FD5D
0057
FCE7
FD39
0040
FDE5
00DA
FE3C
00FF
FDFF
01DE
005F
FCFB
014A
0203
FEC5
FE18
021A
FDBA
FDB4
FE2A
FE7B
FE74
FDD4
FF9D
0066
01BE
01BA
FE49
FE2E
0002
FF13
FE3A
FEAB
FEFE
FD7C
FE62
02DE
0337
FF31
02F0
FF64
FEFB
034E
0159
0211
FE54
FF4E
031C
0112
024D
FF2F
FDA1
FDA4
FE27
FEB5
01E3
0222
0194
FE84
0038
019E
0178
0217
FF6B
024C
01F1
FF79
FEB2
FDF3
FFC5
FFB3
FED6
FF11
FFBF
01E2
FEAB
FCAF
0146
FD4C
001D
00F0
0035
FD90
FFB9
0089
0218
0014
0124
0138
02E7
FEC4
01A7
02F5
FE3E
FF7A
FE8C
FFEB
FF2C
FF8F
02B9
0081
FEFF
FF57
FE35
00A6
0080
0033
0304
FDDD
02B1
0146
00DD
FED8
0005
FE80
02EA
FEFA
FF7C
0071
00F8
0254
004C
0215
000E
01C9
0320
004D
FFFF
0230
FDF9
024B
001D
003B
02E7
0014
FF71
FFB5
0118
02D3
0232
01E8
01E5
0311
003A
029A
FF59
028E
010E
0056
01EC
0316
01D1
FD10
FFDD
0002
FFEB
FFEB
0070
FDFA
FE73
FF5D
FDE6
0097
FFA3
FD2F
FE3A
FED9
0231
FCF5
0191
FE1C
FFE9
FD08
FDC8
00E7
FEDC
FD0D
00C6
FF5E
0265
0037
0038
FCA6
00A5
FDC3
FEB7
FFB2
FFA2
FDA2
FC95
01F8
FEE7
FFBD
0065
FFB2
0262
00C8
005A
0265
FF52
00F0
FF89
FCBC
FFDF
00A0
FF8F
001A
022E
FF9D
FDDE
0057
0039
01DD
0167
005D
FF83
01F6
FF69
FF8F
FFBF
006D
FF31
FDB4
FDEC
0356
032E
0251
00F6
0129
FE6D
0040
0253
00C4
030C
FF9C
FF26
00DE
02B9
006A
FDFD
FDBB
FDE3
0066
FD90
00EA
FED5
01E9
0290
0093
FF36
FDA1
021C
00D0
FE7C
FEFC
FD85
001F
013B
01AB
0039
FD49
FD26
FDEB
0138
FE27
FF86
FE5F
01EF
FE1B
033C
FD98
0218
012C
FF13
FF38
02C5
022D
FE0E
00AA
FE48
0144
0066
FD1F
0137
02A7
FEA3
000F
FEF6
01F8
FFB9
028F
002C
0216
FEFB
FDA9
0017
0236
024F
0068
00C7
0140
FFCB
FF11
FEBD
0009
01DC
FD7B
02B0
FEB7
FD2C
FF14
0208
009A
000D
015E
0279
0282
0092
FE81
FD7C
FE1A
FEC5
FEC2
0259
FF8F
FE85
0064
0040
0237
01F9
FE14
0143
FFEA
002C
FE01
0268
0319
01BA
FF96
FF16
02E8
0249
0301
0169
004D
00E3
00C9
FD67
FE29
FFC3
FEA5
00B5
FEB9
0048
FDAA
010D
FFCC
FEBD
FD26
FD2D
0110
FDE8
FEDF
FF53
FF22
FD37
01CC
01CB
01F2
FE85
020C
FD47
FF7D
FF77
FF20
FF84
FF2F
0023
00D1
001C
FFEE
FF14
FFD7
01D8
FF1A
014A
0027
01FB
FFC3
00D9
FE78
FFE2
0121
FD4C
017C
FE76
01F2
0104
FD7C
FDCE
008F
0223
FF11
FE3A
FD3D
01C9
023E
00AB
01BF
FE48
FF82
FFBD
FF08
FF1D
01B2
0139
FEFF
FDCC
FFD2
0219
022C
020A
FF10
FF65
0116
FFF6
0169
01A7
0152
FE39
019F
0061
FE1C
FDD1
001D
0029
FE73
FDD9
FE50
FEC1
FE2C
FDE6
FD84
FDD9
0285
010C
0104
0262
FEA7
FDAD
01CE
0259
FDAB
010E
004A
FECD
01B2
FDB4
00A7
FF0C
0039
026D
FE39
00D9
011C
FE63
FEE7
01A5
00BA
FFB1
0177
FE4F
025D
02B3
FDA5
0217
010D
002A
029B
0262
02EF
004B
015E
0200
0106
FDFC
025A
0057
FF72
02AE
FF84
015E
FE3E
0092
009D
FF19
FD9C
FDFC
013B
FEE1
FD64
011F
FF9C
0161
0271
FFF1
02C0
FDF9
FCF8
0210
01B3
FFBF
FDC4
FFCC
FE51
FE5F
FF74
FEC4
FD3E
00FB
0242
00AC
028E
FD43
FFA3
FF2F
0132
FF9F
FD6F
FEDC
010B
FE58
FFC1
FE2D
FEA2
FFA0
FF34
00BC
FFDD
00D3
FD9B
FF6D
FFD4
FF9B
FFD1
FDAF
FF44
FFF8
024C
02BC
FFB0
FEC6
00DF
01C2
0270
0164
0178
01BE
028E
FDF7
FE35
FE54
01FD
0046
0198
0019
0355
005B
FCE9
FEDB
FDAA
FD9C
FFCE
FFAC
01BF
0176
FED9
0135
0074
0294
FE2A
0162
FE99
FE47
FF63
0064
FDB6
FD0B
FE68
FFA8
0029
0225
FEE4
FF1B
FEA4
FF4C
024A
FE19
FFC2
FFA6
FF84
00D6
014D
02F9
0090
FEFC
FFEF
00BF
027A
01E4
FF90
FEE1
FF27
00E4
02E4
FFD6
FDC1
0112
0187
004B
FC7C
00E4
FE61
019F
0133
0054
0048
FFDF
FD2C
008E
0158
01E2
0156
FFC0
FF1B
02F1
FE4B
FD99
FD80
FD93
FECC
023A
FDCD
FED2
FE60
FE52
0246
FFEC
FE22
FE8B
FDDD
02B6
02F7
01F5
FFFE
00E1
020E
0075
02CF
FF44
FF36
01B1
FEBE
0149
0282
018D
0024
02AE
00B3
01E8
FFEF
000A
FFA8
0058
FE10
0177
FEA2
FF43
0192
FEB7
00F5
FD37
024A
01D1
0163
FD4D
FD53
0150
01D5
0205
003C
FDDC
FDE0
FEEA
0075
FD57
FE86
022C
FF4A
FE63
FD96
FF62
FEDE
FFF0
0093
02F1
FE22
025A
01F7
FF54
0153
FFF3
FE2C
FF5D
024C
FEC3
FE77
0222
FFAC
FF20
010F
FE1C
FF65
FE17
0078
FE98
FE95
0044
0249
0158
FFBD
FF01
FF69
018F
FFCE
01CC
FFA0
0079
FEC0
FDF4
01B9
01BE
FED6
FE93
011E
FE43
FEF9
FEAB
007E
029D
FFBC
02FE
FFA6
FE10
FF6D
01EE
FD8F
00CE
FF2C
FDCF
FFC1
FD4A
FDFD
FFD4
02D4
01A8
FE39
009D
FD74
FF07
FFD6
FE2A
0295
0178
FFF9
FDBE
FE6D
FE33
FEEF
0121
FE2C
FD93
0023
0091
FE8A
004D
FF50
00CC
FD76
FEC6
FDDD
027B
FEBE
00F6
0102
031E
02C3
FFD6
FF14
01F2
01A3
01FD
FFC1
02F3
00EA
FFDF
0359
01D8
01A3
0060
0270
FE80
0242
01BD
01F3
FFC1
0231
FE2E
FE94
0188
029E
FE2D
0197
0268
02E0
0130
0206
02A9
0255
FEB9
013F
FFD3
FEFA
0199
00A9
FE30
FE2D
0031
006E
FD3F
FF2C
FE51
FEDD
FF80
0399
FF9A
FF05
0168
0055
0106
FF23
0197
00AF
028B
FEB1
028A
0301
0336
0147
FDB0
0020
FF03
02B4
000F
FD28
FED7
FF07
00E5
0276
FDCF
02C3
FE58
01C9
01B5
FE9A
0312
FE74
FE8F
00D7
FE80
FFAD
0118
01A2
FFEE
013E
FF4C
FFD9
00C4
0232
FF9B
FF7F
0084
020F
FE50
FD1F
0212
0263
0235
00F2
FD39
FD3D
02B1
0128
FE0C
0247
010D
0161
0217
FF73
FDFA
0156
026B
FF75
0200
FCA2
00B3
0116
00CE
FDF3
00CC
001F
FE35
FFF2
FDC4
FE02
0049
FFBE
0231
01D3
0036
01F4
016A
0162
0145
FD50
0159
FE87
00DD
011A
02A6
FD8A
FE92
01E2
0027
00F9
FE8E
00E8
FFCC
FE1A
FFAB
0043
FE47
0234
01A8
006C
01DE
014D
FEE8
0036
01FF
FFE7
FE75
FF37
FEFD
FE77
0005
FF5D
0207
030F
0198
0075
00D4
FF18
0147
00D0
FE8C
FF29
FF3F
0142
FECC
002D
00A0
00EF
02F8
0011
01DC
025E
015C
00BA
FCC0
FEC4
004F
0099
FDA1
008D
FDA6
FCFF
0032
FD56
0196
FEE6
FCCD
FF72
FE83
0016
FCDF
025F
FDD6
03C6
0201
00C0
FD47
018C
FD7E
00F4
019F
0078
00EB
FFEA
FFE0
FE36
FDB6
0154
FD44
FCB4
0189
FFB5
01AB
0212
FF6D
019F
FD52
0168
FE77
FFC2
FDD0
FE80
FD76
00A1
FF8B
FE78
FED9
01ED
0243
0011
FEA9
FCB1
01A4
