FF52
0010
FD6C
0108
FF70
FF6E
0005
FFBC
010D
0161
012E
004A
FFD6
01C6
00B3
0202
FE57
0012
018D
FF2E
FD79
01FA
FEF1
FEBC
021C
02EC
FE82
0044
FD32
FE30
0087
FEE9
01BC
FDE6
FF26
FD88
0102
0196
FFEC
031D
025D
FEA1
FF75
FE2C
FFB9
FD0B
0221
FD9B
FDCB
FFCC
02A0
0256
FD03
01C8
02ED
0216
025A
FEB6
0275
FF63
FEEC
027D
FEA9
FDED
FDDB
FDB3
01A6
00EF
FED5
FDB8
0200
01A8
FE4B
FF5D
FF02
FDBC
00AF
FD01
029C
0119
FD30
0061
FD55
FC83
FE47
0281
FFB7
FED3
FDEE
0173
01C2
0030
022B
FFD1
0199
01ED
FFA9
0136
FD85
005F
01AE
006F
0142
0232
02AE
00B3
01E7
028B
01D6
011D
0192
00BC
008F
0264
FFC3
FD4A
FDD7
0068
FFD9
0272
0234
FE7A
00D2
FFD5
FF0A
0260
0090
02B5
0104
FECC
00E7
FF3C
00FF
022D
FF26
FF28
00E7
FEC2
00CE
02B1
FE84
007F
01A4
02C8
027E
006B
FE98
0050
00B5
FD71
01BE
0061
02AB
020D
00FB
FF21
FFE6
0033
FFA0
009C
02ED
FFD8
01BD
FEED
FE13
FE89
FE25
0227
00E8
02C1
FD9F
FFFE
FD1F
009F
FF6F
FF71
0032
027E
00A0
026F
FE81
FF49
0112
000E
0259
FDD9
FE4C
FE7D
027F
FF00
FDDD
01CA
00BF
FE46
0258
FF1A
017B
FDE1
FDA6
0081
024B
01DD
FF51
FD57
00EC
0205
FE33
009E
00E6
017D
FDCF
02FC
0139
FF27
FEB2
FE31
0293
FDD8
013F
0263
FE4F
FE5D
FDBA
FED2
FF25
FE33
FEED
FEE0
FF63
FF96
FE05
0308
FE0A
FEC9
0221
01E5
0210
FFC7
00C3
02C8
0005
FDD9
FE81
FEAC
01F9
FD7C
FDBA
FD9A
0038
FE06
FE25
FE06
FD2D
FE7E
01FC
0134
FEFD
01BC
FF48
0183
0280
FE7E
FD96
FFE5
024F
FEDD
0088
0049
FFD1
0263
FE82
00F6
FFBC
0230
FD06
0150
FFDD
FFD2
FD1B
0250
01ED
00FE
FD55
0265
00EB
FF2F
0108
0084
009D
0004
FFCA
006F
02C0
01A3
0159
FE70
FEC0
FE0A
FE03
017D
FE7F
FFBE
0072
0083
FD7B
00A1
005D
FE93
013B
FFE7
FE23
FDF5
021C
015A
FF92
01B1
FE98
01A2
FE63
FE21
FE6F
FD91
01F2
0036
FE04
FEF5
00E7
028D
FD49
005C
017C
01AB
FE36
FDBB
0024
FDB5
02AE
FF44
0220
FCDD
0245
0079
00D7
FF1B
FF4E
0007
0187
FDE9
FED2
0181
FE28
FED5
FE31
FED1
FDB6
0121
025A
FE06
FD8C
FFA6
0082
01D6
FE58
019E
01BB
0003
FD55
014E
00B7
FF86
0102
FD07
0028
00B2
FD7D
0172
FE7D
FE73
0361
FFD2
0072
FD4A
02B5
01B4
0060
FF37
FF77
00ED
0173
0104
02B6
FECA
00AC
FE27
FF6B
0260
FDF3
0100
FF27
FEF7
FF95
0085
0033
FE12
FF51
0238
0238
028E
02B5
FDAA
FEF2
024B
FDC4
0244
FF0D
0172
027B
FE09
01EB
FEBE
FF68
FFA5
0177
FD54
FDE1
FE38
FF74
027A
0149
FDCB
00DC
FFC0
000A
0111
FE74
FED7
031F
FDCD
FE69
0049
018C
0000
FE0D
006C
02BC
FD49
0021
02E4
FD5F
01E9
00CE
FDC2
018C
FE8C
0187
011F
FE0D
FDB0
01C8
FE13
FF93
00A2
FEAC
00E2
0020
FF8C
FDE7
FE32
FEE5
014B
006F
0165
FE93
FDF0
0287
FDF7
026E
FEC6
0173
0063
FDC0
01D9
FECA
01BA
FF9A
FF7A
FE2C
0042
024D
FFF2
00B9
008F
FF8D
FF51
0194
FE47
FDC4
002D
FE6F
021D
FEB6
02F8
0268
0306
FFAC
0119
FFDC
00A2
0043
FD85
FE95
FE12
00DA
FF38
FED5
FDD5
0295
00A1
FD82
FFC8
FF13
FF4D
00D5
FF31
00EC
FF86
FE8A
FF4C
FFB2
FD9C
01F0
FE3E
FF41
0201
FE35
FEA0
FFA2
FF54
0240
FF13
FE36
FF7E
FDB5
FE5E
FD6E
01A6
0257
024F
012F
FF0C
01DB
020D
02B3
FDEF
FEEE
FED2
0303
017D
FFEF
FF41
FE3F
FE49
FEAF
FEFA
005D
FF1A
FEE1
022D
0206
FE37
FEED
FE99
FEC6
FE93
025A
016A
FD63
FE88
0210
FFD7
FDCF
FF9D
01CB
FF59
FDFD
FE96
FF19
FD45
FF52
FEE7
02BF
0273
FE1F
00B4
0133
FD28
FD5B
0250
00B7
FD3F
0014
FE84
FF4F
0190
00D0
025C
0180
FFA2
FDFA
FEED
01B1
0215
009A
00EB
0145
02D6
01DD
FD54
0258
000F
02B5
008A
FE72
FD05
FEC7
02B4
01B0
0220
02CF
FE8B
022C
0252
FD6B
FD86
FE18
FE43
FCDE
FF51
FD21
FE98
00DC
FE16
FDD3
02A6
FDDE
0093
FFE0
FEBC
0025
FFB9
FDD6
FDF3
FE4B
0075
FED2
FE7E
00F0
01B0
FEA8
FD2D
FCAD
FF5F
01AE
015A
02E2
FF61
FE0A
FD16
FECC
FF20
00B3
FE14
00E0
FEC2
01EC
FD6E
02A3
001E
00B5
01A8
01E2
FFAA
00A4
FF2F
0078
0214
0038
FEFB
003A
0201
FFF7
022C
FD27
012F
FF40
FF33
00BD
FF6A
FDCC
01B5
FFBF
FE16
FDF5
FFBC
FD82
FF60
FE4F
019E
001A
FEE5
FE50
FDB0
FE4C
FDAA
020D
FEE1
0228
FFE7
FE1D
01B7
020A
028F
FF97
0237
01EE
0160
0214
FE38
FDF8
FEC3
0099
FF99
FF6E
FF3B
FE98
FDFC
FD78
029E
FFD1
0112
FFA0
019F
FF8D
00E8
FDED
FED4
01AC
0046
FE57
FEDE
024C
FED8
FE2A
FE3E
FF79
025F
00C1
010F
01D0
FE3F
FF32
02DF
FD3A
FFF0
0134
0239
FDC5
FE49
00D5
0095
FDC1
FD48
0015
00A9
FF33
00A5
FFE0
FDD6
FEF3
02C9
FE90
0042
FE09
010A
02DC
FFF7
0122
00D8
01DA
02D6
002F
FE87
FE1B
FF9A
FDCF
FDED
0114
FDC6
FF76
015C
FF46
0181
0057
FFC4
027D
0170
FEEB
FF66
0145
FE82
003C
FF57
0151
FF21
FE83
FEF6
02E2
FE86
00F3
FD76
00AF
FEC2
0158
0158
0102
FF6C
0224
FF23
FE92
FE8C
FDEC
0122
FFFC
FD06
0096
013C
0276
FF63
FD93
FE12
00A6
01B2
004B
02CA
00F0
FFA3
FDC3
0002
FE00
0185
030A
02F8
006F
0114
0204
004B
01F8
006D
030B
0035
020B
010C
00DD
0048
025A
00CC
0095
FDE8
FD0C
FEBF
FEAA
0215
FF47
0218
0107
0254
FF72
FDCD
0063
FF0A
FD72
0222
0062
002F
02B2
FFAA
FD37
007B
FFCA
0060
027F
FD98
02E9
FDAE
01D5
FF32
FD3B
0158
FE68
FDA8
FFD3
FF84
FE64
01BE
00A1
FFE9
0230
FD63
0242
FDF3
0183
0217
FEB9
01A2
022E
02D1
01ED
FEA4
0317
FCFA
FFC4
01FB
0032
FF48
FFCD
FDA0
FFBD
00A6
0065
FD3D
0245
016B
01B0
0028
008E
023B
0282
FF43
01BA
0270
FF83
01A0
00F8
01FF
028B
FE63
01A2
FF7F
FFAE
FE8A
FF2A
FFF1
FE65
FEC6
FE92
0271
FEF6
027F
FE47
0045
0147
FF0C
FDBA
0266
FD10
0081
019B
0221
026A
02C1
FF92
FE34
FE29
FF6E
FDA1
0019
0236
FFB8
FFB8
FD5A
FDC4
02A3
FD42
FE6B
FF20
FE70
000E
0170
FFA7
02C1
FEAC
0254
FFFA
0196
0251
012D
FF2D
0049
FE55
FD6B
FF3D
FE97
0252
005D
FED8
FFA6
01F6
FDF6
FF78
021C
FD5B
FFE1
0184
FF68
FF0D
00D7
001F
0077
FF8F
0063
01B0
00FE
026D
00F0
FE9E
FE8D
FD1E
0055
0051
004D
026C
02EC
FEA4
FFF6
FE1A
0025
FE07
00DF
FE99
0118
FDEA
FD2A
00B2
FEF1
FE52
FF1E
0105
FFC0
FDD6
FDDC
FDA8
FF50
0184
FD72
FFE3
FFB4
030B
FDDF
0079
FFFB
01F6
FCF0
FF4C
FEC8
FE46
0026
FE9C
0082
FFEA
01D1
FEC1
0207
025C
0033
FF62
0280
0168
FE75
0085
FFBA
0207
017A
FE4D
0155
02EE
0126
FFC8
FE73
FDFF
0025
FE48
FE19
FF37
0045
020B
0214
01C6
FFB8
0110
FDA6
0283
FE6C
021E
FDC4
0201
FFCD
0015
FDD0
FFC6
FFC2
02DE
FF36
FFE4
FFE2
012A
025A
FD19
FD40
FDAF
00B0
003E
FDCD
02AA
FE19
FE7E
02A7
FF92
0103
0272
0137
0207
FDC9
02BC
FF39
FF04
01E2
FF50
0028
FE99
FFE9
FD8A
FEDF
0152
FF57
02CC
FE1C
FDAA
FEE8
0275
FEBB
00D8
0018
020F
FFED
FF60
00BF
FD9D
FD6A
FE87
FFCE
00A0
FE17
02AE
0159
FE2D
01B8
FF6C
010C
FE4B
0250
0109
FE51
FD52
FEB9
0043
FDCA
FE85
FE15
FCFE
00B5
FFCB
FF21
FDF5
0137
FECB
0280
FDBD
0287
FEB2
FDE2
02AD
00B1
FF5A
031B
FEE3
FFE5
FF94
01A1
FEC1
0192
FF69
FE89
FF24
02B3
FDDB
0235
FE01
FDEE
00A8
FF27
009B
0261
FFF4
FEBE
0060
0332
01EE
FF23
020E
0175
0218
FE5B
FED5
FE11
FF80
FFA5
FEEF
FE2A
0300
FEA1
FDA8
01F5
0130
FDC2
0148
FFCB
00E7
00E4
01D6
FFD8
002B
FE5A
00C5
FD6D
013C
FFBD
FDD2
FCD7
FE73
00CE
FF4B
FD85
01BE
FDB4
0286
FF9F
00D0
00D1
0003
FE29
FF9F
02CF
FD7B
010B
0168
FEEF
00AB
02A6
FF78
02D0
FD4B
FF4D
FD24
FF26
0088
FE7C
FF24
01F0
0036
FED0
000C
0304
FD97
FFDF
FFD6
FECB
0097
FE81
FF81
FF16
FFA2
0267
FFD6
FD0B
FFAB
011B
023F
0180
0151
FF93
FE9A
FFB1
FF05
01F9
FFFC
0060
0190
019C
0227
FDFF
FEA8
007C
FF35
0170
FF48
0130
0175
022C
00FC
0067
00FD
0276
FE7F
FE46
0280
FFED
FD52
0132
02AF
FFF3
0280
FF12
FE67
008B
FE7C
FE77
FE0D
02A1
02D7
FE09
01F9
FEE0
005C
FCFF
FE91
01AC
003C
FF06
00BE
027D
0062
007C
FD2A
02E7
FE59
FFC8
00C5
FF51
023F
FFC7
FD1D
01D4
01A9
020F
FD99
0051
FE81
0272
020B
0184
FD48
00C2
FEA9
0278
0186
FE97
0251
FEED
00E6
FFD1
FDAF
00D4
FD94
FF94
FDBA
02B5
FF31
FE48
FDDC
FE31
FFB4
FD6C
0259
0304
024B
006A
FD29
021A
FF7F
01B1
FE83
FFDA
00D2
0033
FF13
01D9
0169
FEEF
00D8
025D
01F8
FE6A
0146
01DF
0243
FE32
02DF
FF49
FE8C
01C6
01FB
01FC
FE6C
0279
FFD9
FE62
FEDD
FDB9
FE76
015B
014A
014C
FEAD
0085
FF41
FD5C
01CF
FE28
FE4B
0170
01A0
FEAE
FE66
001A
FE43
FF7D
FE2C
00D5
0163
004F
0062
FE0D
007B
00D0
01DA
FF1C
FE23
02B1
00D5
01F3
025F
FE7A
FDEA
0084
FF58
FFE4
0221
FFCA
0185
01DB
0228
0110
0220
0285
021C
FFD6
0010
024E
0225
FE41
FED3
0244
00A6
FE1B
0254
0221
FE34
0041
029C
00E2
FF28
FE22
FD8A
FE90
0137
004E
02C8
FD93
FF85
FF41
FDEB
0031
FFEF
FD3A
FEE9
0110
FE20
02E4
FD62
FF57
009D
FFB0
008C
015F
FEBC
FD49
01A4
02B8
FEDD
FE37
003A
0250
FF81
0290
0196
0050
00B8
FDBC
01BE
005F
01D5
01C0
0287
0126
0142
FF9F
FFAE
0211
017B
0013
01C5
00B1
01F1
0310
02EF
FD06
029C
FF10
FFE7
00CD
0066
0260
FF0F
FEE3
FED0
0080
01C4
FFF4
0240
FEB3
013A
FF04
00B6
FE01
00F4
0115
FEAC
01C7
0042
FEA2
01C4
00EF
FD7A
FEA9
FE12
01B5
0149
01E4
FDC9
01F9
FF35
01D8
00C9
FD57
FF95
010B
FE85
013C
FFD6
004A
FFFF
014F
FDD1
0089
FF6C
FFFE
022D
0284
0088
022E
FDB5
0198
012B
FCF3
017E
FD96
FF63
016D
FD83
00AF
01C9
01F1
FD95
FF0A
01FD
FD16
029B
0241
FE02
FF3E
021F
002A
0298
0200
FD76
FE4C
0118
FF9B
00C4
FCD3
0086
FF95
FFE1
028A
018D
FD8C
0117
FEF8
FFE6
FE53
0114
FE1B
FF11
025A
02BE
001E
FD6B
0144
00B5
FE3B
FDEA
0181
FDDD
0278
0058
FF85
FFB7
FDC5
0175
FD9C
FF1A
FE99
015E
FF91
014D
FEF6
FEBC
FEF4
0256
FFA6
0162
01D8
00D5
00C1
01B9
FE20
FF96
01D0
003F
FDAB
01DB
0009
01D4
FF8F
FC93
FFE5
FF4F
FE80
011B
00F2
FC9D
014D
000E
FDDF
034B
FE7F
0018
FE1E
0067
FF1C
0308
0048
0162
FFCE
0085
FFA0
FE0E
00DD
FDA7
FD1B
FE79
021B
FED2
FEA7
FFD7
FDEB
028B
00CB
0212
FD28
FFAC
01C7
0262
012A
FF9F
FDE0
FEBB
FE49
FD9D
FF69
000A
00D1
FFA1
0138
FE23
0149
01E3
FE2E
FD42
FE12
011E
FF27
FE9A
0188
015A
0013
023E
025C
FD3D
012B
018D
FD74
010B
FEC9
FD5E
02AC
FE2A
0268
021E
003A
FF05
02E0
FD0A
FDE8
0264
0166
FE3A
01D4
FFF9
FE18
00E0
FE00
FE91
FE20
02DB
0295
00A0
0105
02D4
FD70
01F4
01F8
006B
0048
FF9E
0269
023D
0086
0286
FF19
0229
FF6F
FF4B
FDD7
0261
FDCA
0130
0148
0161
0310
FE46
FCFC
FFDD
FFB3
02DB
0112
FF03
009B
01A3
FEB6
FEF6
0245
FD8A
0239
FFE9
00A9
0219
FF1D
0213
FD85
0027
0128
02A0
01C8
FDFB
0209
00A5
FE24
019D
017D
FDB0
FFD9
FFCF
FFF7
FFED
001A
0214
FE53
FCF8
FDAA
02C0
FF38
025A
01A0
FE57
FEE4
0196
028A
0022
FF41
008A
028F
FEBF
FEAC
00D8
FE4E
FE85
FD5A
FE2B
0206
FF23
FD58
FFF3
0149
002F
FFC5
FE34
005F
00DD
00B0
0251
FE7A
0242
FDA2
01AD
0222
FED8
FDA5
015F
0311
FD6B
FEA3
FD59
FE52
0192
FFEE
FD81
0139
001E
02B7
028A
0254
FEB6
FF7D
FF1B
0042
FDDD
00A0
000A
FE92
01D1
FF4D
01B8
02A6
0242
027C
0051
FFAC
017C
0154
025B
FFB6
0141
00C4
FD72
0051
0119
FF60
0160
014C
FEC7
0246
FE3A
FEBD
011B
FF40
0223
0169
FD10
FE25
0073
FE5E
0155
FF44
0025
00AC
FF5D
0283
FEEE
FED8
005B
0034
FF03
0197
FE24
FD53
FE94
FE2A
0189
0209
FEC8
02B1
00CE
0215
00AF
002B
FD19
02A4
024E
FEB9
0234
00ED
FFD8
FED6
FDBC
FC9B
02E8
0250
01C5
FD72
0268
FFAA
015B
FDDD
0087
00A9
FF57
FFE7
FF8A
FE13
0085
FF14
FE3F
0242
FE1C
FF90
0082
FF52
FD4A
00DC
FF91
FFA4
01FA
00B4
FF49
FF0A
0016
FDA0
028E
0110
FF0C
FFF2
0098
0224
026E
0217
FD8D
0115
01F6
FDE0
FCEC
02B7
FD89
FF1E
000E
01E7
FFD6
00CF
FD2C
FEF9
FEBE
FE33
01FB
0164
00FA
01B4
015A
0125
FD45
00CD
0313
0154
002F
023B
00A2
FEF4
0256
00D7
016A
01E1
FE88
0287
0033
004D
FD64
028A
FEF5
014F
