0135
FDE4
0049
FE48
FEE6
00B5
FC33
FF59
003F
0068
FF02
00DE
0086
FFD5
FF7E
0124
FF5C
00AD
FEC8
FF36
00C2
FFF9
017E
0197
FCEC
FF30
00E8
0120
FEEC
FFBB
00FE
014D
FF89
0064
FD5E
FE27
FFEC
FDB9
FF49
FCEA
FF48
0024
00EB
FEE7
FE19
FFEE
FFA3
FFB6
FF5E
FD37
FF71
FE46
FCFA
FC06
FE12
0225
FE90
FEFE
FF78
01DF
00C0
FF70
FE73
FED2
000C
FF8B
FEF6
011D
0096
FEEC
0155
01F1
00E1
01AD
FF2F
0103
011C
003F
FEF5
00B5
007F
FDF5
FE70
FF4C
01A8
00D6
0087
00AA
00CB
0004
02AC
FF9E
FD3E
FFBA
00F5
FCC5
FD04
FF7D
FE75
006D
001E
001C
FFEC
FF01
0097
00B6
FF8E
0071
003D
FF38
0170
00A8
0074
FE71
0029
00E8
00AF
FFA9
008D
0266
0239
00AA
FF8C
FFBC
FFAB
01D8
0240
00A0
0119
0135
FE5C
0034
FEAC
FE8F
021A
0049
01A7
0001
01AE
0214
01EE
FF24
00FB
0039
02DA
0122
0189
FFDE
FDE3
FFBD
0075
FF06
013C
01A4
006C
0001
FE6C
FF8A
0142
012E
0046
FFC1
0214
00E5
FF6A
FF7F
00CF
00B2
01ED
FEB7
01F2
01D5
00C4
0096
FDC3
003C
FDB2
02DC
02D6
FFE7
0100
01AD
0026
FFF6
FF95
01DB
006E
0117
FF98
020B
FECE
FF4A
0148
0260
FFA6
0265
031A
0261
023D
00AA
0011
0204
0282
0145
0161
FE6D
00C7
012E
0183
00CE
010F
024B
0023
FDF6
00F0
005E
005B
FFBF
FEF7
0116
015E
FF4B
0059
00B5
01D8
010B
FFB1
FF24
0047
0194
FF32
0197
FFDE
0252
0088
00EA
FFBD
0046
00EF
FFC2
0332
FFA7
FF3F
FECB
0250
FF70
FECB
0048
0103
FFEF
01FC
01B6
01B1
FE4A
FD83
0114
FFD0
FF85
FF87
007F
01B0
FDBC
FDEF
00E6
00AA
0059
01AD
0065
0046
019A
0018
FFF7
014B
013F
02F7
008D
0160
FEBC
01C4
0073
FC5F
00D7
01F0
00F5
0021
00CD
008C
00C0
0256
FFE3
FF70
003C
FFC2
0017
0164
FE8C
FDE2
FFD6
0028
FE5F
FE32
00EE
00ED
FFA7
FFBC
007C
FD26
FF20
FDF0
FFA8
FEEF
00FC
FF48
FF3F
0094
FD94
00A1
006E
0047
FED7
FF61
FFB0
017C
01EE
FE64
FE6C
FDF9
006E
FFF5
0010
FDD0
FEC6
FFE0
0119
FF11
0071
FCA6
FF01
01E0
003F
0093
FF9D
FE40
FF14
FF41
FEEB
FD22
FF82
0237
FF93
FF68
FC28
FFD9
00FE
004A
00F7
00A9
007C
FE58
00D3
FEE3
0113
FF47
FEFF
FF6D
00CC
FFA1
FEA0
0134
01D3
0057
0093
FE3E
FEEF
0024
FF99
FE0E
FF3A
0072
FECC
0098
FF69
FB57
FFC5
005C
009C
FE1A
FF39
FCB6
003B
032F
0033
FFE3
0288
FF35
FFFB
00C3
0109
0071
FE4A
0094
0023
FDA5
00E1
00BD
013D
01A9
0011
FF6C
0071
00A4
FFD7
00A1
0053
0168
0017
025C
0266
FDC3
FEF4
0094
0002
00C6
00BD
FE63
003A
011A
FF28
FFEC
FF4D
FF4D
FE92
0086
019C
0037
0077
FF56
FF64
FFCF
0018
026E
0089
FFFC
0200
FEC6
01FD
FFAC
FE0C
FF48
FFB9
FE6A
FF20
FCFA
013D
015A
FD47
0012
FE8D
FCDC
01EF
FCC5
FF84
FEF4
FF1A
FF69
FF63
FC91
FF0D
0033
01A9
FEBE
0086
FEBE
0196
FED2
FFB6
FEC1
FD75
FE6E
FF55
009A
017E
FF9B
0115
FCA2
FF8C
005A
FFA6
006A
FFF4
FD38
007C
0293
FF7C
00ED
0156
01BB
006F
FDF3
FF36
0182
FDEE
0124
FD2C
002C
FF45
FFDF
0147
005E
00FD
01D2
FFA2
014E
01ED
FF21
00DA
FDFD
02F1
00CD
00DD
0037
01C5
0206
FCA3
004D
0096
0094
FE67
00E1
FEA8
03CA
00BC
00B6
008B
FEEC
00C4
FDD8
000E
007D
0009
FEE0
FF83
FF3D
FF6A
00F5
FF53
FF8C
019D
FD4B
FF3B
FF36
FFEB
FF19
FF18
0174
009B
FFF9
FFD7
00EB
FF1C
0011
00DA
01C2
FE30
FEF0
00A5
0153
FEA4
0092
0105
00D5
002E
0138
0046
00D5
00AF
01D2
007E
FFA6
FE3C
FF9B
00B0
FF70
FE99
FCBE
FE45
FD81
004B
FFAC
0033
01B5
01FC
0371
FD7E
0129
FE11
00B7
FF91
FF81
02DF
FE0C
00F7
005B
FDF6
FE78
0004
004F
02EC
0036
FF8A
03AA
017F
00B5
0060
FFA0
0089
FFE9
0248
001B
FD94
FF13
0210
00D6
001E
0151
FF55
0146
003D
00FB
0239
FFFD
0019
FFDD
FFBA
FF4D
FF4A
FE99
FC7E
FFFB
FFC7
FF54
002B
FF85
FF25
0104
FEFA
0193
0506
FCF6
0092
01E4
FF6E
0107
FD8E
FF05
0016
FF98
FF8C
FD46
FEDF
FD78
FF50
021F
FEB4
FDBB
0157
FF1C
FE5D
FE9D
FE63
FF57
0017
FE1A
FD51
FEDC
0141
0043
0013
010F
FFF5
FFB5
FE3A
00E0
FF0E
0334
00BF
FEDE
0022
FFCE
FF96
FE9D
FF3E
FCED
00F0
FF33
0196
006B
FE7A
01A8
038E
0331
FE1B
FD98
021E
0012
0117
0142
FDED
FE90
FFAC
FFF1
017D
001E
006E
0170
0133
FFEA
0049
026F
FFDE
FE98
00F9
0201
FEB8
0114
00D0
02B3
0087
032F
01FD
0032
028B
005C
FDDC
023A
0102
FC68
0281
019C
0045
FF98
FE89
FDE1
FEAB
FDA6
0191
00BE
01D6
012F
003D
FF80
FE87
FF9C
FFAA
FEBB
FF45
FF06
02C4
02BF
01E4
0061
003C
0222
FE45
FED7
0085
FEAE
0047
FDF0
FE34
017E
FF99
000E
FF36
0059
000F
01D3
01E6
008A
00F6
00B5
01AC
0081
02C7
0049
0191
FFC8
FFCE
FF60
FF35
00B4
FFD9
01C0
FE1B
FFEC
FEF2
01B9
02E7
020D
FF21
FFBF
FF96
0089
009B
0131
FF8E
FDB5
FDD3
FFC5
004E
0114
FFC9
FE6C
FEED
0072
00D4
FFF4
00FA
FCD3
FF36
FEEB
FD82
FFBA
016B
FE89
FF8E
0031
032E
008E
FE49
FFD2
FD1F
02A5
FDCD
FE94
0181
FE66
01DB
FECE
007C
01B8
010C
014D
0098
01C2
012F
00DE
0136
FD89
FF35
0060
FF9C
00E5
01A9
FDEC
FF57
025E
00D8
018D
FF9D
FFBC
FFD8
FE5B
0389
0000
00AA
00FA
0258
FEB9
FF5F
FFB1
FFEC
FE83
FF35
FE10
FD2F
FDC6
FD42
FFC5
016C
FE8F
03C8
0116
FF9A
FD8A
00F2
FFFA
FE5B
FE27
FE78
003C
00A1
FE58
0150
FEA2
00F5
0110
FFFD
022E
FEDE
FDFA
FF20
FFFD
FF1B
01A1
FEF2
01B9
FC08
00D9
032B
FEFE
01E3
025C
00D2
FF0C
FD74
01FF
0271
FF4B
FF60
012F
000F
FEED
FF02
038D
FFB0
FF87
012C
FF87
016A
00D3
FE95
00C2
0079
0150
0053
014E
0029
FFAB
FF0B
FF45
00DC
FE0F
FEDD
01EE
00AD
0147
FEBC
008C
0233
FF28
FF70
FF47
FE5F
FE08
00D4
FFC2
032B
008F
00F1
007E
0345
0085
0063
0168
FFF7
FED6
FEBB
016B
01E4
00B2
FF57
0004
0162
01CF
01A3
0139
00DE
006E
FF7C
0327
010C
FE61
0461
0032
FFCD
FF34
FF89
FF45
FE20
FF88
FF57
FF0F
016D
0010
0054
FFA5
0141
017F
00A7
FDF2
013D
FE8D
022B
0083
0092
FDCC
01D5
FE85
01AE
FF82
FDBB
FE67
FF4E
FE1B
0089
FF39
FF84
0193
0115
FEC9
FF6A
008B
FEA3
