FDDB
FE1F
FFDC
0028
FEB8
FDB9
026D
FFD6
FCA0
01F3
0280
0155
0162
FDBD
FD85
FE72
0120
01A8
0053
FD46
FF0F
FD55
FF06
FE57
FE74
FF85
0144
FCAF
020E
0165
003A
FD26
0013
FF78
0009
FFEA
015A
01DD
0279
FFC4
0381
01D2
FF2B
FEDA
FF7E
0054
0102
01FD
FF1F
FED8
0160
FFEC
01C6
FF2C
0027
0385
FFE3
FEF9
01C0
01DC
02BD
02D4
01C3
FFF5
0073
0072
007D
0041
024F
01DA
FD18
FCED
0087
016C
013C
FECA
FDC6
0270
003A
FDCA
FF30
FD17
0330
0053
0057
FEE2
FE1F
01F0
FFA9
FEAD
FF69
025B
FF19
FDA7
0084
0113
FE44
FD6A
FCF3
FE7B
FE79
0057
FDC9
0046
007B
FEF8
FC19
002B
FE6D
FE53
011B
0021
FF10
0056
FD50
FFA3
FE3F
0110
FD01
01D7
01EB
FDE5
FC8B
FCE7
FEFC
01B6
FEE9
028F
FE0C
017C
FE84
FF4C
FE11
0195
017F
FC64
019F
FEE9
0071
FF82
0242
038A
02D4
00B0
01C5
027D
00C3
FE08
0075
0035
0095
015C
032B
FF5C
00FA
FDC8
01CE
FFAC
00F6
0307
FD17
010D
0081
006D
FE7D
FD1E
FE65
FE4A
0048
FD75
0198
FD95
FE1E
FEF9
FF64
012F
FFDB
FD63
019C
0051
0111
FEC8
FCFC
FF15
0148
0210
0010
FD67
FDD5
FDF9
0195
FEF3
01F2
026C
025D
FF64
0008
FDC7
02AE
FF9C
01C9
017F
011C
FF40
02D3
0258
0417
0226
01FD
00F5
029B
0084
0128
FEF4
0245
FDFE
FF44
0009
0016
0120
0353
0069
FE41
FF77
FE48
FF29
01C7
00E1
015E
FE72
FE93
02D7
FFE5
FFA6
0079
021D
0313
FEE6
03E6
0140
02EB
FFBE
002E
0225
0042
FFCE
00C6
00E6
0089
005B
FE5D
025D
FF4B
012E
010D
00D3
FF2C
FF66
FE7B
FE8D
00AF
FD46
FFD8
FFBC
FFA9
FD1B
FFDD
FFBB
01C9
012A
FF57
0154
FFB1
FE38
FDE0
00F8
FD21
0205
FFD9
FF33
FEB7
FCD3
FDD2
0176
FE0E
029D
FCA9
FE6D
030F
0365
FDB8
02A1
FEBD
FFF4
0230
FE3B
FF9C
029F
FF7B
004E
00CB
FFC4
0135
FE39
FEED
02EC
FFD7
0000
0135
02B9
FE12
FEC5
FE78
025B
FE5E
024A
02E9
01A5
FF42
02DE
FE72
022B
FE3D
FEB3
018B
01DE
01D7
013A
FF1F
03AC
01E2
FE23
0116
FFCB
FE29
01EB
0345
FF0C
017A
015A
FFE0
0139
0026
0260
0196
FF65
FE2F
FF14
FED9
0067
02D5
FF0B
00E8
FCE6
FE7E
00D0
00E0
FD48
FF6C
FDD7
FE6C
0376
0033
0261
FE68
02AC
004C
FF4D
FED2
0166
0155
FF95
0020
033A
00A4
FD30
FC7A
004B
026E
00F0
01FE
01AC
FE85
005C
FFD8
FD94
FE54
FF06
0234
00C1
FEB4
0034
FEE4
FC75
0081
017E
018B
FFC6
FCAF
01E1
FDFB
0177
00F6
FEB7
FE2C
FE3F
021D
FF9F
FEDC
FDAA
FFD9
FD44
0073
FDFF
FD1E
FDA5
FF59
FCEF
FFFD
FD8D
023B
00C1
FF71
FEBD
00F4
FE42
0071
025F
FDEF
FEEB
FF29
FDB2
FD82
FF83
0075
0131
FC99
01DB
FD38
00F4
FE5E
FE10
FF60
FD9A
FEBB
00F4
0111
0307
0126
FDE0
01E5
0113
01FF
018E
0308
003A
FECE
FFB2
003A
FEF8
FE87
01ED
02E6
FEAF
00EB
FEF4
FEF6
0222
FF21
FE3F
028A
FE5A
0072
0249
0382
0078
FF94
02CE
017F
FF4C
FD8D
0198
FEBF
00D6
FF35
FC1A
001A
FC5D
FD04
0192
FE41
FDAD
FE71
FCC2
FDFA
FC7F
FEB9
FD6B
01CF
011E
FD3E
FF0A
FF2B
FED1
FF36
003A
FD49
FE61
FBEA
FD1E
0109
FF2B
019F
000E
FDDB
FEDB
FE75
02B6
FEEB
01F4
FE05
021B
FECC
000F
00A0
02BB
0001
031D
0167
0112
FE46
FE83
02A9
0115
01A0
FEF8
FDD7
FF94
0262
0131
FF2F
FD5B
FE76
FFF5
0198
FF33
00F0
011F
FEE5
FFA5
0181
0055
002C
00A9
FE23
026C
FFCD
FEBA
023C
FE53
0173
030B
FFE1
0321
02E2
0189
01B2
FFB1
FF63
FEE2
0282
FFB3
01CA
FF7F
0276
FE46
FFBB
0019
FFB3
0245
04F5
FEF4
FE8F
0216
01E8
0389
034B
FEF8
02A4
00A7
00DE
FEC1
011F
0023
0236
FEBE
00D6
00CB
FEBB
FF9D
03D6
0068
01CA
0445
00A7
FE92
FFD0
027E
000D
03D0
0153
00D8
0013
FF9F
018A
FFF4
0059
022E
0144
FE3F
FED7
0057
005D
02A1
02B8
0266
FEB2
0316
FF12
FFB0
02BC
FDF7
003F
02F7
FECB
FE46
01AA
002A
0053
FD65
02BC
FE8E
0103
FE3C
0225
010B
0158
0347
0263
03AA
0209
00FD
03EE
04E8
01DA
0382
0228
0179
0173
0151
026E
FDCF
01B4
029A
FF94
001F
003F
0208
02F3
FFDB
00D8
0296
001F
FE66
FFAF
FE0F
FDB2
03A5
006E
01F8
FED8
0356
00F6
0052
0380
FEC9
02B3
FE75
01CF
00C5
024B
0285
01A5
00FC
0033
0102
00E5
FE1D
FE78
02CE
FF97
006F
028E
01DF
FFAE
0172
FF0F
01CF
FD70
FE55
FF4D
0181
FFD0
FDFA
FF0E
FD4E
0360
0263
03FA
0248
02EC
FEBC
000C
FE51
021E
023E
014C
0180
0173
FF6E
FEF1
023F
0347
02DC
0254
FF08
FE7E
FDB5
00D3
00DF
FF76
FCF1
FD21
FE54
0065
FFD5
0115
00CB
FF6B
FC57
FDF0
FD58
00B3
FED6
FD28
0244
FC4D
01BE
022B
FD7C
FDAD
FD2B
FD6F
FDA6
00B0
0228
0224
FDE1
017A
FC8F
FFAE
000A
022A
0114
FC90
FFEC
01ED
FDBF
019C
FD9B
031A
FFA7
FC8C
FEC6
00C3
00F4
0216
FFD6
FEC0
FAEF
FC1B
0381
FEE3
FFF2
02CE
016B
FD83
03BF
FD8B
01DE
FEFA
015B
0381
FE1A
FEE1
FE2D
03A8
01B4
FE07
FF2A
036F
0133
00E1
FE76
011A
0300
0119
FFE6
014F
0294
01B9
037B
01E1
FEF7
FE7C
FE29
0263
0184
0198
00F8
FF5F
00D4
0375
FE48
FEA5
01B8
FF37
01C8
FE3D
01E7
FF78
01FD
003B
FD61
00A5
0005
026E
FE59
0356
FECF
0000
FFD7
FFD0
FE42
0043
032A
035B
0051
FE5F
FE6C
014E
0078
00F9
02DB
00E5
01D5
FECD
018A
FF3A
FCB0
FD30
FFB2
FFA3
FDFC
FD49
FEBE
013F
FDE7
005B
FE82
007D
0131
FDFB
0046
0129
0104
010B
FDBE
01E0
01D7
0016
0003
0064
FE4F
FD73
00B1
0301
0353
FDE5
00EE
FE4A
FE76
003D
0131
FE83
0022
00BE
FE61
01DF
FF51
040A
FE77
0341
00CC
0161
01E5
020C
FE98
00F4
FFE8
FEB0
014B
007C
FED6
0090
FDFB
00D4
002B
FE69
0183
FD89
FEFF
01B7
0122
FFEE
00D7
007F
00DB
006A
FD63
FFCD
023D
0190
0324
FFC1
00F5
00BF
0032
FF95
FE35
FDFC
015D
02A6
034E
03BA
01F1
FF4B
0185
00E1
FED2
FE59
0215
FFFE
0254
FD5C
0035
0093
0039
017D
FF79
FE90
023E
0226
00F9
002C
FE03
FE4B
FFE0
0146
FCAB
FEFF
FD79
FF47
FF4A
FCC7
FDB8
021A
FFC7
0214
0163
019F
01BD
FD5A
FCC6
FD29
FDC4
FDCE
FE35
FE57
003C
FF64
FEFF
FE43
0213
01AA
0196
FCEF
FCDE
FC45
FCF9
0189
FED5
000F
FEC8
00BC
003C
FE1B
FEE2
0067
FE56
FE1A
FF98
01E9
00B1
00E6
01D6
FE3D
0000
0310
00B2
FF95
FF92
034E
01BE
0071
FF3A
0253
01E0
035A
FF79
0232
00F4
0181
FEE9
01B0
0039
FFC2
0017
02F6
0258
012F
FEA8
01CF
02D7
00C9
FF9F
FE50
FEDB
021E
0064
FEAF
FF92
019D
00B5
FEFE
FCEE
00E6
FF25
010C
FFBB
FF13
FD2B
FE74
017D
FE14
0234
005E
0055
FFB6
FECF
FDF0
00FC
FFD4
001E
FC2F
0269
FE20
FF05
0346
FE16
FF30
FEDF
FFDE
0124
00F7
01D9
035F
FE7B
02DB
01A6
FFBC
026F
FFBB
0315
040A
FE0C
0348
FE4C
0325
FEE0
026C
0204
FEF9
FDA6
02AB
00D1
018C
FD51
033F
FF7F
FF9C
0275
FE4B
0309
FFD4
0357
0057
00A7
01A5
0325
FDFD
004F
FF36
FFAA
02F3
FFA6
0117
001C
0386
0366
0257
00C2
FEF1
01AB
02E0
FDEE
FF1A
00AC
FF50
0245
FE63
0091
006D
00DA
00C8
FE3A
007C
FE5F
FF84
FE2E
0120
009F
0113
0298
0062
FE3C
01A6
FD3B
FFB4
00A2
FEBF
FE46
FF5E
01A1
FE80
FEE1
019E
0141
0064
0069
FD4E
FDBF
0001
FD1D
007D
0180
0116
FDAE
FDB8
0127
FD28
FF79
FD26
FFFA
FD4B
0165
FC1A
FF69
0101
00EF
0050
FD63
000F
019F
FF9C
0105
FE2D
FF4A
003A
FDC2
0058
0185
FC58
0161
FF48
FF7B
03C2
01C5
02BC
FFEE
01AA
FFD7
0032
033E
FF94
01A2
02D7
014C
03B3
00CD
FEFB
01FB
03BD
003A
FFCD
FEBC
0028
022B
0073
FED6
036B
02B1
0268
0244
FF3C
022A
01BC
0001
0152
FE5E
01E7
FF62
FFCC
01AF
0163
0402
FD53
0219
000E
FFE2
FFC6
FF59
FEF0
FF4E
FF1F
0215
FDF3
003D
FFBA
010F
0105
FF24
FFAE
00D1
0154
FF74
FFF1
FF82
FEF2
0054
004D
FCDB
0077
0009
FFBE
0077
00DC
FFD9
FFFE
FFE1
0211
FD3F
0109
0000
0100
FD13
FBF6
01DA
FEF4
FD49
FCAF
FD8E
FD93
FD70
FEED
FDA3
FEF9
008D
FD43
0173
FE9D
FFBF
008B
006B
FFFF
0046
026A
FF8A
FF60
0208
FE3E
0275
020B
0149
0020
016A
012A
FE4D
019B
0074
FEF8
015D
001D
00F1
FF5C
FE70
0372
0083
0309
0179
026B
FE01
FDE6
01DE
0065
FF42
0138
FDB1
0177
FEFF
FCEF
0195
FD1C
FF02
FCF3
00F5
0198
FDCF
FF38
005A
00DB
FF41
002F
FDE3
FE58
FDE2
FD2C
FCD9
01B9
FFAC
FE00
FFFB
FF15
FD52
FF40
00C6
00B4
0230
018E
0039
FCFD
FD4B
0037
00A0
FED1
0162
00EE
0233
FDF3
FC69
00DC
01DC
FF1F
FEDA
FCC9
0192
FFB1
0244
FEC8
FF86
FEDD
FE70
FF46
0134
0016
FFDD
FF99
01CB
FF04
0053
0238
02DB
FFE0
029A
0275
FE9C
02C5
FE90
00E3
FD44
00B0
0089
03FA
FED5
03AC
FFF3
FEE5
0191
01E1
0349
0247
0036
031D
FEEF
0181
FFB7
006D
0254
FEA5
00F5
FCCB
FCE3
0164
01AB
FD3A
FDAD
FD56
01D2
FF8A
FD7D
0056
FDE8
FF58
FE7A
FDF0
01A0
FE04
00DF
0172
FD18
FFF1
01B2
FDC7
0186
FCBB
0262
FF4B
FFDD
FE6E
0172
0197
FDDF
FE32
00F7
0115
FDDE
FDEA
00AD
01BA
00BB
01B7
0399
0164
FEA7
FEAD
0155
00FA
FF31
013E
FFE8
0136
FE6E
FE8C
0279
014F
0217
FDD8
0284
02E8
FF58
0313
0145
0008
FF9F
FE42
FCF7
01FD
FF2F
FEBD
FE79
FE04
FD6A
FFFA
019D
FE53
004E
00FE
FEA3
FE5F
FF1F
FEF5
00E0
FF7A
FD5E
FEA7
0079
FE5B
0018
FF28
0081
00F6
001E
015C
00A1
014D
02C1
009E
00B5
0269
0243
012B
FEF7
FF32
FF7C
0010
02AC
0291
FEFC
FE5C
02F0
FE2A
FE0A
00E6
FED8
FF07
02AA
0232
01C4
FF3D
FE58
FF05
005B
FFEA
FEA2
011C
FF09
030F
FF43
FE32
00FE
010F
007E
FF02
FCCC
FEDC
007F
FE5D
FF76
027C
FFFD
01FB
FF6F
FF46
FF9B
FFA2
00EC
0313
0015
013D
FE4E
00AC
00A2
FEE9
01A9
FC83
01C9
0032
FD9D
0074
023F
0175
0057
02BC
FE00
FCDC
0079
0299
FEC2
FC0B
FE29
FC68
0221
FF80
FF62
0107
FF2E
FE22
FE69
FF5A
FFE9
FFD1
00E7
0432
FC9F
FC51
FCFC
00F1
FF60
00AE
FFA1
FDE7
004D
0186
0018
014B
FF01
FEA9
0350
013C
0283
FF04
FDC0
0031
FF1E
FE16
007F
FF08
0357
FFE0
FEAD
0190
0029
FEE3
FFEE
010A
00D3
FECA
00AE
0024
0003
0208
01C7
FDE3
FDE0
00B2
FE97
0204
024D
FE1B
0142
FE2C
01B4
02F8
FE46
01CE
FD82
0076
0258
0300
000C
FFE2
FE80
FFC7
0147
FFB2
FE6F
FF2C
0027
0322
031D
0227
FFF6
0299
FF7F
02ED
0397
0160
02BC
FF84
0249
0231
FE3A
0012
03A6
FE52
0051
0348
FD8A
0289
0127
0091
0263
FF47
01FE
FEDD
FF22
021F
FDD5
0182
0134
030E
020C
03C8
FF0A
007C
00B5
01CE
FF4A
FFA7
FF9D
FDD4
FDA5
FFE2
01D1
FF8B
FED7
02AD
FFBE
00C5
0008
FEE9
FFE8
FF29
00B4
0093
00F1
FFBA
FE41
0219
01D5
0285
00B4
0087
FF5D
FEF9
FE7F
0126
FD7A
0125
001F
0075
FF88
FD83
0243
FFEA
005A
FC62
0170
014B
007C
FECF
006F
FFBD
0255
FF57
FD63
FC58
FD66
00C7
FD65
FDB8
FCD1
FD7C
002C
FFED
0219
01F0
0281
018D
00D3
FD6A
01BC
FEA1
FECF
FE3F
0166
027D
02B4
034B
FECE
FE2D
01B5
FFDD
019A
02CF
FEAD
002B
01FA
0021
01DB
0360
FEF5
0130
00B8
FE6F
0363
005A
019A
02B3
FDF5
FF1E
FEC5
01B2
011A
031B
FF01
FF16
0101
FFB9
FEC7
FE85
005A
004C
0139
FF96
00D5
FF57
0223
FF5E
FED6
037A
01B5
0358
023B
02A7
0051
FF8F
006D
FE5F
FED1
0352
017A
01E6
FFDF
0261
FFCA
FFB3
0194
021A
FFFE
FD3D
FEB6
FEC3
0085
FCE4
FDE0
FEEA
00FB
00BF
FCF1
028C
FED2
02E7
0211
FD72
01C8
019F
0235
0139
FED8
FDDA
FE27
FFC1
014C
FD35
0170
FE4D
0193
01E1
0004
017D
0104
0190
FF53
FDBB
FCC5
FD3C
00C6
FCC9
FDCB
FE6B
FEE4
016D
01E7
FDCF
00E6
FFFB
FE69
FDD0
0140
003F
FD5F
FD77
FE95
0043
0176
FD65
FE2C
FE47
02AD
FFD0
FFDC
FE00
0238
FFB4
FEBA
FE2C
FE90
FCEC
FE95
FE0A
00DB
00DE
FF53
00AE
FDC9
0174
0082
0033
FF0E
0193
01A7
00A9
002F
FF21
FD2C
00B8
FD87
0139
FE01
0089
0112
00C8
FEA0
0004
FF9F
00BF
FF49
022C
0248
014F
FF09
00A9
0051
0174
045E
0205
02F6
0315
FE0E
029C
FFC8
016D
02C2
FCBD
00D4
033F
00B4
FE22
FF5D
030E
FDDF
01B8
049B
FCC0
FDBB
0036
01DD
020D
FE0C
FC27
FF94
003D
FF8F
FD11
FD37
00D0
FD51
00A4
FEEC
0124
01AE
FF7E
0180
00D8
FEBA
FC16
FCF8
0059
008D
FFA0
0062
FF44
FF90
FC34
01AD
009E
FE78
FEB4
002B
FCFF
FE0F
FD15
FD92
0055
0165
FD35
0179
FDA6
0038
0030
FD6D
FE0D
FEAD
0145
FE9F
0014
FDAD
FCD0
FFA7
FEBA
FF57
0039
000D
FE10
012B
FDD4
FF02
