FF06
03A2
F753
028B
029C
FAD6
07ED
FFE8
0667
05A9
FEFE
FE25
F6C7
FF48
02BE
07E4
FD6E
FEE2
02CF
0389
02D3
03FD
FE17
004E
0196
FF23
F91D
FC6B
00B1
0229
F770
EF12
FAB5
FBFD
0180
03A8
027D
0255
F98D
042E
FE38
0238
008D
0B34
FFA0
05C2
0419
FD7F
FF78
064E
F930
F8AB
F90C
FBE4
FE65
0ED6
01DD
FF6C
FE6F
05EE
01B3
06AC
1472
F525
079D
FF0F
0C8B
0551
FB72
03E0
0363
0A12
08DE
FDE5
0232
03D4
0457
FF54
049F
01E5
0782
049B
0608
FCF0
0730
FC43
0340
0047
F41F
02CF
FAF6
FC7D
FC3E
00A3
08B8
07D3
F98F
FE27
0540
FF83
0163
0432
04AE
F8D5
039C
007E
0301
035F
F9E4
00FD
FFEF
0136
FCAD
00EA
F85D
FF9E
02F6
0800
FC2C
07A0
069F
F5C6
F9E1
0034
0045
0883
0562
0255
03C3
06B9
F577
0085
F800
0456
0784
FF4C
09CB
F389
FDBB
F654
F975
FDBC
FC5B
0776
F5E1
115B
00B6
06D8
F690
FD20
01BE
0357
0202
0162
F53A
FDDC
030E
00F2
FC65
052D
006C
0C2B
FF05
F906
FDBD
FC48
F855
00D4
FD62
FC04
0424
01AC
F930
02FB
094D
FB7F
0377
058E
068D
FCDE
0500
05E9
FEDC
0862
02E7
0371
00C4
FE06
F776
0355
0481
FB51
F93B
0DA8
F78C
F632
01D5
0310
FF6C
03EE
FEEA
EEA3
FD5A
F718
FEA4
FD90
F785
07B1
FD19
03A3
F724
FA7B
05D8
05B6
082B
FAE8
0071
FD84
FBE7
0551
0284
FE4C
FA31
EE59
FC92
04C6
04BE
04BA
FF18
0316
F5DC
F93E
0311
F95A
034C
FF1F
037B
07A3
0450
FF28
0021
FACF
FC74
FFF7
FB66
FFFE
FD0D
FC4A
03A8
FFF0
FCBE
FB5B
FDB2
FDD0
0028
0319
0EFF
F92F
FA4E
FC12
0AA1
0057
0C1C
FAF4
05A9
FA00
FF83
003C
F654
03D2
083A
F7ED
00FD
FFDD
FED5
057A
0910
FBD8
06E2
0324
FDDC
09BF
0557
015B
F66B
01B9
F90E
FF25
FC4B
FDEC
0330
03B0
060B
FD6B
0147
FA6E
FFEB
F8F8
0396
0AF5
02DF
FD6B
08B3
0505
0952
0EF7
0418
F993
0002
FAA4
06AE
06A6
F9F9
0246
F49C
0930
FA7F
FE98
FDDC
F8CC
FE3E
08F4
F86A
F78B
FB22
00F2
00EE
FA3A
0C4F
FEC4
004B
0245
FB8B
0271
0048
FD56
FD5E
026C
F99B
F8E1
0766
04BE
F24D
0F97
011D
06D2
00A3
FCA9
02FC
FD78
F9F5
01BB
055E
0130
020D
F8A6
063B
FD29
02D0
F75C
091D
0C98
FE83
FFDE
FECC
037A
FD15
F7FF
0319
08D9
0594
0613
07AC
0044
05E4
00B2
F7B5
0802
02F4
FB9C
04A7
0A09
FA40
05AF
F86A
FCE5
FBCF
F967
F903
FCC2
0104
FF85
FE53
FB80
0200
0275
FAAA
F116
0542
05DC
0863
06C6
0483
02AF
01A8
F49F
FD59
FB25
0572
FA92
097F
051F
02F5
FF2D
01DC
FFE4
FCBE
FA48
0430
F85C
FC54
FCEB
012D
0168
FCF1
FCBC
03AB
FEA7
0CB8
009C
05E4
01B0
03A1
00C1
0224
06D2
0137
FB30
02C6
0172
FDB3
F789
FF7A
FE99
08A2
05DC
09FE
F74D
FE9A
0104
0382
0450
0921
F7E9
0370
0130
FA81
0ED7
FE0A
0697
00DA
FEA9
0396
FB1E
FB32
0BD0
0E2A
0ABA
F964
011B
001C
009F
0B76
F96E
061F
0199
FE03
FD0E
0495
0569
F65A
00EA
F9AD
FDCD
032D
0766
0616
0B39
048E
FD3E
FFFD
F06D
FB1E
FAD7
0770
F591
051D
089F
FF2E
F32B
0356
00F6
F501
FE0A
FCC5
FF41
05DC
FD65
F360
FCB8
08BB
0A11
0158
F869
00CC
FE5D
FDEF
067D
0148
04B5
006E
F70F
F8BB
028F
03AA
F6F3
F997
034A
FCDA
FDD4
05E3
0399
047F
FFD8
0375
0F93
027C
0856
020D
02A5
0486
FD0D
06F4
066E
FEE9
0511
024B
FCBF
FF83
FBFD
0541
00A5
F3B7
049C
F49D
F7BE
FB4D
FFE9
FD9A
094F
035C
023F
FBFA
034A
F723
FA03
0299
FFBA
FB4C
FBE6
FD52
FB27
FF9C
FAAE
03B5
0738
FE45
049A
0497
F5F4
FF47
0284
03D4
0217
033D
0460
03AF
04F1
FFDD
FEB0
FCAB
02BB
FDAD
031D
F84A
FA26
0371
0636
FE8F
F71A
FD77
FDCB
FCD2
FAF3
00FB
F50E
0105
05D5
0153
0350
FFFC
FF8D
08C5
FDDE
0300
FE6C
0D64
0EE5
0057
0792
FD30
FC79
FCDE
057F
01D7
FE5A
F9A3
F9E2
147F
FE31
03E1
F687
FF8C
0308
0403
04BD
F126
0DD3
FEEA
FB1E
025F
FDDF
FD95
092F
0447
009D
0A1F
F990
035E
FFF6
FDF3
FF42
080C
059E
FEE5
F240
0495
0ADF
F7FB
0139
0296
00B5
FD74
017E
FCE1
0147
039D
011C
0A62
0331
01B8
0EEB
0AC8
0328
F4CB
0645
07F0
FF5B
F85F
01CF
FF4A
FEC3
06E8
08DD
0766
02D1
FADE
FE85
0299
FE83
078B
FEA2
05E4
05C1
022F
FF2C
008E
F66A
FCD0
FEB1
013D
0132
05F7
028C
F8E5
F17E
01D3
05F0
0030
FEDB
FBEB
058F
F63F
FBF5
FF3C
FEC0
FA4F
0651
0384
FF75
F748
02B9
050F
FCD1
F94B
00C1
047E
06EA
FBDE
12B7
05CF
FE1A
FFB0
09C0
F7F3
0818
F676
0411
F743
FA35
00F5
F67C
FC2C
0612
0442
04C7
FEF0
04BF
02A6
FEE8
0310
00E9
FFA2
FC7B
06BE
0B67
09B0
F9C4
00D9
03BC
F8F7
F90B
00D4
F2FC
0045
FF0A
0025
034A
089D
FE9D
0563
F48F
0440
0189
F489
0E58
0740
FFD5
082D
FFBA
0415
FAB3
F86D
FA23
01D9
08FB
FAC0
FB7A
05D1
FEB0
F956
0169
05D6
FFA6
FAC4
F930
FFC4
02EF
F543
0F01
FD7D
F579
0459
F86D
FDE5
0A43
08A2
FCF5
0412
042C
01E3
0915
0461
F70B
04F2
0359
FEC0
F77F
0750
0596
010B
FC59
FBD5
035B
020D
01E2
F48F
FB43
FEEC
FBC4
FCAA
FE42
FE8F
0905
0149
0762
0166
00B1
00CA
049C
0688
0B8D
07F5
012B
05A6
FF59
FB21
0539
FEE6
FFA8
FBAA
FF2B
F95E
FC8F
F54C
0C84
FF3F
047C
FF94
05EA
FE53
0003
026B
FB52
09CB
045A
00A5
0400
0494
0FA2
0757
F23C
033F
03F7
FB42
069F
069D
F8D7
FD78
F9D9
FCD8
01A4
02F7
01D3
0131
036A
04C2
0C9B
00A3
FDE9
0827
F77D
FE2C
00BC
078B
FF5E
0BD6
FC63
09A9
00DA
0307
FF67
0320
06FE
0767
FEE7
FD33
FFB1
FB60
0AAD
FF93
FF78
0526
F629
FE2B
FF4B
090F
FF08
F938
02AC
FEC6
FF6F
FF75
F864
FCF0
F9C0
FC17
FD91
0109
0687
0708
FC92
03CF
FB24
F972
FFC9
FE5A
0A41
01A3
F913
075C
F809
03E7
F91A
F815
025B
F44C
0A20
0755
046F
031F
0A03
FC98
FD58
0379
023D
F8D4
FA2D
FBFF
FC48
04B7
F6DA
FCA8
07AB
F416
F81B
FF87
02DF
0417
FD8F
05B8
01E1
0051
01F1
F847
FC2B
0605
F6A8
0059
FCD5
FBF0
00ED
0AB3
0012
0550
05F3
FAFB
FF1C
FA81
FCF1
0610
02A6
FF39
08B7
027F
02B2
0608
FC98
FADB
F882
0BFC
FD4B
F7F4
0765
0074
F520
FA7A
FC3E
FED0
EB57
F8BE
FF08
FC7F
F560
04A3
FED9
00C8
040F
FE85
0263
0139
F7EB
FB52
01C2
