015D
FC80
00E7
FFDA
FD59
0128
FC4E
00AD
FF21
0015
FE68
FE95
008B
FEC4
00D1
00AA
00ED
022A
FFC9
FD78
FE04
009C
00B6
FE9C
FF22
FFE0
00F7
0196
0165
FEBA
FF71
FC75
FF52
FF74
FE96
FF92
0138
00BD
00FF
01BB
FEE9
FFB8
FD75
FCC1
FCFC
0022
FF25
0114
FEBC
FFBC
004E
FE4C
FF86
01EF
01C2
FD0F
01BC
FE9C
01BA
FDC6
FE2F
FC15
00FF
0016
0371
01BD
FF76
FE8F
020F
0181
0124
FFCF
0267
FF10
0108
02E1
FD3B
0387
0081
FD57
0116
0044
FE25
0233
035C
FF2C
FF8E
0216
FE1C
00B5
0074
FE9D
0300
FF74
014F
01CF
FF52
FF56
FE3C
02C7
FFEA
FEB4
0182
0074
FF92
0179
FD48
FF22
FF28
FF64
0023
01C1
00B9
FDC9
0269
FD39
FBEC
FF11
FF9C
0128
FEFC
FE2E
FFD3
FD5D
0201
FCA7
FD03
0138
026D
000D
FF3D
01EC
FEB2
FFC2
0288
FDBF
0120
FDAA
04B8
FFD1
FF79
011E
FFE1
0029
0146
FF18
006A
01AC
002E
FE42
FFE6
FDFE
FFED
0172
0001
FEEC
FD23
02ED
0369
0364
0060
0268
010E
FEAD
FF61
006C
007B
FD93
0376
022C
0282
FFAC
001A
03BB
00FA
0151
01CA
00EF
00BB
0095
0377
02F4
01DF
01AA
0139
FD62
FDAB
00A6
036F
0373
0222
FED2
0242
FEDA
FE83
0119
03B0
003F
052F
FF98
FFAD
FF63
032C
0524
FE27
0147
03C0
FE1D
033D
027E
FDF5
01D3
FFAA
032F
FED4
01FD
FE70
006B
0019
FE53
0047
01AB
0406
029E
04C0
0027
FEA0
0348
FF15
FE4F
0059
FE75
0064
FF94
01C9
01E1
003A
021D
0419
007B
023A
FDBE
0393
02F1
04EC
0126
FEFA
021C
016D
01F6
FD38
FD1D
006F
024D
FF7F
0026
004A
03F1
004E
FF27
0077
FE7D
0236
FD5B
01E4
FF04
0094
04E5
FEA8
01E3
0017
FE0E
0330
029D
0283
FEA0
0067
024E
0213
FDE3
024A
0357
FE0A
011D
FDC4
FDEE
032F
FEAF
FF68
0152
FC73
FC59
FBAA
FD06
00AA
FE37
FBD6
FE19
FD9F
FF82
FED2
FD5B
00BE
025A
FD6C
0176
0071
FEFD
FDF3
FF1B
023F
FBA1
01B8
FFFE
FE77
FE30
FC74
009C
FDE1
FC66
FC9C
0070
FF05
FD9B
FE27
FF96
0078
01DF
FF6D
FE72
FF4B
00D2
0217
FD35
0085
01D0
FE0C
0298
012F
FF37
FE01
FE19
FD5D
FE68
FE7C
01FB
FD49
FE53
002C
FFA0
FD11
FF8E
FB59
FE11
FE78
0166
FDF6
01BE
FC59
01B5
FD2D
FF73
FB8C
FC2F
01C7
015A
FD20
FD45
007D
FCEA
FFC9
FE58
FB81
0156
00A4
FD0F
0146
0289
00CD
FD52
FD11
FC4D
0129
FF16
0208
01E2
FDAC
000C
03A0
00FE
FF6A
0162
037E
002A
0465
0060
FF2C
FD89
03AD
FF94
011D
FF2B
FFEC
0261
02EB
0187
0323
03E0
FE96
FE34
FEE7
00D4
FF6E
FE4C
0254
0348
FAC3
FAFD
FF0E
0148
FC8F
FCF1
FA48
0253
FB0A
FCF6
FD3D
FAE6
FF80
FD66
FCD5
FE7E
014E
009F
FF1B
00ED
FF47
FCC0
01C7
FEEB
001A
FE0D
FF54
FD1A
FE4F
FCE7
019E
FE89
FF19
01E5
0097
FE0E
FDE6
FD5A
00EB
FDCB
0048
FF16
00B1
FBF6
00C3
FC81
FF40
02FE
FC60
00B3
00E0
0073
FDD9
FDD6
028A
00BE
FEB8
0010
FD7C
024F
0259
FE41
0123
FFA2
0385
039F
00CF
FF79
01F1
026F
022B
FF3E
FEB0
FE0C
0084
04FB
FE3A
0163
01E6
0255
0292
FE94
0133
FDCF
03DE
FDAD
FF7D
FE7A
FF90
0234
FD71
02CE
FDBD
0332
FF34
035A
00F3
FEA3
02FA
0181
04C1
0134
0427
0191
024D
009D
0409
041D
FEB8
019F
0496
0142
FFC2
0102
FE8D
01A3
FF5F
FF18
000B
030A
00DB
009C
0185
02B6
0002
FF2C
0161
0503
FCC9
FD96
0135
02C6
0249
01E9
FD9F
02F7
FD9D
FD37
000F
0197
FE27
FE6D
00DC
003E
0076
FFE0
0048
0287
FE30
00DF
FED3
FE57
FCC7
013A
0216
FFBF
FDF9
FE7C
0126
0168
0454
FE00
00B1
0158
04C3
023E
024E
00B4
02A2
0049
0411
009A
0337
02E2
0278
00CD
04A5
02A4
02D8
0258
0021
FF04
FF56
0122
FF9F
FFAC
FDD5
01C6
01D8
0000
0265
00B3
0272
00AC
FEB9
0269
017B
020A
FF2E
FD6A
FE7B
03A3
FF78
0347
FF00
00A4
021F
0127
033A
FF68
001F
0093
03A5
0309
FF36
00B0
036F
0034
0046
012B
0300
FF07
0063
FE66
FCDE
FCC1
FCE4
FF19
FED1
FE75
FA40
FEBD
FBD1
FEF0
FA55
FD6E
FEE8
FE57
FC63
014F
FCAC
008E
FD55
FB61
FEE5
01D5
0090
008E
FEA9
01B9
FEED
014C
00CF
0118
FD92
FD4E
FD5E
024E
FEBD
FD55
FBBE
FF62
FD17
01E9
009F
FB8A
FA3D
FD8E
006D
FCA6
FF99
FE3A
FD4F
009B
FD8E
FD37
F9A7
FEF3
FE5E
FA9A
0296
FD62
00D0
0210
FEF4
FF98
00E2
FDEE
0223
FDD0
FE02
00DE
00B5
008E
0055
02C8
0196
0240
0159
0416
0206
025A
0007
FE8D
0013
01E8
01DB
001D
02B1
FE9B
00F0
01CF
0051
FE9D
0046
FDCB
0049
01C3
011B
01B0
FE3F
FD0A
FCE6
FE11
01C8
FCF9
FF98
028C
FE25
FD45
FEBD
FFFE
FD7D
FFAF
FDEF
FCE8
FD3D
FE9E
FFEF
0295
FD0F
FE99
FD63
FEC8
FD23
FCF2
0169
FEB1
FEFA
FC5C
FECC
000E
01D3
FE9E
00F1
FE34
035A
0189
0327
01E6
02B7
0239
0295
02C7
00A1
0117
02DE
0077
039A
FF23
0070
0408
03A8
FFD8
FECD
00C4
02EE
01F2
000D
FF84
FEDE
0367
0366
FF4B
FB9E
00CE
FCE0
FD5F
FEBC
FDDC
FDED
02B3
FF9A
00FA
FB54
FE1F
01A6
009C
FE68
028E
FFE1
00D9
017E
FDE9
FD5B
010E
FD04
FE9F
FD31
FEFE
0255
027C
0098
FF4D
FD57
FDC3
0125
02C3
FDD3
004A
FD51
01E5
FF82
FF16
FFB8
02A4
FF78
0053
02C6
FF36
025C
FE5B
035B
FE6E
0111
FE9B
0258
0232
0152
FD22
FF06
02AF
00FC
01DB
0188
030B
FFB9
03CD
FE0C
013D
FC4C
FEC5
FEAE
FDAB
FCA0
01C2
FF96
FF67
FD08
00BD
FFDE
FDD9
01E4
0117
FE67
022B
FCAF
0112
FF83
013D
FE06
FE29
FFC9
FFA0
01FC
00E4
FD2E
FD5D
0053
FDD6
FFA0
041D
FD8F
FD73
FB6F
FCA3
FDB2
0161
0511
FB7F
0344
FCE8
0129
03B2
FF4F
0057
008A
02BA
FFAE
045F
0156
FD27
031F
FDA6
FEA3
FF64
FF14
FE18
0083
FEE7
FFE4
FDB5
FE48
FFA6
FEAC
01D9
FD06
0272
FE1C
FF5E
FD85
FDA9
0096
0104
00A0
FE76
0202
030F
015C
FD31
FE47
FED0
015B
FE4F
FEC8
013D
000F
00F6
FFD4
031A
FF0D
FF33
FFD0
0269
00C5
0577
FCC0
FC16
FEE9
0227
036A
FD3A
013F
0117
01DF
FE7F
02D0
0410
FDD7
FFBF
FE1D
FD30
0017
01BB
0191
FFE3
03A7
010F
038C
00EE
01DE
0156
0094
FFFB
00F7
0302
FEE3
FC54
FF36
013B
FC84
FF22
FF27
FE44
0053
00A1
0038
FE1A
01C9
0033
0026
021E
FD25
FFBF
FC71
023B
FB8D
FFAF
FDCF
0016
00A0
005A
FF79
FEBC
FDF1
007F
01CF
00BB
