FDC7
FFFC
FF58
00A3
0082
000D
0122
00EB
0193
FCEA
FFC2
FCC1
024A
FD7A
00F2
FD75
0191
017B
FE3D
FEAE
FFAB
FD93
0226
FD21
FF1E
FC96
00B6
FD7E
02D5
0210
01A4
FCB9
FEAF
FCE0
010B
0073
011B
01D2
0013
012B
0099
FCAC
FD84
005B
02B0
010C
FC55
FD5C
FC29
00D5
00FC
FE73
011A
FD5B
FD8F
FF32
FFEF
0121
007A
FFA6
01D1
FED9
FF4E
FDE1
FF66
03E1
FE29
FE86
03DB
02DD
0050
01E9
03B3
029B
FFC2
0161
FEF9
FDDB
0195
0169
FF80
FD39
0366
FE03
FF83
FE6F
0062
01B6
012F
FFAD
FE1F
FE7F
001E
0157
FDE8
0143
FBFA
FF77
FF50
FEBF
0046
FD29
FC5B
FF5F
FF75
0215
FD03
009C
FF16
FEAF
FECF
FEA7
FF7F
FD73
0294
012E
0096
FF45
FECD
FFCA
FF92
FCA8
0294
022D
FFE6
FEFC
FD44
FD37
FEF0
0420
03C4
FFD4
0113
00C0
FED1
0242
0114
FD7C
0446
FF75
FF37
FE42
00A5
0218
00A4
01E3
00CB
00E9
0108
0031
FE5B
FEA0
FF86
002B
02E6
0256
FF0C
01B8
01C6
01EB
FF9D
0176
0108
00D7
FE8E
00A7
FF12
0259
FEC7
FE84
0157
FF9D
02C7
03A8
030E
FEEF
00C1
0035
025A
0208
0306
0275
00A4
010D
0288
0236
FDCE
01F5
FDA9
FF28
02DE
FF0E
FFB1
0230
03DB
FF81
02A4
FF15
FF46
FE74
0265
01C8
0402
04CA
0149
0014
0309
FF9F
FE0E
01CF
FD90
0341
0418
0299
0058
FED9
0260
030B
022A
01C4
038F
FDF5
FF45
FDA8
01C0
FE94
FE1B
0344
FEDE
0081
0012
0199
011D
FEE3
047D
02F2
FE0E
037F
0347
0238
FF77
FDAC
FF6B
FEC6
00AF
FE18
036B
FF27
FF71
0292
FF92
0081
026E
0348
FFD7
FF0B
FEBE
0286
018F
FFC0
023A
FFCF
FF60
FD13
006D
014E
0213
00F2
0162
01A5
FE36
FDE6
0410
02E0
00F5
02AA
01F4
0103
0238
0360
FE05
03E4
022E
0098
FDB3
0374
FE20
0249
FDC8
FEB7
01FF
FEC7
FE33
004A
FE8C
FF26
FF1B
01A3
FFD5
FB37
FE97
023E
FEC1
FCD4
004F
0028
00E9
FC1F
0110
01B2
FC54
003E
0065
0175
FDE3
FF71
017D
FD44
0008
0047
FE40
FC14
FDD7
0057
FDD4
FF65
FD69
FD02
01AF
FF23
FD21
0163
00BB
0189
FFD5
FCDE
00CA
01E8
005C
FC2B
FE8B
00B8
0143
FF95
FD89
FDD9
0167
0098
0048
0129
0053
FC55
FC2E
FD87
00A3
FDFE
FDAE
FFC3
FE68
FEC7
0130
000E
FB71
FD01
FE60
FF54
0162
FEA7
0056
018A
FFA3
00F4
FCF8
FDF4
0197
FC17
01E7
FC7E
FD4B
FF6D
FE91
0259
00B2
FE38
FE71
0293
FEA4
FFB7
033A
FDFB
023B
FE9B
0436
FEBE
03A0
002B
0245
0388
01DC
00C2
01FC
FF6B
005D
FF3C
00EC
0238
FD95
03BF
0334
FF20
0099
FFDB
FF97
0270
01A1
0166
FC50
FD7A
FCCB
FF18
01D3
0220
FB1B
030B
FB4D
014B
FD7E
FCDA
FFDC
FDDE
FCCF
FC98
013D
0001
FFE2
FF6D
00B0
FEC3
0072
FD0C
01DA
FD83
0020
FE18
023D
016D
FD6B
FC7F
FBE2
0119
01E4
0291
002D
FFA4
FF4F
01FE
FD04
01F9
007F
FFF5
FF1B
FC87
FECE
FD19
FF23
014F
FC9A
FF1B
00B7
FCBE
01AB
FC8C
FFAE
FD55
02EF
FF54
0104
018C
FF94
00F8
041A
FE81
01A5
020C
FF33
FE20
FEEB
FD13
016B
0336
0376
01AE
FDF3
FEAD
0152
FFDC
FFFD
FD1E
012D
FDED
FE3F
01D8
FE2A
032F
FDB4
0256
006C
02B9
FFD9
0167
FD7F
02B4
0037
FFAA
FE47
FDFB
03A9
02B0
01F1
0064
FF5E
0227
04D5
0016
026D
03B1
FE05
0308
0145
FDE0
FF7C
010A
FECF
0104
034F
02ED
0286
FFB5
0040
01F9
FEDD
00B7
00ED
FE88
FCD2
FCB8
0270
0156
FEAD
0170
FFA7
FE96
FFAC
FD85
FCBA
FFFF
FD13
FC6F
FFE1
0255
FF1A
FDC5
FE42
FD2F
FCB8
FD8A
0180
0084
FCD8
0037
FFA8
005A
01E1
FD7D
02EB
FFF2
006A
0296
FF92
01DB
00E0
FD34
0413
002C
FE4F
FDD8
006C
02DA
FD3A
037E
00EE
0218
FF8F
FD42
0161
FECF
02F0
FE37
0355
037C
02FC
020A
000D
0203
0216
0379
02F9
0085
FEAD
02CC
034D
FECA
0483
0197
02B3
FE8C
029A
FDB1
03A5
FEC6
FEF8
004F
FD5B
0102
FF61
0220
FDB1
022E
01C0
0318
0129
0207
FE22
0232
FF20
0160
01C5
FE9A
0259
01E9
FBDC
FEC5
0125
FF9C
FE5B
FDAA
FBD6
FE7E
FDD2
028C
FDBA
FBF5
00EE
0243
0023
0081
FE75
FD98
00D7
FE0C
FD36
FF35
FFDE
0020
026A
FF6C
001F
01DE
01EF
015E
01F3
FCF2
0076
0025
FF02
0050
FB5F
FEA6
FC1F
0349
FE98
FEB7
FDF5
FE8F
0195
FE66
FCA1
FC68
00F7
02C1
015C
01F8
FBAA
01A8
FEED
FF5E
FC8E
FC98
FFBA
FD22
FFC9
01E3
FF41
FF3A
03FE
FF34
03BE
0260
022F
0283
FF0A
FD34
0265
FE15
FF29
0099
001E
FF7B
0125
FFA7
0155
FEC5
0241
FE37
03CC
FECF
0117
FFC5
FE83
003A
00E4
FF64
FD6B
FF3F
0378
FD86
FD3C
FCB1
014B
FE0D
0250
FF8C
0137
FFEF
FBCB
FFA1
0061
FE09
002D
FC67
FD92
FDE6
FE79
FD3B
FFFE
01FC
019D
FE05
FD45
001A
012C
00BD
FDBD
008B
0018
FD0B
01AF
FEFF
FF5D
FFA9
01FD
FEA4
FE71
FD58
0096
FF29
019B
FF22
0395
016B
027D
0285
01F3
FDB9
02F8
0234
01ED
01BC
0366
034D
FE69
036B
FE72
FE3A
FFEF
0304
0268
FF45
FED0
02D9
FBC9
FCEC
01A2
00E5
01C0
FD2E
FF87
FFB0
FEF6
00BE
FAFB
FF9D
FD65
0298
0065
0233
FC91
001C
00E9
FBDA
FF38
FCED
FCFD
FF84
FCFE
018B
02BF
004F
FFD8
FE7A
002B
0061
FF04
FF47
01BB
0296
FF2B
FF84
040B
FEDB
021C
0303
03E9
00F2
0228
0341
FEBA
0121
FF6A
FE9E
FDE2
02E8
0370
FD83
FE10
FD93
03A5
030B
0030
02E5
FF3B
FDA9
FBEE
FE95
FF5A
0075
FF0A
FF12
0077
FECE
FD91
FD23
FE3F
FF68
FD44
0062
02A7
FD01
005E
00CD
003C
FF6F
0240
01E5
FBE6
0218
FF72
0107
014F
FE30
FDF3
0002
0200
FFED
FD17
FDC3
03EB
0000
FC96
FF48
0033
FD75
FDB3
FE1B
0308
FE81
FFA3
0067
01DD
0126
00E2
FF7D
0475
FEEF
02E5
FF6E
FDFA
FFB2
FE9A
FA85
01A9
004A
FFFD
FDFF
FD71
01BD
FFBA
021E
FE25
FD8E
FD8C
FFB5
00F1
00B4
FD5B
01D8
FC6A
FDE2
FE57
02F4
019E
0261
FDFF
0047
0007
0130
FFAE
0037
004D
0111
01DA
FF1A
00D7
FD18
02C2
FD8C
018D
FEFC
0305
026C
01EE
03BC
FC83
FEA7
FCD2
FFCF
0439
FD5A
00F2
FF07
0363
0158
0198
FE63
FE25
FED1
FE1A
FE3A
032F
0036
FDC1
016F
01AC
02CB
FDB5
FDB3
0138
FFE3
FCFE
00D4
FF4E
FEEF
FEA8
FE47
FE82
0081
FC98
FEA9
0064
FF5B
010F
003D
FD97
00D8
FEDC
0091
FD20
00FA
FFFB
FD6B
00FE
FC0B
FD57
0079
FC91
FC48
0125
005A
00C4
01FE
010E
0053
0139
FFB8
