0576
F202
039C
FF69
F566
04A0
F13A
02B6
FC84
0054
F9A0
FA54
022D
FB10
0343
02A8
03B6
08A6
FF23
F5E2
F80F
0271
02D7
FA6E
FC88
FF7F
03DB
0656
0596
FAE6
FDC3
F1D4
FD4A
FDD0
FA56
FE49
04DF
02F3
03FA
06ED
FBA2
FEDE
F5D3
F305
F3EF
008A
FC94
0451
FAF1
FEEF
0136
F930
FE18
07BC
0708
F43B
06EF
FA70
06E6
F719
F8BD
F053
03FC
0058
0DC5
06F3
FDD6
FA3C
083B
0605
048F
FF3A
099D
FC3E
0421
0B83
F4EB
0E1B
0206
F55B
0457
010F
F896
08CB
0D6F
FCAE
FE37
0858
F871
02D3
01D1
FA72
0C01
FDCF
053D
073B
FD49
FD57
F8EF
0B1C
FFA9
FACF
0607
01D1
FE47
05E2
F520
FC88
FC9E
FD91
008D
0704
02E6
F726
09A5
F4E3
EFAF
FC45
FE71
04A2
FBF1
F8B7
FF4E
F572
0806
F29B
F40C
04E1
09B3
0034
FCF4
07B1
FAC6
FF08
0A20
F6FB
0480
F6A6
12DF
FF43
FDE6
0479
FF85
00A4
0518
FC61
01AA
06B1
00B9
F907
FF99
F7F6
FFB2
05C8
0003
FBB1
F48B
0BB2
0DA5
0D8F
017F
09A0
043A
FAB5
FD84
01B1
01EB
F64B
0DD9
08AF
0A09
FEAE
0066
0EEB
03E8
0543
072A
03BB
02ED
0253
0DDD
0BD0
077C
06AA
04E4
F587
F6AD
0299
0DBC
0DCB
0887
FB49
0909
FB67
FA0A
0465
0EC2
00FC
14BC
FE5F
FEB4
FD8A
0CB1
1490
F89C
051A
0F01
F873
0CF5
09FA
F7D3
074C
FEA9
0CBD
FB4F
07F6
F9C0
01AD
0063
F94D
011C
06AB
1018
0A77
12FF
009E
FA81
0D21
FC55
F93B
0165
F9D4
0192
FE51
0724
0784
00E6
0873
1065
01EC
08E7
F6F7
0E4B
0BC5
13B1
0496
FBE9
0870
05B3
07D7
F4DF
F473
01BE
0934
FDFB
0097
0127
0FC2
0136
FC9E
01DD
F9F4
08D9
F56B
078F
FC12
0250
1393
FA9F
078C
005C
F838
0CBE
0A73
0A0C
FA82
019D
0939
084D
F78C
0928
0D5E
F827
0475
F70F
F7B6
0CBA
FABD
FDA1
0546
F1CA
F165
EEA9
F417
02A7
F8DD
EF56
F865
F67D
FE09
FB46
F56A
02F9
0966
F5B2
05D7
01C4
FBF4
F7CE
FC6D
08FE
EE83
06E0
FFF7
F9DD
F8C1
F1D1
026F
F784
F199
F271
01C1
FC15
F66D
F89B
FE58
01DF
077C
FDB3
F9C7
FD2D
0348
085B
F4D5
0215
0741
F830
0A61
04BB
FCDB
F805
F865
F573
F99E
F9F0
07EB
F524
F94A
00AF
FE7F
F444
FE37
ED62
F845
F9DE
0596
F7D8
06F7
F164
06D3
F4B2
FDCE
EE2F
F0BC
071B
0569
F482
F515
01F3
F3A7
FF23
F962
EE02
0558
0291
F43A
0519
0A25
0335
F547
F443
F133
04A4
FC58
081F
0788
F6B1
002F
0E7E
03F6
FDA9
0586
0DF9
00AA
1193
0181
FCB2
F623
0EB4
FE4F
0472
FCAC
FFB1
0984
0BAD
061C
0C8D
0F81
FA5A
F8D0
FB9B
0350
FDB7
F932
0952
0D1F
EB0E
EBF3
FC39
0520
F23E
F3C5
E91F
094A
EC27
F3D8
F4F6
EB9A
FE01
F597
F353
F9F6
0538
027C
FC6A
03B2
FD1B
F2FF
071E
FBAE
0069
F833
FD4F
F468
F93C
F39D
0676
FA24
FC65
0793
025E
F837
F79A
F569
03AD
F72C
0122
FC59
02C3
EFD8
030B
F203
FD01
0BF8
F17F
02CA
0382
01CC
F764
F758
0A28
02F7
FADF
0041
F5F2
093D
0963
F902
048C
FE87
0E13
0E7C
033B
FDE5
07C2
09BA
08AC
FCF9
FAC0
F832
0210
13ED
F8EA
058A
0798
0952
0A46
FA50
04CB
F73E
0F77
F6B4
FDF4
F9E7
FE40
08D0
F5C4
0B38
F6F3
0CC6
FCD1
0D69
03CD
FA8B
0BE7
0603
1303
04D1
109A
0644
0936
0274
1023
1074
FAE0
067A
1258
0509
FF09
0408
FA33
068B
FD7C
FC5F
002C
0C29
036D
0270
0615
0AD8
0008
FCAF
0584
140C
F325
F657
04D4
0B18
0925
07A3
F67C
0BDE
F674
F4DD
003A
065D
F89E
F9B4
0372
00F9
01D7
FF82
011F
0A1D
F8C1
037D
FB4C
F95B
F31E
04E9
0858
FEFB
F7E3
F9F0
0498
05A0
1152
F800
02C3
0560
130B
08F6
0936
02CF
0A88
0123
1046
0268
0CDD
0B89
09E0
0333
1295
0A90
0B5F
095E
0083
FC10
FD57
0488
FE7A
FEB1
F753
0717
0760
FFFF
0994
02CD
09C8
02B1
FAE3
09A5
05EA
0828
FCB8
F5A8
F9ED
0E8C
FDE1
0D1B
FBFF
0290
087B
049C
0CE8
FD9E
007D
024D
0E94
0C23
FCDA
02C2
0DBB
00CF
0116
04AA
0BFE
FC1B
018E
F998
F378
F306
F390
FC64
FB44
F9D3
E8FE
FAF4
EF43
FBC1
E955
F5B6
FB9E
F95E
F18C
053B
F2AF
0239
F555
ED84
FB93
0753
023E
0238
FAA6
06E4
FBB4
0532
033C
0460
F647
F539
F57A
0939
FAF2
F553
EEF7
FD89
F45B
07A6
027D
EE28
E8F3
F638
01B3
F297
FE62
F8E9
F53B
026D
F637
F4DE
E69C
FBCB
F977
EA69
0A57
F589
033F
0840
FBD0
FE61
0387
F7B7
088B
F741
F806
0377
02D2
023A
0155
0B21
0659
0902
0564
1058
0817
0967
001C
FA32
004C
07A0
076C
0075
0AC5
FA6B
03C0
073E
0146
FA73
011A
F72D
0126
070C
046A
06C0
F8FC
F427
F397
F844
0721
F3E5
FE61
0A2E
F894
F515
FAF5
FFF7
F5F5
FEBE
F7BD
F39F
F4F4
FA78
FFBA
0A53
F43C
FA63
F58B
FB1F
F48C
F3CA
05A3
FAC6
FBE8
F170
FB2F
0039
074D
FA79
03C5
F8D0
0D6A
0626
0C9B
0797
0ADA
08E5
0A54
0B1C
0284
045B
0B76
01DC
0E69
FC8B
01BE
1020
0E9F
FF62
FB32
030F
0BB8
07C7
0036
FE11
FB77
0D9E
0D97
FD2E
EE76
0337
F37F
F57E
FAF0
F771
F7B3
0ACC
FE68
03E8
ED51
F87D
069A
0270
F9A1
0A39
FF83
0363
05F6
F7A4
F56D
0439
F412
FA7B
F4C3
FBF9
0952
09EF
0260
FD32
F55E
F70B
0493
0B0A
F74B
0128
F544
0793
FE09
FC56
FEDF
0A90
FDE0
014B
0B19
FCD9
0971
F96E
0D6E
F9B8
0444
FA6D
0961
08C7
0546
F486
FC17
0ABB
03EF
076C
061F
0C2C
FEE3
0F33
F831
04F6
F130
FB14
FAB7
F6AD
F281
0708
FE59
FD9A
F41F
02F4
FF77
F763
078F
045D
F99A
08AC
F2BC
0447
FE0C
04F5
F816
F8A5
FF22
FE81
07EF
0390
F4B7
F574
014D
F757
FE7F
1074
F63E
F5CB
EDBA
F28C
F6C6
0584
1443
EDFE
0D0F
F39F
04A5
0EC6
FD3C
015B
0229
0AE8
FEB9
117C
0558
F49A
0C7D
F697
FA8B
FD8E
FC50
F85F
020A
FB9C
FF8F
F6D3
F920
FE9A
FAB1
0765
F41A
09CA
F871
FD79
F615
F6A3
0259
0411
0281
F9D7
0807
0C3A
056E
F4C5
F91B
FB40
056D
F93D
FB1E
04F5
003B
03D6
FF51
0C68
FC33
FCCD
FF3F
09A4
0314
15DE
F301
F057
FBA3
089E
0DA8
F4E6
04FA
045C
077B
F9FC
0B40
1042
F75B
FEFD
F875
F4C2
005C
06EB
0643
FF8B
0E9C
043E
0E2E
03B9
0777
055A
0250
FFED
03DE
0C08
FB8D
F151
FCD7
04EE
F211
FC89
FC9E
F911
014B
0286
00E0
F867
0725
00CC
0097
0876
F494
FEFD
F1C5
08EE
EE33
FEBC
F73D
0057
027F
0168
FDE2
FAEF
F7C4
01FE
073B
02EC
