0D56
F868
0634
07E4
06DC
0A3D
0911
0D2E
FBF6
08D6
FFC3
F9E8
0D24
0B62
FC14
FA2E
0C69
F899
07A9
0BBE
FC41
FC7D
FC27
FE6F
072F
0B70
0952
FFCA
F939
0594
0B19
FD58
0BD9
04B7
FC5D
0E2B
0385
0D24
0164
03FA
05EC
FAE5
101D
0557
FD69
0A2D
056B
0444
0276
F725
FADD
0437
F734
02DE
043D
02CA
FB66
F725
F9A8
0878
0A14
0153
F960
F8DB
F4D1
F57B
0438
071A
F762
F7C9
05DF
F60B
0502
0B74
F525
0B18
09A9
0A17
06B7
0729
F5A1
FE76
F7AF
015C
05CF
0977
FD30
01EB
013C
F806
FE5D
01D0
F574
0281
F865
F438
050C
F2BD
F792
09C2
FFBC
09F9
F6BD
00FC
FF14
0B21
08F3
04A3
F87E
FE6F
F9C6
FEE4
F469
FF39
0787
F54A
07C0
00C0
F63F
FA36
0CEE
F791
0981
F5F3
FFC3
0961
004F
0493
F80A
0513
F4CD
FE52
FAB7
0788
FB51
0AAD
0664
0C71
05D2
0152
076D
FCF1
F6F0
FEC9
09E7
F519
029F
FB75
0A86
0259
FC85
FFFD
07FD
0661
F6BA
F635
07A0
0736
F768
F954
F3AC
FFEC
02E4
F803
F99C
0694
F5EC
F9C6
FFF3
09E0
F12B
0C4F
F673
0656
F98A
0095
02E9
0571
F83A
0882
F50C
F379
0AB3
FC4B
0A70
0099
FAE4
0267
F3A5
03D5
078E
052E
F5B7
0237
F274
FF21
FFAD
FE74
0092
06E9
021E
0B5E
F716
0571
F3BB
F598
087F
0CD8
0505
08B8
F46E
00E3
FFF9
FB19
F4B7
FBC7
0095
0917
0663
01D6
0B43
FF06
F9BC
F8B8
038B
FD73
FB97
062B
F548
0AE2
013B
093E
F52C
02D8
F826
0895
05C4
F8BC
F3C1
02D5
FEF1
049D
0444
FECE
066E
07B3
0CCB
FBF6
02C3
002D
F9B0
F937
0656
0366
FE46
F4E9
F00F
FE4F
FB0E
F6EE
07C7
F60A
FB22
F7C2
FFA2
FDCF
FA7C
0423
F7E5
F86E
036C
069B
F846
094B
F676
F97F
01E0
0923
FEE7
F036
FF75
0057
0921
FE6F
0B1B
F4C4
F3E6
F6A2
FDBF
0340
0B63
FC6D
F554
F990
F5B1
08A0
0538
F399
0934
F6A5
F606
0661
F5D2
05B4
F7D2
FF1F
0D97
F4BA
FF1D
0120
F7D8
0546
F879
0393
026E
F607
03B1
0289
002E
043B
03A5
0784
069E
0C6D
F7EF
FE3C
0CC6
0276
FC0A
F38C
0C5F
F8B0
0439
FB81
FB6C
FF67
034D
FC9F
FCAB
0699
09C0
FE0C
00CA
0E58
0ABE
FD8D
00B7
F46D
FD46
FDE1
0674
0905
F60E
038B
FF9F
FAC0
05DE
F359
08F6
FC58
F9D2
F584
0679
0079
FAC3
0C18
F69C
01F8
F42A
028E
0955
0904
FEE5
F445
F82E
0F59
F6D4
01B5
0097
F309
016C
FC93
09CA
0A46
F2D6
FD0F
023F
0440
FBF1
FC7D
0BD5
0B2C
017A
FC2C
F96F
0C0A
F97D
034F
FCE2
0D49
FF2B
F9AE
02F9
0033
FDCB
F47B
FE76
00A7
F744
F970
0292
06C3
FAB6
0875
0376
F872
0A84
0567
0006
0489
075E
0253
0629
F8E4
FA21
02F8
16B5
0B15
FDF8
FA68
F855
F999
FCFD
FD6A
07CE
FA35
FEC5
0230
F510
FEE8
F84E
060C
0710
F677
05BD
06D0
FE44
023C
0439
0528
01EB
0177
FDF5
FA15
05DB
FB94
0881
F5E9
FE95
FCE4
073F
F716
F782
F65D
0826
F9E8
0585
0886
0981
0409
F890
1308
FB9D
F89A
FAF5
FB2D
0D1A
F87D
08F2
F64F
F544
F4D3
093F
F9F1
F8AC
F44F
0AE6
0168
F574
0B33
0492
090F
00D3
06BD
01F8
0EAA
0579
06B6
F905
01D0
0469
FD1F
F7BC
04EC
FA17
FC33
FFE8
F8A8
F79F
052D
0091
001A
01C1
047C
F3BC
FDD6
075F
F88D
FC69
07A2
FE95
0659
FE25
FA86
00EF
F78E
0AA5
FB34
0369
03D2
F493
0C92
0C9D
0003
FB3F
0042
0AEC
F1DF
FED2
02C5
F61E
F7E7
F7FB
FEC1
0632
F68F
04C6
04E1
F687
06AA
F464
FBDE
FBCE
F798
0957
01AE
0666
0A89
0B21
FA7B
04E1
0523
04C0
FC42
F8BF
FD85
0597
0D5A
F97C
F70C
0715
FBBB
014A
097E
03F5
F834
F975
09C1
05CF
FCA4
FB44
0B4D
F8FC
0131
FE8F
FD14
EC58
0A82
FB69
F9D3
0ABD
0A0F
0697
FA8D
F3FE
F3F3
FBD2
08CA
F58B
F6BF
0A3F
0952
F433
00FB
F257
01A3
F70F
FD5F
F2A5
0268
0543
F965
0126
F7A6
0809
FA59
FE1C
0402
F654
0ADE
039F
0921
0378
0A3C
0648
086A
01E3
F6AF
0889
0065
F97D
F42C
05CC
F99B
08E1
0413
FD60
FB3E
0A0C
038C
FDDF
FDF3
04A8
07FD
FC54
FA09
078C
FF33
FBC9
0275
1721
0211
FB90
0B6A
0BD4
FB09
09CF
02BD
F7CF
01E8
02C0
FD8D
07E9
02FD
00F9
0D31
F873
0594
F8C1
F83C
0B10
FE09
0DF3
037E
FC71
00B6
005E
FF95
060B
0363
0271
0778
15F8
FBFF
0923
0143
0742
FF93
0A01
0A55
FA7F
F9C2
F8A7
F562
FC5E
0AB2
F914
0BE0
FDB4
0410
FDC8
F6D9
FB5C
FA1A
F5DF
FFBD
FF77
0752
0597
08EB
FF7A
FD53
0879
FE1A
F70B
F742
04F2
FFFE
FC8F
0739
0248
0240
0ACB
FFE3
FEB7
0072
0112
EF36
F66E
FB94
058C
FB30
0380
F782
F76A
F8E2
0254
052B
FDF5
F50E
FEF9
FE8B
0661
FAFF
00CB
00AC
FBBA
F830
FAC3
0706
F937
0526
006C
09C8
F6BA
FFFB
FB52
FE6B
FDBE
FB66
F5BF
FB64
069B
097A
FC54
00F1
023C
FCA7
FCCD
0460
F441
F8C4
FEBA
0537
0180
FDE3
FEE8
0906
FCB9
03F8
05A4
08BF
0335
FFE0
F91C
0535
F7DC
F6E0
0D16
0598
0A88
05D7
0270
FEF7
0757
FD3F
05EC
05F7
FDDC
0074
05E3
FA34
0E85
0690
FAEF
0842
F94A
072A
0C2F
0B37
1152
F86E
F6DA
0E11
FADA
05A2
FE9F
F921
05E6
0BE6
FCC7
02C1
091C
05CB
0CF6
01C7
F701
0231
08DE
0356
0D11
FAE9
023F
02D0
F2EF
F970
0246
00E5
001F
0633
0D58
0181
F69D
FFD8
FB94
0601
00AC
05B7
0608
0BF0
FC9E
FB52
06F0
0262
F398
FE74
0A28
07C7
0A8E
0942
FD89
F3BA
F06A
FF29
013C
FFC7
FC93
058B
02CA
FA47
FDE0
0A0A
0850
04D6
FFC0
FED8
038F
F5BB
0987
F6BD
0081
094F
0A1C
F8F9
F71F
0777
FD18
1018
FF41
F7D1
01F2
F4B5
08C9
FB28
0719
F699
0BFA
FDFC
F61E
FCE3
F89A
FD37
094E
FAD5
0FCC
FCC5
085F
FCC5
07AF
08B2
FF17
07A2
092D
FCE7
08D9
00BE
068F
0267
F31A
FDAB
005D
FCD7
0602
FDCB
F4D2
041B
F272
010D
FA25
00A5
FAF3
FB73
013A
0934
FF11
F5F1
FED3
0741
FB0B
047C
F4E5
0736
FFDB
011E
F725
FB3D
09E6
0322
FFA9
044F
FABB
0093
F50F
F991
0278
0BEA
F952
0337
F65E
F922
0BDE
0702
F7E8
0174
FB28
FE67
FCE6
F89F
FBD1
0739
F9BE
0CE0
FDE5
FA85
0643
0015
06B9
F2A2
0A2C
0980
06F5
F956
0476
FCC3
FA5A
075F
F832
05D8
FAF8
F6B5
FC41
0738
F854
FEEF
0861
0D30
F690
FE4E
0B0E
0A11
073F
F484
0163
F4DC
06A4
FE7B
0629
F91B
FCC6
065B
FC1C
0B9D
FD2B
FBD3
F7DF
03A4
FD22
0952
0C96
084A
0691
FA79
FF39
F52D
