00D3
034E
00BD
FE4F
0209
0279
FDD4
FCB9
FFB8
026F
01C0
019C
FEE9
FFBA
FFAF
FF1A
0144
017B
01F6
FE0E
02F8
FF56
01D8
FF56
018F
FDE1
0005
00A5
FF30
0138
FEA2
0008
02DF
035E
00EE
005A
FF89
FFBF
FFE0
0102
FF33
FE34
FE5A
009A
FF59
FFA4
012F
FE22
007A
FFB3
008B
FE8A
FECA
FD08
0193
000B
FF61
FFC7
FFCF
FCFD
02D0
FEE5
FFC1
FE9A
FFAC
FD64
0268
FEC2
FF08
01D0
FE94
FF9F
FF66
FE6E
0198
002F
02A5
02F2
0213
0171
0084
FFD7
022A
019D
0029
00FE
026B
00BA
FE32
0245
FFB3
FEAF
0077
025A
FC58
FF9D
FD88
FE78
0175
FFB0
02C2
FF2A
019B
FD39
0127
00F1
00A2
FD6C
FF9F
FE8A
FF9C
0085
FF40
FE45
0039
FF7F
0041
029B
0123
01A3
0068
011A
017D
010D
008B
023B
FD2E
FE4A
FF1E
014C
FF70
FF95
FF73
FF96
0095
FF58
FF8C
011E
0154
FDBE
FFDE
FE18
005B
FE15
FDC1
009E
FD65
FF02
028A
000E
FDC0
FC62
00BB
FFD4
FF6E
FF09
FF87
FE43
FEEB
FF57
FFFD
0186
FF02
FF75
0036
0120
FE77
0006
02CB
0263
FEC1
FF79
0133
FEF6
FFFE
03D9
00FA
FD38
FE8C
0048
FFCA
FFDF
002C
FD4A
FE71
0165
FFC1
0201
FD69
009B
0019
00E0
009B
0188
FF75
FDFA
0360
FF77
00B0
00CB
013F
018F
FF9B
FF49
0168
0143
FD88
0161
FFF7
0118
00FA
FF7E
0076
FF65
FF4A
00D8
FF2E
FF78
0158
00C4
024E
006B
FF07
0022
01D4
FECC
FD79
FF93
FF9C
FFA9
0031
012A
FFA7
FFF7
0216
0023
FFEE
007F
FF1E
0140
0116
FF68
0274
0028
00E7
001B
01E6
FC53
0388
00C1
FF07
FFD5
0089
001B
005B
0157
001F
0101
FF55
FE6A
FCB2
FD7E
0215
01E7
0188
0132
FFDB
018A
016A
FED0
021A
FF2C
0237
00AC
02A5
018F
0221
004D
FFEA
01A8
00D9
003E
01AD
002F
FD6E
0021
FD66
FDAF
FEF3
01B6
0203
FFF9
FDE6
0039
FF60
00DF
FF84
0024
FE49
02C4
FF49
0241
00CD
03D6
0078
0115
00D8
FF78
0134
01E7
FD0E
FFE2
021C
0110
FF0F
0111
FF57
00EE
0286
015E
019B
011B
0091
0077
00C5
0156
0386
FE6B
02E8
FE21
00F5
018C
0212
FBCC
0236
02B3
FF6B
0123
0056
02B4
01F7
0073
01DD
0387
FF1F
FDAA
FD70
00CA
FE0D
0088
FEDA
00A2
00A7
0084
0098
00A1
FEB6
FFAC
01CE
0150
004C
FE54
FFDB
FFC1
FF77
0213
0006
0106
0154
FF29
0165
FCE9
FE70
FE71
FF63
006B
FFF4
019E
004D
FE3A
01C2
005D
FFC4
0070
FE5A
FF76
FF51
02E6
0122
FFA9
01F2
FE15
019A
FF69
007C
0139
0120
FD05
FFFE
0131
015F
0075
0075
FFBC
00A3
0283
FFC8
FEFE
FE5D
FD94
0231
FF2A
0255
003C
030E
0074
FEC6
0154
0330
00B5
FFA8
FEAC
FFF2
FFD4
FFAF
FFBB
00AF
FF4D
0027
0070
00ED
FD28
015A
01A2
FEBC
007A
FE22
0024
01D7
0165
FF2A
02B1
FFA0
019A
FFCB
FFFC
0006
003C
FF71
FF4B
020A
FCD7
FF2E
FE11
00BE
00A6
019F
0064
FD55
FF93
FFEE
FDFC
0277
FF30
0060
FF33
FF40
FF37
008F
FF5F
01B8
FE1A
0039
FF78
FFA7
004F
010D
0061
0015
0119
FD9D
FFB7
00CC
FF67
FEC5
FE0E
FFD6
FD97
006E
003E
012A
0182
FEBA
00EB
FED5
FE7A
0120
FF0C
FDBD
FE7E
007A
FD8A
FEBB
FE77
01DD
FDC2
FE1A
FFD2
FFCA
FDD3
FEFE
FE9B
FF3E
FEA3
FE0A
FFB5
FE87
033F
FFEB
003F
FCEC
FF99
FD71
FF3C
FF15
FFAE
FF85
FD3F
02CC
00A3
0263
012A
0040
0155
012D
FDA3
FFC6
FECA
0150
0067
FF89
0016
0131
FFF4
0086
FEE5
00A1
FF3E
FEB7
FEED
00F6
FD0A
FDBB
008C
00E5
FF80
FFEA
0181
02C3
0237
FFE6
FE77
00FC
FEA9
FE32
FD67
FEEE
0252
FEA8
0026
0248
0056
FF7E
FF53
02A2
0043
FCED
0068
FE93
FFEB
0094
0027
012D
006C
FFB9
026D
FE90
014F
00BD
0082
FFFC
023A
0142
004F
014E
FE1A
0160
FE53
FDB4
0002
FDB3
FF06
FC47
0156
0174
0016
00C0
FE0C
001A
01DE
000D
FCBD
FFB3
FDDA
00DB
0012
0244
0023
FEE4
0102
00A4
FEC1
00C6
FD4D
FF15
001F
FE30
FF43
FEA2
0033
FEB9
FF2B
0145
FE07
009E
FFFD
01FD
0025
0047
017F
027C
FDBF
0176
FFBE
FF1C
016D
FF01
FFF9
023C
FFEB
FD61
032D
0084
FF2C
FF40
FE86
0003
004F
009E
0030
FD07
FE1E
0218
0069
0015
0122
FE65
FE31
FF74
0122
01F0
0246
FD55
009D
FF1B
00B4
FD87
FDE8
FD9B
005D
01CA
FEFF
00E9
FE6E
025D
019B
FDB2
0081
003E
0060
FFAB
FF9D
FEA6
0076
00E0
00DB
01A8
0244
021C
FDC4
FFAC
003E
0104
FFB3
FEB5
FF7D
FD73
FE9F
013F
0001
FEF5
0057
FF12
FEFA
FFEB
0029
0311
FF73
009B
00EA
FEEF
FF66
FE49
FF14
FDB1
FF49
FEA7
028C
FFA8
010E
FF25
0170
00E3
00D0
FEF1
0026
00FB
FF86
004D
FE3F
0213
FF70
000B
00A5
0005
FF0F
FE54
03C4
0154
FE8D
FE86
FFC0
00EC
00C7
0233
FECD
FF24
01DF
FDCD
FE77
FFAB
FE6F
0143
FEF4
FD52
01AB
0007
0139
01D1
016F
FEF0
00D7
FE88
FEDE
FFD2
001B
FFE3
FF57
FF3E
FF61
FD54
FD70
0076
FF62
FF50
FE21
02B2
01C4
FE05
0004
0079
02BF
00C0
FF54
00F0
FE03
FEE9
005B
FFD6
0189
01B3
FF66
FF84
0004
0035
FEE9
FE1E
01D0
FEC0
00EB
FE26
FE40
01C6
FF1C
FF86
0011
FF7A
028B
FFE4
01BE
FFD9
FE6E
FF13
00E4
01BE
FE30
005D
0243
01FF
FFBE
0062
02BB
FF41
FF7D
005D
FFFE
FDD7
029D
005F
001C
FE01
0291
FEB2
FDE9
03DC
FDAC
FB9C
001C
02C4
FE09
0167
004A
FF91
FE56
FE4A
0156
FF26
FEF2
01D7
FF17
0042
009D
0070
FF27
016B
00D3
0076
0090
FFE4
0070
0043
0133
021A
FFDA
003B
0198
FE08
FED9
00DA
0014
FE07
FFB6
FFB1
FF21
FF87
FD95
FDE5
01E9
00C0
016A
036A
FD69
FDB3
0285
FDFF
FF0F
FE75
001B
01AD
FDF9
01C6
FCA1
FEF4
0066
0278
00CF
00B2
FF2F
FFE6
FEF9
FE56
FFF6
FF3E
0089
01EE
FE85
FE07
009D
FF3A
FCCB
00C0
FD95
FFAB
FE04
00C9
FCE8
0113
0023
FFD4
FF24
FE84
00AE
0044
FEB7
0147
FEED
FF73
FDB2
0193
0254
0004
0035
0194
00A1
FE99
025A
FEF6
FFB8
01D1
00A6
FEE5
FF9C
0172
FE17
01A5
02E6
004B
0070
010F
FC6B
0233
FF79
017B
0052
006B
FF31
FD5C
FD93
FF2D
FD68
FEDF
01A9
FF0A
FD55
FEE1
0064
FE82
FD38
FDF0
FEA2
01BC
0028
0002
FF45
015D
0093
0047
FF59
0067
00E8
00F6
FF5E
FE5A
0184
0037
0026
0197
0044
FFC0
FDF9
FEB5
009C
FF2A
0194
008A
FF2B
00DB
01A7
0010
FFF6
FE6C
01AA
FF18
FF88
FEFE
FF5F
FF06
FF29
FF7F
FE6D
00A6
FF01
FF04
0043
