F71D
FFEF
FD61
028D
0208
0034
0487
03AC
064C
F3AA
FF0A
F304
0928
F5E7
03C8
F5D3
0644
05EC
F8F5
FAB7
FEAC
F64C
0897
F483
FC79
F259
02D9
F5F8
0B54
083F
068F
F2E2
FABD
F381
042D
01CC
046B
0749
004D
04AC
0264
F2B1
F60F
016B
0AC0
0432
F155
F570
F0A2
0355
03F0
F9CE
0468
F56A
F63C
FCC9
FFBE
0483
01E9
FE97
0742
FB65
FD39
F785
FD98
0F83
F8A4
FA18
0F6C
0B73
0140
07A6
0ECB
0A6D
FF09
0586
FBE5
F76B
0656
05A3
FE01
F4E3
0D99
F80D
FE0E
F9BE
0189
06D9
04BB
FEB2
F87C
F9FC
0079
055C
F7A0
050E
EFE8
FDDC
FD3F
FAFA
0117
F4A5
F16B
FD7D
FDD5
0856
F40D
0270
FC58
FABA
FB3C
FA9E
FDFC
F5CE
0A4F
04B9
0256
FD14
FB33
FF28
FE48
F2A1
0A51
08B5
FF99
FBF0
F511
F4DD
FBC1
107F
0F0F
FF4E
044C
0301
FB44
0906
044E
F5F0
1119
FDD5
FCDD
F907
0294
085E
0291
078C
032D
03A5
0420
00C5
F96E
FA80
FE16
00AC
0B99
095A
FC31
06DE
0716
07AA
FE73
05D9
0420
035B
FA39
029C
FC4A
0963
FB1D
FA12
055B
FE73
0B1D
0EA1
0C36
FBBD
0305
00D3
0968
0821
0C17
09D6
0291
0432
0A21
08D7
F738
07D4
F6A3
FCA0
0B76
FC37
FEC3
08C0
0F6D
FE06
0A91
FC54
FD1A
F9CF
0996
071F
1008
1328
0522
0051
0C23
FE7C
F839
073C
F63E
0D03
105F
0A65
015F
FB66
0982
0C2E
08A8
0710
0E3E
F7D2
FD15
F69F
0700
FA4E
F86B
0D11
FB77
0206
0047
0666
0474
FB8B
11F2
0BC7
F839
0DFD
0D1A
08E1
FDDC
F6B2
FDAA
FB17
02BA
F860
0DAB
FC9E
FDC5
0A47
FE48
0205
09B8
0D1E
FF5B
FC2D
FAF8
0A17
063A
FF01
08E9
FF3D
FD80
F44E
01B3
0539
084D
03C9
0587
0695
F8D7
F798
1040
0B80
03D4
0AA8
07D0
040B
08E1
0D81
F815
0F91
08B8
0262
F6CC
0DD0
F882
0925
F721
FADB
07FE
FB1D
F8CE
012A
FA31
FC97
FC6C
068B
FF53
ECDC
FA5D
08F7
FB03
F352
013A
00A1
03A5
F07E
043E
06C7
F150
00F8
0194
05D2
F78C
FDC4
05F5
F510
001F
011C
F902
F050
F75C
015B
F750
FD94
F5A3
F408
06BC
FC8B
F484
058D
02EE
0625
FF54
F378
0329
07A0
016F
F0AB
FA2D
02DE
050C
FE54
F624
F762
059B
0261
0122
04A5
014D
F153
F0BA
F61D
028D
F7F9
F6B8
FF0B
F9A2
FB1B
04C1
0036
EDC3
F405
F982
FD4F
058A
FA9B
0158
0628
FE8C
03CF
F3E2
F7CE
065E
F05A
079E
F1F9
F52D
FDB3
FA42
0963
02C9
F8E0
F9C3
0A4C
FA91
FEDC
0CE7
F7EA
08EB
FA6A
10D8
FAF7
0E82
00AC
0912
0E21
0771
0308
07EF
FDAC
0176
FCEE
03B2
08E0
F654
0EFD
0CCE
FC80
0263
FF6B
FE5B
09C1
0684
059A
F13F
F5E8
F32D
FC5E
074C
0882
EC6E
0C2D
ED36
052C
F5F9
F369
FF72
F777
F33D
F25F
04F5
0004
FF88
FDB4
02BF
FB0C
01CA
F432
076A
F60B
0081
F861
08F4
05B4
F5AD
F1FC
EF88
0464
078F
0A45
00B3
FE8F
FD3C
07F7
F40E
07E3
01FE
FFD6
FC6B
F21C
FB38
F462
FC8E
053A
F267
FC6B
02DD
F2F8
06AE
F230
FEB7
F555
0BBB
FD4E
040E
0631
FE51
03DF
1067
FA06
0695
082F
FCCD
F880
FBAA
F44D
05AB
0CDA
0DD7
06BA
F7CB
FAB4
054A
FF70
FFF3
F47A
04B6
F7B4
F8FB
075E
F8A9
0CBB
F6CF
0957
01B1
0AE4
FF65
059C
F5FE
0ACF
00DC
FEA8
F91D
F7ED
0EA6
0AC0
07C3
0191
FD77
089B
1356
0059
09B6
0EC3
F816
0C21
0513
F782
FDF0
0428
FB3B
0411
0D3C
0BB6
0A18
FED5
0101
07E5
FB73
02DA
03B2
FA1F
F347
F2DF
09C1
0557
FAB2
05C2
FE9D
FA59
FEB0
F616
F2E8
FFFD
F44D
F1BD
FF84
0955
FC67
F713
F90A
F4BC
F2DF
F627
0601
020F
F361
00DD
FEA1
0167
0783
F5F4
0BAB
FFC9
01A8
0A58
FE49
076E
0381
F4D0
104C
00B2
F93C
F75F
01B2
0B69
F4E6
0DF8
03B7
0860
FE3C
F508
0586
FB3C
0BC0
F8DC
0D54
0DEF
0BF1
0829
0033
080D
0857
0DE5
0BE3
0214
FAB3
0B31
0D32
FB2A
120C
065A
0ACD
FA2F
0A67
F6C6
0E95
FB19
FBE2
013E
F56B
0409
FD84
0881
F6C3
08BA
0700
0C61
04A2
081D
F887
08C7
FC82
0582
0714
FA67
0964
07A3
EF6F
FB14
0494
FE6F
F96C
F6A7
EF5A
F9F6
F749
0A2F
F6E7
EFD5
03B8
090B
008A
0202
F9D3
F661
035D
F831
F4D9
FCD2
FF7A
0080
09A8
FDB2
007D
0779
07BA
0579
07CB
F3C8
01D8
0092
FC08
0141
ED7D
FA97
F07B
0D24
FA5E
FADC
F7D5
FA3D
0653
F997
F284
F1A0
03DB
0B03
056E
07E1
EEA8
069F
FBB5
FD77
F238
F260
FEEA
F487
FF25
078D
FD04
FCE8
0FF9
FCD1
0EF7
097F
08BB
0A0C
FC28
F4D1
0993
F855
FCA5
0266
0078
FDEE
0494
FE9E
0554
FB16
0903
F8DC
0F2F
FB3D
045E
FF14
FA0D
00E9
038E
FD90
F5AD
FCFC
0DE1
F61A
F4F1
F2C2
052C
F832
093E
FE2F
04DE
FFBC
EF2C
FE83
0186
F823
00B3
F19D
F648
F799
F9E3
F4EB
FFF8
07F1
0676
F813
F515
0069
04B2
02F5
F6F4
022C
0061
F42C
06BB
FBFB
FD75
FEA5
07F4
FA91
F9C3
F55E
0257
FCA4
066B
FC89
0E55
05AD
09F3
0A13
07CB
F6E6
0BE1
08D0
07B3
06EF
0D97
0D32
F9A5
0DAB
F9C9
F8E8
FFBD
0C10
099F
FD13
FB41
0B65
EF26
F3B1
0689
0394
06FE
F4B7
FE1D
FEC2
FBD6
02F7
EBEE
FE76
F594
0A5E
0196
08CC
F242
0070
03A6
EF68
FCE0
F3B3
F3F3
FE0F
F3F8
062C
0AFC
013D
FF5F
F9E7
00AA
0184
FC11
FD1A
06ED
0A57
FCAD
FE0F
102C
FB6A
086E
0C0A
0FA5
03C8
089E
0D04
FAE8
0483
FDA8
FA7A
F786
0B9E
0DBE
F60A
F840
F64E
0E95
0C2C
00C2
0B92
FCED
F6A3
EFB9
FA54
FD66
01D4
FC29
FC47
01DB
FB38
F644
F48A
F8FB
FDA0
F511
0189
0A9E
F405
0178
0332
00EF
FDBA
0902
0792
EF98
085F
FDC7
041D
053A
F8BE
F7CE
0009
0801
FFB3
F45A
F70B
0FAA
0001
F258
FD20
00CC
F5D4
F6CA
F86E
0C1F
FA04
FE8A
019A
0772
0498
0389
FDF5
11D4
FBBB
0B96
FDB9
F7EA
FEC8
FA68
EA13
06A4
0126
FFF3
F7FC
F5C4
06F3
FEE9
0878
F895
F63A
F62F
FED2
03C3
02D0
F56D
075E
F1A7
F788
F95A
0BD1
067A
0984
F7FB
011D
001C
04C1
FEB9
00DB
0136
0443
0768
FC67
035E
F460
0B08
F632
0636
FBF2
0C16
09AE
07B7
0EF0
F20D
FA9B
F348
FF3D
10E3
F568
03C7
FC1D
0D8C
055F
065F
F98C
F896
FB44
F867
F8E6
0CBC
00D8
F705
05BC
06AF
0B2C
F6D5
F6CE
04E2
FF8A
F3F9
0350
FD37
FBBC
FA9F
F91B
FA08
0205
F25F
FAA2
0192
FD6E
043C
00F4
F65D
035F
FB72
0243
F480
03EA
FFEC
F5AB
03FA
F02E
F55B
01E5
F246
F120
0495
0168
0311
07F7
0437
014B
04E4
FEE1
