03F9
0483
FA35
FD5B
F661
FAD5
FA92
FC6D
FF12
FAD9
FE2A
FB94
FAC5
02C0
FD8B
048D
F8CC
036D
F395
0E6C
05F6
F3C7
034C
FC84
0E57
FD5C
FA66
F7D3
0024
F59F
F3CD
FA25
0355
09CE
FC5E
0477
062D
FF84
FDC4
FE6C
F8E2
09A0
036D
00F1
0520
FF41
00A0
019D
0095
FE2B
04D2
069A
0364
02C6
FD19
05E9
0A3B
0813
0B07
FD6F
FB82
07C4
0CF3
00C3
03B4
050F
0602
04BF
FEAF
FFA9
F3B0
059C
0695
F774
FD8E
F7E7
FB12
0896
FBC0
030B
03AB
FF43
01E7
01D0
FAE7
FDE7
FDFF
06CC
FDF4
FE98
FCF9
0096
028F
0489
FE1D
F5F4
002B
F84C
017B
F1D7
FC37
FB96
02E2
FCA3
FED9
0060
FDCC
FC31
0C06
FF4E
F42F
01BE
00B2
06BA
FA23
FCB2
F8CD
06EA
0143
F637
FB2C
FAE2
01D6
06D9
FE50
FE16
08C1
FEAD
FB01
F652
F9BE
FB7D
046D
FABF
01BF
FFC0
F874
0618
F715
F667
F96B
F7E5
F43F
0891
086B
0561
FE83
035A
05F5
FA57
010E
FBA7
F6EE
0209
FA1C
093A
F7C6
032D
F963
FB7A
03F5
0333
011E
FF27
052B
FEA4
FFA0
02BE
FA6A
0B10
0C99
F88B
03B8
046F
0447
0B09
0629
09DF
08D5
FD07
FB99
F9A3
00A0
FE3C
FDEE
029F
051B
06D7
0458
02CD
F53E
FB15
F864
02E3
03F3
0A4B
FB03
0499
0566
0154
FF47
01F9
FECE
FE45
FE70
0528
FDB0
F95E
0BEB
EF68
FF55
FF0A
FD75
F586
FA5D
F805
FE36
FD05
FF89
09DB
04FF
FBBC
037B
F9AD
FD24
003E
051A
0555
FC64
FD37
05E2
FC2A
FC47
FECC
F2D9
0272
FEBD
FFD9
F3D4
FE40
F3F4
04C6
07A0
F958
FEA2
FBDA
FDA7
F663
0909
03DC
0363
005E
001B
0872
05C3
FD77
FCEC
F6E6
01B8
FB3C
022D
FB2F
082A
004F
F7BE
05A0
FDE1
0354
02C7
FB9F
FE93
FC25
FCA0
F5F8
008F
FD8C
01E0
FDF8
FC82
03F1
0563
FB07
FF7F
F8F7
00DA
F889
060A
FCF2
06A1
0116
FDB6
02DC
0198
031F
FE55
FD31
FEDA
FC85
FB92
FF7A
1204
FFA0
0143
FBA4
037E
0166
F83B
FDE5
FF77
0C19
03E6
04BB
FD12
FE02
F770
01FD
020E
004A
01A6
0787
F20E
03EC
FF78
061F
FC5C
FDED
FCAF
F52B
FB98
FFCF
FD06
0E1F
F18F
FD6A
01CE
0324
000F
010A
F02D
F893
0570
03F8
04F2
FFA9
03C3
0403
FCA5
03DB
0448
F9CF
F2F8
0554
0E4E
05C3
FEE0
FF72
00A4
006F
0635
FF39
069A
07F3
0522
078E
F825
0A12
FD28
0238
FF59
03C3
03F6
081B
072B
019E
FB84
04AE
FD70
F896
FBC6
07D5
0B7B
FE48
FD39
FA48
FA3F
FE6B
FFAC
F6B8
FC30
01B3
0923
05FE
0367
00F4
F293
FF36
0016
FE96
F8DB
FB03
01F1
0565
06A1
01AB
FEE9
F6B3
F6E1
FD9E
0585
FAB6
FB6B
FE0E
08A0
01B2
F7A8
0460
03DC
03A8
FFB0
0B68
0594
F6D0
0311
FF8B
FD06
FDED
0201
0E65
FCA9
FF96
FF06
FAC1
F9F0
0620
09C8
F780
F94B
F945
FE4F
0676
0665
FD0A
FF79
08EC
0A91
F54A
065B
0674
0068
F95C
FE7E
0599
FDBF
0651
FA64
03E9
FC52
01C9
01CB
0179
00AF
015B
0592
F7BE
036E
FAC3
F7C1
F7C8
F67D
FFFA
0129
05E8
0AD7
FBCF
04CA
FDA0
05F3
FE86
F7E4
F98B
FF97
FDBC
F487
FF2E
FE9A
FC40
06C4
01D0
01FF
F917
FE54
02F8
F952
0835
0482
F392
FB99
FC46
01B0
FE49
FC8B
07C7
FE64
FBDD
F8A5
F9D3
04A2
F3FF
0475
0039
05B7
0585
0229
04AA
FAFF
0BB1
05CE
FD0E
FE4F
04CC
05F2
FFAE
0C31
FDBA
FE58
0591
F58E
FD0C
FADB
01CF
03FE
085D
F4B3
0446
FAC3
FE72
FF27
0A68
FF09
F974
0616
FAF0
057F
0547
FAD6
055A
0809
03A6
00C5
FCC6
0168
FF80
F18D
02BB
0287
F21A
FFD8
0020
00F3
0D88
FDF6
03CD
F6F7
0023
FACD
F741
0777
F5DC
FAE5
0149
05F7
00CB
FC56
FBC9
0A61
03BD
FA01
040C
FEB1
FF2C
0041
FAEF
0A5A
03C0
FF74
FFE8
F904
0629
00BE
FDEF
FB23
08B1
05B3
05F1
0953
FB70
FEC7
0235
FF31
0184
0ABE
FE79
FCEC
FEBC
EF8B
F7CA
FB3C
0759
FEEC
0031
FF46
08A4
FDFB
02B4
0131
06D1
0987
0046
0785
F746
F791
FBE5
FC14
F6CD
FDA0
08FF
0311
F4A0
03BD
031F
FF85
FAB1
0084
02A9
01A1
FC5B
01C2
0000
F64D
0AFF
0584
05D0
06A7
07AE
FE7B
0418
05FB
FA50
04E0
FAA3
0A4C
FEC2
0A7C
0706
FB0C
F4AD
0C3D
0278
0725
08BC
FA74
05FB
011C
FAD0
0281
F8AF
004B
FD0E
FE14
FE50
0288
05BF
0A33
0389
F9FA
04A1
F6C3
00C9
0469
FD6B
024E
0355
FC1E
FD5C
FA4B
FD27
044E
0343
06C1
02E7
F8AD
FD99
FBCD
0AA6
02C0
039D
04A0
0D3C
04B6
F8FA
FBE4
FCBE
FFCB
00B5
0735
026A
018C
FFF3
0153
FFE9
00B1
FEF5
06DE
F7C6
FBD0
0791
0264
00AC
FCB2
FCDA
0311
0A05
04F3
FFAE
0408
F7D5
03FA
00AA
02CE
02D1
0357
011B
044E
F530
08AB
FEC4
009E
FBAD
FD87
F305
FFFB
FD95
FE76
0BF5
FFDC
F50E
0116
FB7E
0079
00EF
0109
FB3C
FB1F
FE9E
043C
F6BC
0941
021C
F857
0187
FA76
072C
FFFC
034E
F1CC
F410
0427
FD74
0860
00F1
FF88
FCF1
FAFC
019E
FEA8
0814
04FE
004C
0690
FEF6
08BD
FCD5
FA7B
0131
04F8
FE41
01F3
01A3
FB8B
0254
0503
08DB
049F
F934
FFB4
0328
02E4
F813
016C
00D2
FC8E
04E5
F98A
F246
F48C
FD07
FDF6
F6BC
00BA
FF53
F4A8
F4DA
F811
048A
0180
FDC8
08C4
0844
FE0C
03F4
03D7
FBDE
0024
F245
0199
02A3
075E
0EC3
FC4E
FE8F
FEC6
00E3
FFBC
F793
0A48
F87C
FAE6
FBB9
073E
FBA8
0037
0216
0041
FDF4
02E3
FF7C
0894
FD74
F383
FBCF
01EC
FC84
F82C
FB59
0437
0A17
023D
FE3D
F8E6
0086
0136
00B0
01B5
FDE9
0714
0878
F5AE
0B45
FC2B
F843
0562
0336
0907
F40E
FC70
0531
06CD
FC2F
01BE
FCE3
F5FC
FED8
FFE1
F988
FEA4
F5CB
F544
0CEB
0222
01D0
0151
FEE4
FDAD
FD5A
FAD3
0246
017E
F6CA
0487
126E
F9DD
FA80
060C
F961
01AE
0129
FC6F
08C0
0B0D
09EE
FE95
FD1D
FF92
0C10
F9E5
019F
0433
FC49
FD5E
FF6A
FB99
FB78
078B
FA55
0133
FE93
FFAF
020D
0630
FA85
0A6A
0974
0770
F6A1
FFE8
F688
023D
FB90
0311
F92E
F7C5
FE27
0520
FB2A
0450
0627
FBD8
0514
FEB0
0288
FA24
FF3A
0600
010C
FC19
FEA9
FB67
06C4
FBE1
FE4E
FF40
FEE4
05FC
0856
0385
0351
09FA
0001
06AF
046C
0447
FAF6
FA86
00A3
FE3F
FA8A
FAD2
FEF5
01EA
01A4
F6FA
0668
FE45
0B23
00DD
F7A3
01DB
0E0A
0729
014D
05D0
FEA5
03CD
FCB7
F771
05E1
0E0A
01B3
FBC1
FF2D
F6FB
0426
FB98
FA9B
05BB
04EC
01C2
0641
0A73
FF17
027B
FCAF
02EA
FD27
0E48
FED0
FE42
F449
FE90
F9A1
0598
F979
FA44
FBF6
