F934
FAB9
01F1
F9F2
01B3
0842
0454
FFEC
FA15
FCCD
F45F
00B7
09E8
08F4
F809
FF08
FE79
FD18
FB07
F9A5
F4CA
FD3D
035B
F4B2
02BD
FB7B
0462
FF1F
FC44
0068
076B
017B
0002
FA48
FA50
FDDC
FBFC
FD5F
0779
080D
FFD2
FF14
04EE
051F
FBB0
F461
0041
FFAB
F168
FB66
FB7C
FC65
FA3F
067B
0453
04DE
FF82
FFC6
FC56
0597
FC33
014C
F009
FF6C
01A7
0158
FF23
F320
00F6
00F3
FCAA
019C
0A67
09A4
FE45
07A6
FFA3
FEC5
0641
0292
F657
009C
FF88
07C8
0268
FC5B
08DE
07AC
FDA4
0433
FA0B
FFC1
017C
FE20
F836
FD80
F32D
FE78
F771
F78A
F7C4
FA60
03CD
F8D2
F8CB
FF99
FDFB
F465
FF83
FB69
0073
F97D
006D
F9A9
032D
018C
FCA8
06D2
FDCA
FCE6
0465
FBB8
0821
013D
FFE5
0D85
FB93
FBE0
01DB
01E4
014A
FCE8
00DF
FC51
08FC
FF6F
FCA2
FBBD
FD1E
0326
FC3B
075C
F5FF
0742
FB4D
028F
FEE3
0009
03FB
F7A3
0220
F995
F7A9
05C9
F9E7
FF0C
0627
0416
FBC4
FCEA
0469
FB0B
07E9
0407
F6D5
0854
FA29
0245
FF97
0212
0326
FCCC
02BA
FE49
FE71
FA0D
FED8
F6A6
FA0D
0958
05BC
0094
FECE
FC22
FAE9
FD8B
01F4
FE21
0135
FB69
03D9
0334
FF44
096C
08BF
FDAA
FF2D
FF57
FACE
052B
007A
F763
FD09
F8E8
FBFC
0108
0244
032B
FE9F
0005
078F
F57D
03B3
0310
0755
FF4B
FF0D
004A
083C
F9C9
022F
047B
FA0D
00B5
F828
F9B3
0371
03D8
FD3A
06BE
076D
01A5
005E
FBDF
F555
F101
0A01
FDD7
01F8
0D70
06BE
082F
FF99
0112
076D
0084
FC65
0098
F9CA
00BF
F993
F294
F6BE
FD22
F4DB
080C
0AF7
0140
F85B
FF05
FD93
07BA
01ED
0226
05EA
FC77
FC08
FBC2
03D9
FDE5
029A
F415
FBAB
FE67
FB08
F8E5
F79C
FBBC
0282
0959
000F
F97F
F894
005C
FC32
0452
FCC6
017A
F730
FF45
04DE
015F
FDE6
FF57
0888
FE4E
0806
F7A2
0396
0778
011A
F9B0
FC11
FD40
0AD5
FAF8
FE92
00D2
008B
01BF
FCF6
03FE
F7E2
075D
FEF5
FD13
0059
FE3C
FFDA
FDC1
01F4
03B9
FB73
03A2
FE25
F580
0431
00AD
FDE1
F979
FB95
FF25
013E
0013
FF34
FFF1
036D
FBF7
08AB
FD73
FC0D
FF79
00BA
FF52
FF78
FEA6
0233
031C
04AD
0615
FE5A
036F
FDA5
0433
F830
0DBC
FB7A
0057
0A4E
FD76
0854
0AB8
0E66
F9F7
06DC
FBF3
FD79
0D5E
04EE
FB73
01C2
00D7
08E0
0C49
0311
072E
035C
FEC0
0143
06A6
0312
FDA7
FF9D
0448
FF4B
F69B
FE91
FD30
05E8
FD6E
00B5
08F6
FDC8
0467
05DE
0789
05EE
0575
0220
03EA
FA09
FB44
0A96
FDDB
FAE5
053C
0322
049E
FB78
F639
F96B
FE13
F912
043F
FCB1
08D7
050E
FF9A
F7ED
0703
FDA7
0534
0301
F1AC
0377
FDFC
FAA6
0373
FD0D
044D
F610
F9E1
FB72
02CD
FF11
FF2C
0BFD
F745
FFA6
F945
FE56
0274
F8AB
FB04
06EB
045F
005E
F78D
0265
07F9
050E
F906
FC6A
FA4F
0470
0017
0733
0532
0292
F769
FF86
022F
04CB
085C
FF3C
01FE
0259
FB76
0272
F765
FCEB
034C
03BA
063E
0961
FC01
FBE6
FB34
F39C
F6DF
F691
11AC
0115
05CB
0656
FC50
0405
FAFC
F5FC
F96A
FC22
008D
02E8
00B7
FFA3
040C
022C
FA81
0A20
05DF
FDD2
F9F3
0849
FF73
007B
FDDB
0AA0
F9DC
04EB
FF3A
FCFC
043F
FF28
049D
FC38
FA65
FC07
020D
FB13
FC09
03D9
03D5
0BCF
F881
0060
FEAA
005B
0316
0A8E
F787
FDE3
FB9E
FE55
0548
F2C1
00B7
FBB5
07F1
02E6
FFE4
0BE2
0063
0045
F548
FC05
01DD
FDAD
048B
008A
0045
FCDF
0483
FBE6
0659
042F
FED1
055A
FF35
FBA1
053F
01D7
FE37
051A
F87F
FDED
0176
0571
FE49
F72A
00D1
FF07
EE98
F81B
06F3
066A
FEAA
090F
0610
FB18
F1C8
FA27
0A4F
0334
0678
F9C9
00B2
FD51
FCD5
02E8
FF05
F7D2
063B
F921
05F0
FEDA
0413
FAF3
04CC
FA99
F91E
0BA0
0CE7
050E
00F6
F7C8
0165
0297
026E
F774
0824
F9A8
00DD
FD24
FE0E
FC85
FB98
F6F6
00F9
FE8A
0330
06E7
F7E3
02BA
0986
FEE2
11EF
F8F6
05D4
FE29
FD76
00A9
0255
F1BC
FA7A
F606
0409
FE23
0605
03D0
FA91
095B
FA97
F61F
FD86
07B0
FF22
FFB7
05F1
0D09
F486
0595
FFF7
FD81
FE35
F870
0228
FB56
07AC
0001
0869
02AB
FA58
FA62
05B7
F72A
EFB2
0106
FF4F
F56C
02E9
0206
F70A
0EDD
00E6
0006
0056
039B
009F
FC6C
FCA1
0579
FCDF
03B7
F4DD
0B3F
0402
FA5B
025E
F70C
FE11
0B22
FC0C
F488
0372
FC2B
FBA1
F415
F6AC
FEA5
03AC
052E
02AE
FF99
07B0
FE0F
F8FA
10F6
F657
FE2F
0067
05B5
F681
F942
0135
00B1
FD58
F942
FAA7
FDF0
08A0
FBD3
FD6A
0732
FC4D
F73C
FCD5
0113
025B
FB57
FB5E
016E
FEFC
0481
F65A
03B5
F708
0020
FD38
01B2
01E7
01AC
FEEC
0A7B
0859
FA33
F95F
F834
FC00
FA7C
FF72
0309
FC52
FB2C
06D3
0461
03DC
0307
FB5A
0232
FBDD
0626
FCB1
05DA
FA8B
075A
0C9F
F8B9
01BF
F592
F9A8
05BD
0498
FB3C
0593
FAEE
FF21
088C
FEE3
FB0E
0C64
016F
090B
04A9
FD6F
F67F
0435
FC96
F195
FC69
FFD0
FA81
F9F4
FCAE
0781
0053
F94A
05E3
F6DC
FDF0
0025
03EF
0F0E
FC3F
0559
FA99
0605
033F
0236
0523
FDB4
FDC7
0027
FB52
FDA7
FF46
F864
FE1E
FAB5
002E
F9DC
0380
FF7B
0098
0172
04C0
FD2E
0078
F98A
FC26
FF15
FB27
02E6
FF19
0378
FBA0
FDEC
00A6
000A
0837
FBE3
0531
FBDC
FBF6
0124
F3F9
FC1F
02A0
07B9
000F
FEDD
0107
04A7
04BE
0069
0718
FCBD
FA2F
FBAB
FABC
FEBE
061E
F8D9
0732
FF16
00D4
FC00
FF86
FCE4
FDA7
FED1
FB34
02A7
FBE7
FFCE
FDFA
07AD
FAD4
F878
086B
0012
0157
FA73
0A0C
FD5D
06D8
F777
F61F
0546
F8A4
0852
01E2
00EA
F8E2
FD87
0439
042D
04B5
F8BE
0012
0408
FF87
008E
FEBC
FFC4
047C
0735
0968
0BB8
F9F1
FD3C
0490
0329
FF45
F7CF
0082
0918
FA9E
FA8A
02AC
0324
0029
06F0
014B
FD71
07AC
02CD
FFD7
FA3B
FBA4
FD99
01D8
FE7A
F869
FCF0
02FE
083A
04C1
F840
FAA4
0152
F903
00C2
F9EF
0453
F844
0063
0560
FEA6
FBAB
049B
029B
FDFF
046A
FB21
FC5B
FC36
0AA7
FF73
FADF
FDF1
0712
051D
0099
FF43
FCD3
084B
086D
04CD
00B1
074A
FBD5
0144
0D91
F548
F6B4
F8FE
FCA5
010E
069B
FDCB
004C
FDF7
025A
0CD6
006E
05BD
09B7
0104
03F9
FC9E
0AEB
FA2E
0175
00E6
F95C
FC12
0025
0611
032A
FC71
F6DE
FD46
F2E7
FA66
019D
04D4
01B5
0688
01EF
FCBB
07D2
FA96
FFC3
FF62
FAA1
FE11
0099
F438
FA60
006A
01CB
0B46
F21E
0A4F
