FE4D
FEAE
007C
FE7D
006D
0210
0115
FFFB
FE85
FF33
FD18
002E
027A
023D
FE02
FFC2
FF9E
FF46
FEC2
FE69
FD32
FF4F
00D7
FD2D
00AF
FEDF
0119
FFC8
FF11
001A
01DB
005F
0000
FE92
FE94
FF77
FEFF
FF58
01DE
0203
FFF5
FFC5
013C
0148
FEEC
FD18
0010
FFEB
FC5A
FED9
FEDF
FF19
FE90
019F
0115
0137
FFE1
FFF1
FF15
0166
FF0D
0053
FC02
FFDB
006A
0056
FFC9
FCC8
003D
003D
FF2B
0067
029A
0269
FF91
01EA
FFE9
FFB1
0190
00A5
FD96
0027
FFE2
01F2
009A
FF17
0238
01EB
FF69
010D
FE83
FFF0
005F
FF88
FE0E
FF60
FCCB
FF9E
FDDC
FDE3
FDF1
FE98
00F3
FE34
FE33
FFE6
FF7F
FD19
FFE1
FEDA
001D
FE5F
001B
FE6A
00CB
0063
FF2A
01B5
FF73
FF39
0119
FEEE
0208
004F
FFF9
0361
FEE5
FEF8
0077
0079
0053
FF3A
0038
FF14
023F
FFDC
FF29
FEEF
FF48
00C9
FF0F
01D7
FD80
01D0
FED3
00A4
FFB9
0002
00FF
FDE9
0088
FE65
FDEA
0172
FE7A
FFC3
018A
0106
FEF1
FF3B
011A
FEC3
01FA
0102
FDB5
0215
FE8A
0091
FFE6
0085
00CA
FF33
00AF
FF92
FF9C
FE83
FFB6
FDA9
FE83
0256
016F
0025
FFB3
FF09
FEBA
FF63
007D
FF88
004D
FEDA
00F6
00CD
FFD1
025B
0230
FF6A
FFCB
FFD6
FEB4
014B
001F
FDD9
FF42
FE3A
FEFF
0042
0091
00CB
FFA8
0001
01E4
FD5F
00ED
00C4
01D5
FFD3
FFC3
0013
020F
FE72
008C
011F
FE83
002D
FE0A
FE6D
00DC
00F6
FF4F
01B0
01DB
0069
0017
FEF8
FD55
FC40
0280
FF76
007E
035C
01B0
020C
FFE6
0044
01DB
0021
FF19
0026
FE72
0030
FE65
FCA5
FDB0
FF49
FD37
0203
02BE
0050
FE17
FFC1
FF65
01EE
007B
008A
017A
FF1E
FF02
FEF0
00F6
FF79
00A7
FD05
FEEB
FF9A
FEC2
FE39
FDE7
FEEF
00A1
0256
0004
FE60
FE25
0017
FF0D
0114
FF32
005F
FDCC
FFD1
0137
0058
FF7A
FFD6
0222
FF93
0202
FDE8
00E5
01DE
0046
FE6C
FF04
FF50
02B5
FEBE
FFA4
0035
0023
0070
FF3E
00FF
FDF9
01D7
FFBD
FF45
0016
FF8F
FFF7
FF70
007D
00EE
FEDD
00E8
FF89
FD60
010C
002B
FF78
FE5E
FEE5
FFC9
004F
0005
FFCD
FFFC
00DB
FEFE
022B
FF5D
FF03
FFDE
002F
FFD5
FFDE
FFAA
008D
00C7
012B
0185
FF96
00DC
FF69
010D
FE0C
036F
FEDE
0016
0293
FF5D
0215
02AE
0399
FE7E
01B7
FEFD
FF5E
0358
013C
FEDD
0070
0036
0238
0312
00C4
01CC
00D7
FFB0
0051
01A9
00C5
FF6A
FFE7
0112
FFD3
FDA7
FFA4
FF4C
017A
FF5B
002D
023E
FF72
011A
0177
01E2
017B
015D
0088
00FA
FE82
FED1
02A5
FF77
FEB9
014F
00C8
0127
FEDE
FD8E
FE5B
FF85
FE44
0110
FF2C
0236
0143
FFE7
FDFB
01C1
FF6A
014D
00C0
FC6B
00DE
FF7F
FEA9
00DD
FF43
0113
FD84
FE78
FEDC
00B3
FFC4
FFCB
02FF
FDD1
FFEA
FE51
FF95
009D
FE2B
FEC1
01BB
0118
0018
FDE3
0099
01FE
0143
FE42
FF1A
FE94
011C
0006
01CD
014C
00A5
FDDA
FFE1
008C
0133
0217
FFCF
0080
0096
FEDE
009D
FDD9
FF3B
00D3
00EF
0190
0258
FF00
FEFA
FECD
FCE7
FDB8
FDA4
046B
0045
0173
0195
FF14
0101
FEBF
FD7F
FE5B
FF09
0023
00BA
002E
FFE9
0103
008B
FEA0
0288
0178
FF75
FE7D
0212
FFDD
001F
FF77
02A8
FE77
013B
FFCF
FF3F
0110
FFCA
0127
FF0E
FE99
FF02
0083
FEC5
FF02
00F6
00F5
02F4
FE20
0018
FFAA
0017
00C6
02A3
FDE2
FF79
FEE8
FF95
0152
FCB0
002E
FEED
01FC
00BA
FFF9
02F9
0019
0011
FD52
FF01
0077
FF6B
0123
0023
0011
FF38
0121
FEF9
0196
010C
FFB4
0157
FFCD
FEE8
0150
0076
FF8E
0146
FE20
FF7B
005E
015C
FF92
FDCA
0034
FFC2
FBA6
FE07
01BD
019B
FFAB
0244
0184
FEC6
FC72
FE8A
0294
00CD
019E
FE72
002C
FF54
FF35
00BA
FFC1
FDF5
018F
FE48
017C
FFB6
0105
FEBD
0133
FEA6
FE48
02E8
033A
0143
003D
FDF2
0059
00A6
009B
FDDD
0209
FE6A
0037
FF49
FF84
FF21
FEE6
FDBD
003E
FFA3
00CC
01BA
FDF9
00AF
0261
FFB9
047C
FE3E
0175
FF8A
FF5D
002A
0095
FC6F
FE9F
FD82
0102
FF89
0181
00F4
FEA4
0257
FEA6
FD88
FF62
01EC
FFC9
FFEE
017C
0342
FD21
0165
FFFE
FF60
FF8D
FE1C
008A
FED6
01EB
0000
021A
00AB
FE96
FE99
016E
FDCA
FBEC
0041
FFD4
FD5B
00BA
0081
FDC3
03B7
003A
0001
0015
00E7
0028
FF1B
FF28
015E
FF38
00EE
FD37
02D0
0100
FE97
0097
FDC3
FF84
02C9
FF03
FD22
00DD
FF0B
FEE8
FD05
FDAB
FFA9
00EB
014B
00AB
FFE6
01EC
FF84
FE3E
043D
FD96
FF8C
001A
016D
FDA0
FE51
004D
002C
FF56
FE50
FEAA
FF7C
0228
FEF5
FF5A
01CD
FF13
FDCF
FF35
0045
0097
FED6
FED8
005B
FFBF
0120
FD96
00ED
FDC2
0008
FF4E
006D
007A
006B
FFBB
029F
0216
FE8D
FE58
FE0D
FF00
FE9F
FFDC
00C2
FF14
FECB
01B5
0118
00F7
00C2
FED6
008C
FEF7
018A
FF2C
0177
FEA3
01D7
0328
FE2E
0070
FD64
FE6A
016F
0126
FECF
0165
FEBC
FFC8
0223
FFB9
FEC4
0319
005C
0243
012A
FF5C
FDA0
010D
FF26
FC65
FF1A
FFF4
FEA0
FE7D
FF2C
01E0
0015
FE53
0179
FDB7
FF7C
0009
00FC
03C4
FF10
0156
FEA6
0181
00D0
008E
0149
FF6D
FF72
000A
FED4
FF6A
FFD2
FE19
FF87
FEAD
000C
FE77
00E0
FFDF
0026
005C
0130
FF4C
001E
FE62
FF0A
FFC5
FECA
00BA
FFC6
00DE
FEE8
FF7B
002A
0002
020E
FEF9
014C
FEF7
FEFE
0049
FCFE
FF08
00A8
01EE
0004
FFB7
0042
012A
012F
001A
01C6
FF2F
FE8C
FEEB
FEAF
FFB0
0188
FE36
01CC
FFC6
0035
FF00
FFE1
FF39
FF6A
FFB4
FECD
00AA
FEFA
FFF4
FF7E
01EB
FEB5
FE1E
021B
0005
0056
FE9D
0283
FF57
01B6
FDDE
FD88
0151
FE29
0215
0078
003A
FE39
FF62
010E
010B
012D
FE2F
0005
0102
FFE2
0024
FFAF
FFF1
011F
01CD
025A
02EE
FE7C
FF4F
0124
00CA
FFD1
FDF4
0021
0246
FEA7
FEA3
00AB
00C9
000A
01BC
0053
FF5C
01EB
00B3
FFF6
FE8F
FEE9
FF66
0076
FF9E
FE1A
FF3C
00BF
020F
0130
FE10
FEA9
0055
FE41
0031
FE7C
0115
FE11
0019
0158
FFAA
FEEB
0127
00A7
FF80
011A
FEC8
FF17
FF0E
02AA
FFDD
FEB8
FF7C
01C4
0147
0026
FFD1
FF35
0213
021B
0133
002C
01D3
FEF5
0051
0364
FD52
FDAD
FE3F
FF29
0043
01A7
FF73
0013
FF7E
0096
0335
001C
016F
026E
0041
00FE
FF27
02BB
FE8C
005D
0039
FE57
FF04
0009
0184
00CB
FF1C
FDB7
FF51
FCBA
FE9A
0067
0135
006D
01A2
007C
FF2F
01F4
FEA6
FFF1
FFD8
FEA8
FF84
0026
FD0E
FE98
001B
0073
02D2
FC87
0294
