034C
0D37
02F3
F93A
0824
09E6
F751
F2E4
FEE1
09BB
0701
066E
FBA4
FEE9
FEBA
FC67
050E
05ED
07D8
F83A
0BE0
FD5A
075F
FD56
063B
F785
0014
0294
FCBE
04DE
FA87
001F
0B7C
0D7A
03B9
0168
FE26
FEFD
FF7F
0408
FCCB
F8CF
F967
0267
FD65
FE8F
04BB
F889
01E7
FECE
022C
FA2A
FB28
F41F
064D
002E
FD84
FF1E
FF3A
F3F5
0B40
FB93
FF03
FA68
FEB0
F591
099F
FB06
FC20
0741
FA50
FE7E
FD97
F9B9
0660
00BE
0A93
0BC9
084E
05C2
0211
FF5B
08A6
0675
00A3
03F9
09AC
02E9
F8C6
0912
FECC
FABB
01DD
0969
F161
FE76
F620
F9E1
05D3
FEBE
0B09
FCA9
066A
F4E4
049B
03C2
0289
F5B1
FE7B
FA27
FE71
0214
FD02
F916
00E2
FDFE
0105
0A6A
048B
068A
01A2
0469
05F6
0436
022D
08EB
F4B9
F926
FC7A
0531
FDBF
FE52
FDCE
FE56
0255
FD61
FE2F
0477
054E
F6F8
FF76
F860
016D
F855
F704
0277
F596
FC06
0A28
0039
F701
F188
02EB
FF51
FDBA
FC22
FE1D
F90B
FBAD
FD5B
FFF2
0617
FC07
FDD5
00D7
0480
F9DA
0017
0B2D
098D
FB06
FDE2
04CB
FBD6
FFF6
0F62
03E7
F4DF
FA2F
011E
FF28
FF7B
00B1
F52A
F9C5
0595
FF02
0805
F5A2
026E
0062
037F
026B
061F
FDD4
F7EA
0D81
FDDB
02C0
032B
04FC
063A
FE6E
FD24
05A2
050D
F61F
0585
FFDD
0461
03E7
FDF9
01D8
FD94
FD27
0360
FCB6
FDE1
0560
030E
0937
01AC
FC1C
008A
0751
FB2F
F5E2
FE4D
FE6E
FEA4
00C3
04A9
FE9E
FFDD
0859
008D
FFB6
01FB
FC77
0500
0459
FDA0
09CE
00A1
039E
006E
079A
F14B
0E20
0302
FC1B
FF54
0224
006C
016D
055A
007A
0403
FD53
F9AA
F2C8
F5F7
0852
079E
061E
04C8
FF6D
0628
05A8
FB40
0869
FCB1
08DC
02AF
0A93
063B
0885
0133
FFA8
06A1
0365
00F7
06B3
00BC
F5BA
0084
F597
F6BD
FBCB
06D9
080D
FFE6
F799
00E4
FD7F
037B
FE12
0091
F922
0B10
FD23
0905
0335
0F56
01E2
0454
035F
FDDE
04CF
079C
F438
FF87
086E
043F
FC3D
0445
FD5B
03B8
0A16
0577
066B
046C
0245
01DD
0316
0556
0E17
F9AB
0BA0
F884
03D6
062E
0846
EF32
08D8
0ACB
FDAE
048D
0159
0ACE
07DB
01CD
0774
0E1E
FC7E
F6A6
F5BF
0328
F834
021E
FB69
0288
029A
0210
0260
0284
FAD7
FEB0
0739
0541
012E
F951
FF6E
FF05
FDDD
084B
0018
0418
0552
FCA2
0595
F3A5
F9C1
F9C3
FD8E
01AD
FFD2
0679
0133
F8E7
0708
0172
FF11
01C1
F968
FDDA
FD46
0B97
0487
FEA4
07C6
F855
0667
FDA3
01F0
04E5
0482
F414
FFF6
04C3
057E
01D2
01D3
FEF1
028B
0A0E
FF21
FBF9
F975
F651
08C4
FCA7
0953
00F2
0C38
01D1
FB19
054E
0CC1
02D3
FEA2
FAB0
FFC8
FF4E
FEBB
FEED
02BB
FD35
009E
01C2
03B6
F4A1
0566
0687
FAEF
01EA
F887
0090
075B
0593
FCA9
0AC4
FE81
0666
FF2C
FFF1
0019
00F1
FDC5
FD2A
082A
F35C
FCB7
F843
02F6
0298
067E
0190
F554
FE4D
FFB6
F7F2
09DD
FCBF
017F
FCCD
FCFE
FCDB
023D
FD7C
06DF
F867
00E4
FDDF
FE9C
013D
0434
0183
0056
0465
F674
FEDB
032F
FD9A
FB15
F836
FF59
F65B
01B8
00FA
04A7
0608
FAEA
03AC
FB55
F9EA
0481
FC31
F6F6
F9F7
01E7
F62A
FAEC
F9DC
0775
F708
F867
FF49
FF28
F74E
FBF7
FA6C
FCFA
FA8D
F828
FED4
FA1E
0CFD
FFAD
00FE
F3B2
FE65
F5C6
FCF0
FC53
FEB9
FE14
F4FD
0B30
028B
098D
04A8
00FF
0554
04B5
F68A
FF1A
FB2A
0540
019C
FE26
0058
04C3
FFD0
0217
FB95
0284
FCF8
FADB
FBB5
03D8
F426
F6ED
022F
0394
FE02
FFA9
0603
0B0E
08DA
FF99
F9DD
03F0
FAA5
F8C7
F59B
FBB6
0948
FAA0
0097
0921
0157
FDF8
FD4E
0A87
010E
F3B4
01A2
FA4D
FFAD
024F
009C
04B4
01B1
FEE5
09B2
FA41
053C
02F4
0208
FFEF
08E6
050A
013A
053A
F869
057F
F94A
F6D0
0007
F6CE
FC17
F11B
0559
05D1
0058
0301
F82E
0068
0778
0034
F2F2
FECB
F767
036C
0048
0911
008B
FB92
0409
0290
FB02
0317
F533
FC54
007D
F8C1
FD0C
FA89
00CC
FAE4
FCAC
0515
F81D
0277
FFF3
07F3
0092
011D
05FD
09F0
F6FD
05D8
FEF8
FC71
05B6
FC05
FFE3
08EF
FFAC
F585
0CB6
0211
FCAE
FD02
FA1A
000A
013B
0278
00BF
F41D
F876
085E
01A3
0053
0489
F993
F8C4
FDD0
0487
07C1
0919
F555
0276
FC6E
02D0
F61B
F7A1
F66C
0174
072A
FBFD
03A5
F9B7
0974
066A
F6C8
0202
00F7
017F
FEAE
FE73
FA99
01D8
0382
036B
06A2
090F
0871
F711
FEB0
00FA
0411
FECB
FAD4
FDF2
F5CC
FA7D
04FD
0002
FBD4
015C
FC4A
FBE6
FFAB
00A4
0C45
FDCA
026B
03A6
FBBD
FD98
F924
FC4F
F6C5
FD25
FA9B
0A2F
FEA2
0438
FC94
05C0
038D
033E
FBC3
0099
03EB
FE19
0134
F8FE
084B
FDBF
002B
0293
0013
FC3C
F950
0F11
054E
FA33
FA18
FEFF
03B0
031E
08CA
FB36
FC91
077A
F733
F9DD
FEAD
F9BC
050C
FBD0
F549
06AE
001D
04E4
0746
05BD
FBBE
035D
FA1F
FB77
FF47
006C
FF8A
FD5C
FCF7
FD84
F54E
F5C0
01D6
FD88
FD3F
F885
0AC8
070F
F815
0010
01E3
0AFB
0301
FD52
03C0
F80A
FBA3
016A
FF56
0622
06CC
FD98
FE0E
0010
00D2
FBA4
F879
073F
FAFF
03AA
F899
F8FF
071A
FC71
FE1A
0042
FDE6
0A2C
FF8F
06F9
FF62
F9B9
FC4A
038E
06F9
F8C2
0173
090D
07FA
FEF8
018A
0AED
FD06
FDF3
0175
FFF9
F75B
0A74
017E
0071
F802
0A42
FAC8
F7A4
0F70
F6AF
EE70
006F
0B0E
F824
059B
0128
FE44
F959
F927
0559
FC99
FBC6
075D
FC5E
0108
0272
01C1
FC9C
05AC
034A
01D6
023F
FF8E
01BF
010B
04CB
086A
FF69
00EC
0660
F821
FB63
036A
0050
F81E
FED9
FEC3
FC85
FE1B
F654
F796
07A6
0302
05A7
0DAA
F5A3
F6CC
0A13
F7FD
FC3C
F9D6
006E
06B6
F7E3
0718
F285
FBCF
019A
09E1
033B
02C7
FCBB
FF96
FBE6
F958
FFDA
FCF6
0223
07B7
FA14
F81D
0273
FCE7
F32D
0301
F652
FEAE
F810
0324
F3A2
044A
008E
FF4F
FC8E
FA11
02B9
010E
FADD
051E
FBB6
FDCC
F6C7
064A
0951
000E
00D4
064F
0282
FA62
0968
FBD6
FEE0
0743
0299
FB92
FE70
05C8
F85C
0693
0B99
012C
01C1
043C
F1AD
08CD
FDE5
05EA
0146
01AB
FCC5
F571
F64E
FCB5
F59F
FB7A
06A3
FC29
F555
FB85
0191
FA08
F4E0
F7C0
FA89
06EE
00A2
0009
FD15
0572
024C
011C
FD63
019D
03A1
03D9
FD7A
F968
0611
00DC
0098
065E
010F
FF00
F7E6
FAD4
026F
FCA8
064F
0228
FCAD
036A
069A
003F
FFD9
F9B1
06A8
FC60
FE1E
FBF8
FD7B
FC17
FCA4
FDFB
F9B3
029A
FC03
FC12
010D
