00FE
0121
FE8D
FF57
FD98
FEB5
FEA5
FF1B
FFC4
FEB6
FF8B
FEE5
FEB1
00B0
FF63
0123
FE33
00DB
FCE5
039B
017D
FCF2
00D3
FF21
0396
FF57
FE9A
FDF5
0009
FD68
FCF3
FE89
00D5
0273
FF18
011E
018B
FFE1
FF71
FF9B
FE39
0268
00DB
003C
0148
FFD0
0028
0067
0025
FF8B
0134
01A6
00D9
00B2
FF46
017A
028F
0205
02C2
FF5C
FEE0
01F1
033D
0031
00ED
0144
0181
0130
FFAC
FFEA
FCEC
0167
01A5
FDDD
FF63
FDFA
FEC5
0226
FEF0
00C3
00EB
FFD1
007A
0074
FEBA
FF7A
FF80
01B3
FF7D
FFA6
FF3E
0026
00A4
0122
FF87
FD7D
000B
FE13
005F
FC76
FF0E
FEE5
00B9
FF29
FFB6
0018
FF73
FF0C
0302
FFD3
FD0C
0070
002C
01AF
FE89
FF2D
FE33
01BA
0051
FD8E
FECB
FEB8
0076
01B6
FF94
FF85
0230
FFAB
FEC0
FD95
FE70
FEDF
011B
FEB0
0070
FFF0
FE1D
0186
FDC5
FD9A
FE5B
FDF9
FD10
0224
021B
0158
FFA1
00D7
017D
FE96
0044
FEEA
FDBB
0082
FE87
024F
FDF1
00CB
FE59
FEDF
00FD
00CD
0047
FFCA
014B
FFA9
FFE8
00B0
FE9B
02C4
0326
FE23
00EE
011C
0112
02C2
018A
0278
0235
FF42
FEE6
FE69
0028
FF8F
FF7B
00A8
0147
01B6
0116
00B3
FD50
FEC5
FE19
00B9
00FD
0293
FEC1
0126
0159
0055
FFD2
007E
FFB3
FF91
FF9C
014A
FF6C
FE57
02FB
FBDA
FFD5
FFC3
FF5D
FD61
FE97
FE01
FF8D
FF41
FFE2
0277
0140
FEEF
00DF
FE6B
FF49
000F
0146
0155
FF19
FF4E
0178
FF0B
FF12
FFB3
FCB6
009D
FFAF
FFF6
FCF5
FF90
FCFD
0131
01E8
FE56
FFA9
FEF7
FF6A
FD99
0242
00F7
00D9
0018
0007
021C
0171
FF5E
FF3B
FDB9
006E
FECF
008B
FECC
020B
0014
FDF0
0168
FF78
00D5
00B2
FEE8
FFA5
FF09
FF28
FD7E
0024
FF63
0078
FF7E
FF20
00FC
0159
FEC2
FFE0
FE3E
0037
FE22
0182
FF3D
01A8
0045
FF6D
00B7
0066
00C8
FF95
FF4C
FFB6
FF21
FEE5
FFDE
0481
FFE8
0051
FEE9
00DF
0059
FE0F
FF79
FFDE
0306
00F9
012F
FF45
FF80
FDDC
007F
0083
0013
0069
01E2
FC84
00FB
FFDE
0188
FF17
FF7B
FF2C
FD4B
FEE6
FFF4
FF42
0388
FC64
FF5B
0073
00C9
0004
0043
FC0B
FE25
015C
00FE
013D
FFEA
00F1
0101
FF29
00F7
0112
FE74
FCBE
0155
0394
0171
FFB8
FFDC
0029
001C
018D
FFCE
01A7
01FD
0148
01E4
FE09
0285
FF4A
008E
FFD6
00F1
00FD
0207
01CB
0067
FEE1
012C
FF5C
FE25
FEF2
01F5
02DF
FF92
FF4E
FE92
FE90
FF9B
FFEB
FDAE
FF0C
006D
0249
0180
00DA
003D
FCA5
FFCE
0006
FFA6
FE37
FEC1
007C
0159
01A8
006B
FFBA
FDAD
FDB8
FF67
0161
FEAD
FEDB
FF84
0228
006D
FDEA
0118
00F7
00EA
FFEC
02DA
0165
FDB4
00C4
FFE3
FF42
FF7B
0080
0399
FF2A
FFE6
FFC2
FEB0
FE7C
0188
0272
FDE0
FE53
FE51
FF94
019E
0199
FF42
FFDE
023B
02A4
FD53
0197
019D
001A
FE57
FFA0
0166
FF70
0194
FE99
00FA
FF14
0072
0073
005E
002C
0057
0165
FDF0
00DC
FEB1
FDF0
FDF2
FD9F
FFFF
004A
017A
02B6
FEF4
0133
FF68
017D
FFA2
FDF9
FE63
FFE6
FF6F
FD22
FFCC
FFA7
FF10
01B1
0074
0080
FE46
FF95
00BE
FE55
020D
0121
FCE5
FEE6
FF11
006C
FF92
FF23
01F2
FF99
FEF7
FE29
FE75
0128
FD00
011D
000E
016E
0161
008A
012B
FEC0
02EC
0174
FF44
FF94
0133
017D
FFEB
030C
FF6E
FF96
0164
FD63
FF43
FEB7
0074
00FF
0217
FD2D
0111
FEB1
FF9D
FFCA
029A
FFC2
FE5D
0185
FEBC
0160
0152
FEB5
0157
0202
00EA
0031
FF32
005A
FFE0
FC63
00AF
00A2
FC86
FFF6
0008
003D
0362
FF7D
00F3
FDBE
0009
FEB3
FDD0
01DE
FD77
FEB9
0052
017E
0033
FF16
FEF2
0298
00EF
FE80
0103
FFAC
FFCB
0010
FEBC
0297
00F0
FFDD
FFFA
FE41
018A
002F
FF7C
FEC9
022C
016D
017C
0255
FEDC
FFB2
008D
FFCC
0061
02AF
FF9E
FF3B
FFAF
FBE3
FDF3
FECF
01D6
FFBB
000C
FFD1
0229
FF7F
00AD
004C
01B4
0262
0011
01E1
FDD2
FDE4
FEF9
FF05
FDB3
FF68
0240
00C4
FD28
00EF
00C8
FFE1
FEAC
0021
00AA
0068
FF17
0070
0000
FD93
02C0
0161
0174
01AA
01EB
FF9F
0106
017F
FE94
0138
FEA9
0293
FFB1
029F
01C1
FEC3
FD2B
030F
009E
01C9
022F
FE9D
017F
0047
FEB4
00A0
FE2C
0013
FF44
FF85
FF94
00A2
0170
028D
00E2
FE7E
0128
FDB1
0032
011A
FF5B
0094
00D5
FF07
FF57
FE93
FF4A
0114
00D1
01B0
00BA
FE2B
FF66
FEF3
02A9
00B0
00E7
0128
034F
012D
FE3F
FEF9
FF2F
FFF3
002D
01CD
009A
0063
FFFD
0055
FFFA
002C
FFBD
01B8
FDF1
FEF4
01E4
0099
002B
FF2C
FF37
00C4
0281
013D
FFEC
0102
FDF5
00FE
002B
00B3
00B4
00D6
0047
0113
FD4C
022B
FFB1
0028
FEEB
FF62
FCC1
FFFF
FF65
FF9D
02FD
FFF7
FD43
0046
FEDF
001E
003C
0042
FECF
FEC8
FFA8
010F
FDAF
0250
0087
FE16
0062
FE9E
01CB
FFFF
00D3
FC73
FD04
010A
FF5D
0218
003C
FFE2
FF3C
FEBF
0067
FFAA
0205
0140
0013
01A4
FFBD
022F
FF35
FE9F
004C
013E
FF90
007D
0069
FEE3
0095
0141
0237
0128
FE4D
FFED
00CA
00B9
FE05
005B
0035
FF23
0139
FE62
FC92
FD23
FF42
FF7D
FDAF
002F
FFD5
FD2A
FD36
FE04
0122
0060
FF72
0231
0211
FF83
00FD
00F6
FEF7
0009
FC91
0066
00A9
01D8
03B1
FF14
FFA4
FFB2
0039
FFEF
FDE5
0292
FE1F
FEB9
FEEE
01D0
FEEA
000E
0086
0010
FF7D
00B9
FFDF
0225
FF5D
FCE1
FEF4
007B
FF21
FE0B
FED6
010E
0286
008F
FF8F
FE39
0022
004D
002C
006D
FF7A
01C5
021E
FD6B
02D1
FF0B
FE11
0159
00CE
0242
FD04
FF1C
014C
01B3
FF0C
0070
FF39
FD7F
FFB6
FFF8
FE62
FFA9
FD73
FD51
033B
0089
0074
0054
FFB9
FF6B
FF56
FEB5
0092
005F
FDB2
0122
049B
FE77
FEA0
0183
FE58
006B
004A
FF1C
0230
02C3
027B
FFA5
FF47
FFE5
0304
FE79
0068
010D
FF12
FF58
FFDB
FEE6
FEDE
01E3
FE95
004D
FFA5
FFEC
0083
018C
FEA1
029B
025D
01DC
FDA8
FFFA
FDA2
008F
FEE4
00C4
FE4C
FDF1
FF8A
0148
FECB
0114
018A
FEF6
0145
FFAC
00A2
FE89
FFCE
0180
0043
FF06
FFAA
FEDA
01B1
FEF8
FF93
FFD0
FFB9
017F
0215
00E1
00D4
027F
0000
01AC
011B
0112
FEBD
FEA2
0029
FF90
FEA2
FEB5
FFBD
007B
0069
FDBF
019A
FF91
02C9
0037
FDE9
0077
0382
01CA
0053
0174
FFA9
00F3
FF2E
FDDC
0178
0383
006D
FEF0
FFCB
FDBF
010A
FEE6
FEA7
016F
013B
0070
0190
029D
FFC6
009F
FF2C
00BA
FF4A
0392
FFB4
FF91
FD12
FFA4
FE68
0166
FE5E
FE91
FEFE
