FAA4
F4B1
FA74
F735
F3A0
0A54
0339
04EB
F613
01A1
F784
0956
0484
FBF9
F835
F8E1
0C61
03A9
F381
FB67
0D58
008D
0CAB
0B20
01D0
FB6F
0B28
0522
007E
F88D
068C
F44D
F40D
FABF
F8B8
F515
F797
046E
F627
0848
0BFC
FF72
FBAA
080D
0503
0AB7
091E
047F
0CF7
FD52
FD9F
F609
09EC
FF9F
0137
FACC
FD11
0934
0AF9
FB57
014A
012F
0857
FD10
FF77
089B
FBD2
FD61
0518
F60E
0934
0C64
FCE9
FF4E
005A
F26A
067B
F707
0627
0109
09EC
0B2F
0D78
0C54
FA35
F87F
06A6
0802
020F
0AE4
06C9
FE9E
03AA
0176
F921
0BC5
FDDF
0B8E
0CDC
0698
02D0
0A1D
FFF1
059C
FC72
0048
F980
02D8
FBCA
089E
0107
F470
0B79
FADD
FCAF
0853
FCE3
0669
0898
F5F1
064A
F499
08EC
FB5A
00E3
FD86
FF7E
F550
F738
F30D
F75B
05A7
08F2
063F
F840
0B31
0AE3
FC65
FB1F
FFE2
FF46
FE1E
07B0
F5A7
FD9C
0810
0645
F5B1
FE46
0411
0323
0450
FF2A
FF30
07AD
F94C
FEBD
0BE4
FAA5
0B5D
0B95
FE79
06A4
0A22
F9FA
0BE6
F835
0C9E
FFA4
F6D3
00CE
FF47
0A96
F623
F40D
0C83
F2B6
F61E
F701
FCC5
F624
0395
F784
FF6C
09FC
0AA7
0658
00BB
F445
002C
FFBE
0BAA
0D6F
0958
022C
F7CC
0089
0642
061A
FED0
0A63
00A8
09FB
FA1F
F5E7
F8DF
0597
0CC3
0509
01A1
0B05
FFC9
F6F7
FD91
05FD
09E9
0AE0
F83D
0390
095B
F848
07D9
F607
094E
0BC8
F9B5
F537
0587
045C
0C6A
0568
FE67
F5B2
F4E2
FE76
F788
0576
F670
0666
00A0
02FB
F5E4
0AB7
0482
08F3
0241
F7F0
057B
F557
FC2B
052F
F96E
FFFC
F925
FEA6
076B
0292
02CF
F48B
FCBC
FE9A
00A4
FC82
0488
08D7
026C
0365
F47F
0D34
FF82
0544
FC3E
FADF
F624
0B05
F9B9
01F7
FC84
F4F4
F644
FF35
05A7
FBFB
F3AB
F8FB
0B8F
FEFF
0753
F857
0A9C
FEC6
05FE
029D
F2B5
FBE9
FF87
053E
F733
F907
1161
060B
0C24
06EA
F8D4
0EB7
F75C
FA8E
0963
FD62
00CA
0546
08E3
0997
F79B
0A23
04FC
0630
F36C
0AF2
F97B
F47B
01F9
060E
05C7
FFFE
FC05
F4AC
08D3
FAD1
F8FC
FB9F
0805
01F6
05C8
0849
042D
F87F
0715
F501
009A
0FA9
090C
02F3
FD19
029D
FADD
0865
04AA
074F
F88B
0CF5
0048
FEC9
0923
FFD4
0C73
05A1
F43F
F3E6
FD85
0953
05A9
0A8A
F676
F9F2
FA83
F914
F6D6
FF7B
F897
FA08
0557
033D
0146
00AD
FBC2
0AF8
09BD
016D
0111
FA91
F9FD
F903
0ABA
0DEA
070A
F711
0279
0CCB
07B3
0AD4
0882
0333
F3E9
FB7D
F86F
02C4
04F9
F526
F67C
F494
0CB8
079E
FA06
F672
FEE6
FB88
02ED
083C
F651
F502
FF13
051E
040D
F9D8
F9B5
F0A7
0EC9
F855
F7FB
00C8
0753
FB27
FFBF
0212
F81B
F3E1
FA6C
F758
0AA2
0968
0790
043D
FD80
F573
01F4
F8E4
F9C7
FA9B
0AFF
F687
F7DF
0D7E
0C15
F6D9
041C
09AC
F6C3
02AB
0337
F90A
F9F1
FF74
063B
F438
05AB
02F4
0BD5
0BF5
0F35
F4BA
0B69
07F1
F3E1
0DA0
0058
01CB
07F1
024F
0763
FDC8
003D
FB12
F3F1
01D1
0663
00B6
F4E0
06FD
F0FF
FF43
F5B4
FB29
FB1B
FB24
0387
0E21
0555
F73C
FBC0
FE37
FD8E
FF51
F474
FCFA
FCBB
043F
0584
F4F6
0102
0903
F5BD
04FA
F88D
F435
F7C2
F3D9
03E7
FE5C
0363
F51D
FE0C
0B0E
FD26
03E1
FC89
0D37
00A4
0AB8
0958
FB1F
00E2
0028
EF26
01D2
F5AF
EEA0
F6BD
F35F
FF3B
09FD
FCA9
F5EC
F272
077B
F991
F484
086A
0C49
0416
04E2
F9B2
F7AE
0A34
08D8
0566
0511
0139
FADF
019A
FBAD
FB24
FE37
0485
F2BD
FAB0
FBA7
FE27
0BBB
FF68
0780
F7FA
F742
FC3C
F670
F4F1
06F1
06A8
07B2
0327
F8E6
01F9
0114
0042
FB2F
F4DE
0438
F95E
FBC8
F97E
000F
0129
03BE
FA24
0565
FC97
FA77
FC14
01F8
FA36
F35D
FA80
F7F6
F9DC
0BFC
FBA2
FAFE
01D6
005B
0961
0C94
F4E9
F7D9
FA18
F8CA
FCF4
00B8
093E
013A
0A73
0973
0BCA
07D1
01ED
04A0
FF09
FABB
F201
09E1
04EC
FA59
0457
F76A
FD48
F727
0468
F967
F7FE
F908
F7BB
0765
0508
FE16
F947
FCA5
FFB2
FC35
04CF
F89B
FB7D
FDB1
0542
FFEA
0126
063F
0C34
09F9
FBDD
FE7D
F6C8
F3F3
0A1F
0641
0690
F9E8
019B
FB60
FF22
FB54
FD0F
072D
0841
0564
F4DE
FCD7
F7D7
091E
FEF8
07B2
F7E8
09A2
FB88
0870
01AC
09D3
F9D3
F6F5
0315
032E
FFA2
FE30
FCB2
0470
0CEF
FEDE
0855
0598
FF4F
09A5
FBD9
0317
F4BB
048C
0534
FE0E
F76E
039F
FC14
069E
03F0
FC72
049C
FDD2
F92F
0005
0B5F
F1D4
001F
0ACD
F9C4
06EA
0421
FC50
F44E
F8B6
00DB
05A4
F3EE
F4E3
0838
F439
FD39
0A97
083B
FEEE
FBF8
0372
02F9
F777
09E6
0B98
0A1A
0251
0E99
02D1
0B32
F36A
FBA7
0E28
FEB3
0140
F7A7
F664
F9C1
FC4F
080C
FEED
F7E9
F640
F49E
009A
02D8
05A8
09E4
F53A
FDAA
FBDA
F29E
0881
FE63
0B19
FF82
094A
09E0
F944
F73A
03CE
FF97
017C
FAF5
FD36
0BB0
019D
F862
040A
F75D
0A2B
0059
05B1
F41A
F7AB
05B5
F574
F560
F39C
0B46
F635
F646
F136
0D1F
F57B
FE99
035C
0961
FFD8
FCB2
FB02
F99C
F65E
0B2E
FDA6
08B4
0C80
FD58
F33C
0152
FBFC
FEC7
FB46
FC77
F818
02DA
09C1
FA58
04B9
FFD3
F472
FC10
F363
F5FD
07C2
F874
F650
0335
0809
01DA
F7DB
FA8C
FAFE
F34F
F992
01BC
0AEB
01A0
0B2F
F932
F484
0E1F
05C0
F844
0313
01DD
0C95
F3E5
052F
0980
FF40
FBB1
F58D
04F1
FB1F
099E
F57A
F2AC
F4AA
02BA
F438
FA5D
089E
0689
0401
0A6C
0B40
04DE
0540
FD0C
FB35
0217
F4B2
F9FB
FC4E
F9FA
FA7B
089E
06CE
FCA8
01B1
0510
03F2
0B61
0B62
03F9
F65F
F785
0050
F9FB
0B96
0676
FC2C
FE45
0899
FE39
FADE
F978
0110
FE40
073C
F1FD
02E9
F51E
F4E1
FE04
0816
01F2
0A78
0B77
F84A
F76B
FDF9
FEC8
F9DB
0671
FDA8
FD22
057F
0FB4
0EB8
FFA4
01AC
EB25
0AA6
F879
F57C
0BE0
0E8C
02AA
03DE
FDD6
09FE
FD2E
FCEA
FB78
0360
0AF7
0456
F3B9
F589
FBED
F9B3
F5D4
0AD3
0817
F6BA
F6B2
0831
F31B
08FF
F521
FD10
F365
F6C2
FE77
F60B
09BB
0A8D
0139
0546
F621
FAC7
FD59
050B
F822
F542
FB67
F727
09B9
FC02
FC7E
0EF6
F8C2
FD27
020B
0688
F63A
F5EE
05E1
04ED
0395
005B
00C9
F664
0B38
0B20
F12B
08D1
0771
F56A
0315
FDB1
F488
FCDD
0AD0
FCAD
0E82
0CA1
F814
0296
0106
06E4
FADC
0550
0C63
FFC3
015C
F7A0
FF0A
F6CD
0044
08C8
F6A3
FCE3
F477
0031
FA9D
0223
0923
FBD9
F9AB
FAD0
FC83
F686
FB3A
011A
0605
