0FB0
0F4A
0F9F
0FA6
0FC6
0F6D
0FD5
1004
1002
0FD9
0FC0
0F4E
1001
0FF7
0FC6
0F69
0F6C
0FF6
0FC1
0F7D
0FF9
0F82
0FF1
0FC6
0FE4
0FF8
0FEB
0FA4
0FD4
0FEC
1006
0F91
1017
0FC2
1002
0FB2
1001
0FE7
0FC0
0FCB
0FED
0FCD
0F43
0FA7
0FEE
0FE2
0FF0
0FEF
0FE3
0FEE
0FFC
0F60
0F8A
0FC9
0FD6
0FC3
0FC2
0FFF
1007
0F87
0FF3
0F98
1016
0FE2
