FFCF
0037
FE8B
FD82
FF4F
FF27
FCE7
FF65
F834
001D
FBCC
FAA1
FED4
FBCD
FA26
FB79
0489
0268
F846
06B1
01D3
FB46
FBBE
0573
F83E
04E8
0A8D
08C8
0140
057B
FCDF
F9F9
00C0
FC4A
05E7
FBA5
FF9D
0728
0481
0171
01A2
0547
025D
060A
FEA0
F78D
FAE0
0026
037E
005B
0495
FE97
FCD1
FF7D
FD5E
0271
FB94
FDE6
031C
FF51
02EA
041C
FA9B
F921
FACB
00D9
F9B5
FAF4
FF9F
FC26
0507
03FD
01D2
06A7
009E
FDB0
0266
F69A
FC5C
F2EA
0635
FABD
032E
014B
FEBB
0531
02D3
097D
FD6E
05AD
FD9B
0411
FFC1
040F
0020
0731
01BB
046F
FEDD
0282
05BB
FBD4
FC35
09AA
058E
FC30
090D
F8EF
0257
05A0
FDA0
FBB0
FE8F
012F
06FE
025C
069A
07B8
FCEB
0119
0365
093A
034D
FEEA
05AF
0149
FE35
0358
008C
FF67
07F0
F804
0373
FA29
00C5
F9E9
FE1E
FFDE
09F5
FF3C
FA3E
FD59
0749
FD73
01F5
FDA1
0287
0175
FCE0
0650
FB67
FED1
036F
FDB8
02D5
0183
047F
06A6
FDC9
0157
F751
FC0B
023A
0294
FD6E
FFEB
02FD
FC13
0495
0114
055C
00BC
FDDA
FDC3
0044
0426
068B
FB55
FD15
03B3
FFDD
04FE
08B8
02CB
FD98
FF47
01C6
01A5
FDC4
061D
02F0
FE30
FE7B
FE79
02CE
06B5
FD79
F8B6
09B6
FAFB
0777
0508
0D57
0541
FC90
0177
03E7
0180
06BC
F4D7
042C
0091
0240
00C1
000D
FD8C
0027
03B3
01D5
0587
0227
048D
F8E7
00B3
00B5
01A7
02B6
0167
FFF1
FA14
FC66
067A
0106
FE5F
FD3A
02A6
FB4E
021A
FEA7
03CF
01C3
024F
00AB
066B
0017
0AC2
077B
0332
FD02
FF58
0229
02E7
FF42
0404
FD6B
06E0
024E
043E
FFAB
FB30
FF25
00DA
FB4A
F84E
FFA3
0338
03B9
FF4A
FE7B
F81A
00F1
0563
0500
0106
09D8
0309
FCF5
01AA
038E
0052
FC1F
FEAC
0363
004D
F7D6
F648
FEC1
03BC
FDEF
FF2B
FB11
F97F
049A
FD7A
FBDC
FAA0
FB7B
0164
076D
0128
FCD5
0599
FD8D
0352
FC4E
FD83
FB0A
FE30
006E
FA10
0251
040A
FFE5
FE86
FEAC
FEE1
031B
FDAC
FB27
00F2
033F
F99C
025F
FAC6
FC5D
0484
0147
02D3
FE26
0343
FE4B
01D9
FAE5
F6EF
0159
FEF0
FEA5
FF77
04E9
FBEA
FFE6
05F4
0543
F8EA
02F4
FBD8
F9AC
FF13
02A3
FE30
0146
02AA
03EA
FF43
F799
FCB3
0337
FC61
069F
0475
FBB1
FD4B
0267
FA08
07F9
030C
0228
FD1E
039C
0094
03C2
FE48
05FE
02CD
FE91
042A
002E
FFC0
0225
FD6D
019C
FFCF
00E8
FD3B
FE30
F9F0
00A3
0067
00A1
FEE2
F5C6
FCFB
FD47
F8AE
FBE0
04FF
F904
03E5
08AB
0156
0541
026C
FCEF
FB2D
FCB5
FAE6
0A48
FCEA
0175
FDDC
FDB6
FECE
0431
FE1B
00AE
FE38
028C
F975
FC53
F8CE
FEA3
FDC0
013D
F9E5
F9F7
0245
FC0C
0423
FC34
FDB0
0020
FEF8
FA23
03AF
FF7A
F937
FF3B
F8F0
FBAC
FE22
0196
FF44
FB90
F765
FA12
0090
FF41
031D
019E
FC95
F804
0B5E
FD11
F87D
FB72
028F
01CD
01CA
0199
FE63
F879
03C1
02A6
019A
F4A0
0367
00F4
FF59
FD84
FD22
0181
FC86
FC79
FCBB
069E
F888
08A9
055C
0158
01FA
FEB0
FD42
FD4B
F72D
FD3B
089D
FE00
F62D
FC84
014A
F58C
FB14
0054
0644
FDA1
019A
FE42
FCA6
0088
F96B
FB78
FC03
03CF
F9C3
0039
03D4
033F
FB94
FA25
FB5B
F9CC
FE84
FE40
003F
0171
0C7C
0321
0157
00B6
05B5
0955
FF67
027B
0424
021E
F61E
FB98
02CC
0130
FE17
00AC
FB4F
FBD6
FE59
027D
01A6
FD30
005B
FF65
FE9D
00AE
0482
0255
FE61
F90F
FB6A
03CD
FF2B
FEF3
FFBB
048A
03C7
FAAF
043D
FA2F
F6FB
FF3F
029A
F927
FADF
F87E
018E
FCA3
FA82
002A
05FB
FCCC
FBAF
0367
02F6
03E1
F988
FF90
02BE
00A4
F9AD
FC9A
FFDA
FE34
074F
FEC4
FCD1
0480
047C
FEBB
0492
0729
007F
0565
FD46
0502
FF3C
081D
F9DB
022C
065F
03DF
F898
0325
FE51
061F
031B
04FF
FD38
0198
026D
F7E1
FF65
FFC1
0000
FF56
0691
F95F
0395
0521
01B5
F8D7
FA52
0754
00F4
FD9D
053B
0241
0152
FAC6
018C
007D
03C5
022B
0284
FCDD
FB5B
01A7
FB0C
00C7
03E4
010C
02BE
FFC3
0368
0632
0415
FF4C
FEED
0407
0286
0241
0293
04AE
FE08
F910
0114
01FB
076F
0488
00BF
0810
04A4
02F9
08DF
FF25
FAD5
FF3B
053F
0260
002C
FEA9
042E
0249
FCD7
03FC
0733
FF2D
05CC
06A5
0085
02B1
02C8
FABB
0761
FE2A
FFC8
04E0
FE5E
006D
0328
03EB
030E
0414
FC77
0335
105B
06ED
02DE
FE60
014B
F8A4
FC02
0246
0711
0875
0693
00FA
0475
FE9A
F405
FCC5
FFB9
F95E
FF1D
FC82
F710
F8F3
FF74
FB4B
F981
0122
0262
FA81
05D7
FF3A
FFF8
01D9
F488
FFBD
FF1B
FC9A
FCBD
0128
F9F0
FE3C
FD98
FD4A
03A3
FFC0
008B
029A
FD74
0031
FB9F
FE1B
F827
F84E
02AA
FE34
FFF4
F638
FBE1
FBBF
FCCE
F841
061C
FE31
0053
0024
F544
F795
FFEA
F997
FFD2
00A0
0079
FC61
F773
FBB2
F8C7
FECD
F5E0
001A
F899
0312
FF90
00D9
FFE6
0A64
FAD4
FF4E
0612
FF0C
025E
FFF6
02B9
03AA
013E
0893
FD9C
FB37
0432
F767
01F7
023D
038F
00AB
000C
FD7B
0192
FEA2
0384
FEA6
02B9
043C
0009
FB27
FB33
02B4
FE50
FC28
FF0C
FF08
04F7
020F
FCDF
00BC
03B0
0962
08F9
0060
0708
00BC
0143
0145
FE36
F5F3
FCF8
FE34
FD4D
08E4
019C
03F8
F764
FBD0
04F6
FCDC
005E
0006
0218
F9BC
FA76
004E
0615
04ED
FFF3
02B1
F9A0
FF47
FB51
FF5D
FF81
03A9
0171
08AB
01DA
04E9
FBC3
FEF0
FE37
FFE8
FFE4
0582
0140
032D
FF4D
048F
03F6
059E
012D
0636
03B3
FFDE
FAA3
FF29
FE86
04B4
FF02
FCFB
085A
01D4
FD76
0762
F9EF
01FA
FEA5
FB30
FC2A
F9D1
0336
0439
FDCC
027F
FAC6
0437
0209
02DA
0576
0154
FEC0
FB5B
FA9F
FFD4
FB00
0019
FEE7
FE43
FC3F
00E7
FF37
FFE9
FBD5
01F4
FEFC
FFB5
FE7B
FA06
054A
011C
001D
FC3B
FC3A
FEEC
0183
FAB2
015F
FB60
FCD5
03B3
012C
FDD8
FA6C
FBEA
0040
FC81
FC7C
FED3
02F3
FF3B
000C
FF29
F8F6
015E
F5CB
FB50
00ED
FCEF
FB5D
FDF3
FB93
FB52
FE35
F688
FBD9
FF32
FC8F
01D7
FE1E
0512
00A4
FD56
FB62
FEA6
FBBB
0006
F235
FF55
FD34
03AE
FBEA
F53B
0610
008B
01C7
048A
F51F
0050
F7C8
0125
FB71
FC81
FD5F
F571
FB1A
FFA5
FD8B
FA31
017C
046B
FD91
FA0B
00A3
F909
FFC8
04CA
FBDA
FE99
FE7D
03C2
FE4A
FD5A
FD54
00C4
FCFA
026C
FE82
0592
FA5E
FA46
0089
00AB
FF62
00B5
02BA
FAFF
FE57
FA94
FAFC
02C3
FECB
F59B
0382
002E
04ED
011F
0531
FA3D
0724
06F1
F87E
002E
024B
F655
FBA4
FC4F
FDF7
FDF4
FB71
FBE8
FA83
0245
02F5
FAB5
0799
FEEC
0278
0228
05FB
FF1E
FC69
0606
FBB1
0130
FDD7
F92B
06B7
0204
FBAE
064E
FE8C
030E
FC5B
04C5
FFCF
FE22
FB8D
0254
F9A3
056E
0151
FCAF
FD8F
0230
03ED
00D8
F7C0
FBFA
FD75
FEB4
EF6E
FBD6
FF09
FEC0
0659
FFF6
0284
013B
FA91
01D1
F5A2
FB97
FEC1
FCE6
029C
F98A
FE0E
0458
00CC
F92F
062F
FE5B
F940
F5AD
F735
0196
FD06
FB60
FC37
FF50
00E2
00F9
FAF1
0162
FF8F
021B
0260
0695
000C
032B
FF07
FF46
0346
01D4
0A62
00C2
026C
00F9
FB5B
FDBF
FB5E
F7DB
0533
016B
0480
018F
FBF9
06EC
FFD3
FC23
07A8
FF4D
FB8D
FAA1
F9DB
FB42
0313
FDCD
0120
FDFD
FB6F
030D
0106
FE60
FE59
FF9A
0115
01E4
0066
FCAE
004A
0333
027F
FE96
FC81
F937
FED8
FF8E
FB68
F66F
FC31
00EE
062A
FD68
0339
0423
046A
005E
0102
F801
F859
FF2E
FE95
FF65
FF96
FA50
FC6A
FC6D
FF25
FCB5
FC2A
034A
FDFA
0060
044C
FFFB
FC01
FACA
0313
F49C
023C
FD80
FFFF
FFFF
FD6C
FF45
FC8C
0140
01D5
F2A4
FC72
FE9E
004E
0288
0075
FE54
F849
03E0
FECC
FE3B
0B31
FE19
F657
FCC1
003C
01AF
FFA1
FB43
FF39
FE70
00A1
FB18
F7BA
01A5
FDCA
0335
FF64
0651
FF25
0B0E
FC0A
FCDF
F677
FC92
FAE7
FDF5
013C
02A3
01B7
FBE8
FDF3
FD19
023C
003B
FD33
FB2C
050E
05ED
FDBA
FE1D
020E
00AF
0745
FE29
00C5
0123
02D3
0323
FC92
FE92
028D
02E6
F903
024D
03A7
F97A
0071
006B
0455
002F
0133
FB22
FD68
FDE8
FF32
00BA
FFA5
00A0
FF18
FFB8
01A9
FC79
0380
03F1
03CB
FD58
FF70
027C
007D
00AE
FA31
05EB
06D3
0497
FC80
0220
0574
F813
FF1E
01E1
FA01
0261
FA2D
0182
018C
FDBD
F75D
F8A6
F7D1
FFA5
03AF
FF57
F825
025D
0591
06E9
02FB
FF39
0166
03E8
FE5A
FD80
FFCA
FAEB
FD9A
0329
062C
02BC
07FE
FE70
FF01
0188
0293
010E
0696
02AF
FBF7
FC13
04D9
022A
F72B
F885
017F
03AB
FD8C
FBBA
FCD6
FD8C
04EB
FE17
001E
FD83
01C2
045B
FCE1
05AD
FEC9
FB24
00F4
F5C3
FF80
FD5B
FF3A
051B
0035
021E
0379
00A7
FCC0
002F
FCD8
0963
FF90
F807
0303
02F5
FA88
0656
FE88
FCA8
05B2
0055
FFD1
0745
0344
FF6B
0123
FA18
FF00
FFF8
FC61
FBD9
F9AE
013F
019B
01F8
008B
01D1
FEA7
060D
00FF
03F3
0259
FB3F
F78C
0315
01FB
0347
FA7D
F57F
008B
001F
FF89
00B8
004F
FFED
F5E0
00BD
FBF3
FD62
00E1
FA20
02B8
03B5
F5F2
F7E4
FDEA
FF54
FE9F
FF4B
FC13
FE35
F988
FC53
FF7B
01F8
FFEA
FF95
FC25
FCB9
F732
FB1E
FB25
F64A
0093
FB5A
01AD
0513
FE57
F63C
0023
FB64
043D
005C
00DB
FE6E
015D
F6AF
0465
FF44
0569
F255
FC5A
0876
FA7B
F885
FCEF
F9E5
FD41
FD4A
01AB
FE52
FDA4
F931
0148
03FD
002C
FC7C
F7BF
0969
01C1
0096
06F3
FC42
FC09
FF43
FA3A
034C
FCEB
F8FF
0371
F962
F7B3
04C9
0243
02EF
00E4
00DD
FB90
FFEE
FBDF
FD8B
036F
FF9D
01AF
0531
FF5A
F9C3
F972
F726
FF05
048B
FA85
F5B1
0538
0B0D
FFFA
01BF
FB0B
FD9A
058F
FCA6
004C
038A
0104
04AF
FC99
0054
F58C
006A
04C9
041F
FC59
FDFD
FA45
0584
FDE6
FE61
FD72
FEEE
04FB
FBE9
0249
F88E
00E7
0347
FD1A
FD35
FD3C
FA07
FC0C
FB42
019F
F83D
FB55
FEEC
FF2E
FF03
007C
FDE8
0826
F797
0019
FFDB
FEAC
FEA5
0051
FF96
FA92
FC2E
039A
0132
FFB8
FB40
0019
FDE0
029A
FBC3
F910
00D7
FD02
F5E1
F416
F8F7
00E4
02B1
033A
035B
FB8F
01D1
067E
FE14
FB15
FA6E
04A6
00AF
0014
FBEE
FED3
00D6
02AB
FF8D
0032
FF81
0281
FED7
01D5
FE87
0046
0495
FE1A
FE24
05BA
F633
03C3
0197
07B6
035F
FC5A
03E1
02B9
FB89
0549
FAE6
02F0
FFF0
F98C
FDD2
009B
0214
0191
FEBD
027E
0117
004C
03CC
FB6D
0406
05D4
FF48
02F1
FF90
FF1C
02FE
FA64
0626
0174
FF85
FCA6
0449
FA19
03AD
0351
FA68
03A9
08A4
04D0
02C8
F872
F97A
FC35
02B0
FB11
FD7A
FCBC
FEBF
F95E
0A44
014E
FA24
030A
FFA0
FBBA
0784
F78D
FFEC
FB70
FEA6
FD6B
0261
FC6B
037F
02BA
FA57
0463
0256
0249
00CD
FDE3
03A2
FE9F
FC53
F2A4
05A3
0413
FF48
FEF7
06A5
0333
015B
01B0
FE9F
FD62
FD7F
FF5E
03F3
FE8B
0702
0132
0254
FA2C
F4A6
FE7C
0262
0012
01ED
FA59
FFEF
FD25
01E9
FCBC
0362
FB19
FCE6
FFD2
FC23
F7CD
F959
03E4
F69D
FC26
FAFF
022A
0197
FF6D
0259
0434
F813
FDF6
FDCA
FA3B
FBF9
00EC
0165
03AC
06A1
F580
00E9
FF65
FAF0
F9D4
07BA
FE5E
FD77
F73F
FA13
FD27
FE6B
0287
FBF1
F810
FF45
047D
FFE2
FB4A
020B
FD11
FCF7
FF76
FB12
FE81
FE1D
F70C
001D
F503
0261
05A8
0352
F6BC
F960
F990
00D6
FEF4
FCC9
FCC5
FCD5
FE92
FF13
020C
FA25
004F
FFE6
FCA7
016A
FEF6
FFF7
0311
FBEF
F940
FDE9
01B6
FB3F
FB81
0281
03D3
FB10
FCC7
FFDF
0597
FE71
FBAC
0A0A
0016
FAF8
0209
FF16
FE4A
F667
FD64
0127
F797
FA36
F762
003C
FF21
033F
FE00
FE1E
FDC5
03AE
FADB
038B
FE52
FDD0
F9AC
FEE2
FAE7
0563
005B
FB81
004A
067C
0390
02F0
FF64
FFED
0627
029C
0757
FDE8
05E2
FAD5
FC51
06C6
00F5
0071
0329
FB6D
0067
FC91
FC23
F9CD
003F
FFC2
0204
0446
F93D
0225
014F
F7FD
FF48
FD73
FFA4
FDD1
F87C
F83F
0524
04D1
0940
FC20
0400
04A1
FAD2
057E
0095
0131
0009
FFB3
FB21
F82F
0059
01D6
006A
FFE5
F46D
FAA0
FA3F
04AB
FBB6
FDF8
F9B7
F983
0346
078B
FCBB
07B7
0060
FF9C
0782
0609
06D1
0219
009A
02DF
FEDA
FF68
0870
FFC7
FE4E
0227
FD8D
020F
FC77
FF09
03E6
FEA3
0294
FEBA
FD75
032C
0049
FC38
FC72
FF5E
FB5E
FF26
00EE
00F6
FE75
00A7
0261
FEA0
0399
FFD2
FD04
FB07
00D7
F8E1
04A1
00DA
0309
016E
02F7
F958
FD2A
09B9
FD9A
FB7B
F976
FA0B
FA9F
FB97
023F
0411
07FC
0277
0232
0573
004F
008E
FFCD
09C8
F619
FEC0
0193
F940
FC9E
0A77
004B
FC83
02E8
FFB8
0377
FFEA
F81B
FDFE
01B9
FCA9
FCFB
FE87
FACD
FDFD
FFCF
FC57
05A7
F859
FA00
FAF3
FEB1
FB6A
0616
0012
F9B9
FBA6
00BD
FC6B
FC9D
FC34
FF75
FF1C
FF72
FD9F
FDB5
FCA2
002B
FEC5
FFDF
FF6C
F761
0765
FECB
02C5
0760
0618
062A
FDA5
084F
F7EE
FD7F
041E
F83C
01D9
FE70
FC73
01E0
04BB
F9D9
0071
FD8E
F87E
FE0F
0538
FC55
03C7
011B
FEB7
032C
0072
07B8
0420
0068
0450
0475
0778
FCA2
0015
0360
0784
0009
058E
FD82
0473
FC87
0113
0043
FC8E
04E3
0115
0877
0344
01DA
07B9
FAFE
0554
FF0A
FD64
F998
FD3C
FBB2
0095
01EA
FAD2
03B6
0301
0656
0A93
FE95
FEAB
FD63
FD27
0012
05C0
003B
0378
0293
055A
016E
0283
FDBC
033C
01F3
FAE1
FF61
03AD
03B0
FDC7
005A
FACF
010D
FF6F
0074
FF44
F639
0579
0003
F590
F851
FB47
F843
04DD
0016
089A
00E1
FEA1
01F9
02CF
FE0A
FF97
FC2F
FAF0
F648
0265
03CA
FB24
0420
01BE
FEB3
0450
F52D
039D
019A
FF92
00E8
FE87
01F9
0154
F3F9
06E7
03EA
F8F2
FC03
FEDD
0206
F804
FBE7
F9B0
F9B4
030A
FC2B
FF43
00DC
FDFC
F710
02E3
00B2
009F
F868
0292
FA4B
FBC2
012B
FAEC
FC2B
099B
0526
F9ED
035C
FE27
FF61
FF03
FCCB
FA4A
FE9E
FF4A
0132
FFF7
FA90
FBB4
FE7F
0241
FF5F
01BF
FD18
FF18
0686
03F4
FE27
FD52
FC2D
FA11
FD30
FF28
FF84
FE4B
003E
FD9F
FB5C
0427
FC97
068A
FE6F
FDCC
FD0D
F800
00CD
FEF5
FE98
F828
FB89
0328
F5CF
FCEA
F96B
FA2A
0111
01EF
F97A
F9FC
FE82
FD0B
F5A2
FD6A
F9D6
FE3F
049C
FB0F
02A9
008E
FFFD
FD55
F782
02E9
FD1C
0302
F4F0
FDEB
F443
000E
FF1A
047F
FE76
051A
0336
F9AC
FA96
FE85
03F2
01BA
FFB4
069F
FEFC
FE02
F6D1
025B
02B5
013C
FC5C
FA1F
FC59
FF79
FBBC
0595
FEC1
FE9A
03FC
FA2B
F7A0
F942
0440
FFFA
FDB1
FCCC
008E
0101
FC75
0411
F7F3
FD8C
FBF1
0399
029A
041F
F8C4
FCC9
F76F
F833
00A5
FBA1
F962
0017
FE6A
0139
FF29
0256
FF12
0135
00DE
FCD9
0351
FBBF
FB2B
FEF6
0128
FD2F
0180
FFD0
0570
056F
0269
0351
FB30
016F
008A
050F
010F
058A
FF59
074C
0221
FFBB
FA96
FE6B
FDDF
00E9
FCE4
002F
FE90
FEAD
F9D1
0143
F980
FB3A
01DF
FE38
0693
FDD5
FCF2
FD54
08B3
0118
0034
FD91
088B
03D7
FD8F
00A0
F568
F8A2
FBE0
01B3
FEF2
F95E
01AE
FFD0
0127
00DC
FF10
0117
FFBB
FF18
07C7
0371
FBFC
FA7C
05EC
04A2
FBED
FF92
0EA4
03B2
FEE2
0183
0211
062B
01CC
016C
FA0A
FD69
02E1
045B
0704
041B
04F2
FDBA
050B
0658
FDEA
FEE3
FFD4
0590
FF7E
0313
FF30
FDD6
0053
0747
0168
FA8B
030B
0655
026D
05DA
02BD
0267
0714
0306
0174
0039
FF29
F8CE
0479
0029
0155
0038
060B
00FD
050D
0030
FB69
FB25
0212
0321
FF4F
FCF4
00AB
FAB7
023A
FE85
00E9
0411
004C
022E
0679
FE2A
F396
0363
00D0
FCC3
034F
0004
00CD
FD40
FD53
F963
0396
0738
FE2E
05A4
FD30
02DF
FBF5
FEDF
02B9
0663
FF7B
FED3
00FE
FEFA
06E8
00C5
FF54
FBF5
FB8B
F922
02F9
FF6C
0283
FB85
FB55
066A
FBE5
FF9A
FCCF
04DB
0234
FD03
FE58
0414
FE09
017A
FF09
02F6
05CB
0426
00BC
0222
0671
0691
08E0
FC93
0175
0281
0B19
0715
0053
00DF
FCCD
FF2F
FF41
017F
036D
0883
02CD
0267
0956
FEEF
FC8A
011C
048C
015F
0AA1
FEB8
00AF
F98D
053E
0630
01E1
00F6
FEEC
05C8
042B
04A0
FE58
0C88
084B
0758
0156
FD9C
07F0
09C7
0718
0501
0574
03D9
FC1A
0221
015B
023C
06CE
03EB
065C
01CD
03DC
FEF5
04D0
FD3D
049F
03CB
07DF
0390
FEB1
FDD3
029D
0247
FAC3
0450
F8FD
05A0
FDBA
01C1
04DE
F6FD
F907
FE55
F7EF
FD83
00FC
028B
F9AF
FFCB
FBD2
017A
04A6
FF23
FBFB
F861
FAC4
04DC
FD20
FD65
0066
FF20
0266
0243
F842
FF8B
0176
F4F8
FD1E
00FA
0309
FB99
FD69
030F
FCEF
FABD
F626
F77B
F87F
FD8A
0172
FDD0
006C
058B
0155
FCCE
FD12
01EA
024C
F531
FC61
FABC
FB4E
FBF5
018C
FE13
00FD
FCFF
00B0
FF59
01CA
FF2A
FF3E
0156
FD04
0188
01DF
0354
056B
FE84
F87E
F4AE
FD36
03BE
FE5A
03B2
010A
FF99
0196
0263
0024
06A5
FBC4
FF5C
0192
018F
09A0
0055
FFAE
00FA
001F
FE60
FD0D
04F4
08C3
FC8C
0689
FF72
FAF8
FAB8
0258
08A7
FFB1
00FD
06D0
FC82
FCE3
FEC1
036F
FE67
FE24
09D9
048C
02A5
0C5F
03F8
00D3
044E
02A8
05AF
083B
045B
0370
0420
060D
FF8E
0116
FEEB
FEB8
FE42
0430
0409
FF10
07E2
022A
FE56
048F
0162
051D
061F
0464
0093
01DB
016E
0030
FA0E
0231
0062
089B
FDD9
FE9C
06AE
03B1
049A
0481
0BB5
FAA8
FC3B
01CE
0947
FEFD
059E
00AD
F9FC
0586
0870
FC8D
048D
06A9
0459
FF80
00D8
FC01
0A1B
F94B
026B
042C
FCC2
01B6
0597
03E9
0699
07BE
04A5
FDD9
FEBC
07BE
02E0
FD58
FF2D
FEB4
FDE2
FDFE
093B
FCC7
01D4
FF35
FF44
FF4D
FE1E
0468
FCA7
FEE3
0299
021E
068D
0112
FA7D
018A
013D
03B9
06DA
0405
0285
FFEA
071F
02D6
041A
0275
040B
FCB9
FED8
FE67
0459
FD6D
0954
0E23
0323
0F8D
03E4
044A
0349
FC58
FE52
02A6
0322
1258
0A82
0206
04F8
0158
0947
FC61
0289
FF9B
0396
F99E
FE4B
FCD5
06A0
FF71
04D4
006F
FD6D
0608
0378
035C
FD6A
FBB7
01FD
02C5
0228
043C
FE20
077C
FA70
FE85
0264
01F8
0165
FFB9
010C
018F
FA65
02DC
013C
FF9F
0005
05B9
FED7
0303
FECC
FD92
FC7A
F60C
0501
0319
025D
FB68
FDD0
021F
FB49
FAE7
FD56
060D
0299
0050
0321
020E
FAD9
06B9
04A8
0265
0B1B
FDE3
0378
FF84
027E
FF65
FD49
01C5
FA61
0139
005C
FB35
031C
0251
07EE
0325
04A3
FF70
03D1
FD45
0233
05A5
FECE
FCB3
0700
FCA9
0423
FD0D
0139
F86A
FBAC
FB00
08BF
FFF0
FFE3
FC35
FFAB
FBF9
0336
FD3D
FC06
0303
0410
02AC
FBDC
FD90
03FC
0408
043D
FF63
03AB
FE00
FEDA
FD7E
FDE4
FD09
F7CF
F81E
0851
FE62
FE18
F799
0452
FB9F
006B
01DF
FB47
015C
05F4
FF32
FCCB
FD1A
FA59
FD95
01DD
01A4
F542
F922
FEE2
0317
FA47
F958
FDB5
FB03
0340
0160
F99D
F972
01B5
0087
063E
FE48
0628
FA07
FF39
FCF3
FF69
FD6B
FFE5
04EF
0107
FECF
032B
FD6F
03BA
FC08
02B9
01A2
F940
F81D
F860
0095
01B5
018C
01F7
00AD
FFA6
FD22
0399
FA8F
FBE2
00AC
FF6B
F9F4
04CE
03C3
FC35
FDA0
F99B
01A1
FAC7
FF37
0954
0411
02CA
0450
073B
F9F7
0079
0488
01BE
0352
0050
00D4
002B
040E
071C
FDB0
00D5
0D52
03D8
054E
054F
FC1E
0324
FB77
0378
FDF2
FBC8
00B1
06E1
0070
0062
FEF2
FF0A
FF2A
FA8D
019C
01A9
075F
FE9A
0658
0227
05E7
05CA
04D8
FB3A
011A
0375
0093
FFF8
FCEA
058E
FEC7
FB66
07E7
0336
FCE4
FF41
FCAA
0460
05E4
028B
06C0
FDC2
04E9
FC48
FD18
FDC7
FC8D
00A2
FCF9
044B
F983
06FE
0BD3
0017
0014
046D
FC0B
0076
FA3E
0489
FE31
00D9
FCF2
FCFB
0585
FD8F
FF81
FE90
FF1B
02B7
006D
000D
FE93
FF63
FC32
0565
0526
FF4A
0155
04EA
048C
FF19
0139
0AFD
0731
FBA3
FF48
00E4
FFB6
FFF1
FE9C
FF61
0810
0233
009D
FA0E
072B
052A
0140
FB8E
037E
FE7E
0016
02A2
FD2C
FC90
FCFF
0006
FF4C
FE79
FD32
0099
F74C
01E9
FF62
056F
0A19
005B
0182
FF1E
FE6A
031B
0035
0125
01D5
0011
F8CC
FD5B
08C6
FFA5
FE9A
0190
0441
051D
056F
FF09
00C7
012D
03BE
FCB9
F88E
05FA
FAA4
FD9E
FC38
058C
FF0A
03F5
FCB3
FFDA
FE2A
044B
FD38
049A
02DF
0BD0
09AC
045D
FA64
01FB
0532
01C1
02C2
09C8
0074
FBD7
FC33
035F
0634
012D
0873
01D4
0050
FD04
068E
FF2F
FFEA
FF08
FA61
0BAA
0773
FF50
FE0C
FED3
FCB0
03E8
FF86
038E
0768
FF2B
02D8
068D
0209
FA3A
0113
FDDA
04D2
FE11
FF71
FBE1
00CF
03E6
019C
05FE
09BC
03F3
FD71
FDBE
FFF1
0431
0450
0018
043A
06F3
FE76
FE3A
FB7B
03B6
FC37
FFBF
072F
FAE0
FFE4
FFA3
0106
FED9
0006
0248
0A74
FE28
003E
FCC0
FF37
F97E
046E
0084
FAA3
00C9
FC73
023B
FF40
01AA
053F
09B7
0335
FD5E
FDFB
FDC4
FF28
055D
FF34
FA6F
0274
05FF
FA41
089C
FEBE
FD9B
07BF
014C
F84E
FFBE
037B
00DE
0AE1
0115
FFD3
FE0D
0D9C
034F
064D
04D3
08E1
065E
FBF4
067E
FEC6
FFC4
FA88
0A30
FDB7
07DC
07F1
FF96
066C
0FC5
F774
043C
00D7
0106
0121
04F6
0086
0765
0880
FD7E
0515
043E
FF73
0385
015E
F9FD
FE89
06B0
0308
03C9
06D9
0041
FE9D
0060
06B1
FC8F
FE5A
056A
FB7A
F9CD
F914
07FC
0589
FBA7
0342
0260
0120
FFE1
075E
FA0D
06DA
FCCB
FC4B
FC52
05E2
0638
0688
0088
0592
02A5
0097
FDA8
0364
08C2
FFDB
FF50
00C6
00C2
F969
0687
FD8C
02E7
094A
00FC
F9F7
FE3A
FB6A
FEBF
FB3A
FDB6
041C
06C7
04E6
F970
0341
0299
FD66
04E5
FF8A
0383
FFB3
FD36
015C
FF9D
0137
F994
FF18
043F
017C
02AB
F7DF
00A9
FD6D
FB6A
FF4E
0226
FBA5
0473
F7FE
FA00
FD84
FE1A
F9BC
02C2
FA42
FB41
FD08
012D
FE7D
FCAB
0295
FEBE
0484
0258
F800
0130
0123
F7E9
F8D2
F962
FD02
FA6E
FD52
FC64
F653
FFF9
FA2B
00BC
FD40
FF02
FA89
FAE8
FD89
0079
0134
0071
FDCD
FF84
FEC6
04EA
047F
008A
FDE4
02D8
FD9D
03FE
008A
FF5C
F787
F7CC
0291
012E
FC6B
F9CE
052E
09A9
FF6B
0490
06AF
F80A
03B9
FD28
03B1
042E
0556
FB68
FF36
049D
003F
FD95
0262
FA01
051F
FBA5
029A
00EA
0625
00AF
084B
059B
FBFB
01C3
FAFD
031B
FF27
FFAD
0708
0173
0369
F758
0582
0346
02D5
02C4
0210
FCFF
0361
F992
044D
FDCC
FE24
0052
FE88
FBDE
FE34
0690
FC8E
02FE
FC4D
085C
0567
F8BA
FE1A
F7E9
FABA
00C0
F71C
039F
FCEE
FA98
FF10
FE9A
FEA9
FE47
0070
F9BF
FFF9
0500
FFA4
00B0
F9BD
037A
FF9B
009C
FD7F
0029
030A
028D
010E
0252
0034
FB65
F91D
FE85
F749
FAE4
027A
0522
F7D8
FE92
004F
FA97
FF9A
02CC
F984
02E4
FBC0
0109
F6F6
047B
0022
011B
0190
00F7
FDDA
FA2E
01F1
00CE
FDE4
0068
FDA7
05B2
FA96
F9DF
00ED
07E4
FBF2
F971
FC30
070D
00B7
0586
FAC8
FEB2
FD81
0226
0870
FCFF
0352
FCBB
FEFF
013C
FB99
FFD0
030E
F82E
FFD4
FBAA
F997
FD9A
002D
0060
FE7D
FCF5
FBE4
0471
F7F6
FEB6
FDC1
0049
FDCB
00CB
013C
01A7
FEB9
FCD7
FFF0
0464
FFC9
01DB
06D1
FC7F
050A
FC1A
04AB
0315
FDB0
033C
03E6
017C
0031
F861
0015
0555
FF08
014A
02BB
062E
FAEF
0058
055E
FFF0
FCCF
08DB
FCAB
0686
022C
FFC0
01C0
0A97
FCA4
0195
FC90
007D
FA8B
F710
FB11
FC57
06BF
FFDD
01FB
01E1
FEE2
FE0C
07DB
FDF8
FB17
0362
07A8
FB32
0267
F855
0099
0224
0644
015A
FD8B
03E1
FE7A
FA4E
0078
FE6A
F8C2
016A
0073
0931
FF2C
FEE7
FD9C
03A4
FEF9
FCE4
FF65
081D
023D
FC24
FC2B
FED6
FEE6
002B
F759
01DC
0211
0150
FDF6
0294
FC74
05D4
FB69
0090
FADB
FD53
03F2
0016
FFEE
05E4
000E
FD96
009B
0512
FB13
F934
FF1D
FF56
02D5
FFB1
FFAD
FD43
F94D
FDA1
FF7D
FA21
075E
009C
FCDB
0061
0ADE
F44D
F350
0385
F6F0
FCD7
060D
FBAE
0038
045E
FC06
FED6
0141
FCD7
FF39
FCEE
FB77
0393
FEB2
F79D
047E
04BE
0419
FC01
F64B
039A
0152
0234
026D
0016
FAEE
FCC5
F6E4
0192
F962
F7E9
0538
F718
0405
F6DE
0197
FE8F
010A
FBBE
F9E6
FC37
026F
F8F8
0244
0107
FD67
FD7D
FAF8
FCDC
FBC2
FC82
05B8
FCF4
FB1A
02FA
037D
FE9F
F692
FA9A
0416
F8A0
FEC7
01F0
03A5
FC4B
010D
FEB0
F69E
02C6
EDDC
F929
02AC
0058
F44E
04F5
FDCB
00AF
FE16
F825
F856
FD82
FE7E
03CC
072B
0087
F94C
FE9A
07C0
034C
015B
FDC3
0504
01DC
FF1C
0201
F9F1
0195
037D
02BA
FE01
FDC5
092F
0515
057A
FF51
00E4
02B7
FC77
0907
0101
FCF1
FAF2
FB85
03FE
FD5F
FC53
FF46
FC39
FDC3
02D2
031D
0743
F877
081B
07B0
02D7
FC26
F8B8
FF0B
FD18
FEEA
016C
08ED
03AD
FCEE
FA71
0784
FE73
02F6
FE98
0543
093E
FE78
FEF3
FCB1
0577
0707
0034
014A
FE4B
077A
FD3F
0464
0144
FF0F
F6E9
FE62
077E
FFBB
FB8F
FE7E
FDC5
02F0
00C0
05A5
0391
FB6C
FF1A
0368
082C
FF68
FF3D
FFD8
00C5
0207
01BD
0222
FE2D
FC9E
FE19
09D1
0993
FDE7
0527
FB9A
0394
04B7
0310
0AF8
0466
F4E1
F8FA
030A
FC48
045C
FEAC
FFEB
0388
0092
FFFD
064B
015A
FB49
044B
0380
0517
0260
0E94
0262
07A4
FD91
037C
F49B
0392
0170
063A
FC69
FEC6
02DB
FDA9
FF38
FCDC
F799
0048
0027
0024
FB57
FC49
FDC7
FF42
0310
00A1
FB13
FCAD
F561
F8E0
FC1E
02AB
00F0
FAE3
00D4
FE28
FB3B
0131
057A
00D5
02A3
01BA
005D
FB5E
001B
F6F8
FC37
F9B6
0057
FC21
00EE
035C
00AE
FF56
038F
FB3D
FB43
046F
F845
0054
FD2B
FEE2
0033
F75C
FE69
FEA6
FF28
FDF7
017A
0353
09FE
FE48
FB52
01FF
028F
03CA
FFCB
FFC9
05D6
045C
FF18
FCCC
03E3
FAB8
07BA
0390
02F7
004E
FDCC
0A6C
FDC6
0010
02C9
02F4
042D
00AF
FB91
019B
F680
019E
FF75
004E
0321
09AF
FE51
0149
F8EC
0082
0524
FE7E
0B3E
FB70
FD2C
FF85
0078
F6E2
FECD
0244
01D9
0629
03A1
0464
F83E
FEE1
04F0
FFC7
F894
0154
0322
FDEB
FC4A
034D
