FC54
00EB
FD39
0329
FAA7
02BC
F9ED
F54C
F88E
FACC
03EF
FD10
0094
FF7A
03FD
04E4
01A6
0321
FC6A
0128
00ED
FF66
FCD1
039D
035A
FECE
FB80
FD0B
046F
039B
FC9F
02EA
05C9
FD59
01F1
FD54
FF64
FCAC
04E9
0026
0422
02CD
FDB5
FF3E
F58C
FB23
053D
F8A5
FCD8
FC78
0868
013E
0066
0363
FF48
0308
025C
FCF0
00FF
FECA
01A8
F9ED
0210
FEFC
0853
0476
FE53
067F
032B
FF0E
FF6B
026D
06F2
0315
F719
0032
FF03
05CA
0226
FEE3
FF7B
0458
FD34
FB2B
F4A1
FAB1
0517
FF01
FCC9
FC11
018E
02B4
FC05
FF22
FE22
0392
FF2B
FE40
FFB0
012C
F950
0123
FF70
FCA9
0015
FBF3
FD18
FE50
00FC
FB94
004A
0170
FBA0
FC39
FE18
F66F
FE83
F448
01BD
FF3E
FA15
051B
029E
0021
FD79
0612
FD91
FFCE
0144
036B
0550
F9C0
0535
F904
0731
02AE
0125
FA60
FD23
FCF4
F9AC
FFC9
0C10
0426
FD54
04BB
FC3D
FEA3
01FC
0457
FA1F
018A
FBCA
FD42
FE5A
0284
012A
F775
019E
FC7A
0367
FAA7
FF25
041D
F9C8
FAE2
01CE
01BD
FF46
FD2C
008C
068A
0199
FD8E
FCA9
FFFC
015C
022B
F958
0178
FC72
FC5B
FF62
FAF6
0393
09C5
030A
FFDD
038B
FBE5
FCA1
FF54
FEB0
FD5E
01AA
0355
F8F0
FB16
FBB3
004F
FE33
0254
F937
FD95
00D3
0663
FBB3
FBBC
FC80
FE92
03C6
FAB1
FE0E
02D5
01EE
F920
FED7
01BC
0494
0585
FBE9
F928
05F7
FF00
067A
0031
0565
033F
F6CD
00D0
0154
FFFB
01CC
FE09
0076
0334
FE74
0040
0144
02B6
0267
048A
00F4
03D9
000E
F85F
0017
0132
01B4
FD87
FC52
FE5E
FBA7
FD56
FEAE
028A
02EC
FCD4
0013
FFDD
0217
FA81
003B
FFFE
FFCF
0413
06AF
04FA
0113
FA10
0023
07C5
FFA6
0222
0A27
06BF
011F
0704
021B
03EE
0573
01E1
FD1D
0792
FCCE
FCC8
FA97
0424
01A0
FB6B
03C9
05AC
FE72
FC26
FBE3
0316
FA01
FD4B
035C
FE39
FE9F
03B6
FC0F
0143
FA92
072A
0331
01D7
05E2
0293
042D
FE2E
FD2D
00CA
FEAD
FAAA
021E
FCF9
FD98
FCEA
004D
00AB
088B
06B8
FDBF
FF1A
077F
0074
F1C1
0031
0284
FF4A
FDA9
04AC
0232
019D
FEA7
010B
FD50
04D6
FE89
FDEB
FF79
0052
FE64
04E5
03C5
08C0
FEAA
0275
FBAC
FD05
00A7
FC12
0559
FA80
0077
028B
04BF
FE3E
F8F9
0200
0350
026F
012E
FCCD
FFE3
02D4
012F
FC83
0444
00B8
FDA5
04EF
00CF
FF57
FCBA
FE90
FC0E
00DD
FD8C
FC7D
0410
0344
FF64
F860
FFC9
FD20
FC18
FA85
00E4
006D
019C
FF01
0348
FD27
FC65
0213
FF23
07FF
0A73
000D
FF2D
F8AD
0205
00F7
01BD
FAE2
017C
005D
FDD2
0193
0655
026B
F993
FCDB
FC87
0428
FE82
0026
07E7
FC5B
FC9F
010A
00E6
048A
035E
FBD5
FF79
FE55
FCA3
00D9
0444
FDFA
FF15
F3E6
015C
01F9
FEE6
FACB
010B
F9F6
FF91
0452
089E
F7FD
0732
0114
015C
033C
FF90
00B1
0046
F736
FE08
039A
0745
FE28
FE49
01CD
03AC
FDC4
02C4
F9F4
01A4
0065
FF17
027F
00BA
FF05
FDE4
FC6E
0216
FD42
0928
FAA0
06E0
0177
FFF6
002C
FB80
FDC0
07F7
FC95
FC59
FB2E
00BF
034D
0111
0555
FD76
FFBD
FC7D
F8E6
FE2D
FC90
FA9A
0036
019C
FE1C
05C0
01CF
FDC4
0092
FBE3
FFC4
FA23
088E
FF5E
FD85
FF3E
FD61
049F
FC89
0375
FBEB
0191
02A5
023C
0278
FE31
00FD
FF3E
FC55
04E4
FB9B
0590
FE1B
0796
FFED
FE26
0479
FDCE
0232
FDA1
FFF2
FCE4
FA5C
FBEE
FD87
FF0B
02C3
FAC1
FD3A
051D
038E
FECB
01C6
FB86
FC14
FDE5
FA08
03A5
0313
FD27
0131
F84D
059A
FE01
02DD
013C
00BD
03D8
0208
03C7
01E0
044B
FD0E
08DF
FCAA
0025
F9FC
FBA5
FF7A
FFDC
FE9D
04FA
FEC2
035C
007E
FF4B
FD9A
0404
FBCD
0757
FCE0
00FA
FF45
0264
F8E3
FC03
FD3C
FFC7
033F
FB30
00BD
0115
099C
04DA
011B
FE0D
047D
FDB1
057D
FE84
FD90
FEB7
042A
038C
F9E9
0036
049C
FFE6
F7D0
03E0
FC73
FF96
0503
07E5
00EC
0349
FBCB
089F
077E
049C
FFF8
FE07
0077
05CC
0127
F986
FD4C
FBCF
FFAA
0174
012C
FBAC
033C
FE2A
FB02
FF5E
FCA2
000A
0C0F
FB64
00B1
0386
FFF3
084C
FBA3
0183
FE55
008F
FBEC
01AC
F944
FBAE
FFF1
0738
FA1A
F99D
02EC
04D7
009B
03D8
FA9B
FDB6
0147
F9A9
0393
FC53
00A9
FE41
0104
0060
032E
FD64
FC30
0808
F8BB
04AC
FD9F
FA3A
FE69
01C9
FC17
00A7
0287
FDA7
F69A
0045
02A0
FF9B
FE38
039E
FD4C
FE51
08B5
0196
0148
F2DE
007B
FE53
FD8A
F8DA
0501
0080
FD04
F9E7
00B2
0016
FBD5
FF3B
04AE
0378
0064
0B81
FE8A
FAF8
FF06
FD50
FF83
FC3B
02BC
FF4A
0010
014A
016C
03C0
0777
FB37
FDB1
097D
0639
FDBB
05A0
0445
FB65
FD95
FFE1
FAD4
FDC5
F8E6
0007
FE5A
FFB0
02F9
FFA7
07E2
FD48
022B
FDF8
0670
076A
FF02
FB84
03DD
0050
03EF
FFD1
040D
01C0
F9FA
F788
00CC
0854
FF73
0736
FF0B
FC56
FEEA
078D
022D
05CD
F73E
F922
FFA9
03C5
0080
FDCA
FC8A
FBA3
FCD1
0021
01E4
FA61
F536
0751
0A34
05A5
03A8
03AF
0399
FA87
0213
FE29
FB88
0274
0080
FBBE
0114
01BE
FEC5
FD86
FC37
FD5E
FB9C
02E4
012C
01BB
FCC7
FE5E
FDC1
078D
F479
FD82
0422
FD80
0101
FE3E
09C5
0363
04BC
05D9
FDB3
0423
FF83
0038
0046
FE82
FFB9
0263
FABA
FCFD
0474
FD88
057B
03A1
FA11
036B
FAB5
02E4
FE34
FDE5
FF22
0117
03D3
0373
01D4
FC8A
01E0
01A7
F94E
FABF
02AF
FE6A
02F0
FE9C
FFF7
03C0
FB08
FA89
04AA
FE7E
FF0D
00C9
05A0
0871
FB4B
FE54
FD0C
FAC3
053E
F9D3
FE42
FF94
FD97
FC7A
0374
05F9
FE47
FAFB
F9C2
00D1
02F2
03C5
040E
001F
FE52
FC91
FE3A
042A
FD38
F9F8
0514
05DF
041F
0173
FFB3
0202
01E0
F93A
F1C5
0210
00A9
04C4
04B8
FF74
FD10
FF3A
FEA6
0195
FA80
037C
0928
FCCD
0B0E
FFFF
015A
FBC4
0003
FDE4
FA5A
0046
0300
F75E
FA05
FB92
F7AC
0003
0887
F859
0223
FC70
0024
FE74
076F
03E7
FD3E
00A2
FF0C
FDF5
010A
FB8A
FE0A
FD5B
034B
01A7
0454
03B3
FF89
FD2A
FF69
01B3
FDF1
03FC
FD05
07E8
010F
04F7
068D
061C
FF3F
0677
01FD
FBC2
FD70
092F
0948
02F9
0262
FC0B
FBD7
0439
FBF1
F73B
054E
FB92
0001
FDF1
FF11
F876
0372
FD4F
00C9
FE88
0657
FEF4
F96C
FED3
FAA8
FEFF
018E
02D3
FF1B
0184
0289
060D
013D
FBB2
0352
0A0D
FC59
0371
0071
FF82
FCE1
FE95
FF94
0296
0163
FF0F
058C
FD62
F9E4
FF3B
0252
01C5
F704
FA43
0123
FD70
FFE2
0190
FF72
05AE
004E
F9FF
0266
046C
FAEF
0162
FAD5
FBEB
FF58
0134
FBF7
F8B3
0182
FA5D
FCEF
0387
F9F8
0081
FF1F
0200
02EA
05D5
064B
FDAB
FFEE
007D
08E7
03D2
0184
F7AF
04B2
FE5E
FCB0
FD31
028A
FE01
FA6B
FFFE
F80A
0161
07C2
FFDC
FBCB
FECB
FB9D
FF31
FB30
0366
091F
FEAA
03D5
FBF1
FEAB
FEF4
069A
FFE2
FA75
0059
0691
058D
0009
0077
0261
FAF9
056A
FDAF
06E3
03A0
02F0
F7FD
FE2C
FAB0
0099
010A
FD81
FF5D
0112
0628
0255
FCAB
FBAD
FF8B
02C8
0104
01D0
FF2E
FDC0
FE72
FA6F
00D3
FF58
FBDD
023B
0184
FFA4
07B5
039A
FCA5
FB18
0298
02D7
04D8
01AE
FBA3
F826
FD95
042D
FD49
FDAA
00AF
FB77
FF91
0B6D
0132
FEF9
0369
F771
F90E
F848
FD1C
04C3
FE0B
F99A
FD2E
FE61
FF0B
01DE
000C
FE7F
FE67
0381
07F7
05AE
0173
FDF8
01BA
F70A
F89B
0BE5
034C
FF83
0482
FC14
FF15
FA99
0521
FF00
0992
FFDD
F916
030B
091D
FCC2
F8F4
F6F9
0265
03A2
FD74
FDE3
028D
01FF
F7D6
FE78
064C
FA4B
031E
01A6
FEEC
0174
04F0
FE04
FF1B
F569
FB9B
0652
01AC
02F4
FD49
0028
025A
FDAB
FD92
0497
FB1D
0050
00FB
003D
F98E
0442
FED3
FFF5
03DF
001E
00CE
FB4E
03E2
0A92
FDDE
0867
0493
052A
0430
005C
0185
0394
0259
FAD7
00FF
02C7
FD62
FDC6
FBDA
FF42
FB20
03C9
FD3A
FF85
FC98
01D6
FDB8
00A0
FE2F
FDF9
01D9
0101
0205
0351
FDF6
F9EA
01D8
0334
09F8
026C
FFF4
006E
0112
FE87
FD20
02D9
08E4
04E2
0155
F71E
FBAF
FF9C
017E
FA8F
036C
FF7F
0028
F8FD
FD63
FB56
FE58
FFFE
0123
FDAD
FE1E
FACA
FF96
FD20
FA42
0483
FA00
0195
FF29
FD86
FF03
05BD
03A1
FE96
0556
01F8
008E
0070
FE36
FDA8
FFC8
00BF
012A
FDC1
FE02
0249
FD44
011B
01C7
0529
0084
FF02
04CF
01D8
033A
00E5
0533
FB31
0549
0010
01E2
FB04
0873
FFFE
0243
FC25
00A3
0133
034F
07B4
0176
FC37
000C
030E
01D6
FCDE
04CA
FBCB
FE85
FB35
F8C4
02D8
0328
FB14
FEF4
FE74
FEB7
FCB4
00D3
FB01
FEF4
04A1
03E5
F9CE
076A
01F8
FD46
FF22
0313
027C
0876
FDB6
06A0
0452
FF0F
FA50
FE47
FBA2
056C
FE94
FF5F
FF1A
FE07
0341
0430
02F6
FCF3
052C
FA31
FAE3
F83D
0097
00BE
00E6
F9CD
0939
FFAF
005C
00B5
FFC7
FD95
FD8C
0394
F61F
FB33
FF4B
0401
FC81
04E0
03E4
FE6D
0589
FB2D
FC5B
FE9D
0080
048C
FCB4
FAD8
FE52
0055
FFBA
020D
FD50
F852
FBB1
014D
0562
F8F4
03B5
FFC6
044D
01C9
00B7
03CE
0306
F75A
FFFD
FDA7
0039
F808
FCDC
FD45
0178
F7D0
FE84
F8A7
FBA0
023E
00B6
FEB4
FF72
0285
01E6
FCD6
FDB1
059E
FCFD
FBEC
010D
FDA2
00F6
FF15
0439
0189
F81C
00F0
0336
FCFA
FD0E
008C
00C8
04A0
FB12
FA82
FBCE
07BF
03EA
0772
FB9F
F9E5
04F9
0565
042F
FCE3
0023
FBB4
FF7D
04DE
04D4
0582
058F
02A4
01A3
F90F
FFB3
068B
0CE1
0305
FC8D
0663
0451
F8C2
FD9F
FCDF
0555
0188
058B
FD10
FFF7
FDC7
FABC
0433
0291
FE7C
FE8A
FA87
FCA2
04DC
FF48
FF43
FF7E
FEFE
0006
00A8
F1ED
FF19
027C
FB63
FF3D
FDCE
0405
F93C
051E
FCC2
01BC
FBE7
FD21
0252
0050
F976
FF43
00BA
0504
F476
02BD
0359
FAE3
00D2
025F
0270
0501
FD02
FF52
011E
FCE2
FD75
FE34
FFFF
FDB9
0012
FE60
F7CD
001B
FC65
00F9
FF1F
06A7
083F
FCBD
048C
02F0
FED3
FE74
02EE
01E9
0029
FCE0
005C
0207
FE5C
0189
F9BA
065B
0104
FBB8
FDE4
FCD3
01B0
0312
F9F7
FEB2
FFFA
006A
0031
FEA5
074A
01AD
FC96
FFDA
FBBC
FC1C
FEF5
02B1
0427
091D
0455
014F
F8CB
0189
F967
028F
FFB7
F62A
FE70
0085
02D4
0200
FCF2
0178
F3A0
FEB5
FF34
029D
FE7E
01A9
020B
FF82
0C11
FEAF
0515
FFD0
F818
FCB7
FD64
007D
F552
0503
0151
009F
FED5
0540
FB54
0288
040A
FD33
06E4
FEDD
0029
FE22
FF21
0107
0119
04D4
FF50
048A
01FC
02B1
FF62
FA9E
F9DB
038F
0073
FFDC
FDF0
FA62
04E7
F9AB
03D4
FE58
FDC2
030F
021D
FE29
0294
02D6
0077
0955
0306
07C1
FE94
FCA4
FB45
FC29
FF61
FD14
FC42
FD52
FA35
05D4
061B
017C
022E
FB9A
03BA
0270
0519
F924
03D1
0677
008F
FEEB
FF5E
FBE2
FE4E
03E8
02A8
021D
0259
FE55
017F
0439
FD63
002C
00E1
005A
0E76
FA98
0658
F9BF
0142
04EE
FDE4
FB9B
0256
FD16
FFE1
01D0
0994
FD4C
022A
FD76
0067
02D8
032D
F945
0573
FE11
FF76
02DA
01B3
0274
0621
FC3E
04CB
00C7
F986
053A
0219
FFD9
092E
01C4
005E
FE15
FCD4
03C7
FF40
0218
FAF9
04E0
068E
FF9A
F8BD
01CB
FF23
FF29
FBD0
0713
0240
0477
FC87
FC41
FE9D
FC65
FEEE
05F9
01D4
F9C8
FE18
F73F
FE12
00DA
FFEC
FFE3
0710
FFB0
03F0
FD91
0229
FDA5
052F
01AD
016C
0043
FD20
06A4
003C
F954
F4E5
FBFA
0353
FA7A
0420
FC3F
FE65
FF97
FDE0
FF5F
02FB
07C7
FBE8
03D3
FCBB
061C
FE48
04A7
F97E
FF72
03B7
04E1
FE5C
04FE
0219
051D
0407
F8F0
FA54
0209
0206
FB94
FAEA
00D4
FA54
FD41
0044
FAFE
FE66
FF3B
FEFB
FCF4
F8F9
03A9
0589
0740
FA78
FFB8
01A6
01EB
FA9B
02A6
FA81
02AF
00E0
FFAD
05B9
FC47
02F9
035E
00FB
FF04
FDC0
0369
0538
FCF9
02AF
0051
029F
FD0E
04DB
FD24
FA39
06C9
012D
05E8
FF92
0403
F9A6
F869
06D1
FF0B
0874
F957
0551
FCE7
FEF4
02C8
003A
FCB2
0412
01A6
FBD0
0119
FD53
FFD5
0082
0437
FCBB
0372
FE58
0645
0066
0293
FD4E
0296
026D
046A
FE60
FF84
0031
F772
FE4E
FE31
0221
FB03
FCE5
FEC5
000F
FB6C
0150
F7BA
F908
FE48
FD4D
01A7
FCCC
0434
FFF3
FF14
02B6
FC64
056D
FD37
FD39
FF20
05FB
FCDA
FDAA
FD51
09C4
F989
0096
FCA4
0270
028E
004A
F7BA
FE1F
F9D4
FF77
FB5E
FAC1
051E
FB1C
F483
020E
02EE
01DF
004B
FCAB
0136
FEC0
07ED
0617
FFE2
FA15
FC04
003E
0033
0311
FFB0
FBDF
FC17
FD14
FED4
07C1
FD43
FEFC
001B
03D5
FF18
F8DE
FB1A
FD81
FEC3
FD0A
055B
FF94
0061
F892
F8A1
FFD3
0284
FC12
F8EC
FDD6
FEC0
00DF
FF9B
FA4D
FAF7
03F6
FE84
FF9F
FACD
F5AF
0140
FAEB
FDA4
0334
0669
0267
031E
FB0B
FE7D
FEC2
FF1E
0141
FB2E
009D
FDD6
00C9
F9BF
F8A9
FF4A
0680
0070
01F9
00A1
FE9B
FAC0
FE4A
0671
FEE1
FCD4
009E
FF0F
0114
043B
FF78
FB36
FB97
004E
0539
FE5B
FF00
05E1
FC3B
FEEC
0045
FE92
FDAC
FC32
F666
07C2
032E
04A9
FF30
FB08
F884
0748
FD50
0137
FA03
FC27
05EB
FF1B
FF53
FD4E
FDCA
FA7B
FBB8
05A8
0096
00DB
FE67
03FD
0154
FF19
0357
02DE
0294
004E
F986
FF96
0337
0704
07D3
FF9F
0089
FD78
0903
FDD0
094B
FE6D
FDFE
FDBD
0541
05D4
021A
FF79
FB26
FE12
0272
FCDD
FCBF
0196
FFE6
FA92
0235
F702
FBEB
0353
0844
03EE
005A
02E4
0491
FBD9
FECE
010D
FB68
04F0
0595
05C8
FF4C
00A6
FCD9
FF67
FFFE
015B
034D
FDB2
FC27
FC5B
0715
0418
FED8
05A2
0268
FF5B
03BE
FA3D
F9C5
FE7A
0672
046B
0005
070D
0898
FAFD
FBAA
FE0D
01AB
FD53
06D6
FBE7
FD1F
01C0
001A
FA17
FD47
FB67
FE22
F63D
FB6E
F8FF
F727
0376
024C
03F6
033A
022A
0158
0425
014C
FB19
F863
FB62
F517
01A9
0A50
0371
03D7
0515
0490
0348
FFAB
0109
FE9E
FE6D
FF5C
039C
0140
0291
03BF
FE3E
04B4
0255
FE04
FFF5
F62A
FAE6
0728
FC39
F848
FE17
01E7
FE27
0122
F9DB
0259
FF5C
0125
0595
FF0B
FEE2
08B5
FC0A
FA40
FED9
FBF3
0418
FF02
01A7
0610
FE24
0086
FE37
FC12
FBD3
0246
01FD
F9AF
07D6
0178
0788
0054
0016
F8CE
037B
0296
FE15
FE71
FCC1
FC30
FEDB
FD15
FF37
01C4
FE5D
FFFF
F87C
0496
F8F1
FF9A
003F
FDD6
00C0
04AD
FCBA
FE2B
0206
0455
0601
FBDB
FE21
042D
FE81
02A8
02B0
FD6B
F833
03EB
FC5D
0246
056C
04B4
FD51
01FB
FB50
03E7
002A
06F1
FCFF
FB05
0021
01C7
FCD8
0217
02E8
03BD
046F
FCF3
FC54
F864
FD69
FE61
F663
0133
0154
012A
01B9
0230
0129
F72E
FA17
FFC8
FDED
027B
FD6A
0195
F91E
018B
FE18
06B5
FE19
FF33
FB8D
FB9A
FEBA
FE00
FFBC
0240
01BC
04FE
FF35
0434
FE4F
0059
FEE2
061E
01AF
0095
FC92
FEF0
FC62
03F6
FBAB
02F3
01CA
0062
F531
0221
01EC
FCE1
FDB8
FBE9
0109
09F0
0222
0057
03B2
FEDF
03D2
FD57
FE53
0012
0403
FE1F
03DC
008D
FE16
0091
FD81
0211
F64D
0376
008A
FE4A
FC23
02A5
FBA7
FB93
FC49
007D
02AF
0484
FDAF
FECA
05B4
02C3
FCF1
0484
0400
03BE
F9CB
03C0
FC22
0335
F74C
FD5B
0150
FBD8
FFB9
F831
FDED
05CE
0453
0682
FFF3
02BA
F94A
035E
FE8A
FB65
FDF7
0143
020D
F982
FFFE
FDE0
012B
F482
07D5
07B4
05A7
03D8
0046
01E8
FD03
057C
0029
FC79
001E
029E
F814
FB77
043A
FBD2
0230
FA0A
0096
025F
02AB
FD89
F97E
00D3
023A
0217
FB05
025F
074C
02D4
F6D5
037D
0359
02C8
0058
FD94
FB9C
FB69
020F
FA19
FD3F
FF89
068C
FFEA
0162
01E3
021F
04A0
FF7D
FE59
03C0
0746
FA30
050A
0125
F8F0
FDDD
FE75
0291
0056
FD5D
0126
FD97
FD54
FDB4
00AF
FF65
FB49
FEE5
FC91
FFD1
0045
0149
F976
FFFF
FB21
0119
04C4
04CB
F91B
FDC4
FD30
04CC
FEAB
0132
006D
F977
FF2C
0393
F529
055F
F8EF
FF4B
008A
FF80
FABD
090A
FB5D
0024
00C4
0445
FFFC
F861
07C5
FB00
FF3E
0248
FDB3
FC7F
038F
FD99
004E
FC63
FE9A
001E
F9C3
050F
0651
FA19
FE90
04BA
FC61
02DA
007F
0BB7
029A
F927
FF37
01ED
FB98
00DF
07B9
0087
0277
071C
0555
06B6
0037
FD49
FB1A
F94A
05CC
04B8
FE39
FEAE
01E6
FAF3
FE51
04A8
0995
FE0A
0346
01FD
F905
FF1F
FE16
FEEF
FD86
007B
01D7
0323
FDEE
FD2A
00A6
FCDD
029C
FEA8
FCE8
09DF
0566
035A
FCA7
01AE
00B3
02A3
FBAC
072D
0584
06CB
F80C
0540
0092
FDE9
014B
FC69
049E
F669
FA9A
0277
01A1
0047
01B9
FE0A
03E2
FAB4
01E0
FE09
F87A
0187
0668
0AA5
042B
01AB
FFF4
FABB
FBE7
FF31
FD51
0080
FBF8
FA35
03C2
FC1B
FCF9
FD80
0223
033B
FC74
03B1
026D
02F1
F836
000F
FFC4
0357
FBCB
FD07
0A7E
01AB
FF9A
0008
03CC
02AA
FC4D
03DB
FDDB
04A8
0177
FDD9
FB73
FDCB
FDE3
FF08
0469
FEE4
FC99
F9B2
FA7D
F793
00CD
0575
FF46
FD79
FBFB
03B1
FF58
FDFD
FF76
FB50
FFB9
FF14
0611
FB22
03D2
0203
056F
FAC8
0004
00A5
F973
04B2
01D1
04DC
0096
FA22
FECD
03D6
FDD8
01AD
0427
FF13
036F
0585
0254
F7EF
FEA5
FE7B
04A1
01F4
0207
03D9
FCD0
FE87
FC56
F9D1
049A
069E
FB39
0133
0092
FD15
0504
FC28
FD77
0D39
FE98
0484
F97C
01E1
FD6B
FD01
FB90
026B
FDCC
FE23
00E3
F796
06C2
FB77
FA67
0CAF
0155
07C2
080B
0169
FEE7
055C
034F
01E9
FD6F
000E
FE2E
FED5
FB9E
FCB8
0527
FFBB
0386
FBED
070A
025C
05CB
FE1B
007B
00B2
0B16
002F
FD0E
00DB
F91E
06DE
00E6
0172
0045
FB15
FB8A
FB82
FACD
0123
0513
FE95
F330
028F
0020
0814
FB79
02C1
FE83
0074
04A7
0134
FA1D
FD56
00B5
FECB
FC7D
039C
034D
047C
F976
FFF9
FF44
FB47
006F
00E6
FB30
01A9
FE53
FF21
FEFA
0680
036B
00B4
FE79
FDB6
F3DA
FEA0
FB21
FAD8
000A
07E5
052B
008F
FE9A
F9DF
0388
FF11
FA38
FBF2
FB4C
029C
01C1
0188
0028
FBF0
F97D
FFCF
FC71
02F2
05B4
04A7
FDD5
081E
FF89
FB20
0160
F976
FECE
00F8
07BA
0044
007C
F99F
0019
02F5
03D3
FE1E
0495
048A
05B1
FB66
FE47
FC83
0918
0140
01CE
03BC
01B6
FC9F
FBAE
01DA
012E
FBCE
0373
01F9
046E
FDBF
FEBE
FAF9
FFF9
FCDF
FB33
00DA
FD39
0558
013E
FFE0
FCF1
0181
FCDB
F9CB
052E
FF19
02CE
0549
015A
F713
F9EC
0493
FF88
FECB
0203
032A
FBB5
FC4A
FCBE
019E
03A7
019B
FFA4
FE79
016C
0472
000C
0733
0143
FF84
FDC8
04C3
FF61
FF2A
03F3
05E3
0744
FF65
FCA5
0649
FFF4
03CA
FD82
FE83
FD5F
01AC
FC4E
FCEC
FCC8
FB35
FA84
02CF
FDF0
053E
02A7
0071
FDF1
FF13
00CE
0309
FC6C
FEB6
FF97
0234
F925
FBD4
FE64
F9CD
0547
032A
FDCA
FDCD
0631
0062
FC84
0201
FA70
F9C2
044A
FF93
FDAB
FFB4
0266
017C
FED8
FD5B
02B2
029F
014A
007A
00FA
0464
01FF
FD25
FD4E
FF62
FCBC
FE05
01FA
03AF
F80F
039B
FC88
0409
055A
F860
0343
0611
031D
FFAE
FB3D
FA6D
FBBA
FECA
005E
0206
017F
021F
FF0D
0158
FBCA
FE67
FCF3
FD52
01D0
FE6F
0757
FCD8
FCB3
FEF2
F9C1
005A
FDDD
06B3
FFE2
0000
FECC
FE27
01E3
FDFB
FBD2
FC84
FCCE
FF1C
00E2
0221
FCEB
FCDD
04B6
05F8
0282
0385
FEDD
FFDC
0151
FDD9
FC37
022C
FD2D
07DA
FBA8
FF44
FB8A
FE7C
00D6
FE79
0355
FBA8
FF27
04B3
0200
0311
04EC
FF7C
0048
0696
002D
FD68
0235
FE73
0341
FBF6
FE39
FDA7
FFCD
FAC9
027B
FA45
FB0D
0225
003D
FD97
01B6
0340
00AD
FF67
0544
FD38
031A
0492
03CE
FBDA
02EA
018F
FD4D
FFC0
F7B6
FAE9
0290
FEF7
0339
039F
01F5
FF4F
FE45
FA58
01C5
015B
FE14
FBD7
082A
0BD9
FE96
FDC5
FEB3
FF52
00CD
01EC
04FE
014A
00BA
05D7
F85A
01AF
0085
FEC1
FE12
FB4B
F8AE
00B2
04D3
F96E
FD20
F9C2
FE9C
027E
01B5
F872
00EB
039D
03C1
FD4D
0283
F9C2
06DB
FA5B
004D
FD03
FCCC
FDAD
059C
0017
0376
01E8
FE10
02DE
FFBE
0137
FE8C
0722
0031
FF52
F90C
FE2C
FE93
0003
FABD
014F
FE65
FD77
FF14
0441
045A
021D
FD88
04C6
0A2E
0354
FF59
FF3D
0209
FE7C
FFFF
0033
FFEA
FD53
030A
FD5B
FF14
FE02
FD6A
FFE3
0563
012B
01C1
0503
06C2
FDFD
F5DE
02B3
006F
0306
FDD7
FE2F
03DF
FD68
FEE7
FB72
0128
FD94
009B
0431
0412
0023
0123
F93B
0069
01D6
0391
01CE
FF18
00A6
FD3E
FD6A
0327
FA1F
FE95
040C
F6CC
FEBA
0A80
F508
FC9E
0929
FFCD
FBEF
0084
0185
FF4F
0440
F4DE
FBB4
FED2
0144
F82C
08F9
01E7
FBC0
05AF
054B
048C
0132
031B
0125
FEA2
FF84
0243
FFA1
FEE1
FD3F
FBB2
0177
FF72
FE75
042F
05D6
0163
FA56
02C1
0179
0565
0500
FFA8
03F4
095B
0533
FFC2
FDEA
FF22
F91B
04C0
046D
FAC7
FB7B
FEF9
05AC
FB04
FD30
0024
FE1F
FDE4
FE56
FCFD
0538
0209
FD74
F96C
014C
0193
0336
FAC7
FC7D
F70E
019F
01A0
0507
FFC8
FFF2
01B6
0037
F861
FCA2
0855
007D
0384
FC5B
03EC
FA3D
01C9
04C6
F9A5
F76C
078D
F7A1
FC68
0203
045E
01CB
0864
FFCE
F751
FBFF
FC10
FBA7
FC61
0315
FFF0
FACC
0432
FF1B
FB87
F891
F99E
FB42
FFE4
0365
02A6
FD0D
FF52
04DF
FDA7
0391
FE36
02E0
F90F
FFE1
FFAB
0012
FEFF
016E
03A5
0008
04FC
F970
0207
01A7
0068
FAFA
03FE
F63A
FD11
00AB
0491
FCA9
F966
FE08
00E7
00B1
0661
0271
FEB5
0092
028B
FE0F
F991
0110
014C
FE7D
F899
FE42
0576
FD21
0595
FF14
FF76
0102
FF09
00BE
FC81
FDE1
07C1
F9B5
FA9E
FEDE
0CEB
FB9B
FDCE
FD06
0303
FE70
0443
053B
0252
FAE4
FF65
0643
FB9C
FF69
0144
F9D2
013A
029C
FFD4
FF10
0100
0090
F572
00DC
0166
0343
FC24
0601
FB32
F9CD
04A1
FDEF
01C4
FEC2
FF46
006A
F64A
022F
01C4
0463
06C1
FDD7
FC8B
FDC3
0D1F
0485
FEF0
FF0A
03B6
FFAA
015D
01D5
083D
04EF
FB4C
0315
FFD9
FC56
028B
FBC6
0318
FFBF
0235
01E1
02DC
0336
00ED
0286
01E8
031E
FC4E
FBC2
021F
0519
FEF6
FF05
049F
06C4
F950
FF40
FE40
025B
04AC
05D0
FCB7
FEDA
FA80
0283
00BB
02E4
FF49
011C
FEF5
0381
019F
031D
004B
FCF0
0003
0627
FFC2
0095
014E
FCEE
FFA9
FF6C
0253
FA3C
FBA9
FD93
09D5
0053
FF57
02EB
0209
FFA9
FC4F
FFA7
FB34
F9D2
F873
FB4B
04BA
FA4B
0172
F154
0572
FED4
0128
FE6D
FD40
FB1D
FD5E
FB30
0069
FEE1
FA35
FA37
FC94
0207
0459
FEDB
0346
0530
FFCC
03B9
0618
04B6
03F4
0032
048F
047D
0100
02CE
04A1
0AC9
05A0
076E
FFFF
FF4F
0341
00AD
018D
FDF2
FC46
02F5
FFB2
FEB9
F953
FE1A
0566
FD42
05B2
03EE
FE1C
056D
FDDF
F9D2
0677
FFCB
0690
076F
0455
06D3
0094
036E
0695
015D
FDA2
0735
00AD
FCBB
FDD0
0219
0417
FA5C
053A
FCB2
FF41
F86D
FA06
0623
FB0E
0147
04A7
00A0
0160
FDB1
FCAC
FFE1
FE53
FBFE
0761
FFD1
FD53
FA65
FC65
0292
02C3
0072
F7D4
FF6C
04F9
FADC
05EB
039C
0490
0584
0796
00BA
0002
F96B
FD2D
F8B3
031D
039B
0AFD
04FD
030B
02B3
0212
FFF4
0421
06F6
FD50
FDE4
FCE0
013A
0593
FE8B
FFAC
0101
0170
FC4A
024F
01DA
F8B6
0699
FFDE
FBC0
FFEE
03C5
02AF
FB28
FE42
0186
FF91
017E
0017
004D
F28F
FF84
FF79
00C5
FC91
0172
F8BF
022A
0063
0173
00DE
0577
0147
F89A
FCDA
00A6
FDCD
FE5E
FD34
FBF1
018D
0055
FFB0
F8BA
FDAD
0250
FF65
FE98
01EC
FAB1
FB0C
0135
0035
FCA1
FD55
0212
03AD
0095
FE35
FCC1
010D
FF32
053D
0512
F7D7
FAAE
01E3
031D
01C0
09C8
00D8
0530
FE35
03D6
FF59
01B5
0203
FE44
011C
0148
FA2B
0113
FFBF
FC13
FFC6
F6E3
043B
FFDE
FE51
FA5F
FBEF
FB70
FE0C
FF1C
FE84
FE6D
04B3
0456
03AB
090B
0563
02FA
04BC
03DD
01C9
040D
01C4
FA04
FEBB
FC58
01A9
F934
FA96
FC8F
F5DC
FEB0
060A
0087
F6C9
0472
FDEA
0528
024E
0309
0026
FE1C
FC72
FACE
02FD
0628
FB8A
07F0
FEB5
FF83
01FA
F7BE
FEDE
03F6
FCC7
FA7D
FFA5
0647
FF0C
FDE2
012B
0026
0590
0173
FC80
F501
01FC
FDEE
0212
FDB2
0C3C
FE94
FDF7
06A1
0072
FCC7
03EC
04FA
05FE
FEC1
008E
FA3E
FC13
0B15
0461
02D3
FF50
FE0D
FFED
FD1A
FD1E
FFA3
01BF
FE50
FCD3
FB6A
0043
FAAF
FCC4
FEC0
FF53
0338
FC29
FB28
FB19
FA50
0625
0926
FF45
00CB
0110
FF7B
02CB
009F
FE2C
0305
017B
080D
FF17
FA73
0205
FD7F
0339
028D
01D5
FA48
FF69
085D
FD4B
0547
F88D
FC3F
06EE
F904
FDBD
042F
0263
FF40
FCEF
F9B9
0317
038A
0358
FCA9
FF76
033C
FFC6
0385
FF4D
FFAF
01F7
FDAF
FEC0
F7F9
0522
FD95
02F6
021D
FD0B
FC9C
056C
FE60
07B3
0374
00BA
038F
005C
0599
F63C
0716
01CB
FD75
01C0
FDE0
FD8A
00E4
0066
06C7
00B3
FAE8
0676
FEB6
01FF
FAB2
02C9
FDFF
FE3E
039D
FEB8
FF8B
0107
F961
FE1E
041D
0278
FE6C
0169
024D
FD1E
FB64
032C
FD4E
0486
0010
02E8
02BA
FF5E
01C8
F3BD
FD32
05FA
FA80
FCE8
0012
01DF
075C
FF03
0325
03B9
0020
025B
020E
FE5A
FE5A
0675
0402
0771
0059
FCF4
FDEF
0395
02E0
F6E5
FDBE
00C0
F950
FCAC
014C
FCCD
FEC8
008A
04C1
0299
FB8D
FE87
04F7
05F8
01CE
F511
029A
033F
0242
FE1F
F7C5
0416
00C0
FDFD
0389
05EA
04E2
00CF
0130
0610
0052
FCD5
FBCC
0138
01EE
FAA4
025D
030E
0573
065F
FC58
FA8B
FF1C
FD13
FE86
FADF
07CD
FCF8
FD4E
07B3
0DAF
FEF1
02DB
F991
FF72
FDF5
0DDF
FC00
0492
0007
FA00
0006
0289
FF02
0118
05AC
0110
01A3
F6D5
032A
02BC
FE31
FFAF
FD65
0079
0415
FC4D
021B
0188
FB4D
03B6
FA31
0006
F3FC
0141
FF00
0185
0313
FC73
FD21
FFA9
FF15
FB23
FD22
02EF
F42B
0071
FC27
FC98
FE90
0422
FB10
003E
FB81
040F
077F
F873
FCDC
0296
0746
05F7
FBFC
0104
FD32
0395
0203
0538
FF74
0014
FFA9
04F8
0167
02B6
F9E5
FE57
FA51
F74A
00C4
0068
04A7
011C
05B1
FDC6
FD12
FE98
0002
0132
04F6
FF3B
FE29
FABE
034F
