FFFD
FCB9
FEC2
0140
02B4
0273
0109
00F9
0875
033D
FB55
F8BF
069C
FAEE
FF77
FEB8
0344
FC62
FB6D
0660
FE45
04F6
FE24
00CC
042A
FCA7
FECB
FD3C
F890
02F3
FF62
0416
FDD5
0470
FEED
0302
08B6
FA9B
FF33
FC97
031C
FE99
FB33
0100
F54C
FD3F
FBF0
02F1
FAE8
FAAE
FD5A
00B3
017D
FED6
0136
FE77
FF40
FCF9
0106
FE9B
0236
0941
F85F
F9E7
075B
FCC3
FDA5
03D8
FDC8
FC80
FFF6
FA94
00F1
00F2
FF32
039F
0645
FD7A
FC4E
FFAF
08D5
01E2
0821
04D8
0449
0113
0192
02C2
03F9
083A
00C9
02EA
F7A4
0293
035E
025D
01DC
0497
FD6E
0221
0268
FB1A
FF5F
03DB
0142
FF6F
0745
007A
01EE
0144
004F
F9D2
022A
07B6
00D9
0632
0CB7
0107
0328
02DF
FDCE
06F8
0069
0E19
008F
0353
FCDE
FB44
011F
00B3
0031
FD68
0236
020D
0C5C
FF0B
06A2
FFF0
FA49
FF1A
FD3D
FE4E
0044
FD0D
09D3
FFCB
F78A
00BC
04C5
FF28
0129
0414
03D3
0428
05B1
02C6
05E8
0C9F
099C
FB0F
FA7A
FE5F
0082
026F
FD25
0665
01C7
014C
0321
045A
01A4
034F
01FD
FFBF
FDB4
02A1
00B9
FC54
FE11
04C5
FD4E
0213
00FB
FE8D
00A8
027D
FC6B
FED9
F5AB
0395
FE50
0056
07E2
0245
02FB
006C
FCC1
F8E8
0AA7
0101
FC01
092A
0395
039D
00E5
F9AE
05C1
FCAB
03C8
FFE2
00EF
FDD2
0027
FBFB
F8B2
0506
F3DB
FB06
FD57
FC77
01CC
FE95
FEEA
0078
0160
013F
05C0
09E1
04B8
03FD
FF44
FDAC
0361
017A
06FC
FFCB
FF4D
FE9F
0593
06AD
FB43
06A3
04A1
0956
01C6
0667
FEEF
0206
FDDE
FB35
04B8
FD85
0431
0614
00AB
FEFF
0238
FB47
FBBB
0102
FC23
FD51
F8F2
00B3
FF98
F611
FC46
FF41
0364
FFCB
FECF
FDAE
FC97
06AA
0137
F9F0
FA3E
FF00
027D
01C7
00B9
F99B
FEBA
FDFC
04A5
FC43
02A6
0837
01C0
071B
FFAC
FB9D
FE3A
0474
05D2
0012
00B5
F7D7
FC9D
018D
0094
010D
00F5
0989
FC98
FD80
009C
0039
0303
FCDC
04E8
FCBD
03B9
041F
0585
FF0D
FD34
003C
F8C7
FDC0
FAA7
FE86
0412
FE78
FC8F
02A6
0719
006D
06A3
00A5
F6E8
02A7
03BE
05F7
0025
F928
0385
008E
02F2
FC68
03A7
0080
002E
013F
04DA
FF86
F974
FCD8
F9D5
0207
012C
FEF1
0433
FC2E
078A
07E4
07BF
0371
FE7E
FBAF
0591
0126
051B
053E
F89A
005E
FCC7
0317
046C
0295
0019
FFCE
FE18
022E
FBC6
030A
0AFB
0AE0
FEC2
00AE
0A4B
04F5
FE2C
000B
00A8
FC7A
FE73
0078
FAAB
F012
FDD9
FD67
F8C8
0071
FA4A
FEDD
FCFB
F8D7
FF0A
0432
FCBA
FEC8
0438
0425
006B
FF96
FE68
FC80
0154
04A3
FDEA
053E
0178
FB32
FCDF
FD81
FC4B
FCEC
00FA
F99F
FC29
0029
025E
FC1F
027A
01B0
FEB3
FF7C
0031
002E
FC8B
005E
F6D6
05A9
FBE1
F5AD
01A2
0866
FEF0
F915
FB71
0496
0421
F932
0010
FFC0
FD35
FB61
0367
FFD7
FE59
FBEC
FE4C
0007
FFAE
FEDF
FD01
0169
01DA
00DD
058A
0305
FD2C
FF4A
F7FC
088B
0188
F3D3
FE0E
FDCB
FDBE
FA85
FF0F
FD0D
F9CE
F786
FCDB
FFBD
FAD6
0335
FEDB
FF52
0263
0077
052F
FC01
F92A
0171
0650
FF77
0123
00AF
043F
033B
F9CE
FBE3
FBDF
FFCA
FCA6
F980
FD5F
00C5
01D1
F51D
FFC8
04BA
FE69
FF4B
0043
0062
F9EC
00D2
FEE6
F9B3
F846
FA3C
024E
FBBD
FD9D
0542
02D3
F84C
0318
FF90
FE16
FF6A
FC10
0195
FDCE
FA52
FD1E
034D
F728
FABA
FD78
0397
016D
FC20
FEB0
FE43
FE58
00E7
0037
FECE
FE85
02A2
01B1
FC97
FABB
04AD
FC34
0445
F8E8
02DC
FCF5
FF9A
05F3
0001
FB1A
019C
FEA8
02CF
FFA0
FCFA
019F
036B
FA3E
050A
0360
047D
0141
FBEA
03AD
FF95
04FF
FA53
02F5
07FB
08B1
0049
028D
FEB9
F8C5
0282
068D
0432
FFE5
00B0
FADB
0293
00D4
FE95
0545
08AA
009B
007E
05BD
0135
016E
FFF3
06B7
059B
073C
03E3
FCF0
030C
036B
0213
FD07
FB41
00C8
0A91
000F
0390
00E5
029F
05F1
0396
0542
0328
0027
0521
0495
FD61
FEB3
FFAA
FA30
04E0
FF3E
F99D
0256
04D8
FD30
F2C8
0322
0AA7
004E
FF92
FD27
0571
0963
08A9
0303
F833
0245
060C
000D
03A1
02FE
FF17
0613
0545
0014
0374
0040
011E
05AA
F9AD
0717
FBC1
003C
FE8E
0566
FB9D
0932
0399
FD02
0531
02E9
05F8
0016
0358
FDFD
FA87
012A
03BB
F6F6
03C9
FC24
043F
0098
FEE5
074D
007C
0274
024F
FDD1
064F
0542
FDDB
FCE4
04D0
06BB
00B2
FDB4
F753
0094
0743
FD1B
04B0
067B
0231
FC33
FF0F
FC39
04EF
FAA6
FCBF
FE84
FA36
FC7D
FFA5
FC7B
F822
FA54
F419
F562
FF48
FC04
FFEC
F4D4
FD22
FA89
FC14
FB4C
FF80
FF3B
0272
FCBC
F7FA
F7B6
FC5D
05C3
0034
F412
FA11
047C
FEF2
F97A
011D
044E
FAA6
FFC5
FCDF
01B1
FE4A
FB21
0544
00D7
F28B
F655
0610
F977
F873
F52B
F1C4
FA39
0443
F8BF
FD3B
021A
0571
FB15
F382
0072
F9A6
FCE6
FAE1
FE50
FC64
FF20
0693
036F
FEA4
02BC
026B
07E0
0190
0225
FCAE
FFCE
039D
0526
FF4E
FFFB
0624
0027
0314
001D
FEB4
01E0
F956
FAD6
0843
FF4F
FD23
FE82
FE81
0168
FC0F
00F5
0022
FD44
F9D9
02C9
03B7
FF7E
0265
020A
0426
000A
FB93
001C
0347
007A
FE36
0397
FAC1
0298
FDB3
F6D8
FBEE
05DA
005C
00E5
0881
031A
01DA
FF06
FF4E
0269
FEF2
FB59
0493
028B
02E8
FFCC
0352
0040
00BC
0027
0065
052B
0144
FBF6
03DE
038B
05FD
F850
F89A
FA20
012A
0128
FECC
0403
037F
015E
0002
027C
04C7
0004
FF41
018F
FE44
011F
02E3
0099
F916
FB2A
0695
03E2
0383
07D8
01D1
FF86
F5F9
0B2F
028C
F635
0629
02D2
033E
FF35
FE10
FE8B
FB8D
FF2B
FBA4
FEC0
0337
04B1
03E6
FE27
05B2
FDB0
0255
F4FA
FDDA
F8CF
FC88
FA78
F8C4
FFE8
FEDE
023C
FF77
FCFD
FE6E
FF21
06B9
FF47
049C
0097
F930
F8ED
FD11
FEB7
0543
0563
019D
F537
FDBF
0100
02EA
FF37
FF76
0654
FF5A
FC2C
FD28
FA87
FED7
0097
F9C3
FE01
F964
FA53
0707
FE50
02D8
F9CE
FC5E
033C
0780
FDEA
FF80
FF93
FBE4
04EF
01F1
01B7
0219
FFF6
FFF0
FEAB
FDB5
0533
084F
04F5
00E2
FC12
FB14
0311
FC97
0249
FE82
0553
0BA4
02A0
093A
0209
FD64
FF62
FEFB
FF2C
FBCC
06CF
0484
FF13
01E4
FB14
00B3
FACE
FD4B
FC4A
07AD
04E8
FE8E
F8DB
0136
0550
FD0D
06C3
FF30
05F7
0086
FB42
FF4B
F4AE
F978
0524
F489
FE85
FD26
F6CD
FCDA
FC8D
01C8
FA68
FB0A
01C3
03CB
FCB0
FFB5
FF3F
FEC6
042C
FD4C
FD6E
FC28
01E1
F99C
0107
FD35
FFC1
FFF1
0286
FAE1
FE24
F909
F5DC
018A
FC19
0096
F45A
00EE
0052
FEBA
F950
040D
FB54
00C6
FE2E
FF8E
FE3A
F1AC
0245
FF2D
FE12
0028
00E4
FE84
FF94
FD74
FC9E
F60C
0382
0092
F84D
FFB8
043A
00C0
FE0E
019D
FA69
02F6
F660
0289
F3C0
0A86
FE71
07A8
FF2E
FC8B
FBF0
FB7E
FB04
006B
FAA4
0006
FDCC
FE65
0122
F68B
01B6
FA31
04C5
0179
0551
FF67
FDB2
FF40
FDB7
002C
FE76
08DB
FF4A
051C
00A1
FFDC
02B2
0209
026B
FF0C
F8A3
0804
F310
0032
F444
F87C
FC40
FE07
FC09
FAB4
00DB
FD25
0486
0022
FD71
060D
06BA
FCF8
FFD5
FED0
01D4
FD10
042C
FAAE
FE13
FF15
0142
01E5
017B
011F
05D4
0566
F7FA
01C7
FC77
F9F6
FFC0
0318
024D
0257
FD2D
03CD
0455
03E3
0392
FFC5
03FA
FB33
FCAB
02B0
F6E9
02FA
00EA
F946
F5E6
FA06
FFBD
FC02
FF4B
FDA8
F7DC
0446
FABA
FEE7
FEDB
FF1E
017F
0390
FB81
07BE
FC35
FD2B
FF30
FCF5
01B7
FBF5
FDD7
04D7
FD7D
0167
0392
FE4F
FE42
06D3
0490
0016
FC96
F6BE
F6D5
021A
01A7
00E0
FA4C
0562
FAC4
0081
FE87
FE70
FFD6
FF50
03B6
011A
FC64
0157
FDFE
FEB9
FA5C
F83A
FF3D
FA42
FBA6
F931
F7EC
FABF
FF09
F62F
FA76
0434
07C0
0066
FC02
FAE6
01D7
FD2D
00C2
0213
FF44
FEFA
FEE8
F775
FD8E
0039
0467
FEF1
070B
FE80
0398
0051
FC60
FA64
FA04
F6DB
034C
02B6
FBAD
0284
FCBC
02A1
FC67
031E
FB7C
FB20
0081
FFCC
003B
FF39
05BE
02FA
FE8C
F8CA
FBB8
05C0
00D0
01BE
FDA3
FFC9
0156
FFB7
FD69
FED0
019D
FBC3
01B2
FC8C
05AD
FEC7
0147
0135
024C
FF11
FAE4
FF2A
FA62
FF45
02CD
FE8F
097E
FEF1
00EE
FB9E
017A
001C
02D9
FB78
050A
0585
0334
FF44
FD21
FC98
FC3E
0BEC
FEEB
039B
051F
0707
023D
07AC
06D0
0437
FD73
FA9C
04DC
FE64
FB46
009A
FE62
0282
0199
00DD
0294
02D9
0473
FD81
00EA
0718
FE9E
017E
01D6
FEEC
FD5A
02E4
0773
022E
FF62
FB13
049F
03E5
FAB5
0620
0548
FF4B
FB4E
FF72
FDFA
08C9
FD65
FF0C
FB66
FDF9
0158
FEEE
FCB1
FDC1
FEF4
07AB
03A0
FCFF
FBA2
F984
F9D1
FE5E
0033
F5BB
0314
FEA6
024E
FF05
006E
0244
FE57
FE51
03FB
077E
0012
FE06
0413
F52E
008C
047B
028E
07F8
01FE
FF67
0264
05E4
03B2
0301
0158
01DE
014A
FEE4
05DB
FF87
FE64
054D
04CB
FDD8
FBBA
FCAE
0539
FCF9
04B2
01A9
065B
FE59
021A
FBFE
FEF5
FB91
FB79
FC43
FE03
FD8D
FE94
0077
FED0
FE03
06D4
FA77
FAAC
FDD6
FD58
FC29
FEAA
0349
FC5F
007F
FF34
FF63
F9DF
00B1
FCBE
FEBC
0046
021D
02F5
015B
FC99
FE10
04EE
051B
022C
FB23
066D
FE3A
F951
FF9D
FD99
01DF
03B8
03CD
FD8D
0110
0468
FA40
FF06
007E
00E6
0191
04AA
03DA
00AE
FCCF
FCAB
0017
00B0
07C1
01A3
FEB4
FFFF
049B
0039
FAEA
FB14
FB86
FF36
0607
FCF3
058F
FC8E
0138
FF14
0311
FA35
FF97
F7BF
F815
0122
F9B9
0172
FCB8
02D6
FFFE
FFD0
0669
FBE1
FF72
0074
030C
05F1
FE25
FF4B
FA00
0698
FCAC
00F1
FD39
005B
FF6C
F5CE
FA85
FF73
FEE1
F7FD
FDE9
FFF1
FF7B
027E
FD67
F604
FC22
079B
0133
0335
FE94
FD99
F7FB
0141
FA0D
0084
FD37
0547
00EC
01E1
001C
FCD4
F8FE
FD38
FFFB
FDA3
F915
0395
F9A1
00A7
FFA2
FF3C
FC0E
F922
F8C6
FC74
FE49
016C
F9E9
FFFC
FFDC
0101
0312
FF0B
FA61
01C6
F8BD
052C
0038
F774
FEE0
FF8A
FE2A
0633
0185
0073
FD89
FEEB
013F
0054
04D2
008B
028E
FDFB
FAB5
0A94
04B4
F950
0256
0146
FC7B
002E
0321
0227
01BF
FFCD
065E
FF44
FEE8
FF44
FE93
06A2
0195
056D
F9BA
FCDA
0124
FFED
FEAA
FFC5
FFB6
0247
0DF4
FA6D
047D
01CD
FFCA
0902
FDDE
FE4C
04D2
0652
02F4
0399
FC62
0335
FB82
0055
04AC
FC7C
048E
FE70
FF67
0587
FF68
00A1
0438
0273
0605
0424
0078
02B8
F8ED
0422
0336
0580
0107
0044
FD76
0124
FEAE
FFA2
07F4
FD90
FBE8
FE8A
0223
FE16
02E8
FE7C
03F0
03D3
01AA
FFEF
FAAB
030E
0313
0010
FC12
FDCB
FFF4
0386
FFA2
009E
058F
FD48
010D
0315
FFEC
06BC
FC6C
FA0B
00BD
FF5C
FF13
FB79
FC83
FF3A
F91D
0427
0375
FED9
0088
00AD
00B5
FBCB
007F
FE77
03E2
FF71
FF4B
FE76
FE06
0089
FC80
01DB
012B
FBAE
01DC
FCE5
FAD7
FE38
FDFF
FC40
FDF9
FDD2
028D
08EA
0154
0538
0158
F97A
FC71
01A9
04B1
00E5
FA77
FF8C
042F
02AC
00C5
0153
0527
0558
017A
FE64
FA8E
FEFB
FFFD
0270
01E6
FF08
07E6
FF46
FA3F
FD87
FEAF
002C
FBED
FB01
03EE
01C8
FC08
FFEC
FEB5
FE32
FF3C
FD42
0404
FAAA
FD6C
FED0
017D
FCC7
FDE1
02CB
00E3
007A
FBBE
0140
FA68
0289
0A04
0138
0144
002E
FF90
FE71
0256
F9F3
FFCF
FD37
00EE
01DE
FDF1
F5B1
F813
03F9
F588
FAEF
0106
04C1
FF41
043E
03DD
0249
FF51
02CE
FF9C
0503
01E7
FF51
FD53
00C2
0194
FE4B
FCA3
035B
F8F1
FEA8
FC4D
FC16
FFAE
010F
FC55
FF68
05A1
00CC
0660
01BD
FF80
FB7E
FB05
FC4C
0640
FAE8
FA00
FD3B
01A6
0198
FFBD
FC99
08D2
00C3
F86F
FCF5
0311
0337
FB07
01CD
FFB1
0293
02DE
06F0
042D
FDD1
063C
0280
0019
FE9F
FBE2
0336
FE4A
04AF
0B1C
FEDE
0428
0450
0305
FE92
04A9
04BC
06F0
FDAA
FF2C
FD74
FCB0
FB62
04C2
FFB4
FED6
FE9D
FD3D
FD1C
FE72
07D9
FDE1
FF70
FEA2
FD45
0593
01CC
0209
02C0
0031
FCCD
037F
03B6
04AB
0A6B
FFD8
0617
0414
F96D
03D0
014C
0524
0385
04FD
022E
01AC
00C8
037B
0018
0663
061A
FE8C
0040
094D
02F4
FF3F
FDD6
FC69
FDB4
01A3
FFF3
0105
FEF7
FEAF
FCBB
0770
00D9
02EF
000C
FE3A
FA82
FE11
00B1
03A7
FC0F
017B
05A1
0149
F4A3
FDA3
04F5
FF8F
F9F8
FF12
0394
020A
FFF7
021B
0019
0011
09AE
FDF3
FF26
F8BF
FFF4
0232
066F
00A4
FFA7
0089
0462
F74D
01A7
FB36
FB54
FDEA
FDC8
01D2
016D
0259
FC5A
006D
0276
FFF8
0246
F664
0200
FC7E
FAA2
0466
FE1B
00DF
03C7
FF17
FED4
FD8A
0720
01DE
FD3E
0175
FCC5
FAAE
F8C6
FF76
FF22
FAD5
FC3C
F8D4
0307
FD7D
FFF3
FC84
FA17
F6BF
F47C
0699
FE87
0032
0243
F647
FFDB
FE08
FBCD
FF21
FC96
FAF9
FBF6
FDBB
FD1E
F7C8
F3D8
FD47
FE35
FFCE
03F7
0289
FB0C
FE43
FEA3
FF01
FF8D
FCDC
021B
0455
FE08
FEE5
FA74
0793
FF2C
0077
01BE
FB8C
FE4A
0254
015C
013E
0291
0036
FA50
02FE
FD3F
FBE0
0412
05BE
04A5
06A2
FD05
0083
FD59
0217
00EE
036C
FAE0
0514
03AB
0863
FBC7
0088
0183
09A6
04A1
FACA
FF93
0011
0032
03AA
0385
0313
F7D3
01E4
0099
FB90
FDDF
F898
0298
0700
FFBE
010C
03E1
04E3
FD28
0284
0078
FDD3
03B7
FF5F
03AA
FBB1
FF33
FEDD
FA69
03E0
0BD9
FB9B
07CB
0394
06FF
0298
FA46
FCD9
05CA
FE3D
033D
08CA
01EE
0FCA
FCFC
FCA6
0133
0076
002D
FDE6
0293
FFA6
0028
FA7F
F884
0178
00EB
FA4E
FF20
FD76
FD4D
FE66
FD3C
0451
F909
FC94
FE21
02E7
01B3
FC3C
05AE
FFE6
0052
FC63
0580
00A1
FCBA
FB3D
F848
029A
FEC0
FD0D
FA8E
FDBF
FCD3
FBDC
FDAB
01EE
F921
054E
FDF1
FBFF
FE0F
00B2
F3E9
FF6F
000F
FD5E
FF93
01B0
F5E1
0182
0769
FFB9
04CC
007A
FF2F
012D
01A4
FB3B
044A
FDD8
0128
02BF
02D7
FB5D
03D4
FC3A
FD1E
F5CB
05E5
F941
FE77
FC30
F78D
FF65
FB7F
FEDC
FF98
F91F
0358
FA7D
03EC
FECC
FDE0
00DA
FF1D
05DA
FFE7
0251
F8AC
FE6D
FCFC
0148
009E
FD07
03CC
FD91
0562
0036
FBA1
FE4C
FCAD
00BB
FF38
042F
0093
FDFD
0010
F67E
0164
FB44
F7EC
0233
F74C
F88A
FE48
F982
0057
FF45
0251
0640
FE58
02E2
FE2B
F90E
FA5B
013B
00FB
021C
FC88
FF22
00B5
FC4E
00E3
011C
0556
03FF
FBD4
F96D
FC73
FD5D
F9DF
06CD
FDC4
0084
06DF
FE2D
F8E8
FB78
016B
F8A3
015C
04E6
029F
FA8E
045B
06D2
01D5
0608
FBC5
021A
F912
FAA2
FB81
FD7D
FF26
FB39
F632
0093
03D3
FEDE
00D4
FD1E
FF95
FE65
FFA0
FB48
057B
F5B5
01D4
FB5A
01A6
F98F
FB9E
FB99
08EF
04FB
F8EB
FB41
FC2D
FA46
F906
0528
FC8C
FF7B
F4E4
FA3B
0137
03BB
FDDD
FCE5
FBE7
FEAF
0300
08C3
F97A
FE2E
036D
FA7C
FD97
014A
FC8E
F98B
0931
0AA3
FEF0
FBA2
0246
F7A1
067E
FF83
0249
FE53
011A
0020
FC53
034B
057E
05C9
01A3
0486
FE34
0378
FF0A
FDBD
FF20
FCF6
FD52
0051
0052
FD20
032E
FF03
FE98
0732
051B
0175
0009
FD42
FD9A
FA10
01CB
FBE7
FD62
FEDF
03B4
079F
F96B
0629
FD35
FEC8
00E1
03FC
0235
FC2D
0442
0303
0808
FA52
F98E
024E
02AB
0088
0080
04A5
05BF
030E
FDAF
FFC7
0957
0298
FC60
06D8
02F6
FEAB
FF74
055B
00B8
0086
02C0
0308
060E
FCBD
0F9A
FEED
FDA9
03AA
01ED
FA58
032D
FFDB
04B9
0246
0220
09E8
0694
041E
078F
FC2F
FE77
0547
0417
0345
01B4
02F4
F974
FE9A
0185
07D3
FE4C
FD99
FD1D
FC1C
049A
00F6
FC98
FDD3
0770
FBB7
00D7
02F9
0047
F9C2
FAB7
F5B6
FB0E
FC0D
0048
015C
FAAD
FFCA
051A
0203
FED8
FD87
05C6
FB95
024F
FEA2
FE79
03E4
0344
FE0A
04EF
FD73
FC4D
FDBC
FB19
FF19
0239
FFCE
FC95
F995
FF97
F878
0018
017B
FB73
03C0
FBC5
F8D0
FC39
0CC4
03D0
015C
000B
FE8E
0117
FE26
05A2
046F
00A5
02FC
033C
0863
FF39
05B3
0196
FED5
FE3A
03DD
037B
0285
FCC7
FAA4
0124
FB6A
FD12
091D
FF24
0BB7
FF45
FDE1
0232
04F8
05C9
FB97
0409
FB40
FE88
F99E
041D
FF58
F60E
FCBC
FBD2
FF9A
FA3A
0346
08DF
03B1
088B
0332
03FA
FEBF
01DE
05CE
0810
FF99
FF83
0418
0A96
031F
FE52
FBC1
FE49
0015
05BC
025C
00B2
FF0C
FAFE
0476
058B
FE99
FDCE
01B8
01DD
FCFD
03E4
FCF6
03D2
FBAB
0387
FAEF
FCA5
0144
F969
044B
0028
00F1
FB77
0045
0542
FDC5
0299
FE87
FD8E
0158
FFBC
FC10
FFE0
0341
0450
FF4C
0738
023F
FF24
051C
0281
F951
03A4
FD24
0159
FCB4
FF4B
005A
FD95
FC1F
052B
FD47
0392
00B1
FC3C
F1F8
014F
00DA
FAD4
FB23
FD4A
FD50
04AD
FCD5
056B
FA31
0022
F780
FC17
FA18
0010
FC7D
FBE8
FFD6
FDC7
0328
F963
05D2
017F
FD79
FF18
FECD
FE85
0539
FE2D
FBF9
FED6
FE66
059E
FB03
FAF0
FE4B
FD0B
FECD
FE59
F774
FDA9
FF58
04E7
F961
FE91
087D
FCD8
0356
08CC
04CD
FF17
FEE9
FA25
F895
FC76
0086
02FE
027C
01AD
06B5
009E
F87A
F59D
FDED
FAE6
01EA
FE50
00BA
0099
FD86
02EF
02E1
04A6
F870
FF48
FF19
01E9
FE91
FF01
0209
0091
0809
08AE
00EB
FFE0
FEB6
03AF
0051
0057
012A
005C
FE4A
008C
FE48
0069
FA1E
FF76
03DA
0057
FFF3
0065
FED9
0182
0130
0081
05AB
FC20
0645
FD77
F9F5
074F
0130
011C
02A7
FE12
FF03
018A
FC40
080C
FAF1
02A0
08BD
04A3
FC02
0070
01BC
FD82
0B21
0738
FEDD
0489
04A2
FBC4
03EF
0591
0461
0343
0541
FE48
FB74
0AD6
FD27
FE53
00FD
088F
01BE
0857
0109
FEAB
0255
06E9
FCD7
0948
041F
0034
042E
013E
0618
024F
06DA
FA6A
090B
03BA
034C
0213
FE6F
0243
033F
03AD
0720
0386
0118
FC82
004A
03C2
066B
F778
FDD1
016F
0195
014B
06DE
0618
0372
008B
05C1
0600
FBAF
04B7
0BBE
FA6D
07C9
016C
FC9A
0153
FA0B
08A3
FD65
08E8
0678
07C6
0107
FAC1
021C
FFC9
FC51
0216
04B9
FBB4
016B
02ED
FDE8
FD5D
FE53
0109
02BA
FA1D
FCB7
00F9
01FD
026D
0466
016D
0248
0222
FE3B
FE52
FC57
FEBE
0093
FD00
F419
0569
02CD
FCFE
F956
00F6
FE50
FDD6
0196
FCA5
FE25
0607
03E1
FEAC
FCD9
FBA1
FF6D
FF0A
0275
0747
0221
F739
03DB
FD8A
F5E6
FCA1
FB73
06F0
FC0E
F9C2
F906
040B
FB60
00B0
0877
FBB2
F5F1
FCEA
025C
FCC3
0805
FE2A
FE22
FDD6
FEAE
0477
FC3A
02E0
00CA
FF36
FF5E
FDA0
0147
011C
FD1E
FE62
FD5A
FEA5
FC22
FF3B
FC47
00D7
FCC4
F8B5
0307
FFE1
FDB2
04BD
0504
F9CC
F934
FC3A
FE91
FDDB
FABD
0174
07D8
FD82
F91E
0281
0A6E
024E
03E6
0301
04C8
02E3
FEE4
0824
FE8D
044E
0169
0366
FC4E
0D45
FCA5
00C7
F873
FCB0
F957
FC62
FBEA
FA55
F8D7
FB00
0343
FE56
FE29
00AD
016A
0574
0122
FD6C
015A
FCC2
061F
F592
0197
FE5E
04B4
FE13
FAD2
FE9D
0117
FB12
003A
0615
0891
FCE1
027B
002B
0080
F24C
0071
032C
000B
0187
061A
05CF
0441
FB0B
01CB
032E
FA4A
FF10
FF41
005E
FB63
FB77
FE60
0029
0169
02BB
F62A
0607
FB07
FB27
FFDA
FAE8
00ED
02C3
FF4A
06B7
FA92
0497
F6FC
02C7
0424
035A
0201
0222
02C3
0216
FE07
FBC2
FE38
FCED
0BAF
FD09
04F9
FF86
FFC5
010C
00CC
0276
F77E
F19B
04DE
F764
0A2C
076E
02B7
0C61
FF7B
0421
FF55
0328
023F
018E
FE94
FF23
03BE
FA23
FA4E
0475
FF57
0016
0368
FF0B
FE4C
FD54
FD93
FAA9
FD46
04E4
04A5
FBC2
FCDE
01D7
FD4B
0469
04EF
0544
FFB4
02ED
021C
032C
0000
F80F
0847
FDE8
FD9E
FED3
0621
017C
FBD3
07E7
FFEF
FD28
FF4C
0700
0530
0635
07F2
09A0
FA72
FBA3
0216
01A0
01AD
0683
003A
F63B
02F3
00A6
002B
07A0
0502
00DF
0267
FCF0
0208
FEFE
0302
0264
07D8
051E
022B
0845
FE0C
F838
044E
06DE
FD2D
00B3
02C4
FB81
FE36
FD2E
FBFF
0355
01E8
FBBF
0638
FA88
FA40
FED4
001F
FF72
034B
F848
0024
038F
FE86
FBE7
0691
FD2A
FE05
0190
0614
FED7
005C
00D2
FC59
09CA
03F0
0353
01F5
FD23
FB6E
08D2
FC7A
034E
FD01
F62A
01A2
F483
01A0
FD24
FDDB
012B
0596
03B1
003F
0622
00B6
FE7C
04F6
0200
0222
FCA7
037E
05F1
0162
09D6
F7B1
FE27
01A1
FCBD
05BA
050E
F62C
0359
0317
FFCA
FCA2
FE8A
FA3F
04AE
0748
FFFF
FEC0
FD69
0106
FD66
057F
03A8
FBB6
F7B9
08C9
02A7
FE25
FA31
0192
FE1D
0358
0258
FC30
067B
0795
023C
FF5B
02C3
FA6A
068E
FFAB
FFF7
02D7
FE6A
FDB8
061F
0149
0169
0276
0733
0019
FE31
0404
01C5
0507
FACA
03DA
00B1
04BE
FB84
09F3
FDE8
FF15
07BE
FB14
02CB
003F
FEF7
071C
FB89
FDA5
FA1B
0023
FDEE
042F
FC0D
0014
0255
030D
0164
045B
FD7D
0AB4
0556
03C6
FE32
FECA
0325
09B3
01F0
FC84
F9BD
FDA9
0212
029D
0105
FF59
040F
FF8D
FE44
0436
0182
F75C
F8F7
FE98
F6C1
0664
0410
0072
FDDB
02C8
00C9
0189
FEC5
FA26
01FB
0A2D
063F
FC51
00EA
F9F6
02B1
00C4
0247
FAAB
006E
08C6
06F9
0192
FCDD
FAD9
FF5F
0628
0141
F91C
08CD
FD09
047D
0A43
083D
FF38
0114
037D
FA37
FDA7
0378
0696
0264
079E
0514
FE6D
F6E4
FEA9
FD12
087F
FE54
FB11
000A
0637
FB92
003C
FEB4
FAFB
0802
0284
051A
FBBD
0450
FC55
01F6
FD2D
03A0
FEED
0231
09D0
011C
0105
FE62
0320
0167
0225
02CB
018C
FF97
FA51
0076
00C3
F872
FE3D
04DC
01E7
06CC
F5D7
FF32
FFB3
FBED
01C0
0059
FCF2
00D1
05D2
FD1F
048C
048E
051C
00E9
0230
FFE3
FF46
FBE6
0817
FD2E
03C8
00A1
0223
F992
F564
F9FD
F6B1
0092
FE54
FED8
FD82
FCBE
0078
FB98
0123
FA8F
FDBE
00E6
FD79
FD8B
FD85
FEDA
0709
00DC
0339
FF56
01FD
F749
F907
FC82
0375
FD0E
FC23
02E9
FB26
02B2
FD85
FAD0
FFAE
064E
F74D
FCB8
F6FC
02E9
FD17
F982
FA39
01E4
068C
08BD
0336
0202
FC80
0635
01ED
FB49
007A
0193
013B
0001
0195
FC30
029E
FEE0
FAC8
F95A
FB64
016B
F83F
FF24
01F8
041D
F4A6
FD0A
F7A3
FD9E
00F6
0460
01FE
FFE6
F966
0297
00E4
02A3
FF75
FDC3
FDDC
01D7
FCF8
0241
0569
05F9
FDB8
0503
FD48
FF74
01F1
018A
06E1
0508
FFD8
F861
00B7
F9BC
04C6
02A7
027F
02DA
025E
0259
FFB9
FE65
FCCC
F7B1
0217
0472
000C
FE27
062F
FC9B
00A1
FF17
0198
0155
FDDE
0021
035C
041C
05E4
FFAE
0467
0283
027F
0189
03EF
00B0
0072
FD66
FD5A
0062
0432
FB15
FAAB
FF32
00CE
FFF8
0234
FBA9
0048
0125
0071
FDDF
F990
FBA3
F91F
F9A8
00AB
FF9C
FD7A
0141
01DB
00C2
FCC5
FB08
077C
037E
FE63
FF3E
FD14
0596
0111
0144
FBFC
0409
FBE9
F88C
FDF0
FC18
FB9C
F9DA
01CE
00DA
FBF3
0008
FD06
FA34
FCC6
FB67
018E
FAA9
0237
FCC1
03B4
FFC8
04FE
F8B7
FC89
0580
FEC9
FDB7
FCD7
04F7
022E
057E
FE62
FF6A
0325
0538
0335
FE32
0792
F62E
FE7C
05C1
FFA9
FC82
F9A3
0495
0162
0362
FCDF
FB45
01A4
FF01
F90D
04DB
021E
036F
FE83
044C
04DD
0623
FD35
005A
0044
05EE
0099
F9CB
F877
00A0
FAC1
FEF2
00C5
00ED
024A
01B1
03C9
0088
FE98
0016
F8E4
062D
FD2F
FB3B
FCBD
FB34
FE7B
0297
00AF
FF38
FDF7
FFDC
FBA9
0412
FDFF
FF84
FD26
F7EE
FBBF
03B8
FCB0
FF39
F873
0946
024B
FBF1
025C
F87A
FCCE
084D
F7F4
FB09
FF40
01EB
FCFA
FE3E
000C
F8A6
0622
FC08
0124
08E9
048C
03B7
04FA
0614
05E3
01EC
FE3C
FB87
FACE
02CB
FCEC
FDC6
0024
0004
00A5
FFC5
02C4
FF28
FEC1
010C
FD2E
008F
FDD4
FF11
0306
00A9
FE80
02D0
FE50
09D7
FFE1
FBF5
F886
FAC4
0128
02EC
013E
04C6
FB36
FDA8
FEF0
03F9
0461
032F
02A8
0621
0282
FD40
FF94
FE93
FE6D
01F7
006C
FB2F
0217
0271
01C6
01AB
FE4B
FAB3
FEEF
FF71
009C
05AF
01C6
0259
F996
FEC6
0151
0102
002A
FEEA
FC14
FD72
053E
015E
0064
FDA3
03FE
00D8
02BF
FB28
FBE2
042D
FEA6
00FF
0305
FC8D
06E6
FAD4
019B
F753
FFBB
FD77
00C8
FF5A
FD1C
02B3
FD72
FB77
F98F
FFCC
01E2
F9F1
05C9
005F
F7B9
FA40
0517
FAA9
FDA7
F8C8
FB39
FDF6
FFD0
0020
FB2B
FBCE
FDB2
06FA
FB0F
04E5
FBA9
0828
FFAC
01A3
FA46
0A95
006A
F9B1
FB97
0099
00F0
0298
FDC4
002C
014D
FE5B
FE9D
00B4
0341
FBFE
07B2
021A
FC5B
01B5
F767
0013
050D
02D0
013F
0172
FD81
FF94
00B3
03DA
F6A1
FFE1
049E
FC8D
0174
0290
FD0A
FFF6
FCD1
0016
FAF7
01B5
02C4
FFC1
033B
FF8C
020E
F988
F8D6
FF7F
FD6F
0524
00C3
0057
0082
FD11
FFB6
0110
0290
0327
FCCE
FD69
FFC4
FEE2
0034
005F
0656
04B0
FB85
0051
FF5F
01A0
0967
FFBE
07AC
05D2
FF27
0142
FA9A
0B5A
FFF0
FED4
023A
0241
046F
FDB3
006A
00A4
01F6
0215
025A
FDA0
0302
01A5
FBC6
0006
0137
0596
0A1E
04C3
037E
FDBE
007A
08C4
FCC8
FF15
04E3
072B
012C
03C7
00E2
FB1F
FB1F
011D
0591
0021
FDBA
01DD
0135
060C
0190
F955
0445
F541
F943
FF98
FFEA
FE55
0783
0289
026A
FC22
05C1
0129
FCED
FCEA
FE5A
0107
00A9
FEE1
0B7D
0BBF
082E
0388
F89E
FCF0
0429
FE71
0763
FDC2
03E1
0649
0226
023D
0529
FF57
0B08
FDA0
FF6D
02CC
0653
000A
006E
FD89
FCA3
01C5
F913
011E
FC85
017E
FEE7
FB48
FE9E
019D
04F5
FA07
0288
FA6A
FE23
FCF4
0105
04BF
FCE4
FB7C
0178
F7BC
FDDC
FA6F
019B
FC0C
05F6
FE05
FE81
FD6A
036E
F937
FCD6
02E9
FE7F
FE64
F81A
04EA
FD2F
051A
0025
FD79
FB13
FFD8
0577
FAD0
02E2
FA6B
0257
02E1
FD97
FEA8
F6EA
047D
0181
FD8D
01D6
FB43
F7BB
FF07
FD3C
0062
0029
FC95
F5B9
02E3
FEDC
0069
0029
0242
01D3
0253
040C
01CA
034B
035C
FAEB
00FE
FFBF
FEF6
03FF
F97C
0156
FDF7
FE80
0242
02FB
FD41
FF31
FFBA
004F
F949
030C
0055
032B
0835
0461
FFAD
FA3E
026C
0B0F
0073
FD80
FDE3
0180
FF6C
00C2
0213
FED1
005B
FE94
012C
0DC5
FA75
FE1B
FC77
04CE
F9C0
0354
FEC9
F8E8
0095
FC58
0189
00F4
