0060
FF7F
FFBB
003B
005A
FFA4
007F
0055
005E
FFA8
FF39
00B0
FFBE
004B
0054
FFA9
005C
0035
0062
001D
FFAA
FFBC
003A
0040
0049
FF9D
003A
0048
FFB3
FFBD
004F
0035
FFA3
0075
0061
00A5
FFAD
FFBF
005D
FF38
0055
0063
FF8B
FF64
0060
003D
006F
0032
FFAA
FFA4
FFBC
FF9A
FF98
FFBE
001A
FFF7
FF9F
0046
0034
0064
FF82
FFA1
001C
FFAD
