FEEB
007D
0066
FF38
002E
FE33
01FF
00FF
013A
00D5
0275
03A7
0076
00CB
FFFE
03FB
00D7
002E
FF74
FE78
010C
FEA8
02B1
00D7
FFCE
023A
00B6
FF5C
01F6
003F
0085
008E
0180
00D5
0138
0251
00A4
0054
01B0
0549
0134
0150
03C0
035B
0181
00DF
01D8
00C9
00D9
00EE
007F
00CF
02FA
FFB4
0044
FFDE
016F
00C0
0010
03A9
0280
017E
0160
00DB
