0306
FBFE
FD1A
0124
020F
FE01
FDD9
F87F
FA4A
FA4D
0672
023F
FBEE
01C1
F6B8
1008
FE08
F872
FDAA
FC6D
F71A
F704
0524
09B4
F6DF
FA4F
079A
F74F
00C2
F975
0247
03B2
00D7
FE7E
0985
F828
00FB
0563
0EB5
106C
094D
0BAB
0222
FDFB
0BB2
07E8
0763
FA87
F5AD
083C
F6EC
0766
0103
FFCD
0536
FB2B
0BD3
0644
F47F
03F9
07DD
01F2
07AB
06A6
F4E2
0462
FB85
0422
0A2B
FBD7
02EC
0611
0055
02D4
04E9
F93F
015B
0724
F95E
FFB6
FFA9
FD2F
07AE
0169
FB94
FF10
0540
FF4A
094D
FA05
F8C1
0471
FED9
09C9
FE7A
0201
F975
0429
F89C
030F
0687
0666
058C
FBD9
FB5B
051B
FA16
F35A
F5D8
03B1
FEA4
03C1
00BD
0676
060F
FE16
02A5
0335
093C
FE4D
0540
FF8B
0578
0402
F880
059B
02BC
0694
FDA9
0362
FACA
FAE6
0713
FFAD
0198
FECB
0786
00FA
F6D8
F587
0270
FAA6
F8C0
F669
0915
FD8F
FD56
0583
F83E
08FE
FC00
FF18
FA1A
045B
FF8F
FDC9
F5C3
0311
FD86
F807
0795
03B9
F6CD
F84F
035F
0868
0182
FAAE
01ED
057C
F858
F557
FFEB
FFA6
FB29
FD68
00C7
FE51
0762
FD8D
F6F2
055E
FBBA
038E
0566
FBFC
0003
0649
01A9
FD2E
FCA7
0862
0662
FD28
03C1
0A64
0580
F7CF
02DB
F893
FEAE
FCDD
FC13
00AC
02C9
FE42
FB40
06AE
0175
FC37
0363
06C8
01FB
0814
02D5
0242
0301
0192
FF4A
00EC
F922
0540
040D
F451
0794
FB1B
01FF
0039
F8FB
029A
085A
084C
F775
F988
0044
050E
0056
0201
FB6C
FAF0
055F
024C
0094
07B1
F57D
049F
FB1A
066B
03C6
0505
FC5A
0392
FAAB
056A
0231
014E
FC6E
0459
01A8
FA28
0048
FCAF
FEEF
071B
FD22
0884
F969
0BDF
0454
0550
FE5A
00EB
00BA
F82A
F866
FAB5
FB26
FE6B
085C
0188
F984
021D
04F1
FCFB
FADB
F786
FEA7
061F
FA08
09E0
0845
048E
FC5B
FC8D
07A5
FAFB
02A6
0371
FD57
F9AF
0588
FA1D
024C
F6ED
F605
F98D
070F
0197
00D3
07D2
03CA
02EB
FF30
FEB6
00CD
024D
FE95
F76B
FBC9
023B
FCBC
F26C
FC49
F91F
F7C3
041B
F7FB
FCAD
FE08
F69A
FCF1
F372
FD13
FF2A
004B
0804
0544
0314
0678
FD1D
03EE
F69C
04FF
028B
F83E
FF1C
F958
0319
04D9
FB33
0011
0202
FBA0
FE2D
FA9B
02C1
FED0
F73D
F91F
FF4A
FCC3
FE57
039F
0179
0797
07C6
F514
FC93
05C1
F6FE
FCEB
FB63
FCB4
02E2
053C
FBA0
0180
FEA7
025C
02F0
0AA4
0482
F727
0357
FDAD
FA63
02A8
08EA
F8BF
F471
059B
020E
0606
FE2F
FE7B
05A2
F606
F7A0
00B6
FE6D
0843
FD5F
FAFF
0222
089F
06DC
0388
05BB
FCC5
FE07
07A9
F5BE
0516
F606
FF28
0543
029B
FF85
0182
0065
073E
FCBE
013E
026B
089D
FE8A
FA2F
09E8
089E
F9AE
F6D7
05B1
FF4D
FBBF
0250
FE7F
02F6
097A
FA6A
0159
FC81
FCD5
F79C
F81F
0290
FDE4
0718
F840
02E1
066E
FFFB
FCA7
FC11
F946
0251
FECA
FF32
07E6
0479
FB6B
00E1
0675
00DA
0376
FA1C
F9C4
F7FF
F941
00B4
F703
0995
FB06
FB2A
08CB
0603
024D
FE99
056B
FB1F
F966
00BE
0469
027F
0690
08BB
FD5F
0864
023B
F817
FA19
F719
0523
FFB1
01EB
FCC4
0504
F8BF
FD6B
0130
01D1
FCC3
FDBC
059E
FF15
FD2E
06D8
0157
F92C
F8D3
03F2
F98C
027B
FF3D
0577
0405
FC60
01E4
06C5
056B
0BD9
00D1
FA0E
FD8E
FEE3
0B27
0146
0AF6
0836
03B8
FBA7
0154
F807
043F
00B2
0113
02BE
FCE8
0C35
FE53
F902
0381
00B4
FFAC
1028
FE43
0197
0330
0322
03C0
0362
041A
101A
023C
0B7A
07B6
01E8
02BB
073B
F8F1
0969
FAD6
03DC
F896
FEBA
0C21
FDB8
FC49
026E
0C3D
FF0B
0508
FDAB
FDCE
0265
098B
081A
082B
05FF
F9B1
085D
04FF
0ACA
01F9
FC68
026D
FE1E
FC2F
0125
0718
0862
F831
009D
FC55
FD85
F866
0AA2
0570
00F5
02F6
F91A
0227
FE92
F7E4
FB09
0591
0058
F738
F982
FF0C
075D
F8E6
F730
FD28
FE93
020F
FA78
FA35
FBDA
F782
FE99
06B2
FA2B
0050
002A
012D
0949
02EF
FD40
0237
FB40
0715
0716
FC33
032C
FBC1
0383
FE1C
FF7C
F9D1
02D5
0714
0E34
FFF4
054B
0897
017B
0BC9
F9FF
02AA
0DAA
0A5C
0FE8
0638
041A
01BD
0D32
04C9
086D
FC56
FC0A
0ECB
0714
016C
112C
FC26
02BC
0AF5
07D4
01F8
04BC
0169
0CD0
0525
0D72
00BA
082A
018D
08C8
01EB
0E33
FBDF
10A6
189F
0C05
0680
113A
0EAC
00AC
0901
0DD0
0B19
13FB
0D67
F95F
0605
F9EA
0F54
0612
033D
16D2
0F02
015F
07CF
0438
01ED
0506
0961
FD2C
0514
FFF1
0576
FA9C
FE75
F95C
03F1
0359
F8F5
0718
F818
01E1
FA75
FB47
0732
052B
FB5E
02E1
FB34
02D1
0A12
FCAA
F774
0892
FA5C
FE4F
06B7
0352
F75F
03ED
02D9
0117
05B9
FEAD
FA7B
F227
0269
FAC4
F3BB
F4A6
0434
FDE5
0096
0183
FD54
0728
06F0
0050
04E1
FDFC
0249
093A
F6D6
FE48
F9E9
FB6B
F688
FB6A
FAB8
00EC
01C0
FEC5
0376
04F3
0616
F948
F899
00C6
0142
07FE
0384
FAF6
FFFF
031B
FFD3
039B
F7D5
FF32
F967
0000
F704
FE12
05B6
FEE1
F8F5
FCE4
F90E
FC06
02DD
F874
003C
FA30
08E7
04C8
F761
FA40
016D
FBDA
027C
FC01
0144
0119
06FA
0390
0657
083D
FDF6
0507
073B
02BE
0265
0551
FCF6
0756
F936
0278
06FB
0671
0641
F55E
03FF
08ED
F8F0
FA34
033E
0245
06F6
06C4
F771
075A
05D1
F99A
FC86
FC18
FFCB
0592
004C
0118
FAF1
FB7B
020E
0511
05E7
0458
FF9F
06C3
0526
081E
0878
FEAA
0673
04B8
0424
02D9
0580
FB35
00DB
FC4F
0254
F786
0212
F871
FD11
FD19
0757
FCC3
F17B
F694
FF0A
0672
0162
FA6F
FD87
0515
FB0A
F783
F3B7
FC3A
0795
F890
FBA3
0409
F7FC
FB0A
02F9
F56D
0611
FE6E
F90A
FA49
001C
0A8C
0357
05EE
FAD0
030C
F9AD
FEFA
FE80
F858
FD67
F7AC
09A9
021B
013C
FC7A
086B
02A4
FD1F
01F8
03BE
06A4
07AC
007D
087D
FB30
0635
FBB0
01C0
FF3E
0525
FEB6
00D1
FC38
FCDF
F9D7
FACA
F54B
03B2
FC79
F6B2
0669
FD2E
F9A7
0486
F8DD
06A7
FB05
0041
0621
0522
008A
017B
FBAB
F67A
F7A5
FB0F
0894
FB95
F74A
FEA4
FF00
FE81
05F1
FA07
0360
083E
F8FB
09B9
0426
F78E
0947
01F5
F9E5
F98C
FD3C
FA44
F40C
FEC4
038B
FEEE
0189
FE62
0904
FAA4
F878
F504
FF9B
F908
058E
FC73
FF03
F7B1
FCBD
F96F
064A
F816
0184
F74D
00A3
074F
FAFA
FD39
07F1
F9FC
0217
F6F5
F69C
025E
02B5
F5B2
0234
FAF1
0952
0115
F7A4
FD38
F692
F7EC
008F
05AD
FF5B
012F
FC4E
F691
076D
04DC
F831
F90E
FD65
FF66
09DB
FF80
0326
01A2
FF58
0293
050F
029B
0032
F9A2
FBE9
FCA2
0605
FFF3
0716
FE90
FD2F
F68B
F9DB
03B9
F71E
065D
0239
0347
FCC0
FE14
F7DA
0340
F7EE
FC82
F8EE
F867
F80C
FE62
039E
FBA7
05F8
0172
F4CF
01E3
F84A
FEE6
028D
04C0
0731
FF34
0744
FDD9
0504
06FF
08AD
F739
F73D
FC88
FF82
FF4C
FC03
0565
FA91
F66D
FCE6
F6FE
FD8A
06DF
FBCF
0392
FA4B
F9CE
FA22
052E
0906
0432
FC1E
06F8
FF94
F9CC
05D3
FF7D
FB20
F766
FC10
0673
FA03
F716
FE2D
F916
0663
FC24
F706
F8A9
F734
05B8
F8D0
FF00
FD1C
0083
06D7
0041
00BF
00E1
FCA9
0741
0189
FC83
0049
0684
01F7
F6A9
FD9F
FC1B
0699
FB2B
FEBC
FC17
F7F2
FF7F
F7DC
FD1C
FDC7
0644
008B
FEED
0234
FFC8
FCC0
00A4
0377
03CB
F827
00AF
FC34
051B
F826
082D
FA99
0415
07BC
02F6
FC0B
FFD7
07A0
0542
01C4
FDE5
FF95
F9BA
0031
F761
FCB9
0134
FFCE
033F
F618
06E4
08D6
00CA
FF7E
FF49
F8A3
0977
07BA
074C
09B8
055F
07F9
021F
0084
02CB
0240
FA5B
08CC
062B
F93E
0657
011D
FED1
0003
FDB7
F815
0062
FFF7
F909
07DA
0879
02BA
057E
048B
01B9
FD62
000D
F934
0A2E
FEE7
0D6A
064A
0270
00DD
0A98
FBFD
F2E9
F4AA
06B5
08DF
0A89
0126
F6D3
FEC0
FCB4
FEAD
074F
01B0
041D
FEBC
0299
FD43
0A3C
F620
FCD1
0247
F68F
063A
FBA9
FB0A
FBE4
0056
09CD
0EC3
0780
FB15
0B9A
0F67
FE06
FD84
FCF7
06A8
0024
06CD
0088
FA70
078E
FA43
F85A
FCB6
FA32
02F9
039F
FD76
0A7D
FEF1
0309
FBDB
F79C
F71E
000F
FD92
06B2
03B3
0327
FC86
060A
00A4
FBE3
FA53
F924
FE8B
0AAA
F6BB
0205
FA88
0503
04CF
FE9C
05A3
05EC
074F
0ABC
F860
00CE
FD73
F89D
0218
05AC
FCF7
F97A
FA4A
0898
015D
0375
F9D5
0221
FF49
FC5A
FE76
FD56
0089
05A7
F924
FEDE
0639
0A57
F8BC
0955
0154
FADA
059D
FFE1
FE3D
F3DF
0052
FE5C
04F5
F9D5
0882
FE22
0557
FD15
0049
FB8D
F887
F742
0668
FA1F
FD9D
FF6F
FBCD
02A2
FF5B
FACB
F921
0325
0198
092D
06CF
F985
054B
F830
045C
FEB4
03D7
05DD
FE34
F88E
0527
0682
FAC1
035C
FE93
FDCA
06BE
FF33
0273
F99C
FFC3
F70C
0484
FDF9
0784
0133
0648
076F
FA72
FDE6
0647
053E
04D8
02D9
07A9
F634
0465
04B5
0291
077C
024E
FF4D
F66F
07FC
070C
FFF6
F94F
02A6
05F3
FCBE
F9DD
F6CA
FC51
FA6A
0448
02DC
F82A
F7D6
0115
FCBA
001C
0755
F892
F6C9
06B0
FF9C
FDE4
FB1C
08A5
F69E
FAC4
05F2
0037
FF80
0947
04D7
0849
F755
FB20
FAE3
0677
054C
0488
FAFF
071B
05CB
F0E6
001A
FB32
FA06
FB7A
0100
0355
0494
FEE8
FE34
0349
FEBB
FD5D
F4AF
09C9
0667
F6BF
FD5C
0298
0617
079A
F612
F772
005F
FB7C
012B
08EE
FCC9
0233
FE96
040A
0607
0691
F79B
07A9
00F6
12A5
FE4A
F9D7
FE5C
0378
FA18
F692
0847
FBE6
FCCB
FE06
F4FA
FCF4
0094
F8AB
FA0F
005C
FACA
0C9E
0952
FACB
09A1
07D2
FED9
0715
F970
0DFB
FD8A
076A
0813
0B69
0C2B
0328
00D6
FA30
FD43
0DC1
FA77
03B2
FC64
0ADF
FAC0
FA91
04E6
04D9
FD87
FF4D
048E
11B1
061D
0005
02E9
0221
FA2F
04D3
0AFB
FF7B
0524
0025
0995
FC88
03D9
075E
FC64
013B
FCB5
FBA0
FA4A
F9FD
FE30
FD26
F7B0
FDA0
0333
04EE
0164
0365
FA6D
03BB
09B8
02FC
FB87
03C8
001E
FFB2
FDDF
0719
FEB2
00FC
0933
F644
F899
FE3F
0542
F7E4
FD4A
FD37
0148
03A6
0477
F93D
00AF
03A7
00C8
02E5
FAC0
FB09
FA7F
071C
F510
F9F4
FC16
01E2
FD8F
002D
01B2
030B
FC9E
0130
FE73
0537
0821
04E7
00A3
07E9
09C1
045A
001A
FF0C
FC78
FB83
FF72
06DD
037F
FF26
FC05
009F
0A2A
048D
F9B0
FE90
F74B
02CC
0A14
FB32
02D2
F80D
03CC
07F1
FAA3
0590
0837
0951
FC6C
06D3
083D
08B0
04ED
0659
0BC3
03D0
0288
0767
02AE
0311
F83F
FBDA
0525
0291
07D6
FAD2
F89B
FA72
0937
017E
03C1
018C
04A9
07DB
00CD
F98D
05A0
FF8A
FCC0
FFBF
0564
F9D5
08A2
05F9
F8A2
0303
FA9F
04E3
FAF1
0592
062B
0169
06A3
F743
FE1B
FFB5
FB76
FA55
0375
048A
05DD
F946
FCFA
FFCF
FEB5
04E7
07A7
FEB6
021C
0131
0927
FED9
FCA8
0190
FF22
F6A9
F805
08E0
0056
0100
FE72
FF2A
FE30
0738
FEEC
0794
0241
00E8
FF43
FA06
03DE
FE83
07E6
FB3C
08F1
056B
0168
0136
0791
00FD
070F
FB45
0102
0613
0868
0B10
FC49
FE57
F8B7
02E4
000B
07A5
FF62
F80C
06CD
FA41
FC82
FD31
01D8
FCB0
0185
FAFA
041D
FD5A
FB75
073A
0423
0625
02A7
FB88
02A3
062C
FC16
F7DE
FD7C
0902
001C
F901
FE8F
F990
0076
FBAB
FAC1
03F2
FC76
FF40
01FB
087F
F9C4
FF08
03A6
05E0
FC52
08D8
0913
FD49
0819
F87B
FC90
FC21
0186
089C
0312
05FE
062B
0591
FD3A
FF6D
FE73
FC72
FD33
006B
0606
FDF0
FB25
0087
FFEC
05F7
08A2
F677
07AF
00EE
FEFF
06DF
03EA
080B
0192
FEEB
04FF
F763
FFEA
FB3D
083E
FBA4
08FA
FEDD
FF61
F65E
FEC8
F8A0
05E9
FBCA
FD69
FF02
FCEA
0701
FFD0
0599
01C2
FD55
0518
F83D
F996
065D
02B0
01E8
08B5
04CE
FF3E
03C5
F94E
FFD0
FA3F
0460
04F9
02FE
FDCD
053A
03C1
053C
FB0E
071A
FB99
FBCA
08FF
04CC
FD75
FBB1
FEF7
F86C
04F3
04C9
05D6
04D8
FCEF
FA67
FF39
F76E
FC84
FA22
FC36
015B
FBC8
F944
0661
F9E0
07B7
FF27
F7A8
F7A0
FA36
06C4
FDE2
FAE4
FE76
FAC5
FFE8
0623
037A
071A
00D8
0270
FF07
0907
F8FE
FCD1
FF9F
FA72
F934
FC19
08C1
F846
FEF0
05E1
FC56
FBF6
FEA4
FEC1
06DC
F9A4
0331
FC29
04FE
FBB6
FE80
FAFC
FC75
0805
F5FB
06EE
F877
F8FF
029C
FD24
05A8
01B5
F976
F8CA
F872
F9CF
FEE6
FD84
FCD5
FB41
FF7B
01BE
F92F
F8E6
FB60
0783
FBD0
FFC8
05D2
FD70
079F
082E
02A1
F743
0536
FE17
F5ED
F538
FC5A
F8CC
FD73
F978
01E0
FA9D
068A
F6D9
06FA
FBD6
03B6
FDFF
03BB
01FE
F6D7
04A0
FD88
F9DB
F7A8
0142
F70B
FE95
FC4B
FD18
FC22
023A
05C0
F8BF
006F
FFAA
FA09
FDFF
03EF
FB39
06CB
FE3E
06B5
FCD7
FB8E
0054
FCCC
F984
03AF
FAB3
F908
00CA
0771
F9C7
044B
0028
0506
FB12
FBA4
00B8
FF3F
0684
FFB5
F76A
01E8
F9F8
F739
0593
0524
FBB7
FA8F
FB0A
0BD4
0B42
FCA9
FEE7
F8AB
FB19
05E4
F76F
07E3
04BB
FBE4
FE5D
FC0F
00D1
0861
FF18
FA80
FE5B
F9B6
040A
0976
FD2C
