3EC1
3D29
3E7D
3E9A
3F18
3DB5
3F52
400E
4007
3F63
3F00
3D37
4004
3FDB
3F18
3DA3
3DAF
3FD7
3F02
3DF5
3FE6
3E07
3FC3
3F16
3F91
3FE2
3FAD
3E92
3F51
3FB0
4018
3E44
405C
3F08
4009
3EC9
4003
3F9D
3EFF
3F2D
3FB5
3F34
3D0E
3E9D
3FB8
3F87
3FC0
3FBE
3F8C
3FB9
3FF0
3D7F
3E27
3F23
3F56
3F0B
3F06
3FFB
401D
3E1C
3FCA
3E60
4058
3F88
