FED6
FF67
00B0
FFA4
0195
00F5
004E
FFA8
FF13
FE8D
0166
0042
00B8
FFAE
FF5F
FF5E
0090
FF1A
FFEA
01C3
00F0
FF21
01AD
006A
FEFD
FF58
00BD
FFE2
FE6F
0163
0026
FE38
FFF5
00E0
00DE
011E
FFE6
0069
FED9
FE4D
FEBA
FFFB
006A
FFCF
FE75
0036
FFE0
FFDE
FE97
FF7B
0026
01A8
0130
FEC9
FFF8
FE8B
003B
FEA5
01E9
0142
FFA4
0055
0016
FFA9
FF15
FFCF
0036
FF8F
003E
FF78
FF95
0104
FFB4
0069
01E1
01F5
0019
01F3
00AA
FF98
0076
0074
006D
FF72
FEF9
FE8B
00EF
0152
FEC2
010E
FFD1
FFE7
00C2
005C
FFC3
00CE
001C
02AC
00A3
0068
FF97
FF3D
0226
018F
FFB6
FEE8
01C3
01FE
018F
FFE6
FE21
FEB8
FF4A
0064
0000
014B
023B
0051
0070
008C
FFAF
0036
FFEC
FFFD
005A
00E6
010A
FE79
FFFF
FEE4
0031
009D
FF13
011F
00C5
0059
FDF1
007D
019A
01C7
FF6E
0093
FF67
FF6D
FFA3
FF9F
0118
01A9
FECA
0063
FFD8
FF2B
0148
008D
FF40
009B
016C
017A
FED3
FFAC
01C5
0031
FDA5
018C
016E
01D0
00DD
0138
0045
00D5
0023
FFC3
01CE
FE1B
FEF1
FEB1
FF7C
FF60
00C4
007F
01C0
FFAE
027B
0136
0073
FF66
FFE7
FEC7
00A3
FFBF
0124
0234
027A
0027
0084
02A8
FEDD
004A
0006
FF60
01C2
0175
0243
01F5
012D
0250
0164
0099
0121
0151
0094
0053
FEB6
FECB
FF9E
00B6
FE2A
FF85
002A
FEFD
01F1
0195
0199
FED0
FFE0
0070
0077
01F6
0196
FFF5
FF2E
FF26
FE36
FE8F
0048
FF42
FF26
FFF1
0201
0011
00F5
FF84
0103
0145
0006
00FE
001E
005E
0077
FEF9
025A
002F
012F
FF1E
0079
004A
00A8
FEF6
FF75
0029
0180
FD77
FFBA
FF30
013C
FEE9
FEF8
FEE6
FF0D
FFAD
FF61
FF48
008E
FFA6
0059
FFAB
009B
FEB7
005E
00AF
FFDE
FDDC
FFD2
FFB5
FD17
0069
FFF9
01A8
013E
014F
FEC4
FE0A
FF64
FFE7
FEE4
017F
FF71
FF58
FFA2
00AC
FF98
014B
00AC
001F
0026
012E
008C
FE9B
FF2A
FE59
FEB0
FF3A
00D6
004D
FFE5
0082
FD96
FF21
00AE
0065
0139
010F
0081
FECA
00BF
001A
0136
000B
00C6
FFDC
0048
FFA6
0046
FFE4
0091
00DA
010B
FFA9
012F
FF32
FF53
0171
00CA
01FF
00DE
0010
01DD
FE0F
0010
FE1E
01E0
0073
0092
FF9B
FFB1
00D4
FE85
0043
00EA
01DA
FF53
0076
00BF
FF97
0236
0006
0228
0127
FFC5
FE7F
FFB4
FF23
FFF2
FFA1
FF3A
FFAB
FF5E
0187
0005
FFC2
00FD
01A1
FFC0
0126
00A9
FEA2
0088
FEAB
FFF6
FDE1
00E1
FF91
003B
FD9F
FF2E
FF41
FDB1
010E
FFBA
FF53
FE93
FF8B
002B
FE15
004B
01FD
008A
FF08
FFD6
FE3F
0105
FFBB
FEF6
004C
0134
FF4C
014F
0070
002F
022B
0109
002A
00AB
00F8
FF80
FFD0
FF34
010E
FF4B
FFE6
FE69
FF4C
00CB
FEB0
0004
FEA6
FFA0
FF6F
FF9D
FFDA
0047
FDFC
FFDE
FE2A
008C
0048
FF3A
FD9A
FE21
FEAC
FFAB
FEAD
0175
FF7C
003F
FFC5
FF5D
FF2C
FECB
FF7A
015B
0117
00F6
0006
FDAF
FFC4
00BD
FFC9
FF5F
FF10
00FF
FFF6
00CE
FF7B
FE79
FF10
008B
FFFF
FF4D
0076
FF3D
FFC5
000B
FDF4
000F
FEEC
FF2C
FFC9
008C
FDF5
FE57
FCB8
FF8F
FEBB
FF5B
FF57
FE3B
0044
0076
FEB8
FE24
FFB6
006C
00D0
FD90
FF3A
FF0D
FF43
FFA5
FF60
0008
010E
01DF
0150
00A1
FEF3
0029
FFDA
FFEB
FF73
FED1
0022
FFF5
FE5F
FEC9
0141
006C
FEF0
FF2F
FF89
FD52
00F3
00B2
FF4A
01FB
FDFD
00DD
FE49
00D7
FE0F
FFF6
FEB1
FE03
FE6E
FEF3
FF9C
FEA7
FE78
0051
FFFA
FF36
0031
00DC
FD56
00C9
FEF4
FFAA
FF8C
FF1D
0019
01B2
FFE5
00E5
FFBE
FF9A
FF7B
FEB3
FFA7
FF42
021D
01B7
FEBE
0055
01A4
0013
00A8
001B
0122
0103
FD95
FFEA
0040
FF8C
0161
FF8B
FEA0
FF2B
FF68
FE5E
00EE
01D6
006F
0227
FEB2
FE35
0070
FF43
004F
003E
0173
00EE
0237
0184
0140
0149
FFA0
FF8E
009F
0123
0143
FF8F
007C
0085
01A6
0028
FFE8
00D1
003F
016B
001A
009B
01A2
00D8
022C
FFE3
0012
FF9F
00C0
0185
FE7E
0005
0022
FF9E
FF96
00E4
01CA
005D
0001
FFD9
FFDC
0054
0137
FDD6
01FF
002D
FE75
00E9
FEE2
FFC9
0071
FFAA
0187
FE8A
FF9E
003E
0258
FF22
021E
000E
0061
FF51
01A9
0012
0152
00DE
FF80
FFA2
FFD8
00C6
00E1
FE5E
FF0D
013C
FFA7
00E9
011D
012D
0050
00EC
FFFD
FF74
01D3
017B
FF69
022F
FEE9
025B
FEC5
01C6
FF7F
FF25
0317
014E
FF04
003F
FF18
0061
0043
01E2
01F3
024A
0078
004C
FFAB
0060
FD7C
FF84
FEB2
FF0E
FDCD
FE59
FEE4
FE25
FF0D
FE98
FEE0
FF0D
FFE1
0161
000D
001E
FE8D
002F
FEC9
FF59
FE62
FFD1
FEF4
0058
0032
FFD7
0094
FDE0
0163
FF08
FEE2
FF57
00FE
0016
FFE5
FFF9
FE84
FE6F
FFCF
0226
FF3A
FFD7
0075
FEDB
0065
FFB2
FF7D
FE14
FD89
0001
FEC3
0055
00C6
00C1
0014
FF2A
005C
FF29
FE37
FF5B
FFC6
FE3A
FF51
0045
FFE8
008B
0219
0044
0182
0049
FF85
FEF7
006D
015B
FE58
0013
FF91
0096
FF6B
FF6E
FE8F
FF36
0062
FE03
FF86
00A9
012C
007A
FF61
FDEC
0174
00B5
FF32
00AD
007C
FF88
004E
003A
00AF
00B2
00D8
FF9F
FFCF
007A
FD9E
FF7E
000E
00BD
011D
01FC
FF6D
00A1
0037
FEC4
00E1
025B
FF52
0158
FFDB
000F
FF5E
0062
FFF6
0029
FF92
0014
FF83
FF26
0168
FEDB
0015
0028
FF7B
026D
FF3F
014A
FE49
00C0
00C6
0174
FFCA
0134
FF9C
00B9
FF0E
FF15
FE7F
FEA4
FF67
0167
0094
FFBA
011F
007D
00A1
FF89
FF93
FF79
FFB3
FF8B
01D3
000F
006A
0075
0171
FF5D
FFFD
FF9C
0017
FF9B
FEFD
008A
FED1
FF62
0024
FE86
FE86
00A3
FF4F
00CF
0300
0129
FFA3
000C
01F2
FE76
0015
005B
FF24
0262
FD32
0059
0146
FF49
FDBD
FE55
FF5F
00A8
FF73
00A7
FF84
FEAC
FF60
0001
FF15
FFBE
0119
FFCF
0191
FFF6
FDE7
FF13
FEF4
FEF0
FFCB
00BA
00AC
00D2
0092
000D
FFE2
0012
00BC
020C
0090
0094
0009
0194
FF3D
0018
FF37
004E
FE59
00D0
0120
FF4B
FFBD
FF23
0110
0137
0020
FF8C
0023
003B
002B
00C0
FFF8
FF1F
00D2
0001
FF1A
FF96
FD57
01CE
00BF
FF38
FF3F
FF21
FF67
FFBF
FDB8
001E
FF8C
01BF
FFD2
0015
FF6F
FF96
007D
FEA2
FCA6
FF88
FFD8
FF07
00D0
FFEE
FE95
FE30
FFBB
0013
01DC
0061
00A9
FE92
0083
FF5F
FF74
FF7B
0065
FF12
0065
FF81
FE85
FF2B
0040
0156
008C
002F
FDCC
FF9E
01C6
0098
FF4C
FF81
00CA
0055
FFC7
0090
00CB
FF3A
FF0B
FF0C
00B4
0009
005C
FED8
00D0
FFAD
FDF7
FE3D
000E
FFDD
004D
009C
FE1E
FEE8
FF10
0069
FE0F
FF9B
FF28
0063
FEC0
FFA6
FE10
FF8B
0079
0054
0002
FED0
FF58
FF4E
01E1
FEA4
000E
FFC6
FFB1
0017
FF7A
FF1F
FEE7
010E
FE71
FF5A
0046
0049
FF0A
FF52
FF9F
FFA6
FF32
FF29
00A0
0011
0007
FD39
FF63
FFB5
0015
00B3
014B
FD23
FEF9
FE71
007C
00B3
FFAB
000E
FE77
FFFB
FF35
FF34
0067
003F
FF53
FF94
FF67
0020
FF12
FF5B
01C7
002D
00F1
FFFB
FFB4
0123
00CC
FF6A
FEE7
FF2A
004D
00CC
FF44
0097
0082
FE7C
FFDA
FFFF
FFFA
FFAF
FFE5
01CB
FE6E
FEB5
0009
0197
0017
001F
013B
0048
011C
006E
018B
0014
01F0
012E
FFE3
00D7
FFA3
FF9D
025E
0049
00C1
FFC4
FF3C
003A
0024
006F
0074
FF6A
FF4C
FFA2
FF3B
0228
FF03
FE3A
FF1A
FF39
FF53
FFF4
003A
FE45
FEAA
FE58
FF0D
0006
FDBF
0014
FF52
FEC9
FF43
004E
FE9D
FFC5
0016
FFFD
FF37
FF4A
FE90
00A4
00C0
FECD
FF8C
FF71
005B
FFA0
FF94
FF12
FF08
0157
FF22
FD98
FF96
FEBC
FFA1
FFEF
FEE5
FF6A
FF8E
008F
FF84
FF11
FE4D
FF1D
FFF2
FFDE
FEFA
FD27
FD9E
FF04
017C
0026
FECB
FF2A
FEB3
FEE8
FF20
FFAD
FF48
01BF
FFDD
0059
FE84
0175
FECC
0094
FF3A
FF5C
FF26
FF31
0035
00CF
FD17
012D
FE27
0095
FE27
0020
01AD
FF8A
006C
FF7D
004D
FFF3
0262
FFD0
FE98
0069
FF33
FE8B
FF89
005A
FE77
0109
0101
FD88
003B
0047
003C
FF78
FF3C
FF17
FECA
0082
0045
0025
FFDB
00AE
0022
FFDD
038A
FF53
0038
0057
FFBD
004C
01B2
0060
00ED
FFE9
FFF4
001A
FEF8
FEAD
FF39
FFC7
000E
FF23
0121
FE4B
00E7
0136
0024
0093
FEB4
FD51
0267
021B
019B
0084
FF9B
FFDC
FFA6
FEA0
00EE
0160
FF2A
FFA5
01E7
0123
022F
0023
0013
00B0
017E
029E
00B6
FFA1
FF9B
0146
015C
FDF2
017D
00FA
019B
007C
FF31
002A
006F
0067
0099
0115
FF55
002B
FEF1
FFE9
FF9A
005E
FF12
00E9
FF45
00F0
FFC6
0072
003A
0013
017A
000E
00F4
FE25
FF0A
FFEF
FFB2
FEFA
FF7C
00E1
FF7A
FF93
FFC0
FF45
FE4E
00B5
00F5
0022
00F0
00D7
0076
FF55
FD72
FF8D
00F0
FF63
FDEF
0012
FECE
FF98
0006
018A
FFB1
FF60
013C
00F0
013B
FFDD
0062
FF08
0139
FDF9
FFFF
001D
0072
FF7F
FD14
FED0
0103
004F
00BA
FEDC
FFAA
014A
FEE3
FF7E
FEFF
00BA
FFDB
FF9D
019A
002F
0207
02F6
FFBE
013A
FFD5
FFFA
FFD5
FF8F
FF7D
FE4A
FF2D
FF80
FF34
FEB4
00A8
009F
FD1D
FFA2
FDB6
0022
FF49
FFBD
FFFA
0024
FF5A
FF89
FFD5
00AA
001C
FD35
FE33
FDBD
FF84
FFA3
FE06
FE7C
003C
0169
FF88
0125
FEA3
020A
01DC
FEF6
00BE
FF08
00CF
FE36
FFEE
FF2E
002C
FFB2
FF96
FEBA
FF55
FE54
FF7D
FDD4
005B
FECA
007F
FE37
FEA0
0044
FE8C
FF5B
FF44
0062
FFBD
000A
FD45
00E3
FEBD
00D7
FEDD
FFB9
FF7E
FE05
009B
FFFB
FED1
FE00
FF5E
0007
0033
FF43
008A
0108
0102
FEFF
0040
FEFA
FE78
0058
FFD0
FFB6
0073
FF4A
FEE5
FFFC
0154
FFAA
FF83
FF9A
FFA3
FF0F
00F5
000A
FFB1
FF9A
016D
0055
00AD
FF21
FF8C
FE69
FF9F
0048
FF38
011B
0028
00F0
003F
FD42
FE61
0180
0093
FFEA
FF3E
00B5
FF4D
008A
0061
FF01
FFCE
FEF0
01A5
008A
0059
000D
0045
FF45
FFF5
012D
FE93
FF7A
00AA
FFCE
FFF8
FDE3
FF8F
015C
0254
FF75
007D
033C
FF4F
000C
007A
00E9
007E
FE72
0066
FE1B
00C9
FF1C
FE67
FFD1
001C
001B
FF4F
00D4
FFBF
FF85
01C2
FE7E
FEBD
FF01
010E
FE6F
002F
FFFA
0086
FF2F
FFDA
0091
0148
FF11
FFD2
0077
0237
FEE7
0140
008C
FF66
FF94
01EF
02AA
FF6A
006D
00FF
0055
008D
01C3
000C
0086
00DB
01E2
FFA5
00DF
01ED
FFA1
FF6B
0086
FEA1
0173
FEF7
009C
FF5F
FFFC
00E5
FF8A
FFFE
FF6D
FED9
FFD2
016A
0021
00D0
00B3
01C3
FF27
0144
00FF
FE36
0280
FE84
008B
FFC4
FFFE
FE4E
FF99
01AE
FF5E
FFD7
014E
0044
0003
0047
0170
0062
00A0
FFFE
0112
00A9
0014
0121
00B0
020F
FDDE
FFBD
0199
FFB4
FD8F
FF6C
FFEB
FF1D
0020
0006
FFCD
0139
00A6
004B
FFAE
FF88
0048
FFE0
00BB
00E9
FE1C
001F
FEE4
008E
0154
0072
003D
FF76
FE75
FF59
00E7
FF56
0019
FECF
FEF8
00E5
01A8
0000
FE54
FD96
FF46
FE4C
FF92
006B
FF70
FFA5
0007
005D
007D
0003
FF6E
FE79
FF99
FCD3
FF87
0015
0067
011E
FE34
FF97
FF16
FDF5
FF66
01F2
00DB
00B0
0118
FEFA
FE75
0046
0118
FE1D
005B
FF3E
0026
FFA9
00CE
FD52
FF64
FF19
FFE6
FFC8
FF59
FE16
FFF2
FF9E
001B
005B
007D
004F
FFF8
FEE1
FFEE
00C0
FFB5
FFC5
FEEB
FF66
FDFA
FE65
0060
01B3
FF8A
00C3
FE5F
000A
0048
FEB5
FFD1
00D1
00FE
FF06
002E
FDBF
0114
FEED
FEBE
0183
FD79
009B
FF60
FF41
FE3D
FFCB
FEB9
FF85
FEB5
003E
0163
FE60
FFBA
FF25
FF7D
0099
0003
FF29
010B
FFE0
FF35
002F
0007
023E
FFCD
FEEA
0079
FD63
FF04
00FB
FE46
FEC1
0049
0017
FEFD
001A
00B5
FF68
FFD6
0169
005E
FE99
FFBA
FE81
FEF6
FFDE
FDBF
FED0
FEC9
FF57
FF12
FF7A
0078
FEC2
00C2
005E
00D8
0045
FE1F
0083
00AC
0159
FF71
FE1E
FF6B
0134
FDD7
FFDD
00F0
FEBC
016C
FFC3
FF7B
FEBB
FEA4
0128
FF06
FF99
0045
FF5B
FEEE
008A
FF96
004B
003E
014D
FDD1
00B5
00ED
0022
0011
FF8D
00DA
FEC1
00DD
0279
00DE
FEEC
FEC1
FFB5
FF33
FFFB
FFBC
FF32
0076
FE19
0135
001C
025D
0131
0088
FFF7
00F7
FE29
FF40
FFED
00CF
002E
030A
0108
000F
FF85
017D
0144
0179
FFAD
015B
010D
0147
FF89
FF9A
FF7E
FFF8
FF63
FEFF
FE16
0098
FFDB
FF68
0125
0172
00FA
FFB9
FEEB
00AB
FE58
FFD6
00D4
005F
007F
00A8
0051
FF2E
FF06
0057
FE39
FE51
FE6C
FFCB
FDF5
FF27
FE26
013F
FF56
FEC6
004D
FFAA
0124
0152
0004
FF7F
FFD4
00CC
FF36
001F
FE8B
0031
FF61
008B
FF61
0133
0046
FDA5
FF56
FFB3
FF04
FFCA
FFEA
FFE6
FEAF
FF8E
00CE
0030
0033
FF44
FE29
FFC5
008D
FFB7
002B
FF67
FE32
009F
FF87
FF9B
FF65
FEF9
FE25
FFD9
FD8A
FE8A
FEAC
FE44
FFA3
FDF8
FEC1
0186
FFD4
0093
FF6E
0062
FFBF
0045
00AA
FFCA
FE92
002F
0128
018D
0103
FED6
FE43
FFF2
FE2C
FF34
00AD
009F
FF93
FF6B
023A
011B
FFEF
FF2B
0028
FF7F
016B
FFA9
0196
FFE4
0061
0014
FE2B
002B
00CE
FDDE
FE10
FF90
FFA9
FF23
FEEB
001F
FE52
FDF6
FE57
002D
00EC
FFFA
FF22
FF1E
FF3B
005A
01EA
00E9
012E
0060
00C5
FFE5
FFB6
009C
FE50
FE70
FFFE
0157
01AB
0133
0006
001F
023A
FF3A
02A2
005E
0074
FFB8
010C
FFA0
FFDC
01F1
0066
011E
00CF
00DC
FF54
FEFB
00C1
0003
001C
00A8
022E
005F
FFB3
FFCA
006A
0225
FFF4
00B3
0151
012F
FFEE
FF1F
019A
01BE
FF64
000F
0045
FFCE
0068
FEAD
00AE
0089
01DE
009B
00CC
00AC
FE2E
0099
FFE1
FEC4
011A
00F7
FF8D
014C
FFAD
0016
FF1E
FF4C
FE49
FFAC
FF4C
005F
FFBB
FF93
FE5F
0111
FF48
FFF1
FFEF
FFAD
FF70
FE8F
FFB9
FEA7
FF6A
FFBA
003F
FE93
FF2A
FED0
0011
FE4E
FFB9
FF40
0004
0124
0008
FF1A
00BE
FF1A
0104
004A
FE75
FE28
FEF5
FE38
FFAA
FE79
01D7
0025
005E
FF75
FFB8
00DC
FDF4
005C
FFEB
006A
0047
FF8C
FF73
FFA8
FF53
0025
000C
FF76
008A
FE4A
012C
FE8E
FD40
0095
012F
FFB7
FF41
0206
FDFB
0165
FF0B
FF23
FEE9
FF3A
FFA6
FF93
FE08
01FF
004C
FEA9
0094
0083
FEE8
0103
0034
FF3B
FFCE
FFB5
FD60
FFD3
FE98
FDA2
0060
FD22
0100
FF6A
015C
0149
FF6E
008A
0083
FF5C
FF31
FF86
00EC
006B
FF92
0017
0009
FFA0
FEC9
FF74
FEF8
0160
FFA7
FEF2
FE46
FF5E
0017
FF8C
FF41
FEC3
FF60
FE95
FF35
FFE2
FF13
FEFB
019B
FFFF
FEFE
FE9F
FF6B
FF82
FF82
FE86
00A8
00CA
0083
FEEF
FF15
0003
0028
FFFD
01C9
FEEC
FF82
FEDA
FFFE
017B
FDF4
0071
0010
012C
FFBA
FEAC
FE48
FFFA
FFAD
007F
0005
0001
0025
FEB3
FEA4
FF7B
FF2A
FD83
0019
FFEE
FF42
010E
0134
FEE0
FFA2
007C
FEEF
FF64
FF09
0078
00C9
000F
027F
0024
FFAE
0058
FE92
FDF7
0082
001D
FDD3
0040
FF19
FE75
FED4
FFBE
00ED
0034
013B
FE53
002C
004E
FE92
0100
0119
0000
FFF5
FF41
FF76
00C8
FF01
0004
FE95
00A8
FEBB
FF09
FDEB
FFA3
00B9
012A
01AE
0052
00EA
FFA9
FFD7
FF01
FFCA
010E
00D8
FFE4
FFF7
FF71
FF20
003D
FF05
FF96
FF45
FFF6
FF05
FE0C
016B
0046
FF2A
FF62
010B
0142
0096
01DB
0101
023A
00B4
FF04
0076
FF69
0221
0147
FFE9
FD80
01BF
00F4
FFBF
0054
0072
00D2
FFF2
00AD
00F2
FF5D
FF22
FFDE
0023
0234
004C
013E
0084
FF68
001E
004A
021C
007A
006A
003C
0242
01A3
00CF
FFED
0061
00D3
FF1F
0027
004A
0101
0079
FF50
0077
FF58
00ED
00F9
FFC0
00B8
0176
FDEA
0078
0009
0091
0153
0189
FEB9
FEB8
FFAB
000D
FF4A
00A9
FE71
FFBA
0032
0160
FF06
FFE6
FFA5
0023
0089
0065
FECA
010A
FF49
FC62
0048
FF8B
000B
FDD2
01D1
0148
0038
FE9D
FF7A
00E0
002A
0075
0189
0004
0072
FFB0
00F3
00AC
FE4A
FFB3
FF91
0078
004F
FF2F
00DF
0031
FFC1
0108
007B
0022
FFEE
FDFF
FD0A
0281
0106
00F9
FFD9
FF6F
FF65
0178
FF46
FEC6
0056
FF89
FF03
010C
00B0
0115
FEE6
0036
0301
000E
00A1
008A
FFF4
0116
004C
FEED
0188
0272
FF88
FF68
0054
0089
0028
0063
00A3
0129
FF37
004A
0113
FFFD
019F
0164
00FE
00A0
0084
009B
FE7D
FFD0
005D
FEED
0080
FF55
0043
0238
01C4
0130
0032
FF7D
FF1F
FF74
02AE
0102
007E
00C2
0122
000C
FE88
0274
00E9
003F
FFA2
012A
FF9E
007F
0005
0154
FE3B
0021
FF96
0132
FED9
FED1
FF38
FEE4
0008
0171
013D
FF03
FFD3
FEE0
00B8
FEA5
FF3B
0157
FE9E
FEB3
FF24
FFE2
0133
FD82
00E0
FFE2
FF9F
0026
FE3C
FF4D
011A
FEAC
006B
008A
017F
002C
FD83
FFD2
FFE8
001D
FF68
FF87
FFE0
FF1E
FFE1
FFC0
0069
FF65
00BC
FE4D
000A
0232
FF53
FE4D
00E9
FE84
FFAF
FF42
FF05
FD8F
FFBC
FEC9
00DA
005B
0127
FE6A
FDD9
FF45
0014
00A4
012E
FFE8
FFAE
FF08
0090
FE3F
FE10
0156
00DF
008A
FFE8
0135
0046
004C
FF2D
FE84
FF77
FDFB
FE7C
FF74
FEA9
001A
FE87
FFB9
018B
0057
FF93
FF1A
0116
FF31
0261
0124
00A9
FE93
FF6A
FF41
0107
FEC4
0176
FF68
FFF5
0005
00A9
FEB2
0013
FE1E
FE66
FF9D
FF2B
002D
FFC6
FF70
FFB0
FE65
0269
FE34
005C
FE68
0218
FF80
FFE4
0034
FDE4
007D
0181
006B
004A
0110
019E
014F
FEF2
0031
FFA8
00D1
0100
001C
004E
FFB9
FF08
FFDE
00ED
019B
001D
02A6
014D
FEFE
018E
009A
01B0
02C5
FFBF
008D
003F
016A
01B6
FFB9
002D
0016
028E
00C6
01FB
00E4
01B2
0031
00C9
002C
FF66
FEE8
029F
01F9
00C2
FF86
FEF4
0039
01ED
FEDF
00C2
04C4
0018
004D
FEBB
FFD3
0174
0182
FF44
FFDE
0262
009D
011A
0006
FEE6
0008
0037
00F0
012F
FFB3
00DA
FFEB
FEBE
0042
00F9
00B3
00AB
00F3
FEC3
021B
01D9
00CB
00F2
002F
00EA
00C4
00A5
01BB
00C4
00FA
FF1D
0081
0228
FE1D
02C0
00F9
01D3
01C6
FF91
0162
02A2
005F
0167
0165
0029
FFF6
FFAC
003F
FF35
FF81
FF6F
01BD
018F
006D
FEBB
021E
01B7
FE8D
FF45
FF9A
FEE4
0039
00B8
0003
FFF1
00E1
FF34
00DD
FE67
FEA9
FFEA
FFD0
0076
FF18
006C
FFDB
FF91
FEFE
008B
FE64
00D0
FFAE
0126
0077
FF4E
FFA1
0064
FF49
FF88
FF2F
0124
FFD2
01BB
005C
0098
00AC
00EE
0184
FE15
023D
FF5F
0240
FFF5
FF1B
026A
FF93
FEF2
FF9E
0038
00D0
FF2B
FFDA
FEC8
01F1
FFBA
FF01
00DF
00ED
004D
00B0
00CF
01B2
011F
FFBA
01A1
FFC5
00FE
FF95
0044
01A9
FEC7
FFB5
00BB
FDC0
0239
0022
0054
FFAC
FF1D
0099
0024
FF71
0100
0319
FDD1
FF64
003E
FEE4
FF57
0135
001D
FF88
FE62
FF8A
01AC
FE3C
FE42
0085
00DF
FF13
FF9B
FFB3
FEC7
0039
FFD1
0122
FFDA
FED1
FFC8
FEEF
004B
00B7
FE70
0247
00F3
FE31
0247
FFC5
FFA8
FFE6
004C
FFCF
0003
FE65
003E
FD69
FF37
FE8F
0038
FCD0
FEB8
001B
009A
FFF2
0057
00C0
FF8D
0027
FECD
0030
0065
FF1C
FF66
0087
FF93
FFED
FE2F
0017
FFA2
FF63
008A
FFA4
FE4D
0033
0081
FF42
006F
0241
FFA8
00D6
0127
002D
FF32
FD7B
0103
012B
001C
001C
FF31
001B
FDF8
FF1A
FE2F
FE66
FF0B
003C
01DF
007C
FE4B
0005
0099
009A
FF6C
00CE
00A8
0101
00B7
FEF7
FFEF
0013
0060
01F1
FFC6
FFA2
0134
0008
01C3
027C
00C1
FFE1
0005
0019
FD36
01A7
FFFB
0252
FEEE
00D9
00AD
010E
0054
FFF5
FFCB
FEFA
000B
015A
0154
010F
009C
00B8
0041
FFEB
00E2
FFF4
FEDA
FFF5
FFEB
017A
00FD
005D
0248
FFEC
FFD2
00DB
FE6C
FFAA
0183
FFDA
002B
0209
006B
0171
0025
0337
009D
FF97
028E
00BB
009A
01ED
0149
0099
FFD7
FFFE
FE3D
004A
FF28
0265
FEDE
0073
FF2E
0048
01CD
FF5B
FFC8
000F
00C6
025C
014A
00FA
003E
FF10
FF93
0054
0065
0038
FFE3
0123
FEDF
00D6
00C1
FFDE
00F7
FF5E
FF65
007E
FF49
000B
0072
0196
FDB0
FFBF
FE82
0127
0188
006D
0187
00DA
FF02
FE35
0113
FF06
0052
002D
01B9
FFE4
FF0F
01DA
0044
006B
0042
FF64
01D4
FF62
FE65
0025
0021
00E5
FF1C
0038
FFD9
0137
0177
0063
FF34
009C
0107
002A
015D
FF62
014C
00C8
004C
02C8
00C8
FEE8
00A0
0129
FEDB
011B
01CF
00D4
0033
FFCF
FEEB
00C5
01A7
0147
0056
007F
FF88
014B
FF51
0162
FF95
010D
0047
FED7
FF8B
FE50
00E0
00FA
0118
FFF4
00D5
00AD
0005
FE4F
00E5
FE62
FF81
0133
0058
0130
FF23
FFD2
FE82
011A
FFA6
FE46
00E1
012F
FF6C
FF7C
FF79
010A
FF3E
002F
FF7B
01F4
FD98
0070
FF00
008C
0038
0156
0123
FF50
014D
021D
003D
0060
004D
FF39
000C
0007
00E1
00DF
005A
FFB3
FFF2
0070
017F
00DA
01F7
00C2
FF45
010E
FF72
0037
0011
FF02
00F6
0188
000D
013D
018A
FF3D
0034
018B
FF63
FEAD
00DA
003A
0020
0066
00D8
FE3C
0061
FFAA
00E7
FF3B
0037
FFD4
00EB
FF41
FEB6
0150
FE65
0148
0065
003A
008B
FFC0
01FA
FF27
00B8
0116
FF8A
0155
0185
00FF
FFCB
01D4
FF50
00B2
008F
FFE4
0157
FFBF
0034
00B2
012A
00AB
FF83
FFB0
018E
0073
FF09
008A
00D0
0019
FFCD
01B5
FF7B
0036
014C
001D
002F
00CC
031C
00DC
0168
FFC1
03AA
FF97
0143
0218
FFB1
FF3F
01B2
FF64
0038
011B
004D
000E
0169
027A
0163
0218
010C
008B
00A1
0084
000D
0140
FFFD
FE0D
000D
015A
FFA8
FF94
007D
FFB0
FF0D
00D8
01D7
0112
FF56
00BD
007A
FFD4
005D
00D5
FFCB
002E
FF2C
003B
FE4D
00F6
00F9
005D
FEED
00BC
FCFE
FFB3
FE93
0061
FF76
FEF2
FF94
0013
FFC1
FFBF
0086
FFB8
004E
FDA4
0231
0029
FF97
FF4D
0087
0278
FEF1
FEB3
01BE
FF34
01D9
015E
00CB
FF9E
0153
FE78
FF96
00F6
FD86
FEF8
0003
FFBC
002A
FF3F
FF94
001A
00BC
FF8F
FEAF
0142
FF30
0021
00E0
0021
FFD9
FE7C
FEF8
0209
FEE4
FEF4
FF08
016E
FF61
FEBC
FF97
FFAF
FDA0
0055
FDD8
FF14
FFCA
FFBF
FF0A
0029
0019
FF02
FE12
011A
0000
FF14
0014
FDB4
FFD2
0113
FF61
FE8A
FEAB
0021
0077
0089
FF8C
FF97
0130
0051
FF6F
0033
002D
FE58
FEAB
0145
FD62
FEF9
0228
01AE
025A
0091
00B6
009A
0025
FE2E
01B5
FE8C
00A9
010C
004A
FED1
FFFC
0254
015D
FF26
00E5
00F9
0051
00FC
001F
0028
FFF6
002F
0032
FF7B
01BA
FF15
FFE2
00CF
FF37
020D
004A
FF5E
FFC5
0046
FDEE
FEE3
FF55
008A
01AD
FDC2
FF33
0181
FF33
FF8A
014D
FEB7
FFB0
004C
006D
0024
019E
FFEB
0020
FF59
FF4A
FFB8
0000
0113
FEA0
FFC7
FFFC
FEB2
0193
FE2D
FF50
FE41
0021
FF14
0074
0044
0027
FF8D
FFBE
FDD0
FFCB
FF6D
FE10
0053
FF65
0204
FFAA
FE61
FF12
FFC6
FE60
FF43
01CD
009A
0137
00BA
0012
FF21
0137
FF45
00E3
FFF9
0042
FDE8
FFFE
0064
FF40
FE90
FF62
FDD3
00C0
FE08
FF8B
FE33
FFEE
016F
00CC
FEC6
FF4E
FFF8
0198
FE9A
FFBB
011A
0023
FFF5
FF96
008D
FDB1
0105
001B
010D
0034
000B
00D7
00EA
001A
FF40
FF5E
FFC7
FF09
FEF7
FE8E
0085
007D
0044
FDA0
FED7
FF96
FEC4
00CC
0034
002B
00DB
FF1D
00C1
00AA
0025
FFF6
FEB2
015C
00E5
0084
FE80
FF92
009A
00A9
FCBE
FFF1
FEED
FFFA
0005
0194
FE5F
0049
FF32
0016
001C
FF54
FF2D
0049
007F
00A2
00BD
FF5F
FFE1
FEA9
FE34
007A
0029
0073
00C8
00DF
0054
FDFD
FFDA
FF3F
FF9F
FFCE
FF87
01AF
00AE
FFB4
FE96
0198
022E
FF81
FF03
FFFD
0265
FE83
FEF2
00B2
FD92
FEEB
FF60
FF57
FF9C
00EB
015F
FFDB
00BA
FEAA
004A
0092
008B
FF9F
00A3
FF84
FF4D
0199
0023
0057
0167
0027
0086
FF5C
00D4
FFB8
0055
010E
FF0F
0096
0027
FF83
FF2E
016C
01BA
FFF1
0093
FEA4
0137
02D4
FF96
0209
FFDC
FF44
FEF4
FEF2
FF39
FDCA
003C
00E1
0080
0003
00A4
0091
002B
004A
FD9F
0061
FFFB
FEA3
0089
FF87
FFB9
009D
FF97
0009
FF54
FEF4
0075
FF48
FE10
FF20
00C1
0025
FFF0
01B6
00F4
01C4
FE3A
FFBF
00BC
0088
FF9D
FF76
FEFD
0080
007F
FF77
00F5
FF44
0066
FE61
007A
0106
0019
0211
FDBC
FDE6
FEDD
0146
FEF3
00FA
0164
0205
0013
FFC1
FEA9
00D4
FEA4
FF93
FE41
0082
FD12
FFF2
FF6C
FF36
FE70
FF28
0052
00E9
FD9D
FEC6
01F1
FFCD
FF67
FE47
0097
FEF6
FE86
0070
FFB3
FE29
FF59
0131
FF47
FEF6
FE5D
FF08
0016
014E
0017
FEE3
FF47
FFC8
0008
FFCF
FFBA
FE0F
0026
FDF2
FEB2
FDF8
00F6
0101
FE04
FE21
00E5
FF83
FF4C
0010
FD7F
FF40
007E
FEE5
FEE2
0048
FEE6
0155
0044
FDE6
00A5
FF78
FECD
01BF
0161
0097
0077
FFAC
FF96
00BA
0059
00A3
0024
00F5
00D4
015A
FFA3
0074
FF29
0172
FEA4
027C
00CC
00D7
018A
0098
0026
009D
019C
FE18
FF9A
FEEB
00A2
FDEF
00BC
FECB
026F
0032
FFE7
02BC
0070
003B
011D
FFB5
00CB
012E
FFCA
002F
FF0B
0126
FF5B
003A
0025
01AF
02DA
FEB9
FFDC
00A0
0005
00D7
006C
FED0
FE63
0171
0119
01D2
FFEF
004B
00B9
012F
003C
001C
FFAA
FF85
FF9D
016B
FF85
FFE7
FFC7
FF23
0084
FF10
01AB
005F
0062
0012
FFCB
0034
FFEE
0183
00A6
FFCA
01C4
0022
00D1
FFE5
FFC0
00CC
FF76
FE56
FF1E
016A
FFBB
FF87
003C
00E0
0101
010E
FFA6
010D
01BB
FFED
00C2
010D
0244
0139
FFD7
FEBD
0143
00E6
FFEA
0015
00D2
012A
01A7
FFEC
002C
FFC9
01FE
0002
0013
FF40
FE1E
010A
FF50
005C
018F
FFBC
0088
0064
005E
FFA8
FF58
009B
FFBA
FEEC
FC93
004A
FEF1
FED0
FD75
FE6A
FFD5
FEE3
FE5A
0023
FEB2
FFBE
00D8
FF14
FEE6
FF3D
FF5A
FD98
FF0C
0007
008B
0121
FFB3
FD69
FF19
FF3C
FF77
FF00
0086
FFB2
FFB8
FFEB
FE02
003A
01C9
FF2E
FEE6
FE8E
FF3C
0010
FE96
FF1F
0028
0036
FF2B
012C
003B
FF40
00B0
FD66
0039
015F
008C
002D
0004
01E4
023E
FF31
0037
0149
014A
FF37
FEAD
FFDD
009C
01B2
01DB
FFF6
0022
FF27
0095
0051
00CA
020C
FF9A
FF17
FF23
FEEB
FFF3
002A
FFEB
004E
0073
01EF
00D4
FF3D
0058
FEB6
FE85
00A5
FEA9
00FA
00D7
0010
FFB4
FF31
FFD4
00D9
FFCB
FF0B
0133
003D
00BB
014F
004D
FF8B
FFE3
0020
FFC6
01FF
0024
0097
FF42
