FA53
01AC
F876
00A4
F8C5
F852
FB97
030F
040E
0131
F825
FF65
0732
054B
0035
0DC6
0331
FEDC
0560
F85E
FB85
070F
052D
09E4
FAFC
0A99
023F
047E
08F5
0196
02DC
FAB6
089D
FD26
F845
08FE
F81B
FE34
0129
01FD
FC44
FDFC
0B07
0CA8
FF38
FD89
042E
084D
FC34
F9E6
FF0B
0D22
02C1
F884
FC13
001C
FDF5
08BA
FAC2
02B7
0772
0A11
02B6
FC68
FFA2
031E
FCAB
FF52
FF73
0621
FABE
FA70
03F3
FC5B
FCF9
0995
FD66
FD42
FB98
0214
074D
F878
0631
FD2D
04B1
F8D9
F4D0
01BD
037A
06C0
FA4C
FC6F
0671
05E8
093F
0132
0010
003F
0806
FAC8
FE63
FFB2
05AA
0535
04D7
00A1
FE4D
043F
F899
015B
FA06
062B
0127
013C
F844
0E1B
FB4C
0687
02E6
01CC
F67D
070D
0533
0850
0827
F8AA
0225
FE58
04DA
08C7
FD36
FA43
0844
FB1E
01A2
06BD
F727
00E3
FC77
F77C
FAA0
F941
0960
F8E5
04FD
0677
FD22
FFBA
FFD6
FA3C
FB21
0027
FDA9
0474
087B
FC14
FB9B
022C
06DF
FA9D
037B
FAE6
FB1C
064B
F827
048B
F67F
0074
F907
FDE9
05D2
F5F0
F9E0
FEB0
016E
0467
FA90
0307
FF6C
FDDF
00F1
0661
0421
037D
0697
0233
017B
030F
FA05
FC93
F723
0381
FEF7
0757
0052
09F8
0323
FE92
00EB
FB61
056F
004B
0589
09AC
FDC5
001E
0561
F9A6
03B0
F965
F9EC
0799
0621
07A6
04F8
FC7C
012D
FD73
FA07
0523
01FB
088F
FF46
F58E
0A16
04F0
06B9
FE0D
019E
02D2
FC0E
F9DD
FEBF
FC78
00CA
FA35
FCBA
F927
02D4
0203
FD07
FD96
0482
092B
FD8D
0443
FDF7
F92E
F981
F7FC
07EF
0C00
FE5F
02E0
FDF7
F9E3
0256
0120
0472
0A26
FE94
FE81
FD2A
03FC
03DC
F89F
FACA
0933
FF57
0221
0624
0ADD
03D9
FB4B
01D1
01B9
05F2
03F6
036E
0643
FEFD
F6E6
08A4
0160
0779
FE69
0352
F79E
FDAC
FB8D
0768
FCB2
02F3
05A9
FB93
01A4
FFD9
FA1D
083B
071F
F958
01E4
FE66
0173
FE6C
FA53
FB20
043D
F75F
0382
FC22
FE3D
FDB9
0670
FFED
FFB3
0174
FD6B
0736
FD56
FDDA
F657
FC5F
F719
FB8C
0139
0596
F5DA
FEEE
FDAF
F572
0237
F80D
02EA
02AA
0368
FC62
07CD
FA23
F818
FAF4
03D3
00C1
F846
FBE9
05BE
0462
F7E6
08D2
F867
F9CC
FAA3
00F7
0629
008B
01CD
F857
0553
F6E7
FBB4
FDE1
0825
F935
FBFE
F99E
01A8
F844
03AE
FFE7
F7FD
0643
F6C8
048C
FC62
01DF
021E
F704
FA51
058D
FD30
FF41
FA28
02B6
0326
06D6
07A2
FEC5
FD3B
0539
F71D
F8E8
05E6
01F6
0163
FA56
F82D
F8DE
FEF1
06A2
0A86
F9FF
F9D5
0457
F59F
FF37
0407
FDC7
FD07
FBA5
F88B
F98F
02A5
011F
FF38
FB8E
0355
031F
040B
F85A
F8C3
F89A
047C
FFB1
FF4C
F848
04D9
FAA2
0345
FE1D
F912
0179
05AE
FC1D
02F6
08AA
0063
FD7F
FEED
FBDE
0017
FF53
F928
034C
03B5
024E
0026
0730
05EE
FE36
053C
FF34
0562
FDA3
FBB5
071B
05A7
FB88
FAAC
FA3B
FE06
000F
04AC
F66C
FA52
FAD1
FDE5
F6CA
03FA
05E3
F72A
07C3
0708
0759
F8C9
F7FA
01C0
0857
0612
FDEC
FAAB
F6FC
FE3E
05BE
FCDB
07E0
F84B
033F
066B
0636
01A0
0727
0428
05A9
06DB
0673
F863
FA0A
FC0B
0100
F975
F965
FBAF
F730
05B4
008A
01EE
0427
06E7
0919
07F5
039D
0072
F89D
FDD6
FA56
F4F4
FB07
03E0
0D62
0406
00DA
FF07
0580
FDBD
F9DE
FA0E
0152
0427
0117
F9A0
0B91
056E
04AD
FD66
0C81
0779
01D4
0D8A
FA9E
0478
040B
F964
08BC
063A
075D
00E4
FB42
0752
04C7
021A
FC87
0C8B
FC4C
FE48
0121
0827
067A
007B
04B2
F845
0E8C
0824
01B0
0CEB
02D8
FF4D
02B8
012B
099C
084E
FDD1
F97F
0D0F
0B88
0A14
FF58
0289
05F7
F8A9
F9B6
0598
FA1E
F6DF
0491
0479
F836
0476
046F
FDDF
0144
0014
F75B
FCC9
FC8D
F7C7
FCB3
077D
F8AB
FC23
08FC
FAA1
0840
0441
F86F
06F9
03D4
02DF
0621
F9B9
FDC8
0879
0993
0511
00B3
04BF
FECA
FCED
0173
08EB
F9C4
0710
047C
0551
FF39
F7FA
F820
0537
FE62
04E5
F8D2
FF9E
FB9E
FDBC
055F
FDA9
FF98
016A
04EF
0143
0119
0CA7
07C1
FC2C
04C8
10E0
0C0A
016E
032A
0562
08FA
03CF
0547
FCE1
FC7D
FCEC
0674
12B1
0588
0A85
FF35
0961
07B8
0439
161E
009C
0394
0B58
0146
07F6
F91D
0332
162D
09E1
0508
05B7
110B
FECD
04D0
065A
1039
0B01
0C71
194F
0B87
0237
0D6D
02C3
0D04
0BF9
0DE8
FD37
1868
0C77
FB12
064D
076B
114C
FFB8
FAEB
09C7
13F5
1376
FC44
013F
F71C
F836
090F
FC51
0445
FF52
FFD3
005B
0318
FD91
0149
074B
F70D
08C3
073B
F954
FBAF
F989
0137
FBFC
FC0D
051E
0505
F8D3
0721
063A
FBAF
0011
02DD
0508
F744
06ED
02DA
0777
F95C
FD69
0574
F9F7
FFE8
F83F
0411
FF5E
01EB
FBC9
0244
0681
0575
0277
FC6B
0841
FB34
FB61
0252
0644
033A
09D1
F455
FA2A
0808
F631
02E2
05AC
05E7
0461
07A1
FF73
F917
F7A2
0813
05F4
FB99
FD1A
FAA5
F981
05D8
FC82
0635
01B7
F90F
FC5C
F6E4
03BF
FD7B
FF0C
FE47
FFDF
0801
FD9B
0035
0217
0269
0032
048E
FAB3
F84B
0B26
FFCC
F874
037C
FF9E
F9D4
F6FD
FBB3
015C
F6B1
0048
0318
0AFE
0796
FE8A
0336
0082
FE75
0044
056F
00C6
FE05
F962
F656
F775
0511
0140
0742
0265
009D
07B9
0A39
033E
02FB
FF94
06AF
FF12
F6B3
FA53
F9E0
0133
0500
0660
023C
FF5E
FFCC
FAA6
07ED
F62B
0500
F981
F75B
08FE
0117
049C
03F4
0842
086C
FAEB
F629
F9AB
FC10
FDEE
F68A
F5DB
FAE0
F8A8
FA98
F906
FC6C
FBD3
FB4B
F9A5
0575
009D
F574
F992
0385
FBF6
FD0F
FB98
FCB4
F86F
01ED
020E
F7AA
FA49
0784
03A6
F60B
F761
0734
04D3
F602
F8E6
F6D9
FC3F
04E1
FABA
FB4F
FF55
0255
0867
0544
006B
FDDA
F922
FE71
05C3
072A
0131
FFA0
F6AA
FDB3
0674
0A5B
FC87
0561
F86F
F7BD
FC81
0433
F74F
FA89
0285
FCAF
FC3B
0156
F967
F7F9
FA54
024C
F95E
0650
08F1
0585
0371
FA8E
065E
0279
FB39
FB31
F873
06A4
FB00
06C2
F817
06F1
062D
F90E
028E
06B1
0241
0372
F75F
0A4F
0644
F9EB
FF43
06C9
0006
F748
FC04
023D
F8A2
F7BE
0193
06B3
01FD
05D8
FCFD
0478
FC36
EEAA
002B
0238
FD0F
FF7F
FA6E
FD92
F580
FEE5
09A2
FB60
F6E2
FAEF
0554
07CD
F518
0135
045F
F89C
F061
0599
F47B
0640
0978
FFC5
F821
020D
009D
FF51
FE18
0A9B
FE9F
0320
00BC
059B
F404
F603
0662
0714
0896
051A
093A
F9D0
F3B7
F987
0660
085A
F5A7
030A
FC81
F629
FFC9
054B
03C8
0697
FB27
0885
FB9A
06DE
04AE
078C
F8C0
0497
F6CF
0840
FBD7
0938
02B1
F8F6
03FD
0978
FCDB
03B1
0144
FF9F
084F
08E3
FACD
FE4E
FD14
FFFE
FB09
085A
F72F
FBA3
066B
F833
FA21
0616
061F
F841
FA9D
FC29
FE4A
F598
F8B9
F94C
0749
0640
02D1
004B
F80D
08D9
FEF0
055C
0099
F766
FB39
016A
08FD
029D
F775
F725
04F0
FF58
02AA
F6C2
055D
02CF
03A6
0548
F542
0522
F97C
037B
FCB1
FCD2
07AA
FA8D
0162
FC74
FEC0
018F
07FC
F6C1
FA43
FCD5
FB6B
0068
0727
F659
F990
FBBF
07DF
FD5C
F879
F830
03CC
0479
0045
0693
06F2
0613
05D8
FF9C
0448
0121
FB12
F976
062E
08EF
0088
081B
FBB0
F81A
FE23
0081
06B7
F7B1
0513
016B
0169
06EC
0673
075E
FA63
01F0
FC51
FDDB
F9AC
0684
F6DD
FF72
00EE
0447
F8F5
FF39
FFD2
F7B6
F7DC
0239
06EC
F706
040A
F87E
FC17
08CD
F901
FE77
FEFC
0894
FFE0
FD36
07C1
F667
00E7
FF35
0052
0A2F
0291
FCA3
0A3A
F8EF
F7DD
00F0
029B
F888
00E1
FA88
056C
FDB0
F982
FB1E
064C
05E5
F93D
F8E6
FF13
F9E0
FA24
FA8F
FACE
0638
03F8
F8AF
080E
F92D
FCAA
FC1E
06EA
F96A
083D
FD57
F7F3
0320
F30D
FCC7
FE63
FF7E
FF54
0444
0140
FC69
FF64
099B
F84A
0137
F863
08C3
F901
FEBD
F590
FDF6
F3A4
F91F
0586
FC20
FD39
0650
FD46
FB85
F658
0474
FC2B
FB4F
1144
07B0
FDDD
FF68
FEEA
F798
0202
F92A
02DC
FBFD
FEB7
0CA8
09D3
01A8
0877
FD8C
07FA
0881
F9F4
010A
FABF
066E
FCF5
0423
FBC2
0732
0A67
04E8
006C
065F
0332
0068
FEF0
FDD7
F843
F802
061C
FBFD
FA95
FEBA
028B
FFCE
0462
FACB
FFFD
FF04
FA8F
FE94
FAD4
FD1D
0184
FC00
FB4E
FDD9
0882
F6AB
01B7
079E
0515
03CB
0826
0125
FC5B
092E
FECE
F8CD
FA48
0B32
0338
FAA9
00EE
0181
FF0D
02D9
F743
0034
0130
FE7C
0439
07C2
0357
08BD
F9F2
FA46
FD3B
FEDF
07A6
FC1B
09E6
F97D
030D
FF9A
F826
F774
0806
07C0
0714
F668
049E
0852
F543
06AE
00E2
00B0
06A1
FF47
FB8A
FEDE
06F6
04BD
FB04
FA2D
F8D1
0243
04AF
087C
0086
FF2D
0325
0703
FEAA
F825
0447
03B0
FB11
F6FD
FDDA
F774
FF11
F883
FFCF
0033
FFA5
04D3
FA1D
FB72
FC23
FE2E
FD2F
FDB1
FDBD
F81F
0086
F816
022B
0509
FD09
F8B9
0114
0099
0344
097D
F6C1
019E
FDB9
02BF
FCB3
FA2A
FFA4
F9EE
072E
0346
01FD
05C3
FF34
084B
084D
07C0
03DC
0717
0614
0736
08C0
0063
FE66
FF98
009D
F796
FD48
0624
FD0C
02F2
F85A
048F
011F
049E
F9FF
094F
08D7
F88C
0085
FFD2
FF8D
01D6
01A0
01F1
05D4
02D1
FA9F
0537
F92C
00B8
07FC
FDEE
F5CE
03EA
043E
0750
030E
0168
FA83
075D
F990
02F5
FDA2
FDD1
F7E6
F7A5
F9E6
F6DA
F9DB
FD70
053F
F95C
FED0
FF34
1890
FFE0
0E41
04B0
0816
0A09
0499
0841
0AFD
0620
0FB8
0861
FBB7
FED5
FFDA
F759
0015
FE27
0B91
01BE
FC72
F813
0A07
FF74
0623
FBC7
00FD
FC61
0735
0852
0324
073E
0116
05EB
1011
FB03
FFFD
FBEC
0154
0380
050C
0B6B
0AC0
0334
0696
FDA1
059B
0918
0205
FBB5
0CDD
04B3
0603
03C0
09C2
0A96
FE38
0491
0E98
0082
06DC
FDD5
000E
0659
FC84
0717
0472
00FE
0D16
FC7D
072A
0001
FA65
0880
099C
05E0
0468
0ABC
FFCC
0B8E
063C
0052
FFC3
07CF
F9E6
F9EF
0318
FEBF
FED3
FE4F
F86F
0A26
FAC0
FA81
FAFD
05BA
F6F8
07C9
FEF6
FD88
0590
F57F
F8E2
F8D7
0044
FB6C
FDD8
0558
F4A5
0885
F877
FDB5
057E
064B
FB4E
F861
F854
FEE8
FB75
FED8
FFAB
0532
F8A2
03A2
083E
FCF9
0533
03E7
F962
0149
FD2D
FBFA
FEA0
057D
0800
0830
0081
0385
0435
055E
FFF6
F6E1
013D
08D0
0B20
FB13
F9A1
033E
FCF2
FB83
01AC
0804
0774
FF12
0888
FDC6
FEF3
0702
020C
F83C
FAC7
FEAF
F821
028C
FBF0
05EE
FD27
0765
04A8
F921
0733
FDE9
0A60
0389
F9DF
03D6
064E
F974
FA93
0733
F8D2
066E
07EA
066D
00C2
F899
F948
0826
F62A
0031
02CA
035A
0258
0578
059D
F862
FA69
F7F4
050B
F9F3
0502
FDFA
06FF
001B
011D
F91E
F7FF
04C4
F840
0729
087F
05AB
FBF1
F6F4
08BF
05FD
031A
02BD
042E
0878
0303
0779
FCF0
074A
FF34
04B3
0181
FD8A
FBF1
F9F8
FE2D
FCA1
0664
FEF4
FE1C
004C
FB71
F7AF
F95F
FD96
FBE2
00ED
0318
F7CE
06A0
0794
0A15
FF0D
F9CD
FA23
FF5A
F8B8
F943
FE3B
F76E
FF8F
0BE1
0591
FB9F
046B
0994
FC04
0920
059C
039B
0893
0A08
F9E9
FDA0
0239
F7F5
01CE
FB7B
FFEB
0560
FE7C
FDD4
F753
003E
0212
0929
09F5
FCCB
0562
083B
0108
0A23
F897
0391
0009
0360
0592
F9E3
08E1
0056
00EC
FBEB
FEFD
001E
FC29
01A6
0394
0584
0793
0072
070C
01E1
053D
01B9
FFC0
06FB
FA59
039A
011B
0531
0336
FA1C
FAF9
FF60
0338
FFC5
032B
FD95
F844
07C6
F9D9
0787
FCC4
F9E4
FBE2
FD13
FB6A
FB5B
FCC0
F78F
FD64
07DF
FFAC
FF59
0425
076B
FCED
FEA4
03B5
F826
FF02
FA7C
0630
0613
08B6
04EE
F778
F685
009C
FAFE
FA9A
FDCC
FE6E
FFCC
0425
F7F9
0780
09F2
FB88
FDD3
FD42
FFCF
07A5
0403
011D
00CD
0A96
090F
0990
063A
06EE
F924
F82F
FE5F
FB11
072A
F711
0737
FE7B
F794
FBF0
F99A
0369
01CE
FD94
FA72
03BD
028B
F8CF
FA4B
FC91
0888
0466
FF63
FF3D
F708
017C
0596
01E5
FCAE
0A7D
00C0
0732
0344
0953
F704
F97E
058F
039B
F70F
04C0
FB9A
0952
FC0D
03AA
0547
FD2A
09C8
FB6C
F802
FC78
FED6
FFB4
FEF4
0573
FB58
085F
0187
04E4
01BB
FC70
FEE5
02D1
05BA
0851
0735
00C7
0265
04C1
FD2F
FF2F
FB76
09C4
0332
FE2C
F8AE
022E
086D
00E7
FA6B
07F1
0506
FA84
FEA0
F880
FC91
0500
FB32
FC76
0600
FD06
013D
FE67
FDED
070A
055F
02E9
0735
FA76
07C8
FA5A
0273
F81B
08C1
FEB2
077D
03ED
0048
060F
0503
04A5
01C1
F6D7
074D
00D5
006C
FED5
060D
F797
FE43
FABD
FBF2
01A4
F8FF
FF73
052F
0920
FACF
FB73
F882
000D
04F8
FF19
07CD
0868
FF82
0821
086E
F7F7
FE29
F87E
F58B
FBF6
04DE
FD61
03BF
064F
03AA
F6F0
FEF9
02AE
FB59
07CD
04F4
F7D9
01F9
041F
FE6F
F8D1
FD31
048A
04F5
044C
FC1E
FD10
06F8
0763
F990
0449
0580
FE91
F8F7
FA9B
FE64
FE16
0238
019E
073C
047B
0099
021B
07C1
00FF
012E
05E1
080F
FB7F
F7B2
FFEB
040A
0876
F9D1
0307
F9D7
FDCB
02EE
0719
0190
00F2
FD3B
