FB58
FD9E
02C1
FE92
0652
03D2
013A
FEA0
FC4D
FA33
0598
0109
02E2
FEBA
FD7C
FD76
0242
FC66
FFA9
070B
03C0
FC82
06B3
01A9
FBF3
FD60
02F2
FF87
F9BB
058D
009A
F8E0
FFD5
0380
037A
0477
FF98
01A6
FB62
F933
FAEA
FFEE
01A9
FF3C
F9D4
00D8
FF7F
FF76
FA5B
FDEC
0098
069F
04C2
FB26
FFE2
FA2D
00EC
FA93
07A4
0508
FE91
0154
0058
FEA5
FC55
FF3C
00D7
FE3A
00F7
FDE1
FE54
040F
FECF
01A3
0783
07D5
0065
07CC
02A8
FE5F
01D9
01D2
01B5
FDC6
FBE5
FA2A
03BC
0547
FB09
0438
FF42
FF9C
0308
0171
FF0C
0339
0072
0AAE
028D
01A1
FE5B
FCF3
0899
063E
FEDA
FB9F
070A
07F7
063D
FF99
F885
FAE1
FD26
018F
FFFF
052D
08ED
0146
01BF
022F
FEBC
00DA
FFB1
FFF6
0168
0398
0428
F9E6
FFFC
FB8F
00C6
0273
FC4C
047B
0312
0165
F7C3
01F4
0667
071D
FDB8
024C
FD9B
FDB4
FE8E
FE7C
0461
06A6
FB29
018A
FF60
FCAC
0522
0235
FCFF
026C
05AF
05E8
FB4A
FEB2
0712
00C6
F694
062F
05B8
0741
0373
04DF
0113
0356
008A
FF0C
0739
F86C
FBC5
FAC3
FDF0
FD80
0310
01FC
06FF
FEB8
09EC
04D8
01CA
FD98
FF9E
FB1B
028D
FEFC
048F
08D1
09E7
009C
0211
0A9F
FB74
0127
0016
FD80
0707
05D2
090A
07D5
04B3
0940
0592
0265
0486
0543
0251
014C
FAD8
FB2B
FE77
02D7
F8A8
FE15
00A8
FBF2
07C4
0655
0663
FB40
FF7F
01C2
01DA
07D9
0658
FFD4
FCB7
FC99
F8D8
FA3D
011F
FD08
FC98
FFC6
0803
0042
03D3
FE10
040C
0515
0018
03F7
0078
0177
01DB
FBE5
0967
00BC
04BC
FC78
01E6
0127
02A0
FBD8
FDD6
00A6
05FF
F5DD
FEE6
FCC1
04F1
FBA4
FBE0
FB99
FC35
FEB3
FD84
FD20
0236
FE97
0164
FEAC
026D
FADD
0179
02BD
FF77
F771
FF47
FED3
F45A
01A2
FFE5
069F
04F7
053A
FB11
F826
FD8E
FF9D
FB8F
05FC
FDC2
FD5F
FE86
02B1
FE60
052E
02B0
007E
009A
04B9
0230
FA6B
FCA7
F966
FAC2
FCE7
0358
0132
FF93
0207
F657
FC82
02B7
0196
04E4
043B
0204
FB29
02FE
0069
04D8
002C
0319
FF6F
011E
FE97
0118
FF91
0243
0368
042C
FEA4
04BC
FCC7
FD4D
05C4
0329
07FC
0379
0041
0776
F83C
003E
F879
0782
01CB
0248
FE6C
FEC3
0350
FA14
010E
03A9
0768
FD4D
01DA
02FD
FE5B
08D9
0016
08A0
049B
FF15
F9FC
FECE
FC8A
FFC9
FE86
FCE8
FEAB
FD77
061C
0013
FF0A
03F6
0685
FEFE
0498
02A3
FA8A
0222
FAAA
FFD7
F786
0383
FE43
00ED
F67A
FCB8
FD02
F6C3
0437
FEE6
FD4B
FA4C
FE2E
00AD
F853
012E
07F5
022A
FC20
FF59
F8FE
0413
FEEA
FBD6
012F
04D2
FD30
053B
01BE
00BA
08AB
0424
00A9
02AB
03E0
FE02
FF41
FCCF
0438
FD2A
FF96
F9A4
FD31
032B
FAC0
000F
FA98
FE7F
FDBC
FE73
FF68
011E
F7EF
FF79
F8A9
0231
011F
FCE8
F669
F885
FAB0
FEAE
FAB4
05D5
FDEF
00FC
FF15
FD75
FCAF
FB2C
FDE9
056D
045B
03D7
0019
F6BB
FF11
02F3
FF23
FD7C
FC41
03FC
FFDA
0337
FDED
F9E4
FC3F
022B
FFFB
FD35
01D9
FCF3
FF14
002E
F7CE
003E
FBAE
FCAF
FF23
022F
F7D5
F95A
F2DF
FE3D
FAEB
FD6C
FD5B
F8ED
010E
01D7
FADF
F88F
FED9
01AF
033F
F641
FCE7
FC35
FD0B
FE95
FD7F
001F
043A
077E
0542
0283
FBCA
00A4
FF69
FFAB
FDCB
FB44
0087
FFD3
F97B
FB25
0502
01AF
FBBE
FCBC
FE23
F548
03CC
02C8
FD28
07EE
F7F5
0373
F924
035E
F83C
FFD8
FAC5
F80E
F9B9
FBCD
FE70
FA9C
F9E0
0143
FFE7
FCD8
00C5
0370
F559
0324
FBCF
FEA8
FE2F
FC76
0064
06C8
FF95
0393
FEF8
FE6A
FDEC
FACA
FE9C
FD09
0873
06DC
FAF9
0152
0690
004E
02A0
006D
0486
040C
F653
FFA7
00FE
FE30
0586
FE2B
FA81
FCAE
FDA0
F977
03B9
0757
01BB
089D
FAC6
F8D5
01C0
FD0B
013B
00FA
05CE
03B7
08DB
0610
04FF
0523
FE81
FE39
027B
048C
050B
FE3E
01F0
0213
0697
00A1
FFA1
0344
00FC
05AC
0068
026D
068A
035F
08B0
FF8B
0049
FE7B
02FF
0614
F9F8
0013
0086
FE76
FE59
038E
0726
0176
0003
FF65
FF6F
0150
04DC
F758
07FD
00B3
F9D6
03A6
FB8A
FF25
01C4
FEAA
061B
FA27
FE78
00F9
0960
FC89
0876
0037
0186
FD46
06A3
0046
0546
0378
FDFF
FE88
FF61
0319
0382
F977
FC36
04EF
FE9B
03A3
0472
04B5
0141
03AF
FFF6
FDCF
074C
05ED
FDA4
08BD
FBA4
096D
FB14
0719
FDFC
FC95
0C5C
0537
FC0F
00FC
FC61
0185
010D
0789
07CC
0927
01DF
012F
FEAC
0181
F5F1
FE10
FAC8
FC37
F734
F966
FB8E
F894
FC33
FA62
FB7E
FC36
FF83
0584
0034
0078
FA35
00BC
FB24
FD65
F989
FF45
FBCE
015F
00C7
FF5C
0251
F77F
058A
FC1F
FB89
FD5C
03FA
0056
FF93
FFE6
FA11
F9BB
FF3D
0896
FCE9
FF5C
01D3
FB6B
0193
FEC9
FDF4
F84E
F623
0004
FB0C
0154
0316
0303
0050
FCA8
0171
FCA6
F8DD
FD6B
FF18
F8E8
FD45
0113
FFA0
022B
0866
0112
0608
0126
FE16
FBDE
01B6
056C
F95F
004E
FE45
025A
FDAC
FDB7
FA3A
FCD8
018A
F80E
FE18
02A5
04B0
01E7
FD83
F7B0
05D2
02D5
FCC8
02B2
01F2
FE1F
0139
00E8
02BD
02C6
0362
FE7B
FF3E
01E7
F679
FDFA
0036
02F3
0474
07EF
FDB5
0286
00DD
FB10
0383
096B
FD48
0560
FF6B
003C
FD77
0187
FFD8
00A5
FE48
004F
FE0D
FC9A
059E
FB6D
0052
00A0
FDEB
09B6
FCFC
052A
F923
0302
0316
05D2
FF28
04D0
FE6F
02E5
FC36
FC53
F9FD
FA90
FD9A
059C
024E
FEE6
047B
01F5
0282
FE23
FE4E
FDE4
FECE
FE2E
074C
003C
01AA
01D2
05C3
FD73
FFF4
FE6E
005B
FE6C
FBF6
0229
FB46
FD86
008F
FA18
FA17
028A
FD3A
033B
0C00
04A4
FE8C
0030
07C9
F9D8
0056
016D
FC91
0988
F4C6
0165
0517
FD23
F6F3
F953
FD7C
02A0
FDCD
029E
FE0E
FAB0
FD7F
0003
FC53
FEF8
0464
FF3D
0645
FFD8
F79C
FC4B
FBCF
FBC1
FF2B
02E8
02B0
0348
0246
0036
FF8A
0046
02EF
082E
0241
0251
0024
0651
FCF3
0060
FCDD
0137
F963
033E
0480
FD2E
FEF4
FC8B
0440
04DA
0080
FE31
008C
00ED
00AE
02FE
FFDF
FC7C
0347
0004
FC67
FE59
F55B
0738
02FC
FCE0
FCFE
FC84
FD9D
FEFB
F6E2
0076
FE2F
06FA
FF49
0056
FDBB
FE58
01F3
FA87
F29A
FE1F
FF5E
FC1D
033F
FFB6
FA55
F8C1
FEED
004E
076E
0184
02A2
FA46
020B
FD7D
FDCE
FDEC
0196
FC4A
0194
FE04
FA13
FCAB
00FF
0558
0230
00BC
F72F
FE79
0716
025E
FD2E
FE02
0328
0154
FF1D
0242
032A
FCE7
FC2B
FC30
02CF
0022
0170
FB62
0340
FEB3
F7DD
F8F5
0039
FF73
0133
0270
F877
FBA0
FC3E
01A4
F83D
FE6C
FCA1
018B
FB01
FE99
F842
FE2E
01E3
014F
0007
FB3F
FD60
FD36
0783
FA91
0037
FF1A
FEC2
005B
FDE9
FC7A
FB9E
0438
F9C4
FD68
0119
0122
FC2A
FD49
FE7B
FE99
FCC7
FCA5
0282
0045
001A
F4E6
FD8C
FED4
0053
02CE
052A
F48B
FBE3
F9C5
01EF
02CB
FEAA
0038
F9DE
FFEA
FCD4
FCD1
019E
00FD
FD4E
FE52
FD9C
007F
FC48
FD6D
071A
00B5
03C4
FFED
FED1
048D
0330
FDA6
FB9C
FCA8
0136
032E
FD12
025D
0207
F9EF
FF66
FFFA
FFEA
FEBD
FF96
072D
F9B8
FAD3
0025
065D
005C
007C
04EC
011E
046F
01B7
062E
0051
07C1
04B7
FF8D
035D
FE8E
FE76
097A
0122
0306
FF10
FCEF
00E9
008E
01BC
01CF
FDA8
FD30
FE87
FCED
089F
FC0C
F8E9
FC67
FCE4
FD4D
FFD1
00E6
F915
FAA7
F961
FC35
0016
F6FB
004E
FD47
FB22
FD0D
0138
FA75
FF13
0058
FFF3
FCDD
FD27
FA41
0291
02FF
FB33
FE2E
FDC2
016D
FE80
FE4E
FC49
FC1E
055E
FC8A
F660
FE56
FAEF
FE83
FFBB
FB93
FDA7
FE39
023C
FE11
FC45
F933
FC74
FFC7
FF76
FBE8
F49C
F678
FC12
05EF
0098
FB2B
FCA8
FACA
FBA1
FC81
FEB2
FD1E
06FA
FF74
0164
FA0E
05D2
FB2E
024F
FCE7
FD6F
FC99
FCC3
00D3
033B
F45C
04B4
F89A
0255
F89C
0082
06B3
FE26
01B2
FDF2
0135
FFCD
0989
FF3F
FA62
01A4
FCCD
FA2B
FE23
0167
F9DD
0423
0402
F622
00ED
011C
00F1
FDE1
FCEF
FC5C
FB27
0209
0114
0094
FF6B
02B6
0087
FF73
0E27
FD4D
00DF
015E
FEF6
012E
06C6
0181
03B6
FFA5
FFD0
0068
FBE2
FAB3
FCE5
FF1C
0037
FC8B
0485
F92C
039B
04DA
008F
024D
FACE
F543
099E
086B
066B
0210
FE6D
FF6F
FE99
FA7E
03BA
0581
FCA7
FE96
079D
048E
08BE
008B
004B
02C1
05F9
0A76
02D7
FE85
FE6B
0517
0570
F7CA
05F5
03E7
066C
01EF
FCC3
00A8
01BC
019C
0263
0454
FD53
00AC
FBC6
FFA5
FE68
0179
FC48
03A4
FD14
03BE
FF18
01C9
00E7
004B
05E6
0036
03D2
F892
FC26
FFBE
FEC6
FBEA
FDF1
0384
FDE8
FE4D
FEFF
FD16
F939
02D3
03D6
0088
03C1
035C
01D7
FD53
F5C7
FE35
03BE
FD8C
F7BD
0049
FB39
FE60
0019
0629
FEC5
FD81
04F1
03BF
04EE
FF73
0187
FC1F
04E4
F7E4
FFFD
0073
01C7
FDFA
F450
FB41
040C
013E
02EA
FB6F
FEAA
0527
FB8B
FDF9
FBFE
02E6
FF6B
FE72
0668
00BE
081D
0BD9
FEF6
04E9
FF54
FFE9
FF54
FE3D
FDF5
F928
FCB2
FE01
FCCE
FAD0
02A2
027D
F474
FE88
F6D9
0087
FD24
FEF5
FFE7
0091
FD67
FE26
FF53
02A8
006F
F4D3
F8CB
F6F4
FE10
FE8B
F81A
F9F1
00EF
05A6
FE1F
0495
FA8E
0829
0771
FBD8
02F9
FC1F
033B
F8D7
FFB7
FCBA
00AF
FEC9
FE56
FAE8
FD55
F951
FDF5
F74F
016D
FB2A
01FB
F8DB
FA80
0111
FA32
FD6D
FD10
0186
FEF4
002A
F515
038E
FAF6
035D
FB74
FEE3
FDF7
F816
026C
FFED
FB45
F801
FD78
001B
00CD
FD0B
0228
041F
0409
FBFA
0101
FBE8
F9E1
0162
FF42
FEDA
01CD
FD29
FB96
FFEE
0551
FEA9
FE0A
FE67
FE8D
FC3A
03D5
0027
FEC6
FE67
05B2
0152
02B4
FC85
FE30
F9A4
FE7C
011F
FCE0
046A
00A1
03C2
00FE
F50A
F984
0600
024D
FFA7
FCF9
02D5
FD36
022A
0183
FC04
FF37
FBC0
0693
0226
0162
0033
0113
FD15
FFD5
04B6
FA4D
FDE9
02A6
FF39
FFDF
F78A
FE3D
0571
0951
FDD4
01F5
0CEE
FD3B
002E
01E9
03A3
01F9
F9C9
0199
F86A
0324
FC72
F99C
FF44
006F
006D
FD3D
0350
FEFD
FE16
0707
F9F9
FAF3
FC05
0439
F9BB
00BC
FFE9
0218
FCBC
FF67
0244
051E
FC45
FF46
01DB
08DB
FB9D
0502
022F
FD98
FE52
07BA
0AA9
FDA6
01B6
03FD
0152
0234
070B
002E
0219
036D
0787
FE96
037A
07B3
FE83
FDAC
0219
FA85
05CB
FBDC
026F
FD7E
FFF1
0392
FE29
FFF9
FDB3
FB62
FF47
05AA
0084
0340
02CD
070C
FC9A
0511
03FA
F8D9
0A00
FA10
022E
FF10
FFF7
F937
FE64
06B6
FD79
FF5C
0539
010F
000C
011E
05C1
018A
027E
FFF9
0446
02A5
0050
0484
02C0
083C
F778
FEF6
0663
FECE
F63E
FDAE
FFAC
FC73
0082
0019
FF33
04E4
0299
012D
FEBA
FE1F
0121
FF81
02ED
03A3
F871
007D
FB92
023A
0551
01C7
00F3
FDD6
F9D4
FD65
039A
FD57
0065
FB3C
FBDF
0396
06A0
0000
F94F
F659
FD1A
F930
FE49
01AA
FDC0
FE95
001D
0174
01F4
000D
FDB7
F9E6
FE65
F34D
FE1C
0055
019C
0478
F8CF
FE5D
FC59
F7D4
FD99
07C9
036D
02C1
045E
FBE7
F9D3
0117
0461
F875
016B
FCF8
0099
FEA5
0336
F549
FD8F
FC63
FF99
FF21
FD62
F857
FFCA
FE79
006D
016C
01F5
013A
FFE2
FB83
FFB8
0301
FED6
FF14
FBAB
FD98
F7EA
F994
0180
06CD
FE28
030B
F97D
0028
011E
FAD5
FF45
0342
03F8
FC18
00B9
F6FA
0450
FBB3
FAF9
060B
F5E4
026D
FD7E
FD02
F8F4
FF2B
FAE6
FE15
FAD5
00F8
058B
F982
FEEA
FC93
FDF5
0266
000B
FCA5
042C
FF7F
FCD4
00BB
001C
08F9
FF34
FBA9
01E3
F58D
FC10
03EC
F918
FB03
0122
005D
FBF3
006A
02D5
FDA0
FF59
05A4
0178
FA65
FEE6
FA05
FBD9
FF77
F6FA
FB42
FB24
FD5E
FC47
FDEA
01E2
FB09
0308
0177
0360
0113
F87A
020B
02B2
0565
FDC2
F876
FDAD
04D1
F75D
FF74
03BF
FAEF
05B1
FF0A
FDEA
FAEB
FA90
04A0
FC17
FE65
0113
FD6B
FBB8
0228
FE56
012B
00F8
0533
F743
02D4
03B4
0086
0044
FE35
0367
FB03
0374
09E5
0376
FBB0
FB02
FED3
FCCB
FFEA
FEF1
FCC8
01D6
F864
04D4
0072
0975
04C5
021F
FFDC
03DB
F8A3
FD00
FFB2
033C
00B8
0C26
0421
003B
FE12
05F5
050F
05E6
FEB5
056D
0433
051D
FE26
FE68
FDF9
FFE2
FD8A
FBFB
F85A
0260
FF6D
FD9F
0496
05C7
03EA
FEE3
FBAA
02AC
F961
FF57
034F
017B
01FD
02A1
0143
FCB7
FC17
015A
F8E4
F943
F9AF
FF2A
F7D2
FC9D
F898
04FC
FD59
FB19
0134
FEA7
0491
0548
0012
FDFB
FF50
0332
FCD9
007E
FA2D
00C2
FD83
022B
FD82
04CC
0118
F693
FD5A
FECC
FC11
FF28
FFAA
FF98
FABD
FE39
0339
00C0
00CD
FD10
F8A4
FF16
0234
FEDB
00AD
FD9B
F8C9
027D
FE1C
FE6B
FD95
FBE5
F894
FF62
F628
FA28
FAB0
F90F
FE8D
F7DE
FB05
0616
FF50
024C
FDBA
0187
FEFE
0112
02A9
FF26
FA49
00BE
049F
0634
040C
FB57
F90E
FFC6
F8B0
FCD1
02B5
027C
FE4D
FDAD
08E6
046E
FFBD
FCAD
00A1
FDFD
05AC
FEA4
0657
FF92
0185
0051
F8AD
00AB
0336
F776
F840
FE41
FEA4
FC8D
FBAB
007E
F948
F7D9
F95D
00B3
03AF
FFE9
FC89
FC78
FCEB
0169
07A9
03A6
04B7
017E
0314
FF92
FED8
0271
F940
F9BF
FFF8
055A
06AD
04CB
0018
007C
08E8
FCE7
0A88
0179
01CF
FEE0
0430
FE7E
FF70
07C6
0197
0479
033B
0372
FD51
FBEC
0304
000A
0072
02A2
08BA
017C
FECB
FF2A
01A6
0893
FFD1
02CB
0542
04BA
FFB8
FC7B
0669
06F8
FD90
003A
0116
FF38
019E
FAB3
02B9
0226
0776
026E
032F
02B2
F8BA
0265
FF85
FB0E
0467
03DC
FE33
0531
FEB5
0059
FC77
FD31
F926
FEB1
FD31
017C
FEEC
FE4A
F97E
0445
FD1F
FFC2
FFBA
FEB3
FDBF
FA3C
FEE4
FA9A
FDA8
FEE9
00FC
FA4D
FCA9
FB40
0045
F937
FEE3
FD00
000F
0490
0022
FC69
02F7
FC68
040F
012A
F9D5
F89E
FBD4
F8E1
FEA7
F9E5
075B
0092
017A
FDD4
FEE1
036E
F7D0
016F
FFAA
01A9
011C
FE2F
FDCC
FEA0
FD4B
0092
002F
FDD7
0227
F928
04B0
FA36
F4FE
0255
04BB
FEDE
FD04
0817
F7EB
0593
FC2D
FC8E
FBA3
FCE6
FE9A
FE4B
F81E
07FD
0131
FAA4
024F
020D
FBA1
040D
00D1
FCEC
FF38
FED4
F57E
FF4B
FA61
F689
0181
F48A
03FF
FDA8
0571
0524
FDB7
0228
020D
FD70
FCC4
FE19
03B1
01AD
FE47
005B
0025
FE7F
FB24
FDD0
FBE1
057F
FE9C
FBC8
F916
FD77
005B
FE31
FD03
FB0E
FD80
FA52
FCD3
FF87
FC4A
FBED
066B
FFFB
FBF8
FA7C
FDAB
FE09
FE06
FA18
02A1
0329
020C
FBBC
FC53
000B
009E
FFF6
0724
FBAE
FE08
FB66
FFF8
05EE
F7D0
01C5
0041
04B1
FEE7
FAB0
F91F
FFE9
FEB5
01FC
0015
0003
0094
FACD
FA8F
FDEE
FCA6
F60E
0063
FFB6
FD09
0437
04D1
FB82
FE87
01F0
FBBB
FD91
FC24
01E0
0323
003D
09FA
0092
FEB9
015E
FA49
F7DD
0209
0074
F74D
0102
FC65
F9D3
FB4E
FEF9
03B6
00CF
04ED
F94A
00B2
0139
FA46
0401
0465
0001
FFD6
FD06
FDD9
031F
FC05
000E
FA56
029F
FAEC
FC23
F7AC
FE8E
02E4
04A8
06B6
0149
03AA
FEA5
FF5C
FC03
FF27
0439
035F
FF91
FFDC
FDC5
FC80
00F6
FC16
FE58
FD15
FFD8
FC16
F82E
05AC
0118
FCAA
FD89
042D
0508
0256
076A
0403
08E7
02D0
FC10
01D9
FDA3
0883
051D
FFA5
F601
06FE
03D2
FEFC
014F
01C8
0346
FFC8
02B2
03C6
FD75
FC86
FF78
008D
08CF
0131
04F9
020F
FD9F
0078
0128
086E
01EA
01A6
00F1
0906
068B
033D
FFB5
0183
034E
FC7C
009B
0127
0402
01E3
FD40
01DB
FD5F
03B3
03E4
FF02
02E1
05D9
F7A9
01E0
0023
0242
054C
0624
FAE5
FAE0
FEAC
0035
FD28
02A6
F9C5
FEE7
00C7
0581
FC18
FF97
FE93
008A
0225
0192
FB2A
0426
FD24
F18A
011F
FE2B
002C
F749
0745
0521
00DF
FA72
FDE9
0380
00A8
01D3
0623
000E
01C7
FEC1
03CD
02B2
F928
FECD
FE45
01DF
013D
FCBD
037B
00C5
FF05
041F
01ED
008A
FFB9
F7FB
F429
0A02
0419
03E4
FF64
FDBC
FD93
05E1
FD19
FB19
015A
FE22
FC0A
0430
02BE
0454
FB97
00D7
0C04
0039
0284
0226
FFD1
0459
0130
FBB2
061F
09C9
FE20
FD9F
014F
0226
00A1
018D
028B
04A3
FCDA
0129
044C
FFF3
067A
0591
03F7
0280
0211
026A
F9F4
FF40
0174
FBB2
0200
FD56
010A
08DF
0711
04BF
00C7
FDF4
FC7E
FDD1
0AB7
0408
01F8
0307
0488
0030
FA20
09D1
03A4
00FE
FE88
04A9
FE77
01FC
0016
0551
F8ED
0083
FE57
04C9
FB65
FB42
FCE1
FB92
0021
05C2
04F6
FC0A
FF4C
FB81
02E1
FA93
FCEB
055B
FA79
FACA
FC8F
FF89
04CD
F609
0381
FF8A
FE7B
0097
F8F0
FD34
0467
FAAE
01AD
0229
05FC
00AF
F60B
FF46
FFA2
0073
FD9F
FE1A
FF7F
FC7A
FF84
FF02
01A2
FD96
02EF
F934
0026
08C7
FD4C
F935
03A4
FA11
FEBB
FD09
FC12
F63A
FEF1
FB25
0366
016C
049E
F9A8
F764
FD14
0051
0292
04B8
FFA0
FEB9
FC21
023E
F8FD
F841
0558
037B
0227
FF9E
04D4
0119
012E
FCB6
FA0F
FDDA
F7EC
F9EF
FDCF
FAA4
006A
FA1C
FEE3
062E
015A
FE4B
FC69
0458
FCC3
0982
048F
02A4
FA4D
FDAA
FD04
041A
FB11
05D7
FDA0
FFD5
0015
02A5
FAC9
004A
F87A
F996
FE76
FCAC
00B3
FF16
FDBF
FEC1
F992
09A5
F8CF
0170
F9A0
085E
FDFF
FF91
00D2
F78F
01F6
0605
01AB
012A
0440
067A
053D
FBC9
00C3
FE9E
0342
03FE
0071
0138
FEE3
FC1F
FF79
03B4
066D
0073
0A99
0534
FBF8
063A
0269
06BF
0B15
FEFA
0235
00FB
05AA
06D8
FEE3
00B3
0059
0A38
0319
07EB
0391
06C7
00C4
0324
00B1
FD9A
FBA0
0A7C
07E6
0308
FE16
FBCF
00E3
07B5
FB7D
0309
1311
0061
0133
FAED
FF4E
05D1
0608
FD0F
FF79
0987
0273
0466
0019
FB99
0021
00DA
03C0
04BB
FECB
0368
FFAD
FAF8
0107
03E5
02CC
02AD
03CD
FB0C
086C
0762
032B
03C8
00BC
03A9
030F
0296
06ED
030E
03E6
FC74
0205
08A0
F872
0B00
03E6
074E
0718
FE42
0587
0A89
017C
059E
0592
00A2
FFD9
FEAE
00FC
FCD3
FE02
FDBD
06F4
063D
01B3
FAEB
0879
06DB
FA32
FD12
FE67
FB90
00E4
02DF
000B
FFC4
0385
FCD1
0376
F99C
FAA3
FFA9
FF3F
01D7
FC5F
01B0
FF6B
FE43
FBF7
022B
F990
0340
FEB6
0498
01DD
FD38
FE82
0192
FD25
FE21
FCBC
048F
FF46
06ED
0171
0261
02B1
03B9
060E
F853
08F4
FD7E
0901
FFD3
FC6A
09A9
FE4D
FBCA
FE78
00E2
033E
FCAA
FF69
FB21
07C5
FEE7
FC05
037C
03B3
0132
02BF
033B
06C9
047B
FEEA
0683
FF14
03F7
FE54
010E
06A5
FB1B
FED4
02EB
F6FF
08E4
0087
0152
FEAF
FC72
0263
0092
FDC5
0402
0C62
F745
FD91
00F9
FB91
FD5C
04D6
0076
FE1F
F986
FE29
06B1
F8EF
F90A
0214
037B
FC4B
FE6A
FECD
FB1C
00E3
FF46
0487
FF66
FB43
FF21
FBBC
012D
02DC
F9C2
091E
03CC
F8C3
091D
FF15
FE9F
FF9A
0131
FF3C
000E
F993
00F7
F5A5
FCDB
FA3D
00DF
F342
FAE1
006B
0267
FFCA
015E
0300
FE34
009E
FB34
00BE
0196
FC71
FD98
021D
FE4B
FFB4
F8BB
005C
FE86
FD8E
0226
FE90
F934
00CD
0203
FD08
01BB
0904
FEA1
0359
049D
00B5
FCCA
F5ED
040D
04AB
0071
006E
FCC3
006A
F7E2
FC68
F8BC
F999
FC2C
00EE
077D
01F0
F92B
0014
0265
026A
FDB1
0338
02A1
0404
02DD
FBDA
FFBC
004B
0181
07C5
FF19
FE87
04D1
0020
070D
09F1
0304
FF84
0015
0065
F4D7
069C
FFEE
0947
FBB9
0365
02B3
0438
0150
FFD6
FF2C
FBE9
002C
0568
054F
043A
026F
02E1
0104
FFAA
0388
FFD0
FB66
FFD3
FFAE
05E7
03F4
0172
0920
FFAE
FF49
036E
F9AF
FEA7
060E
FF67
00AD
0826
01AB
05C6
0094
0CDC
0272
FE5E
0A38
02EA
0268
07B6
0525
0263
FF5B
FFF6
F8F5
0128
FCA0
0996
FB77
01CC
FCB9
0121
0732
FD6D
FF1F
003E
0318
0972
052A
03E9
00F9
FC3F
FE4B
0150
0192
00E0
FF8D
048D
FB7D
0358
0304
FF77
03DC
FD79
FD96
01F7
FD24
002D
01C8
0656
F6BF
FEFE
FA08
049D
0622
01B4
061A
0367
FC07
F8D3
044B
FC18
0148
00B6
06E3
FF90
FC3E
0768
0112
01AD
0107
FD92
0752
FD86
F993
0094
0086
0394
FC71
00E1
FF66
04DC
05DD
018B
FCD0
0271
041B
00A8
0574
FD87
052E
0322
0130
0B21
0320
FBA1
027F
04A5
FB6B
046B
073E
0351
00CA
FF3B
FBAA
0313
069D
051B
0159
01FC
FE20
052B
FD46
0587
FE52
0435
011C
FB5E
FE2D
F942
0380
03EA
045F
FFD1
0355
02B2
0012
F93A
0392
F987
FE04
04CB
015F
04BE
FC8D
FF48
FA07
046A
FE96
F919
0384
04BE
FDAF
FDEE
FDE5
042A
FCFA
00BE
FDEB
07D2
F661
01BE
FC01
0231
00DE
0557
048D
FD3F
0532
0875
00F3
017F
0134
FCE6
002F
001D
0385
037A
0167
FECE
FFC8
01C0
05FC
0367
07DA
0307
FD14
0436
FDC9
00DC
0046
FC07
03D7
0620
0034
04F6
062A
FCF3
00CF
062D
FD8B
FAB6
0369
00E8
0081
0196
0362
F8F0
0185
FEA6
039D
FCEA
00DE
FF51
03AD
FD04
FAD7
053E
F993
0522
0192
00E7
022C
FEFF
07E6
FC9D
02DF
0456
FE27
0553
0615
03FA
FF2E
074F
FD3F
02C8
023B
FF8F
055B
FEFD
00D1
02C7
04A8
02AD
FE0C
FEBF
0638
01CC
FC23
0228
033F
0064
FF36
06D2
FDEB
00D7
052F
0075
00BC
0330
0C6E
0371
059F
FF06
0EA6
FE5C
050E
0862
FEC5
FCFB
06C7
FD8F
00E1
046D
0134
0038
05A3
09E7
058E
0862
042F
022B
0285
0211
0034
0500
FFF5
F834
0033
0569
FEA0
FE51
01F4
FEC2
FC32
035E
075D
0448
FD59
02F5
01E8
FF52
0174
0356
FF2C
00BA
FCB2
00ED
F936
03D8
03E4
0173
FBB5
02F1
F3F8
FECC
FA4B
0186
FDD9
FBC6
FE50
004B
FF04
FEFE
021A
FEE1
0137
F68F
08C2
00A4
FE5D
FD33
021E
09DF
FBC6
FACC
06F7
FCD1
0764
0577
032C
FE77
054E
F9E2
FE57
03D9
F618
FBDE
000D
FEF1
00A9
FCFB
FE4F
0068
02F0
FE3C
FABC
050A
FCBE
0085
037F
0085
FF63
F9F1
FBDE
0824
FB91
FBCE
FC22
05B8
FD82
FAEF
FE5B
FEBE
F67F
0155
F760
FC51
FF2A
FEFE
FC29
00A3
0064
FC09
F847
0468
FFFF
FC52
0052
F6D0
FF4A
044B
FD82
FA26
FAAC
0085
01DB
0226
FE2F
FE5C
04C0
0146
FDBA
00CA
00B5
F95E
FAAC
0515
F589
FBE4
08A0
06B9
0967
0246
02D8
0267
0094
F8B9
06D4
FA31
02A4
0431
012A
FB45
FFF1
0950
0575
FC97
0395
03E4
0146
03EF
007E
00A0
FFD8
00BD
00C8
FDEE
06E8
FC52
FF88
033E
FCDD
0833
0129
FD77
FF16
0118
F7B8
FB8A
FD53
0228
06B3
F707
FCCD
0603
FCCD
FE29
0534
FADC
FEBF
012F
01B4
0090
067A
FFAA
007E
FD65
FD29
FEDF
0001
044B
FA80
FF1C
FFF0
FAC8
064B
F8B4
FD40
F904
0082
FC50
01D0
0110
009B
FE35
FEF7
F740
FF2D
FDB2
F842
014C
FD94
080F
FEAA
F983
FC49
FF18
F981
FD0C
0734
0269
04DE
02E7
0048
FC84
04DB
FD15
038A
FFE3
0107
F7A0
FFF9
018F
FD01
FA3F
FD89
F74D
02FF
F820
FE2B
F8CD
FFBA
05BD
0330
FB19
FD38
FFDF
0662
FA68
FEEE
0469
008C
FFD4
FE5A
0235
F6C5
0415
006E
0436
00CF
002A
035C
03A9
0068
FD01
FD76
FF1B
FC23
FBDA
FA39
0213
01F4
010F
F682
FB5B
FE56
FB0F
0330
00D2
00AD
036C
FC74
0305
02A7
0094
FFD7
FAC8
0570
0395
0211
FA01
FE47
0268
02A2
F2F7
FFC4
FBB6
FFE8
0016
0651
F97B
0124
FCC9
0058
0072
FD4E
FCB5
0126
01FB
0286
02F4
FD7C
FF85
FAA5
F8D2
01E7
00A4
01CC
0321
037D
014F
F7F3
FF67
FCFC
FE7A
FF37
FE1A
06BD
02B8
FED0
FA58
0661
08B9
FE05
FC0D
FFF2
0995
FA0C
FBC9
02CA
F646
FBAE
FD80
FD5D
FE6F
03AA
057B
FF6D
02EA
FAA9
012A
0247
022B
FE7D
028C
FE11
FD35
0664
008E
015C
059D
009D
0218
FD6E
0352
FEE0
0155
0439
FC3B
0257
009E
FE0A
FCBA
05B0
06E7
FFC2
024C
FA91
04DC
0B4F
FE57
0826
FF71
FD0F
FBD1
FBC8
FCE4
F728
00EE
0383
0202
000C
028E
0245
00AB
0129
F67E
0185
FFED
FA8A
0225
FE1E
FEE2
0275
FE5E
0025
FD52
FBD0
01D5
FD21
F840
FC80
0303
0093
FFBF
06D8
03D2
0710
F8E7
FEFC
02F0
021F
FE75
FDD7
FBF5
0200
01FC
FDDC
03D5
FD10
0198
F985
01E6
0419
0065
0845
F6F1
F798
FB75
0516
FBCA
03E7
058E
0813
004C
FF05
FAA5
0350
FA92
FE4B
F903
0206
F448
FFC7
FDAE
FCD8
F9C2
FC9E
0147
03A3
F673
FB17
07C5
FF33
FD9A
F91C
025A
FBD6
FA19
01BF
FECA
F8A2
FD64
04C4
FD1B
FBD8
F974
FC1F
0056
0538
005B
FB8A
FD1B
FF22
001F
FF3C
FEE7
F83C
0097
F7C9
FAC8
F7E0
03D9
0404
F811
F883
0392
FE0E
FD31
0041
F5FB
FD02
01FA
FB95
FB89
0120
FB96
0555
010F
F798
0293
FDE1
FB32
06FB
0584
025D
01DE
FEB1
FE59
02E9
0165
028E
0090
03D5
034F
056A
FE8E
01D0
FCA3
05C9
FA90
09F1
0332
035D
0626
0261
0099
0272
0672
F861
FE66
FBAE
0286
F7BE
02EF
FB2D
09BD
00C7
FF9B
0AEF
01C1
00EE
0472
FED5
032D
04BA
FF27
00BD
FC2D
0498
FD6C
00E8
0093
06BD
0B67
FAE3
FF6F
027E
0013
035C
01AE
FB3F
F98C
05C3
0465
0749
FFBB
012B
02E3
04BD
00EE
006F
FEA8
FE16
FE73
05AD
FE15
FF9D
FF1D
FC8A
0212
FC41
06AE
017E
018A
004A
FF2E
00CF
FFB9
060D
0296
FF28
0712
0087
0342
FF96
FF00
0332
FDDA
F959
FC78
05A7
FEEB
FE1C
00EF
0380
0403
0439
FE96
0435
06EC
FFB4
0307
0436
0911
04E5
FF5D
FAF3
050C
0397
FFAA
0055
0349
04A6
069C
FFB1
00B0
FF23
07F8
0009
004D
FD00
F877
0427
FD40
0172
063C
FEF1
0222
0192
0176
FEA1
FD60
026D
FEE8
FBB1
F24C
0127
FBC5
FB41
F5D3
F9A9
FF53
FB8B
F969
008D
FAC6
FEF7
035F
FC51
FB97
FCF2
FD69
F661
FC32
001C
022C
0486
FECD
F5A3
FC65
FCF0
FDDA
FBFF
0216
FEC7
FEE1
FFAE
F807
00E6
0723
FCB7
FB99
FA38
FCEF
003F
FA5A
FC7D
009F
00DA
FCAD
04B1
00EA
FCFE
02C0
F598
00E6
057D
022E
00B6
0010
0791
08F9
FCC4
00DD
0524
0526
FCDD
FAB4
FF75
0270
06C9
076D
FFD8
0088
FC9B
0255
0145
0329
0831
FE6A
FC5E
FC8B
FBAA
FFCB
00A9
FFAB
0138
01CB
07BE
034F
FCF4
015E
FAD8
FA15
0294
FAA2
03E9
035A
003F
FECF
FCC3
FF4F
0364
FF2C
FC2C
04CE
00F6
02EC
053E
0134
FE2B
FF8B
007F
FF1A
07FC
008F
025B
FD09
