FF15
003B
FF4E
00CA
FEAA
00AF
FE7B
FD53
FE24
FEB3
00FC
FF44
0025
FFDE
00FF
0139
0069
00C8
FF1A
004A
003B
FFD9
FF34
00E7
00D6
FFB3
FEE0
FF43
011C
00E7
FF28
00BA
0172
FF56
007C
FF55
FFD9
FF2B
013A
0009
0108
00B3
FF6D
FFCF
FD63
FEC9
014F
FE29
FF36
FF1E
021A
0050
0019
00D9
FFD2
00C2
0097
FF3C
0040
FFB3
006A
FE7B
0084
FFBF
0215
011D
FF95
01A0
00CB
FFC3
FFDB
009B
01BD
00C5
FDC6
000D
FFC1
0173
008A
FFB9
FFDF
0116
FF4D
FECB
FD28
FEAC
0146
FFC0
FF32
FF04
0064
00AD
FF01
FFC9
FF88
00E4
FFCB
FF90
FFEC
004B
FE54
0049
FFDC
FF2A
0005
FEFD
FF46
FF94
003F
FEE5
0013
005C
FEE8
FF0E
FF86
FD9C
FFA1
FD12
006F
FFCF
FE85
0147
00A7
0008
FF5E
0185
FF64
FFF3
0051
00DB
0154
FE70
014D
FE41
01CC
00AB
0049
FE98
FF49
FF3D
FE6B
FFF2
0304
0109
FF55
012F
FF0F
FFA9
007F
0116
FE88
0063
FEF2
FF50
FF96
00A1
004B
FDDD
0068
FF1E
00DA
FEAA
FFC9
0107
FE72
FEB8
0073
006F
FFD2
FF4B
0023
01A3
0066
FF63
FF2A
FFFF
0057
008B
FE56
005E
FF1D
FF17
FFD8
FEBD
00E5
0271
00C2
FFF7
00E3
FEF9
FF28
FFD5
FFAC
FF57
006B
00D5
FE3C
FEC5
FEED
0014
FF8D
0095
FE4E
FF65
0035
0199
FEED
FEEF
FF20
FFA4
00F1
FEAC
FF83
00B5
007C
FE48
FFB6
006F
0125
0161
FEFA
FE4A
017E
FFC0
019E
000C
0159
00D0
FDB3
0034
0055
FFFF
0073
FF82
001D
00CD
FF9D
0010
0051
00AD
009A
0122
003D
00F6
0004
FE18
0006
004D
006D
FF62
FF15
FF97
FEEA
FF55
FFAC
00A3
00BB
FF35
0005
FFF7
0086
FEA0
000F
FFFF
FFF4
0105
01AC
013E
0045
FE84
0009
01F1
FFEA
0089
028A
01B0
0048
01C1
0087
00FB
015D
0078
FF47
01E4
FF33
FF32
FEA6
0109
0068
FEDB
00F2
016B
FF9C
FF0A
FEF9
00C6
FE80
FF53
00D7
FF8E
FFA8
00ED
FF04
0051
FEA4
01CB
00CC
0076
0179
00A5
010B
FF8C
FF4B
0032
FFAB
FEAA
0087
FF3E
FF66
FF3A
0013
002B
0223
01AE
FF70
FFC6
01E0
001D
FC70
000C
00A1
FFD2
FF6A
012B
008D
0067
FFAA
0043
FF54
0135
FFA2
FF7B
FFDE
0014
FF99
0139
00F1
0230
FFAA
009D
FEEB
FF41
002A
FF04
0156
FEA0
001E
00A3
0130
FF8F
FE3E
0080
00D4
009C
004C
FF33
FFF9
00B5
004C
FF21
0111
002E
FF69
013C
0034
FFD6
FF2E
FFA4
FF03
0037
FF63
FF1F
0104
00D1
FFD9
FE18
FFF2
FF48
FF06
FEA1
0039
001B
0067
FFC0
00D2
FF4A
FF19
0085
FFC9
0200
029D
0003
FFCB
FE2B
0081
003E
006F
FEB8
005F
0017
FF75
0065
0195
009B
FE65
FF37
FF22
010A
FFA0
0009
01FA
FF17
FF28
0043
0039
0123
00D8
FEF5
FFDE
FF95
FF29
0036
0111
FF7E
FFC5
FCFA
0057
007E
FFBA
FEB3
0043
FE7E
FFE4
0115
0227
FDFF
01CD
0045
0057
00CF
FFE4
002C
0012
FDCD
FF82
00E6
01D1
FF8A
FF92
0073
00EB
FF71
00B1
FE7D
0069
0019
FFC6
00A0
002F
FFC1
FF79
FF1C
0085
FF51
024A
FEA8
01B8
005E
FFFE
000B
FEE0
FF70
01FE
FF25
FF16
FECC
0030
00D3
0044
0155
FF5E
FFEF
FF1F
FE39
FF8B
FF24
FEA7
000E
0067
FF87
0170
0074
FF71
0024
FEF9
FFF1
FE89
0224
FFD8
FF61
FFCF
FF58
0128
FF22
00DD
FEFB
0064
00A9
008F
009E
FF8C
003F
FFD0
FF15
0139
FEE7
0164
FF87
01E6
FFFB
FF8A
011E
FF73
008D
FF68
FFFC
FF39
FE97
FEFC
FF62
FFC3
00B1
FEB0
FF4F
0147
00E4
FFB3
0072
FEE2
FF05
FF79
FE82
00E9
00C5
FF4A
004C
FE13
0167
FF80
00B7
004F
002F
00F6
0082
00F2
0078
0113
FF43
0238
FF2A
0009
FE7F
FEE9
FFDE
FFF7
FFA7
013E
FFB1
00D7
001F
FFD3
FF67
0101
FEF3
01D6
FF38
003F
FFD1
0099
FE39
FF01
FF4F
FFF2
00D0
FECC
002F
0045
0267
0137
0047
FF83
011F
FF6C
015F
FFA1
FF64
FFAE
010B
00E3
FE7A
000E
0127
FFF9
FDF4
00F8
FF1D
FFE6
0141
01F9
003B
00D2
FEF3
0228
01DF
0127
FFFE
FF82
001E
0173
004A
FE61
FF53
FEF4
FFEB
005D
004B
FEEB
00CF
FF8B
FEC0
FFD7
FF28
0003
0304
FED9
002C
00E2
FFFD
0213
FEE9
0061
FF95
0024
FEFB
006B
FE51
FEEB
FFFC
01CE
FE87
FE67
00BB
0136
0027
00F6
FEA7
FF6D
0052
FE6A
00E5
FF15
002A
FF90
0041
0018
00CC
FF59
FF0C
0202
FE2F
012B
FF68
FE8E
FF9A
0072
FF06
002A
00A2
FF6A
FDA6
0011
00A8
FFE7
FF8E
00E7
FF53
FF94
022D
0065
0052
FCB8
001F
FF95
FF62
FE36
0140
0020
FF41
FE7A
002C
0005
FEF5
FFCF
012C
00DE
0019
02E0
FFA3
FEBE
FFC2
FF54
FFE1
FF0F
00AF
FFD2
0004
0053
005B
00F0
01DE
FECE
FF6C
025F
018E
FF6F
0168
0111
FED9
FF65
FFF8
FEB5
FF71
FE39
0002
FF96
FFEC
00BE
FFEA
01F9
FF52
008B
FF7E
019C
01DA
FFC0
FEE1
00F7
0014
00FC
FFF4
0103
0070
FE7F
FDE2
0033
0215
FFDD
01CE
FFC3
FF16
FFBA
01E3
008B
0173
FDCF
FE48
FFEA
00F1
0020
FF72
FF23
FEE9
FF34
0008
0079
FE98
FD4D
01D4
028D
0169
00EA
00EC
00E6
FEA2
0085
FF8A
FEE2
009D
0020
FEEF
0045
006F
FFB1
FF61
FF0E
FF57
FEE7
00B9
004B
006F
FF32
FF97
FF70
01E3
FD1E
FF61
0109
FF60
0040
FF8F
0271
00D9
012F
0176
FF6D
0109
FFE1
000E
0011
FFA1
FFEE
0099
FEAE
FF3F
011D
FF62
015F
00E8
FE84
00DB
FEAD
00B9
FF8D
FF79
FFC8
0046
00F5
00DD
0075
FF23
0078
006A
FE54
FEB0
00AC
FF9A
00BC
FFA7
FFFE
00F0
FEC2
FEA2
012A
FF9F
FFC3
0032
0168
021C
FED3
FF95
FF43
FEB1
014F
FE75
FF91
FFE5
FF66
FF1E
00DD
017E
FF92
FEBF
FE71
0034
00BD
00F1
0104
0008
FF95
FF24
FF8F
010A
FF4E
FE7E
0145
0178
0108
005D
FFED
0080
0078
FE4E
FC71
0084
002A
0131
012E
FFDD
FF44
FFCF
FFAA
0065
FEA0
00DF
024A
FF33
02C3
0000
0057
FEF1
0001
FF79
FE97
0012
00C0
FDD8
FE81
FEE4
FDEB
0001
0222
FE16
0089
FF1C
0009
FF9D
01DC
00FA
FF4F
0028
FFC3
FF7D
0043
FEE3
FF83
FF57
00D3
006A
0115
00ED
FFE2
FF4A
FFDA
006D
FF7C
00FF
FF41
01FA
0044
013E
01A3
0187
FFD0
019E
007F
FEF1
FF5C
024C
0252
00BE
0098
FF03
FEF6
010E
FEFC
FDCF
0153
FEE5
0000
FF7C
FFC4
FE1D
00DD
FF54
0032
FFA2
0196
FFBD
FE5B
FFB5
FEAA
FFC0
0064
00B5
FFC7
0061
00A2
0183
004F
FEED
00D5
0283
FF16
00DC
001C
FFE1
FF38
FFA5
FFE5
00A5
0059
FFC4
0163
FF58
FE79
FFCF
0094
0071
FDC1
FE91
0049
FF5C
FFF8
0064
FFDC
016B
0014
FE80
0099
011B
FEBC
0058
FEB5
FEFB
FFD6
004D
FEFE
FE2D
0061
FE97
FF3C
00E2
FE7E
0020
FFC8
0080
00BB
0175
0193
FF6B
FFFB
001F
023A
00F4
0061
FDEC
012C
FF97
FF2C
FF4C
00A2
FF80
FE9B
0000
FE03
0058
01F0
FFF7
FEF3
FFB3
FEE7
FFCC
FECC
00DA
0248
FFAB
00F5
FEFC
FFAB
FFBD
01A7
FFF9
FE9D
0016
01A4
0163
0002
001E
0098
FEBE
015A
FF6C
01B9
00E8
00BC
FDFF
FF8B
FEAC
0026
0043
FF60
FFD7
0045
018A
0095
FF2B
FEEB
FFE3
00B2
0041
0074
FFCB
FF70
FF9D
FE9C
0035
FFD6
FEF7
008F
0061
FFE9
01ED
00E7
FF29
FEC6
00A6
00B6
0136
006B
FEE9
FE09
FF65
010B
FF52
FF6A
002C
FEDE
FFE4
02DB
004D
FFBE
00DA
FDDC
FE43
FE12
FF47
0131
FF83
FE66
FF4B
FF98
FFC3
0077
0003
FFA0
FF9A
00E0
01FE
016C
005D
FF7E
006E
FDC2
FE27
02F9
00D3
FFE1
0120
FF05
FFC5
FEA6
0148
FFC0
0264
FFF7
FE46
00C3
0247
FF30
FE3D
FDBE
0099
00E8
FF5D
FF79
00A3
0080
FDF6
FF9E
0193
FE93
00C7
0069
FFBB
005D
013C
FF81
FFC7
FD5A
FEE7
0195
006B
00BD
FF52
000A
0096
FF6B
FF64
0126
FEC7
0014
003F
000F
FE64
0111
FFB5
FFFD
00F8
0007
0034
FED4
00F8
02A4
FF78
021A
0125
014A
010C
0017
0061
00E5
0096
FEB6
0040
00B2
FF59
FF72
FEF7
FFD1
FEC8
00F2
FF4E
FFE1
FF26
0076
FF6E
0028
FF8C
FF7E
0076
0040
0081
00D4
FF7E
FE7A
0076
00CD
027E
009B
FFFD
001C
0044
FFA2
FF48
00B6
0239
0138
0055
FDC8
FEEC
FFE7
005F
FEA4
00DB
FFE0
000A
FE3F
FF59
FED5
FF96
FFFF
0049
FF6B
FF87
FEB3
FFE5
FF48
FE90
0121
FE80
0065
FFCA
FF61
FFC1
016F
00E8
FFA5
0156
007E
0023
001C
FF8D
FF6A
FFF2
0030
004A
FF70
FF80
0092
FF51
0047
0072
014A
0021
FFC0
0134
0076
00CE
0039
014D
FECC
0152
0004
0079
FEC1
021D
0000
0091
FF09
0029
004D
00D4
01ED
005E
FF0E
0003
00C3
0075
FF37
0132
FEF3
FFA1
FECD
FE31
00B6
00CA
FEC5
FFBD
FF9D
FFAE
FF2D
0035
FEC0
FFBD
0128
00F9
FE74
01DA
007E
FF51
FFC8
00C5
009F
021E
FF6D
01A8
0114
FFC4
FE94
FF92
FEE9
015B
FFA5
FFD8
FFC7
FF82
00D0
010C
00BD
FF3D
014B
FE8C
FEB9
FE0F
0026
0030
003A
FE73
024E
FFEC
0017
002D
FFF2
FF65
FF63
00E5
FD88
FECD
FFD3
0100
FF20
0138
00F9
FF9B
0162
FECB
FF17
FFA7
0020
0123
FF2D
FEB6
FF95
0015
FFEE
0083
FF54
FE15
FEEC
0053
0158
FE3D
00ED
FFF1
0113
0072
002E
00F3
00C1
FDD6
FFFF
FF6A
000E
FE02
FF37
FF51
005E
FDF4
FFA1
FE2A
FEE8
0090
002D
FFAD
FFDC
00A1
0079
FF35
FF6C
0168
FF3F
FEFB
0043
FF68
003E
FFC5
010E
0062
FE07
003C
00CE
FF3E
FF43
0023
0032
0128
FEC5
FEA0
FEF3
01F0
00FB
01DC
FEE8
FE79
013E
0159
010C
FF39
0009
FEED
FFDF
0137
0135
0160
0164
00A9
0069
FE44
FFED
01A3
0338
00C1
FF23
0199
0114
FE31
FF68
FF38
0155
0062
0163
FF44
FFFE
FF72
FEAF
010D
00A4
FF9F
FFA3
FEA2
FF29
0137
FFD2
FFD1
FFE0
FFBF
0001
002A
FC7B
FFC6
009F
FED9
FFCF
FF74
0101
FE4F
0148
FF30
006F
FEFA
FF48
0094
0014
FE5D
FFD1
002F
0141
FD1D
00AF
00D6
FEB9
0035
0098
009C
0140
FF40
FFD4
0047
FF39
FF5D
FF8D
0000
FF6E
0005
FF98
FDF3
0007
FF19
003E
FFC8
01AA
0210
FF2F
0123
00BC
FFB5
FF9D
00BB
007A
000A
FF38
0017
0082
FF97
0062
FE6E
0197
0041
FEEE
FF79
FF35
006C
00C5
FE7E
FFAD
FFFF
001A
000C
FFA9
01D2
006B
FF26
FFF6
FEEF
FF07
FFBD
00AC
010A
0247
0115
0054
FE33
0062
FE5A
00A4
FFEE
FD8A
FF9C
0021
00B5
0080
FF3D
005E
FCE8
FFAD
FFCD
00A7
FF9F
006A
0083
FFE1
0304
FFAC
0145
FFF4
FE06
FF2E
FF59
001F
FD55
0141
0054
0028
FFB5
0150
FED5
00A2
0103
FF4D
01B9
FFB7
000A
FF89
FFC8
0042
0046
0135
FFD4
0123
007F
00AC
FFD8
FEA8
FE77
00E4
001D
FFF7
FF7C
FE99
013A
FE6B
00F5
FF96
FF71
00C4
0087
FF8A
00A5
00B6
001E
0255
00C2
01F0
FFA5
FF29
FED1
FF0A
FFD8
FF45
FF10
FF55
FE8D
0175
0187
005F
008B
FEE7
00EE
009C
0146
FE49
00F4
019E
0024
FFBB
FFD8
FEF9
FF93
00FA
00AA
0087
0096
FF95
0060
010E
FF59
000B
0038
0016
039D
FEA6
0196
FE70
0050
013B
FF79
FEE7
0095
FF45
FFF8
0074
0265
FF53
008A
FF5E
001A
00B6
00CB
FE51
015D
FF84
FFDE
00B6
006D
009D
0188
FF10
0133
0032
FE62
014F
0086
FFF6
024B
0071
0018
FF85
FF35
00F2
FFD0
0086
FEBE
0138
01A4
FFE7
FE2F
0073
FFC9
FFCA
FEF4
01C5
0090
011E
FF22
FF10
FFA7
FF19
FFBB
017E
0075
FE72
FF86
FDD0
FF85
0036
FFFB
FFF9
01C4
FFEC
00FC
FF64
008A
FF69
014C
006B
005B
0011
FF48
01A9
000F
FE55
FD39
FEFE
00D5
FE9F
0108
FF10
FF99
FFE6
FF78
FFD8
00BF
01F2
FEFA
00F5
FF2F
0187
FF92
012A
FE60
FFDD
00EE
0138
FF97
0140
0086
0147
0102
FE3C
FE95
0082
0081
FEE5
FEBA
0035
FE95
FF50
0011
FEBF
FF9A
FFCF
FFBF
FF3D
FE3E
00EA
0162
01D0
FE9E
FFEE
006A
007B
FEA7
00A9
FEA0
00AC
0038
FFEB
016E
FF12
00BE
00D8
003F
FFC1
FF70
00DA
014E
FF3E
00AC
0014
00A8
FF43
0137
FF49
FE8E
01B2
004B
017A
FFE5
0101
FE6A
FE1A
01B4
FFC3
021D
FE56
0154
FF3A
FFBD
00B2
000F
FF2D
0105
0069
FEF4
0046
FF55
FFF5
0021
010E
FF2F
00DD
FF96
0191
001A
00A5
FF53
00A6
009B
011A
FF98
FFE1
000C
FDDC
FF94
FF8C
0088
FEC1
FF39
FFB1
0004
FEDB
0054
FDEF
FE42
FF92
FF53
006A
FF33
010D
FFFD
FFC5
00AE
FF19
015B
FF4E
FF4E
FFC8
017F
FF36
FF6A
FF54
0271
FE62
0026
FF29
009C
00A3
0013
FDEF
FF88
FE75
FFDE
FED8
FEB0
0147
FEC7
FD21
0084
00BB
0078
0013
FF2B
004E
FFB0
01FB
0186
FFF9
FE85
FF01
0010
000D
00C4
FFEC
FEF8
FF06
FF45
FFB5
01F0
FF51
FFBF
0007
00F5
FFC6
FE37
FEC7
FF60
FFB1
FF43
0157
FFE5
0018
FE24
FE28
FFF5
00A1
FF04
FE3B
FF76
FFB0
0038
FFE7
FE93
FEBE
00FD
FFA1
FFE8
FEB3
FD6C
0050
FEBB
FF69
00CD
019A
009A
00C7
FEC3
FF9F
FFB0
FFC8
0050
FECB
0027
FF75
0032
FE70
FE2A
FFD3
01A0
001C
007E
0028
FFA7
FEB0
FF92
019C
FFB8
FF35
0028
FFC4
0045
010F
FFDE
FECD
FEE6
0014
014E
FF97
FFC0
0178
FF0F
FFBB
0011
FFA4
FF6B
FF0D
FD9A
01F0
00CB
012A
FFCC
FEC2
FE21
01D2
FF54
004E
FE81
FF0A
017B
FFC7
FFD5
FF54
FF72
FE9F
FEEE
016A
0025
0037
FF9A
00FF
0055
FFC6
00D6
00B7
00A5
0013
FE61
FFE5
00CE
01C1
01F5
FFE8
0022
FF5E
0241
FF74
0253
FF9B
FF80
FF6F
0150
0175
0087
FFDE
FEC9
FF84
009D
FF37
FF30
0066
FFFA
FEA5
008D
FDC0
FEFB
00D5
0211
00FC
0017
00B9
0124
FEF6
FFB3
0043
FEDA
013C
0165
0172
FFD3
002A
FF36
FFDA
0000
0057
00D3
FF6D
FF0A
FF17
01C5
0106
FFB6
0169
009A
FFD7
00EF
FE8F
FE71
FF9F
019C
011B
0001
01C3
0226
FEBF
FEEB
FF83
006B
FF55
01B5
FEFA
FF48
0070
0007
FE86
FF52
FEDA
FF89
FD8F
FEDC
FE40
FDCA
00DD
0093
00FD
00CF
008A
0056
0109
0053
FEC6
FE19
FED8
FD46
006A
0294
00DC
00F6
0145
0124
00D2
FFEB
0042
FFA8
FF9B
FFD7
00E7
0050
00A4
00F0
FF90
012D
0095
FF81
FFFD
FD8A
FEB9
01CA
FF0E
FE12
FF86
007A
FF8A
0049
FE77
0096
FFD7
0049
0165
FFC3
FFB8
022D
FF03
FE90
FFB6
FEFD
0106
FFC0
006A
0184
FF89
0022
FF8E
FF05
FEF5
0091
007F
FE6C
01F6
005E
01E2
0015
0005
FE34
00DF
00A6
FF85
FF9C
FF30
FF0C
FFB7
FF45
FFCE
0071
FF97
0000
FE1F
0125
FE3C
FFE7
0010
FF76
0030
012B
FF2E
FF8B
0082
0115
0180
FEF7
FF88
010B
FFA0
00AA
00AC
FF5B
FE0D
00FB
FF17
0092
015B
012D
FF54
007F
FED4
00FA
000A
01BC
FF40
FEC1
0008
0072
FF36
0086
00BA
00EF
011C
FF3D
FF15
FE19
FF5A
FF98
FD99
004D
0055
004B
006E
008C
004A
FDCB
FE86
FFF2
FF7B
009F
FF5B
0065
FE47
0063
FF86
01AD
FF86
FFCD
FEE3
FEE7
FFAE
FF80
FFEF
0090
006F
0140
FFCD
010D
FF94
0016
FFB8
0188
006C
0025
FF25
FFBC
FF18
00FE
FEEB
00BD
0073
0018
FD4C
0088
007B
FF38
FF6E
FEFA
0042
027C
0088
0016
00EC
FFB8
00F4
FF56
FF95
0005
0101
FF88
00F7
0023
FF86
0024
FF60
0084
FD93
00DE
0022
FF93
FF09
00A9
FEEA
FEE5
FF12
001F
00AC
0121
FF6C
FFB3
016D
00B1
FF3C
0121
0100
00EF
FE73
00F0
FF09
00CD
FDD3
FF57
0054
FEF6
FFEE
FE0C
FF7B
0173
0115
01A1
FFFD
00AE
FE52
00D7
FFA3
FED9
FF7E
0051
0083
FE61
FFFF
FF78
004B
FD21
01F5
01ED
016A
00F6
0012
007A
FF41
015F
000A
FF1E
0008
00A7
FE05
FEDE
010F
FEF5
008C
FE83
0026
0098
00AB
FF62
FE60
0035
008F
0086
FEC1
0098
01D3
00B5
FDB5
00DF
00D6
00B2
0016
FF65
FEE7
FEDA
0084
FE86
FF50
FFE2
01A3
FFFA
0059
0079
0088
0128
FFDF
FF96
00F0
01D2
FE8C
0143
0049
FE3C
FF77
FF9D
00A4
0016
FF57
004A
FF66
FF55
FF6D
002C
FFD9
FED2
FFB9
FF24
FFF4
0011
0052
FE5E
0000
FEC8
0046
0131
0133
FE47
FF71
FF4C
0133
FFAB
004C
001B
FE5E
FFCB
00E5
FD4A
0158
FE3C
FFD3
0023
FFE0
FEAF
0242
FED7
0009
0031
0111
FFFF
FE18
01F1
FEC0
FFCF
0092
FF6D
FF20
00E4
FF66
0014
FF19
FFA6
0008
FE71
0144
0194
FE86
FFA4
012E
FF18
00B6
0020
02EE
00A6
FE4A
FFCE
007B
FEE6
0038
01EE
0022
009E
01C7
0155
01AE
000E
FF52
FEC7
FE52
0173
012E
FF8E
FFAC
007A
FEBD
FF94
012A
0265
FF83
00D2
007F
FE41
FFC8
FF85
FFBC
FF62
001F
0076
00C9
FF7B
FF4A
002A
FF37
00A7
FFAA
FF3A
0278
0159
00D6
FF2A
006C
002D
00A9
FEEB
01CB
0161
01B3
FE03
0150
0024
FF7A
0053
FF1A
0128
FD9A
FEA6
009E
0068
0012
006E
FF82
00F9
FEAD
0078
FF82
FE1E
0062
019A
02A9
010B
006B
FFFD
FEAF
FEFA
FFCC
FF54
0020
FEFE
FE8D
00F0
FF07
FF3E
FF60
0089
00CF
FF1D
00EC
009B
00BC
FE0E
0004
FFF1
00D6
FEF3
FF42
02A0
006B
FFE6
0002
00F3
00AB
FF13
00F7
FF77
012A
005E
FF76
FEDD
FF73
FF79
FFC2
011A
FFB9
FF26
FE6D
FE9F
FDE5
0033
015D
FFD1
FF5E
FEFF
00EC
FFD6
FF7F
FFDE
FED4
FFEE
FFC5
0184
FEC9
00F4
0081
015C
FEB2
0001
0029
FE5D
012C
0074
0137
0026
FE88
FFB3
00F5
FF76
006B
010A
FFC5
00DC
0161
0095
FDFC
FFA9
FF9F
0128
007D
0082
00F6
FF34
FFA2
FF16
FE74
0126
01A8
FECE
004D
0024
FF45
0141
FF0A
FF5E
034E
FFA6
0121
FE5F
0078
FF5B
FF40
FEE4
009B
FF73
FF89
0039
FDE6
01B1
FEDE
FE9A
032C
0055
01F0
0203
005A
FFBA
0157
00D4
007A
FF5C
0003
FF8C
FFB5
FEE7
FF2E
014A
FFEF
00E1
FEFB
01C2
0097
0173
FF87
001F
002C
02C6
000C
FF43
0037
FE48
01B8
0039
005C
0011
FEC5
FEE3
FEE1
FEB3
0049
0145
FFA5
FCCC
00A4
0008
0205
FEDE
00B0
FFA1
001D
012A
004D
FE87
FF55
002D
FFB3
FF1F
00E7
00D3
011F
FE5E
FFFE
FFD1
FED2
001C
003A
FECC
006A
FF95
FFC8
FFBE
01A0
00DB
002D
FF9E
FF6E
FCF6
FFA8
FEC8
FEB6
0003
01F9
014B
0024
FFA7
FE78
00E2
FFC4
FE8E
FEFC
FED3
00A7
0070
0062
000A
FEFC
FE5F
FFF4
FF1C
00BD
016D
012A
FF75
0208
FFE2
FEC8
0058
FE5E
FFB4
003E
01EF
0011
001F
FE68
0006
00BD
00F5
FF88
0125
0122
016C
FEDA
FF92
FF21
0246
0050
0073
00EF
006D
FF28
FEEC
0076
004C
FEF4
00DD
007E
011B
FF70
FFAF
FEBE
FFFE
FF38
FECD
0037
FF4E
0156
0050
FFF8
FF3C
0060
FF37
FE73
014C
FFC6
00B3
0152
0057
FDC5
FE7B
0125
FFE2
FFB3
0081
00CB
FEED
FF12
FF2F
0067
00EA
0067
FFE9
FF9E
005B
011D
0003
01CD
0051
FFE1
FF72
0131
FFD8
FFCA
00FD
0179
01D1
FFD9
FF29
0192
FFFD
00F2
FF60
FFA1
FF58
006B
FF13
FF3B
FF32
FECD
FEA1
00B4
FF7C
0150
00AA
001C
FF7C
FFC5
0034
00C2
FF1B
FFAE
FFE6
008D
FE49
FEF5
FF99
FE73
0152
00CB
FF72
FF73
018C
0019
FF21
0080
FE9C
FE71
0113
FFE5
FF6B
FFED
009A
005F
FFB6
FF57
00AC
00A8
0052
001E
003F
0119
0080
FF49
FF53
FFD8
FF2F
FF81
007E
00EC
FE04
00E7
FF22
0102
0157
FE18
00D1
0184
00C7
FFEB
FECF
FE9B
FEEE
FFB3
0018
0082
0060
0088
FFC3
0056
FEF3
FF9A
FF3D
FF54
0074
FF9C
01D6
FF36
FF2D
FFBD
FE70
0017
FF77
01AD
FFF9
0000
FFB3
FF8A
0079
FF7F
FEF5
FF21
FF33
FFC7
0039
0088
FF3B
FF37
012E
017E
00A0
00E1
FFB7
FFF7
0054
FF76
FF0E
008B
FF4B
01F7
FEEA
FFD1
FEE3
FF9F
0035
FF9E
00D5
FEEA
FFCA
012D
0080
00C4
013B
FFDF
0012
01A6
000B
FF5A
008D
FF9D
00D0
FEFD
FF8E
FF6A
FFF3
FEB2
009F
FE91
FEC3
0089
000F
FF66
006D
00D0
002B
FFDA
0151
FF4E
00C6
0125
00F4
FEF6
00BA
0064
FF53
FFF0
FDEE
FEBA
00A4
FFBE
00CE
00E8
007D
FFD4
FF91
FE96
0071
0057
FF85
FEF6
020A
02F6
FFA6
FF71
FFAD
FFD5
0033
007B
0140
0052
002E
0176
FE16
006C
0021
FFB0
FF85
FED3
FE2C
002D
0135
FE5C
FF48
FE70
FFA7
009F
006D
FE1D
003B
00E7
00F0
FF53
00A1
FE71
01B7
FE97
0013
FF41
FF33
FF6B
0167
0006
00DD
007A
FF84
00B8
FFF0
004E
FFA3
01C9
000C
FFD4
FE43
FF8B
FFA5
0001
FEAF
0054
FF99
FF5E
FFC5
0110
0117
0087
FF62
0132
028C
00D5
FFD6
FFCF
0082
FF9F
0000
000D
FFFB
FF55
00C2
FF57
FFC5
FF80
FF5A
FFF9
0159
004B
0070
0141
01B1
FF7F
FD78
00AD
001C
00C1
FF76
FF8C
00F8
FF5A
FFBA
FEDD
004A
FF65
0027
010C
0105
0009
0049
FE4F
001A
0076
00E4
0073
FFC6
002A
FF4F
FF5B
00CA
FE88
FFA5
0103
FDB3
FFAE
02A0
FD42
FF28
024A
FFF3
FEFC
0021
0061
FFD4
0110
FD38
FEED
FFB4
0051
FE0B
023E
007A
FEF0
016C
0153
0123
004C
00C7
0049
FFA8
FFE1
0091
FFE8
FFB8
FF50
FEEC
005E
FFDC
FF9D
010C
0175
0059
FE95
00B0
005E
0159
0140
FFEA
00FD
0257
014D
FFF0
FF7B
FFC8
FE47
0130
011B
FEB2
FEDF
FFBE
016B
FEC1
FF4C
0009
FF88
FF79
FF96
FF3F
014E
0082
FF5D
FE5B
0053
0065
00CE
FEB2
FF1F
FDC4
0068
0068
0142
FFF2
FFFD
006E
000E
FE18
FF28
0215
001F
00E1
FF17
00FB
FE8F
0072
0131
FE69
FDDB
01E3
FDE8
FF1A
0081
0117
0073
0219
FFF3
FDD4
FF00
FF04
FEEA
FF18
00C5
FFFC
FEB3
010C
FFC7
FEE2
FE24
FE67
FED1
FFF9
00D9
00AA
FF43
FFD5
0138
FF6A
00E4
FF8D
00B8
FE44
FFF8
FFEB
0004
FFC0
005C
00E9
0002
013F
FE5C
0082
006A
001A
FEBF
0100
FD8E
FF44
002B
0124
FF2A
FE5A
FF82
003A
002C
0198
009C
FFAD
0025
00A3
FF84
FE64
0044
0053
FF9F
FE26
FF91
015D
FF48
0165
FFC5
FFDD
0041
FFC2
0030
FF20
FF78
01F0
FE6D
FEA8
FFB8
033B
FEE7
FF74
FF41
00C1
FF9C
0111
014F
0095
FEB9
FFD9
0191
FEE7
FFDA
0051
FE75
004E
00A7
FFF5
FFC4
0040
0024
FD5D
0037
005A
00D1
FF09
0180
FECD
FE73
0128
FF7C
0071
FFB0
FFD2
001A
FD93
008C
0071
0119
01B0
FF76
FF23
FF71
0348
0121
FFBC
FFC3
00EE
FFEB
0057
0075
020F
013C
FED3
00C5
FFF6
FF15
00A3
FEF1
00C6
FFF0
008D
0078
00B7
00CD
003B
00A2
007A
00C8
FF13
FEF0
0088
0146
FFBD
FFC1
0128
01B1
FE54
FFD0
FF90
0097
012B
0174
FF2E
FFB6
FEA0
00A1
002F
00B9
FFD2
0047
FFBD
00E0
0068
00C7
0013
FF3C
0001
018A
FFF0
0025
0053
FF3B
FFEA
FFDB
0095
FE8F
FEEA
FF65
0275
0015
FFD6
00BB
0082
FFEA
FF14
FFEA
FECD
FE74
FE1D
FED3
012E
FE93
005C
FC55
015D
FFB5
004A
FF9B
FF50
FEC7
FF57
FECC
001A
FFB8
FE8D
FE8E
FF25
0082
0116
FFB7
00D2
014C
FFF3
00EE
0186
012E
00FD
000D
0124
011F
0040
00B3
0128
02B2
0168
01DB
0000
FFD4
00D0
002B
0063
FF7D
FF11
00BD
FFED
FFAE
FE55
FF87
015A
FF50
016D
00FB
FF87
015B
FF78
FE74
019E
FFF3
01A4
01DC
0115
01B5
0025
00DB
01A5
0057
FF69
01CD
002B
FF2F
FF74
0086
0106
FE97
014E
FF2D
FFD0
FE1B
FE82
0189
FEC4
0052
012A
0028
0058
FF6C
FF2B
FFF8
FF95
FEFF
01D8
FFF4
FF55
FE99
FF19
00A5
00B1
001D
FDF5
FFDB
013E
FEB7
017B
00E7
0124
0161
01E6
002F
0001
FE5B
FF4B
FE2D
00C7
00E7
02BF
013F
00C3
00AD
0085
FFFD
0108
01BD
FF54
FF79
FF38
004F
0165
FFA3
FFEB
0040
005C
FF12
0094
0077
FE2D
01A6
FFF7
FEF0
FFFC
00F1
00AC
FECA
FF91
0062
FFE4
0060
0006
0013
FCA4
FFE1
FFDE
0031
FF24
005C
FE30
008A
0019
005D
0038
015E
0052
FE26
FF36
0029
FF73
FF97
FF4D
FEFC
0063
0015
FFEC
FE2F
FF6B
0094
FFD9
FFA6
007B
FEAC
FEC3
004D
000D
FF28
FF55
0085
00EB
0025
FF8D
FF30
0043
FFCC
014F
0145
FDF6
FEAC
0079
00C7
0070
0272
0036
014C
FF8D
00F5
FFD6
006D
0081
FF91
0047
0052
FE8B
0045
FFF0
FF05
FFF2
FDB9
010F
FFF7
FF94
FE98
FEFC
FEDC
FF83
FFC7
FFA1
FF9B
012D
0115
00EB
0243
0159
00BE
012F
00F7
0072
0103
0071
FE81
FFAF
FF16
006A
FE4D
FEA6
FF24
FD77
FFAC
0182
0022
FDB2
011C
FF7B
014A
0094
00C2
0009
FF87
FF1D
FEB4
00BF
018A
FEE2
01FC
FFAD
FFE1
007F
FDF0
FFB8
00FE
FF32
FE9F
FFE9
0192
FFC3
FF79
004B
0009
0164
005D
FF20
FD40
007F
FF7C
0084
FF6C
030F
FFA5
FF7E
01A8
001D
FF32
00FB
013F
0180
FFB0
0023
FE90
FF05
02C5
0118
00B5
FFD4
FF83
FFFB
FF47
FF47
FFE9
0070
FF94
FF35
FEDA
0011
FEAC
FF31
FFB0
FFD5
00CE
FF0A
FECA
FEC6
FE94
0189
024A
FFD1
0033
0044
FFDF
00B3
0028
FF8B
00C1
005F
0203
FFC6
FE9D
0081
FF60
00CE
00A3
0075
FE92
FFDA
0217
FF53
0152
FE23
FF10
01BB
FE41
FF6F
010C
0099
FFD0
FF3C
FE6E
00C6
00E2
00D6
FF2A
FFDE
00CF
FFF2
00E1
FFD3
FFEC
007E
FF6C
FFB0
FDFE
0149
FF65
00BE
0087
FF43
FF27
015B
FF98
01ED
00DD
002F
00E4
0017
0166
FD8F
01C5
0073
FF5D
0070
FF78
FF62
0039
0019
01B2
002D
FEBA
019E
FFAD
0080
FEAC
00B2
FF80
FF90
00E7
FFAE
FFE3
0042
FE58
FF87
0107
009E
FF9B
005A
0093
FF47
FED9
00CB
FF54
0121
0004
00BA
00AF
FFD8
0072
FCEF
FF4D
017F
FEA0
FF3A
0005
0078
01D7
FFC1
00C9
00EE
0008
0097
0084
FF97
FF97
019D
0101
01DC
0016
FF3D
FF7C
00E5
00B8
FDB9
FF6F
0030
FE54
FF2B
0053
FF33
FFB2
0022
0130
00A6
FEE3
FFA2
013E
017E
0073
FD44
00A7
00D0
0090
FF88
FDF1
0105
0030
FF7F
00E2
017A
0138
0034
004C
0184
0014
FF35
FEF3
004E
007B
FEA9
0097
00C4
015D
0198
FF16
FEA3
FFC7
FF45
FFA1
FEB8
01F3
FF3E
FF54
01ED
036C
FFBC
00B7
FE64
FFDD
FF7D
0378
FF00
0125
0002
FE80
0001
00A2
FFC1
0046
016B
0044
0069
FDB5
00CA
00AF
FF8C
FFEC
FF59
001E
0105
FF13
0087
0062
FED3
00EE
FE8C
0002
FCFF
0050
FFC0
0061
00C5
FF1D
FF48
FFEA
FFC5
FEC9
FF49
00BC
FD0B
001C
FF0A
FF26
FFA4
0108
FEC4
000F
FEE0
0104
01E0
FE1D
FF37
00A6
01D1
017E
FEFF
0041
FF4D
00E5
0081
014E
FFDD
0005
FFEA
013E
005A
00AE
FE79
FF96
FE94
FDD2
0031
001A
012A
0047
016C
FF71
FF45
FFA6
0000
004D
013E
FFCF
FF8A
FEB0
00D4
