0444
0806
FA09
F7DD
FE68
064A
085F
09B7
0380
FAB5
FA51
0743
FAE7
FD01
0821
0093
0455
F6BB
FDD3
04F3
033E
FAD8
0299
FE62
F959
FFAA
03C0
012D
01C0
F9DF
F977
07AF
0A89
073B
01E7
0A38
0314
F899
016F
F95B
05B4
FD74
F29F
F8D4
06A6
069A
08FE
00C7
02DF
FDF1
054E
F611
F677
02CE
F653
0423
04F6
F8C8
0437
094D
FB2C
0041
FD98
F890
FFEC
FE08
097D
02B7
FC37
F7B9
FA6D
F8E1
FE4B
FACB
088D
F716
0668
0740
F7EF
FB40
FA4F
FED8
FA38
03B3
0224
FE36
F43D
06A5
07A7
FFF6
F9CE
FC65
F966
F5A6
0546
F9C6
FC18
FF16
FC0B
06BD
FD75
FD7E
0478
0A02
0466
028D
06D3
0DEE
F8EA
F604
066D
FABB
0100
FD18
0787
0796
0981
06EA
F7F7
FBD4
F758
080D
04B0
02C4
FF80
04D0
FC08
047C
F75E
0725
F78A
07EB
0244
034E
F530
F680
F812
FA8D
014A
FE14
08ED
F827
F828
F9F8
0376
FBAE
0200
0666
0883
0240
0690
FD4A
F612
0294
F9F6
FDC3
FB66
FD28
00DD
F6BF
F9FB
0047
FF2F
F4A5
FB64
FC4F
0026
FB06
F96E
05A2
FF3F
FE5E
FF84
060A
F69D
FE48
0328
06A1
F951
05EB
0005
F84B
FDBD
F8C3
F7CA
FF8B
FD79
F9CB
0661
002C
069E
FE9D
0B2F
0313
07C8
FD3C
06D8
FEFF
0849
0546
F84E
FBE8
F81C
096E
002D
FEBD
FA35
FB88
03D7
F8AE
FDC6
FD79
0497
FBEE
FB11
FC04
0305
FD1A
0321
0325
F8B2
0585
FC8F
FFF0
F525
FF2F
0251
07CC
FC99
FD03
FC5C
0700
FB97
FF4A
FBED
021A
0205
FFB7
098B
F93E
FBED
084B
F710
0573
F7CB
FACC
FE0A
F84D
002D
0261
FF2A
0199
FF5C
0746
FF5B
FAD1
06EC
F6B0
045D
FD96
08B1
FBD0
FF4E
FFA6
0357
023A
F78F
0B80
FDD7
F9DE
0259
03B8
08A2
FCFB
0545
00B7
043C
038E
FB06
F852
0970
0060
FBF4
03B8
FA2C
04B1
0123
FD7C
FD6C
0A85
FF1A
FD4E
05EB
F908
0158
F75F
FC3A
FAB2
FA05
FED6
0341
FA57
09D9
0304
FD5B
008C
FACD
F6A7
07FC
048F
00E6
06EB
080D
042E
0239
0595
05B2
FDA9
086F
F874
0596
F7BD
011D
04DE
0804
00AB
0130
F8F7
FC8B
088D
0534
0005
03FB
FEC4
FD62
F84C
074C
FE72
01A9
073C
FCE6
08F4
036E
05CA
FB91
024C
FB17
FF5E
04EE
04B0
FA34
0790
FB95
0947
FCFD
021E
0423
00B2
090D
F44C
FD83
08BF
FD00
FFEF
FB16
FE56
FE5A
07A9
F708
F81A
0430
01E0
000B
F943
FE9D
05B1
016C
FAA1
FEBA
FEB1
FEAE
F5BB
011F
F7E1
019A
0501
0478
0897
FA90
034C
FBFE
0974
FEB3
07A8
FBD0
05D5
0371
F988
FF61
0568
0334
05E8
033A
F661
F7E2
F9B6
01F3
01EB
08C4
FBBD
0195
FE74
04EF
0407
04F2
017F
FBAE
06D3
0355
09D0
0128
F997
FCBA
F748
08D8
0625
F56C
055B
FB34
FEBE
0651
FB4C
0463
F752
0304
F858
F897
044F
F781
076E
FE4F
F905
F990
0428
FDE2
FD58
FB1B
FA67
F8A2
030E
F9E4
099D
00E0
FA7C
FA6E
05E1
061B
FEF2
05FA
FC98
0857
04FC
0892
FDA0
FCEB
02AC
01EA
FAD9
FB4A
044E
038B
FD14
0541
F873
079F
07F7
F86B
FF5B
F79A
FC77
FFBE
06F3
04F0
044E
003B
FC9E
095D
0421
FA66
0629
075F
FDA3
FA62
03BB
FBD5
00FF
FE63
F7EF
0449
04C6
FC07
F687
0353
FBD4
01CA
0499
08DD
02B0
FC41
05F0
F804
FAB7
F9B5
FF64
0066
0351
0414
058C
0069
00F6
0505
FB18
0057
FCAE
090A
F93C
027B
F308
0C32
FA14
083B
0717
03C9
FBE3
0588
0A5A
07A5
FEDE
023D
F909
0334
FF75
01E1
0122
055F
FADA
FAA9
FBD3
FB92
0844
0455
027E
0A4E
06FF
F7A3
F893
0A16
0B55
0817
01DC
01F9
0450
0043
F643
F3D1
FF39
FDE2
F985
0698
FA7D
078E
0097
F36E
0020
F75C
FB59
FC5F
FF2A
FB70
0203
05AF
FE7F
FCB7
F630
05AB
0A06
FF6F
FB9E
FEBF
0759
FB51
02EC
FBA2
000B
FB91
0127
FE91
0820
0252
FB31
F861
FC8F
00EA
FF7B
FAAC
060D
FC7A
0664
0018
0587
F886
0045
01C9
02E9
FCCB
FCD6
F9FB
05BF
0954
FC9C
F992
0758
02F3
0714
0124
FCF3
05C2
F90D
F8DE
00CF
01F9
FD6B
FC66
FA78
FD8C
FBBA
0529
0979
F7FB
FE87
FF12
F834
F6A1
0166
FC76
FB41
0254
0BA7
046D
F727
FCB4
0C5B
0310
00CB
FC60
F22C
08CB
FE2F
FA7F
F655
F130
FA72
070A
06F5
04D9
FD34
FA1C
0608
F96A
09FD
FC28
0216
F7E7
FDF7
FF8F
04B8
FE7B
056B
085F
0068
07B0
FC04
F217
F437
0863
0904
04DE
00A5
F3EA
F38C
F3CF
F23C
012A
F56B
0185
0432
F947
0DE5
FF26
0BE9
067E
F3E4
FD97
F404
FB03
0387
0851
F9F7
F624
0786
FC4C
FA2C
016F
03E0
017D
F121
F70C
FDDE
FCEF
FBB9
0079
FC46
02EF
012D
FFD2
FD83
F9D1
FE3C
F75C
FC56
016A
F7BA
FA6B
059C
040B
FA72
0106
F758
FD3A
073C
F8B8
0151
03DB
FFF9
FC2C
FE0F
016E
078D
016C
0413
0376
07D4
029F
0839
0663
0A98
0097
FBD1
0667
F834
F99C
0519
FA63
FB22
087C
081C
F665
0816
F95A
FB45
FC69
FDD7
FE03
F8D4
0727
0683
019C
0077
F967
0556
091A
01FC
0766
00D1
FD19
046A
F980
0581
F719
0615
072E
F93B
F7D7
066A
FE24
0348
FD6E
03BB
029C
00D9
FEF6
0320
047F
02E3
04F7
0639
062C
01BB
FE15
062C
05B0
FE0C
0595
F96B
0993
03F9
F838
FFA2
FE01
FC4B
F7A4
06B6
F9D7
0336
FE8E
FCCC
FE79
F8E6
00C6
FED6
F7D7
F6A5
01A4
078E
FAB6
F6C4
033F
FCC1
FEA5
F708
035B
FBDD
02EF
F26F
FCDC
FA04
03CA
08C1
F529
F81A
FB2C
F768
0625
0181
F9C1
F730
0797
03E5
F9F6
0729
FE1D
0513
F6BF
FB51
08B0
F784
F49A
FA10
FB63
038E
FA7C
0E50
F8FE
F9C8
FF8C
081E
0612
03E4
0406
FDEA
0845
0515
F9E1
FC07
FE35
FF19
0482
02C7
08F3
F783
0555
02E6
FEE6
FDBD
0308
0500
077B
000A
079B
0688
0698
04D7
FEA9
FB9D
0315
0911
FD88
F2CD
FA82
059E
01CF
F905
064E
0024
FF70
0698
FAB6
FDFD
02F0
0122
F9D0
086B
0183
FB7C
FCD6
FC4A
08B1
0318
FF69
FE84
FC9B
05FD
09E9
0944
FDD8
098A
FECC
FA68
058B
003A
0604
F785
FFAE
04EA
0919
FD54
0653
F9C2
FEA2
F7A8
FF7D
01F1
00CA
FE9D
F7AA
05B4
092E
0218
FE09
0101
0492
FF10
04D3
0036
06C9
070B
FCD3
F773
F6EB
0588
021A
023E
F83D
05EC
FF48
01DC
065F
06B5
0345
FAF6
00BD
0506
01DA
FD2D
086D
05A8
011A
0429
F9CD
FB44
046B
FCF8
FF1C
F80C
0794
FFA4
FAF4
0635
0724
00FB
0471
FDA5
0959
000E
F70C
F76F
FBA6
FB67
F9CE
FCBE
0440
F75F
0451
FF0B
FCD1
0092
FF6B
02F4
F992
F9B0
FB4C
09EE
03BE
05B9
00CC
0272
FF65
051B
FC00
01E0
022B
F936
FACE
0730
FD1B
0307
0784
F9FA
FA36
0341
053D
F730
060B
04E6
0843
F88D
F997
F8C8
07FC
09FA
FF93
06F6
05B1
0224
F7F6
F769
011C
FC30
F5F9
F683
03BE
038E
FCA0
0B57
F8FE
FF3C
07DC
0454
FF05
F7B9
F868
FF3A
FC0B
031E
090F
008B
F980
FE9B
051C
04CD
FC3C
04E4
FC74
0713
FBB9
FD3B
F735
037B
FBF2
00DD
FBD7
0420
FBAD
FEDB
08A5
01DA
0263
0078
FC2A
FF58
03A2
0848
F73C
01B6
FE1C
0058
F993
00A3
F84D
FD1A
0375
FC64
0626
F611
FB1D
FFDD
FE75
FCD4
0791
024D
082D
FD38
0893
FBAC
FCDA
075E
FCDE
FF03
FC20
FEDE
023A
F917
0243
087B
FE2E
F95E
0680
FB11
F92E
F77B
F639
F606
049F
FA7A
FF55
0852
F964
075F
0373
0800
06B7
07F7
0916
FC6A
F85B
F7D2
063B
052A
FEB5
FA9A
01B7
FB52
F508
0C1C
FD9F
024D
011D
01A0
021C
F78B
03D3
032E
FFF3
085F
FBFF
0933
F9BA
F692
0711
FEB8
034E
F9C8
F791
0836
02BE
FFFB
04E6
0599
FE20
FCE6
FBA1
F9BE
0452
0A16
062F
0190
0199
F79E
05DC
0579
FD34
FF44
FB91
02D1
FDCB
0891
F9EB
FAB1
FBAF
06D7
05B9
059C
05C1
F5D1
FC40
FC12
F73F
009A
0482
FFF9
07A5
FA88
07F5
F7C5
F80A
0787
0223
03BB
F9CE
F9B0
04CE
F199
F944
0308
05F6
04CF
F9F3
076C
0858
03B7
F82C
FDDE
0707
FB7A
0466
FF65
0445
0556
0466
02F6
019F
07E6
0368
0235
0420
F83B
0162
0684
032F
0590
0720
FECC
0094
0355
FD61
04C4
03BF
0458
FFED
F70C
0468
FB4F
0837
0670
00E4
FBEC
F883
FB31
FD60
02DB
0191
F922
06E4
FEE5
FCCB
FF43
0239
065B
FDE1
FA36
00A7
F7B1
FB7E
06F1
FC74
F4EF
F743
02CE
014E
FE37
FF38
FB54
F912
F7E3
FBCB
0552
0703
FC93
0443
0757
0993
09EB
FEE5
F69F
F972
0058
F994
07EA
003C
066C
F7B8
08B2
06DD
0A70
0739
0086
FCB8
011F
0687
0440
0433
0A83
03AB
F6E7
094C
F5DA
0331
F9C4
FBC5
F9B4
F7A3
02FE
0283
FD97
F902
08B5
08FD
FE71
03B9
0495
0731
03C0
0352
079F
06D6
FC26
00A8
0780
019C
0742
03AD
092A
0144
02CC
0673
F70B
0377
0357
05D5
0598
053F
FB49
F64F
FE43
FED5
00A5
FD0A
FBAE
0893
FBDE
FD15
F8F7
084D
0700
FD41
FDE9
06B2
05E3
0974
0050
00DB
0155
0300
FC7D
03E6
016D
0192
0873
0841
FA1D
0296
025A
09CE
FBD0
FBF0
0651
063E
04A8
028A
FF86
087E
068A
FA37
FB32
F732
F88E
F7BE
04A2
01BC
0006
FFDB
0245
0A3E
0484
F8F0
FB8D
FA64
FF61
0355
FD4B
F813
0692
01B0
0501
011C
0249
07BF
FDD6
00E7
F5F9
F930
FB28
0208
FE84
09D5
F8A1
01E4
01D6
FBBE
0048
04B7
0692
F801
FA7C
FDFC
0133
07C3
033B
FFBF
026C
FE7B
03F2
FBD2
FC2D
0605
FAF9
0764
FFE5
01E6
F938
FD23
FD94
06E3
0110
043D
F7A4
F7DF
FAD8
0878
F536
08B4
00ED
0122
FE47
F9F0
FB89
FD5B
0022
F74D
042D
05F7
05EC
FB03
FB5E
F490
086C
098E
F796
FBDF
0579
FD39
FE90
FF35
F7AA
00DA
0B5C
008D
FF6C
FEAF
F76F
06D3
0364
0138
F5A9
0413
069F
FB98
0255
FA1F
0134
FD0F
0457
010B
FB50
FBCB
FBCE
FB16
07E0
F6D8
03BD
0466
FFBB
FFC3
00D8
0B0F
FA43
FCD6
FE87
FDCB
05A5
0145
FC55
FADB
F899
F737
036A
09D2
FDBC
04F1
F9E0
FE2A
0400
FAB0
F741
FD10
FAF6
05F7
FD7F
FD27
FE24
05AD
080A
01E0
0782
03D8
FA7F
FDEA
F7C1
0804
F79B
F744
FBF1
08E5
FFCA
F7BF
07D1
FB2F
F968
0012
FAA3
FF12
0200
006D
0307
F92A
06B1
F722
FCF7
0001
06BB
FFB2
00DA
01C4
F9B6
F9A9
FEDF
0238
0177
FEB2
046E
F9DA
06C7
019F
F8D3
FC14
01E8
063C
FB2C
0531
0124
FD20
FC50
FBD7
04D8
FB9A
F9A7
01B8
08D6
01D4
08AB
FB07
0650
F9DD
0764
F9BC
FC49
091E
FB8C
FA32
02DB
00A8
038B
FA2F
071D
0AA8
047D
0365
F9D9
00F9
F787
005C
FDCF
FB08
F429
FB74
FF6C
0123
09BF
FF38
060C
FB30
F6A5
01FE
046B
0534
05CC
F972
0665
02F3
0557
F89B
FED7
FE8B
0140
0054
00E6
FD62
F658
F8BE
FACC
FB6C
FCF7
02A4
F84F
FAD1
F6B2
FEFE
FD16
FC3A
FDC8
023B
F9CE
F7BB
0649
03BE
0945
0494
086D
FF34
0286
FA7D
01ED
F768
F9A4
FCEC
FDA2
FC19
F8C2
07DB
01E4
FCE2
F808
F7EC
013B
F862
02FE
0A4D
076D
F7F7
0514
FCA2
057C
F88D
08C9
02B3
F7D9
FC0D
FB14
F7B5
F83E
0127
F8F8
00A5
038C
03AE
FE2E
01E5
0216
FB61
FE5F
F87B
F6C8
07C6
013A
0139
FD50
020A
08FD
FDD5
FC5D
0255
FA49
0088
FAE8
03E6
035D
FAD1
F957
FD66
FF0A
FFBE
F880
0469
FB10
0718
FDA1
0080
FE7C
FB7B
F8B4
FE3F
01A1
0003
0405
0367
0006
F5D7
FFE0
F670
FDF5
FCB9
02B7
F73C
FEE8
F9E8
06A8
FAB1
0287
086B
FA37
0438
0275
03C5
F916
067B
F6F8
F884
03DE
FA16
FE4A
FA1E
0223
F935
FF0E
062F
FC1E
F68D
05C2
078C
FD8E
0883
F98D
FFED
FF60
0579
F76F
02EB
FE85
00BF
FF7A
FB86
04CD
F816
01E3
069C
FE22
03DC
FA28
FD4D
F888
07D9
0640
0489
02D5
05C2
00AC
F966
03B7
0609
0422
0083
F981
FA21
F972
F884
0524
FB42
FFF7
F6C9
02D9
F8B6
FBD2
FBC3
0645
F7EF
043D
F8A6
F6A6
04EA
F9BE
0520
FF32
0878
0203
F80E
01EA
F969
FC88
0239
027E
068F
FD97
00D6
075B
07D2
F891
FC18
FAD6
FBBA
FA5E
FBDA
008C
FF64
FF5D
0A58
FB5A
015E
FC39
048E
FA4F
0390
0273
00E0
0765
FAD5
FA8F
08E8
F84C
FE8A
05F8
FB4D
05D1
FEEE
05AB
09A7
F8EC
005C
FADB
008A
F650
0064
FD46
0721
0102
FCBC
02FC
FDC9
04DB
F789
04FD
029A
FE84
F87F
FEE9
009A
0089
F87F
F81D
0876
FFAE
022B
01E8
01CF
FE4C
FE42
056C
FE78
06AD
07BD
05E5
086E
FF63
08CB
F8A0
F91D
F7CE
00EB
0659
0593
082C
FB7A
045D
FB4A
06BF
F9B3
085C
FBC2
FF6A
076B
0686
FE89
FCFE
046E
055E
050E
F89A
FF0F
0517
04FA
0C25
F5C3
0259
FABE
03FD
FB77
0759
FA7F
FF15
05FE
013D
F81A
0382
09D4
FB75
085E
F8C3
FEF5
0663
F7D6
F8BB
0A34
07AC
FD14
0806
FA92
01FD
FDE3
F7F2
FD7B
052A
FB9D
02E6
04EB
01E2
FD38
0160
F8B4
037A
0544
F8E7
06F4
FB52
F8F0
04CE
FD2F
050D
0690
0817
FE41
FD56
FBBA
FF1F
F6B4
0592
061D
F899
FF5C
F9E9
0746
FD9A
F8C8
FE01
F90F
FDD6
012C
0219
F47C
0421
FFDC
096F
0527
FA42
FD25
01B3
F653
0323
03E7
F9BF
FB98
034D
FCE2
FC91
043D
0977
0101
FBA9
F978
F79B
