00C2
FF00
FF46
0049
0084
FF80
FF76
FE20
FE93
FE93
019C
0090
FEFC
0070
FDAE
0402
FF82
FE1C
FF6B
FF1B
FDC6
FDC1
0149
026D
FDB8
FE94
01E6
FDD4
0031
FE5D
0092
00ED
0036
FFA0
0261
FE0A
003F
0159
03AD
041B
0253
02EB
0088
FF7F
02EC
01FA
01D9
FEA2
FD6B
020F
FDBB
01D9
0041
FFF3
014E
FECB
02F5
0191
FD20
00FE
01F7
007D
01EB
01A9
FD39
0118
FEE1
0109
028B
FEF6
00BB
0184
0015
00B5
013A
FE50
0057
01C9
FE57
FFED
FFEA
FF4C
01EC
005A
FEE5
FFC4
0150
FFD3
0253
FE81
FE30
011C
FFB6
0272
FF9E
0080
FE5D
010A
FE27
00C4
01A2
0199
0163
FEF6
FED7
0147
FE85
FCD7
FD76
00EC
FFA9
00F0
002F
019D
0184
FF86
00A9
00CD
024F
FF93
0150
FFE3
015E
0100
FE20
0167
00AF
01A5
FF6A
00D8
FEB3
FEB9
01C5
FFEB
0066
FFB3
01E1
003E
FDB6
FD62
009C
FEA9
FE30
FD9A
0245
FF64
FF56
0161
FE0F
0240
FF00
FFC6
FE86
0117
FFE4
FF72
FD71
00C4
FF61
FE02
01E5
00EE
FDB3
FE14
00D8
021A
0061
FEAC
007B
015F
FE16
FD56
FFFB
FFE9
FECA
FF5A
0032
FF94
01D9
FF63
FDBD
0158
FEEF
00E3
015A
FEFF
0001
0192
006A
FF4B
FF2A
0218
0199
FF4A
00F0
0299
0160
FDF4
00B7
FE25
FFAC
FF37
FF05
002B
00B2
FF91
FED0
01AC
005D
FF0E
00D9
01B2
007F
0205
00B5
0091
00C0
0065
FFD3
003B
FE48
0150
0103
FD14
01E5
FEC7
0080
000E
FE3F
00A6
0216
0213
FDDD
FE62
0011
0143
0016
0080
FEDB
FEBC
0158
0093
0025
01EC
FD5F
0128
FEC6
019B
00F2
0141
FF17
00E4
FEAB
015A
008C
0053
FF1C
0116
006A
FE8A
0012
FF2C
FFBC
01C7
FF49
0221
FE5A
02F8
0115
0154
FF96
003B
002E
FE0B
FE1A
FEAD
FECA
FF9B
0217
0062
FE61
0087
013C
FF3F
FEB7
FDE2
FFAA
0188
FE82
0278
0211
0123
FF17
FF23
01E9
FEBF
00AA
00DC
FF56
FE6C
0162
FE87
0093
FDBB
FD81
FE63
01C4
0066
0035
01F5
00F2
00BB
FFCC
FFAD
0033
0093
FFA5
FDDB
FEF2
008F
FF2F
FC9B
FF12
FE48
FDF1
0107
FDFF
FF2B
FF82
FDA7
FF3C
FCDC
FF45
FFCA
0013
0201
0151
00C5
019E
FF47
00FB
FDA7
0140
00A3
FE0F
FFC7
FE56
00C6
0136
FECD
0004
0080
FEE8
FF8B
FEA7
00B0
FFB4
FDCF
FE48
FFD3
FF31
FF96
00E8
005E
01E6
01F2
FD45
FF25
0170
FDBF
FF3B
FED9
FF2D
00B9
014F
FEE8
0060
FFAA
0097
00BC
02A9
0121
FDCA
00D6
FF6B
FE99
00AA
023A
FE30
FD1C
0167
0084
0182
FF8C
FF9F
0168
FD81
FDE8
002D
FF9B
0211
FF58
FEC0
0088
0228
01B7
00E2
016F
FF31
FF82
01EA
FD70
0146
FD82
FFCA
0151
00A7
FFE1
0060
0019
01CF
FF30
0050
009B
0227
FFA3
FE8C
027A
0228
FE6B
FDB6
016C
FFD3
FEF0
0094
FFA0
00BE
025E
FE9B
0056
FF20
FF35
FDE7
FE08
00A4
FF79
01C6
FE10
00B8
019C
FFFF
FF2A
FF04
FE51
0094
FFB2
FFCD
01F9
011E
FEDB
0038
019D
0036
00DE
FE87
FE71
FE00
FE50
002D
FDC1
0265
FEC2
FECB
0233
0181
0093
FFA6
015B
FEC8
FE59
0030
011A
00A0
01A4
022F
FF58
0219
008F
FE06
FE86
FDC6
0149
FFEC
007B
FF31
0141
FE30
FF5B
004C
0074
FF31
FF6F
0168
FFC5
FF4B
01B6
0056
FE4B
FE35
00FD
FE63
009F
FFCF
015E
0101
FF18
0079
01B1
015B
02F6
0034
FE83
FF63
FFB9
02CA
0051
02BD
020D
00EE
FEEA
0055
FE02
0110
002C
0045
00B0
FF3A
030D
FF95
FE41
00E0
002D
FFEB
040A
FF91
0066
00CC
00C8
00F0
00D9
0107
0407
008F
02DF
01ED
007A
00AF
01CF
FE3C
025A
FEB5
00F7
FE26
FFAE
0308
FF6E
FF12
009C
030F
FFC3
0142
FF6B
FF74
0099
0263
0207
020B
0180
FE6C
0217
0140
02B3
007E
FF1A
009B
FF87
FF0C
0049
01C6
0219
FE0C
0027
FF15
FF61
FE19
02A8
015C
003D
00BE
FE46
008A
FFA5
FDF9
FEC2
0164
0016
FDCE
FE61
FFC3
01D7
FE39
FDCC
FF4A
FFA5
0084
FE9E
FE8D
FEF6
FDE0
FFA6
01AD
FE8B
0014
000B
004B
0252
00BC
FF50
008E
FED0
01C5
01C5
FF0D
00CB
FEF0
00E1
FF87
FFDF
FE74
00B5
01C5
038D
FFFD
0153
0226
005F
02F2
FE80
00AB
036B
0297
03FA
018E
0107
006F
034C
0132
021B
FF15
FF03
03B3
01C5
005B
044B
FF09
00AF
02BD
01F5
007E
012F
005A
0334
0149
035D
002F
020A
0063
0232
007B
038D
FEF8
042A
0628
0301
01A0
044E
03AB
002B
0240
0374
02C6
04FF
035A
FE58
0181
FE7A
03D5
0184
00CF
05B4
03C0
0058
01F4
010E
007B
0141
0258
FF4B
0145
FFFC
015E
FEA7
FF9D
FE57
00FC
00D6
FE3D
01C6
FE06
0078
FE9D
FED2
01CC
014B
FED7
00B8
FECD
00B4
0285
FF2B
FDDD
0224
FE97
FF94
01AE
00D4
FDD8
00FB
00B6
0046
016E
FFAB
FE9F
FC8A
009A
FEB1
FCEF
FD2A
010D
FF79
0025
0061
FF55
01CA
01BC
0014
0138
FF7F
0092
024E
FDB5
FF92
FE7A
FEDB
FDA2
FEDB
FEAE
003B
0070
FFB1
00DE
013D
0186
FE52
FE26
0031
0050
01FF
00E1
FEBD
0000
00C7
FFF5
00E7
FDF5
FFCC
FE5A
0000
FDC1
FF85
016E
FFB8
FE3D
FF39
FE44
FF01
00B7
FE1D
000F
FE8C
023A
0132
FDD8
FE90
005B
FEF6
009F
FF00
0051
0046
01BF
00E4
0196
020F
FF7D
0142
01CF
00B0
0099
0154
FF3D
01D5
FE4D
009E
01BF
019C
0190
FD57
0100
023B
FE3C
FE8D
00D0
0091
01BE
01B1
FDDC
01D7
0174
FE67
FF21
FF06
FFF3
0164
0013
0046
FEBC
FEDF
0083
0144
017A
0116
FFE8
01B1
014A
0207
021E
FFAA
019D
012E
0109
00B6
0160
FECD
0037
FF14
0095
FDE2
0085
FE1C
FF44
FF46
01D6
FF31
FC5F
FDA5
FFC2
019D
0058
FE9C
FF62
0145
FEC3
FDE1
FCEE
FF0F
01E5
FE24
FEE9
0102
FDFF
FEC3
00BE
FD5B
0184
FF9C
FE43
FE92
0007
02A3
00D6
017C
FEB4
00C3
FE6B
FFBE
FFA0
FE16
FF5A
FDEB
026A
0087
004F
FF1E
021B
00A9
FF48
007E
00EF
01A9
01EB
001F
021F
FECC
018D
FEEC
0070
FFCF
0149
FFAD
0034
FF0E
FF38
FE76
FEB2
FD53
00EC
FF1E
FDAC
019A
FF4C
FE6A
0122
FE37
01AA
FEC1
0010
0188
0148
0022
005F
FEEB
FD9E
FDE9
FEC4
0225
FEE5
FDD3
FFA9
FFC0
FFA0
017C
FE82
00D8
020F
FE3F
026E
0109
FDE3
0252
007D
FE79
FE63
FF4F
FE91
FD03
FFB1
00E3
FFBC
0062
FF98
0241
FEA9
FE1E
FD41
FFE7
FE42
0164
FF1D
FFC1
FDEC
FF2F
FE5C
0193
FE06
0061
FDD3
0029
01D4
FEBE
FF4E
01FC
FE7F
0086
FDBD
FDA7
0097
00AD
FD6D
008D
FEBC
0255
0045
FDE9
FF4E
FDA4
FDFB
0024
016B
FFD7
004C
FF13
FDA4
01DB
0137
FE0C
FE43
FF59
FFDA
0277
FFE0
00CA
0068
FFD6
00A5
0144
00A7
000C
FE68
FEFA
FF28
0181
FFFD
01C5
FFA4
FF4C
FDA3
FE77
00EE
FDC7
0197
008E
00D2
FF30
FF85
FDF7
00D0
FDFB
FF21
FE3C
FE1A
FE03
FF98
00E7
FEEA
017E
005D
FD34
0079
FE12
FFB9
00A3
0130
01CC
FFCD
01D1
FF76
0141
01C0
022B
FDCE
FDCF
FF22
FFE1
FFD3
FF01
0159
FEA4
FD9B
FF39
FDBF
FF62
01B8
FEF4
00E5
FE93
FE74
FE88
014B
0241
010D
FF08
01BE
FFE5
FE73
0175
FFDF
FEC8
FDDA
FF04
019D
FE81
FDC6
FF8B
FE45
0199
FF09
FDC1
FE2A
FDCD
016E
FE34
FFC0
FF47
0021
01B6
0010
0030
0038
FF2A
01D0
0062
FF21
0012
01A1
007E
FDAA
FF68
FF07
01A6
FECB
FFAF
FF06
FDFC
FFE0
FDF7
FF47
FF72
0191
0023
FFBB
008D
FFF2
FF30
0029
00DE
00F3
FE0A
002C
FF0D
0147
FE09
020B
FEA6
0105
01EF
00BE
FF03
FFF6
01E8
0151
0071
FF79
FFE5
FE6E
000C
FDD8
FF2E
004D
FFF3
00D0
FD86
01B9
0236
0033
FFDF
FFD2
FE29
025E
01EE
01D3
026E
0158
01FE
0088
0021
00B3
0090
FE97
0233
018B
FE4F
0196
0047
FFB4
0001
FF6E
FE05
0019
FFFE
FE42
01F7
021E
00AE
015F
0123
006E
FF59
0003
FE4D
028B
FFBA
035A
0193
009C
0037
02A6
FEFF
FCBA
FD2A
01AD
0238
02A2
004A
FDB5
FFB0
FF2D
FFAB
01D4
006C
0107
FFAF
00A6
FF51
028F
FD88
FF34
0092
FDA4
018F
FEEA
FEC2
FEF9
0015
0273
03B1
01E0
FEC5
02E6
03DA
FF82
FF61
FF3E
01AA
0009
01B3
0022
FE9C
01E3
FE91
FE16
FF2D
FE8C
00BE
00E8
FF5D
029F
FFBC
00C2
FEF7
FDE7
FDC7
0004
FF65
01AD
00ED
00CA
FF22
0182
0029
FEF9
FE95
FE49
FFA3
02AB
FDAF
0081
FEA2
0141
0134
FFA7
0169
017B
01D4
02AF
FE18
0034
FF5D
FE27
0086
016B
FF3E
FE5F
FE93
0226
0057
00DD
FE75
0088
FFD2
FF16
FF9D
FF56
0022
016A
FE49
FFB8
018E
0296
FE2F
0255
0055
FEB6
0167
FFF8
FF8F
FCF8
0014
FF97
013D
FE75
0221
FF89
0156
FF45
0012
FEE3
FE22
FDD0
019A
FE88
FF67
FFDC
FEF3
00A8
FFD7
FEB3
FE48
00C9
0066
024B
01B4
FE61
0153
FE0C
0117
FFAD
00F6
0177
FF8D
FE24
014A
01A1
FEB0
00D7
FFA5
FF73
01AF
FFCD
009D
FE67
FFF1
FDC3
0121
FF7E
01E1
004D
0192
01DC
FE9C
FF79
0192
0150
0136
00B6
01EA
FD8D
0119
012D
00A4
01DF
0094
FFD3
FD9C
01FF
01C3
FFFE
FE54
00AA
017D
FF30
FE77
FDB3
FF14
FE9A
0112
00B7
FE0B
FDF6
0045
FF2F
0007
01D5
FE24
FDB2
01AC
FFE7
FF79
FEC7
0229
FDA7
FEB1
017C
000E
FFE0
0252
0136
0212
FDD5
FEC8
FEB9
019E
0153
0122
FEC0
01C7
0173
FC39
0007
FECD
FE82
FEDE
0040
00D5
0125
FFBA
FF8D
00D2
FFAF
FF57
FD2C
0272
019A
FDB0
FF57
00A6
0186
01E6
FD84
FDDD
0018
FEDF
004B
023B
FF32
008D
FFA5
0102
0182
01A4
FDE7
01EA
003D
04A9
FF92
FE76
FF97
00DE
FE86
FDA4
0212
FEF9
FF33
FF81
FD3E
FF3D
0025
FE2B
FE84
0017
FEB3
0327
0254
FEB3
0268
01F5
FFB6
01C5
FE5C
037F
FF63
01DB
0205
02DA
030B
00CA
0036
FE8C
FF51
0370
FE9E
00EC
FF19
02B8
FEB0
FEA4
013A
0136
FF62
FFD3
0123
046C
0187
0001
00BA
0088
FE8C
0135
02BF
FFDF
0149
0009
0265
FF22
00F6
01D8
FF19
004F
FF2D
FEE8
FE93
FE7F
FF8C
FF4A
FDEC
FF68
00CD
013B
0059
00D9
FE9B
00EF
026E
00BF
FEE2
00F2
0008
FFEC
FF78
01C6
FFAC
003F
024D
FD91
FE26
FF90
0150
FDF9
FF53
FF4E
0052
00E9
011E
FE4F
002C
00EA
0032
00B9
FEB0
FEC2
FEA0
01C7
FD44
FE7D
FF05
0079
FF64
000B
006D
00C3
FF28
004C
FF9D
014E
0208
013A
0029
01FA
0270
0116
0006
FFC3
FF1E
FEE1
FFDC
01B7
00E0
FFCA
FF01
0028
028B
0123
FE6C
FFA4
FDD3
00B3
0285
FECC
00B4
FE03
00F3
01FC
FEA9
0164
020E
0254
FF1B
01B5
020F
022C
013B
0196
02F1
00F4
00A2
01DA
00AC
00C4
FE10
FEF7
0149
00A4
01F6
FEB5
FE27
FE9D
024E
0060
00F0
0063
012A
01F7
0033
FE63
0168
FFE2
FF30
FFF0
0159
FE75
0228
017E
FE29
00C1
FEA8
0139
FEBC
0165
018B
005A
01A9
FDD1
FF87
FFED
FEDE
FE95
00DD
0123
0177
FE51
FF3E
FFF4
FFAD
013A
01EA
FFAE
0087
004C
024A
FFB6
FF2A
0064
FFC8
FDAA
FE01
0238
0016
0040
FF9C
FFCB
FF8C
01CE
FFBB
01E5
0090
003A
FFD1
FE82
00F7
FFA1
01FA
FECF
023C
015B
005A
004D
01E4
003F
01C4
FED1
0041
0185
021A
02C4
FF12
FF96
FE2E
00B9
0003
01E9
FFD8
FE03
01B3
FE90
FF21
FF4C
0076
FF2C
0061
FEBE
0107
FF57
FEDD
01CE
0109
0189
00AA
FEE2
00A9
018B
FF05
FDF8
FF5F
0240
0007
FE40
FFA4
FE64
001E
FEEB
FEB0
00FC
FF1E
FFD0
007F
0220
FE71
FFC2
00EA
0178
FF14
0236
0245
FF52
0206
FE1F
FF24
FF08
0061
0227
00C4
0180
018B
0164
FF4F
FFDB
FF9D
FF1C
FF4D
001B
0181
FF7C
FEC9
0022
FFFB
017E
0228
FD9E
01EC
003C
FFC0
01B8
00FA
0203
0065
FFBB
0140
FDD9
FFFA
FECF
020F
FEE9
023F
FFB7
FFD8
FD97
FFB2
FE28
017A
FEF3
FF5A
FFC1
FF3A
01C0
FFF4
0166
0071
FF55
0146
FE0F
FE65
0197
00AC
007A
022D
0134
FFD0
00F1
FE54
FFF4
FE90
0118
013E
00C0
FF73
014E
00F0
014F
FEC3
01C7
FEE6
FEF3
0240
0133
FF5D
FEEC
FFBE
FE1B
013D
0132
0175
0136
FF3C
FE9A
FFCE
FDDB
FF21
FE88
FF0D
0057
FEF2
FE51
0198
FE78
01EE
FFCA
FDEA
FDE8
FE8D
01B1
FF79
FEB9
FF9E
FEB1
FFFA
0189
00DE
01C6
0036
009C
FFC2
0242
FE3F
FF34
FFE8
FE9C
FE4D
FF06
0230
FE11
FFBC
0178
FF15
FEFE
FFA9
FFB0
01B7
FE69
00CC
FF0A
013F
FEED
FFA0
FEBF
FF1D
0201
FD7F
01BC
FE1E
FE40
00A7
FF49
016A
006D
FE5E
FE32
FE1C
FE74
FFB9
FF61
FF35
FED0
FFDF
0070
FE4C
FE39
FED8
01E1
FEF4
FFF2
0174
FF5C
01E8
020C
00A8
FDD1
014E
FF86
FD7B
FD4E
FF16
FE33
FF5D
FE5E
0078
FEA7
01A2
FDB6
01BF
FEF5
00EE
FF80
00EF
007F
FDB6
0128
FF62
FE77
FDEA
0050
FDC3
FFA5
FF13
FF46
FF09
008E
0170
FE30
001C
FFEB
FE82
FF80
00FC
FECE
01B3
FF90
01AD
FF36
FEE4
0015
FF33
FE61
00EC
FEAD
FE42
0033
01DC
FE72
0113
000A
0142
FEC4
FEE9
002E
FFD0
01A1
FFED
FDDB
007A
FE7E
FDCE
0165
0149
FEEE
FEA4
FEC3
02F5
02D0
FF2A
FFBA
FE2B
FEC6
0179
FDDC
01F9
012F
FEF9
FF97
FF04
0034
0218
FFC6
FEA0
FF97
FE6E
0102
025D
FF4B
