0784
F466
02D5
F47D
05BD
F54B
F4E8
FC5C
039A
F499
0546
F41D
F725
FE5F
FCBB
0186
F6B9
FEF5
FFCF
0206
059A
023A
F73A
F4C0
04BF
004B
0340
F74A
00B9
F978
04AD
FF51
F8EA
FA2F
026A
FE1B
0448
F615
F22F
FE2B
FE1C
F719
F986
0177
FF1F
06C0
F80A
00C3
F6A2
F557
FF31
F118
014A
04C8
F8C3
F57C
01EE
FA65
FCD4
EF66
FCA6
FC99
F957
03B9
041F
0C01
06D3
0D69
FFE7
0145
0C47
050C
FD9D
0683
041A
08B0
F891
039F
FB6A
050D
FA53
FC42
FB32
FD0A
0744
0AFF
00F6
0155
0B27
FA00
F8F6
02D0
0C7F
0FBD
FEF2
FB4F
FE34
017C
FFE7
047F
09A6
048D
0071
08D5
0138
FEA7
07F2
FC4E
0814
F6B3
06B8
099A
FC38
FEEA
FADF
FEDC
FB1E
00A0
0321
FFA3
08BC
0B00
FE70
0A99
0BB3
0344
F8EB
FD31
0713
0B1C
F953
0A68
FED8
0948
FEA0
048F
0415
F993
FDB5
0A37
FC27
06E3
FE46
0B65
0544
FA33
0081
FF29
037F
0ACE
F848
0A36
00F1
091C
F7C1
0908
0236
0294
F97B
0B09
FDC1
082E
FA5E
01A4
03F4
F8FB
049C
FA25
FE6E
FE71
0AC1
09D6
FD4F
021C
FD97
F818
F7D9
029F
FF7A
FC79
0313
F850
FF1D
00A5
FF22
0495
F73B
05C6
0596
FF31
F9ED
F910
01F4
0709
F5A5
F6A8
F8E2
FBD5
F843
015E
FB7F
002C
FEEB
F368
FD4D
0246
F5CF
0017
FBBD
0024
0540
FF32
FABE
F62F
F77B
F93A
FDDD
0736
FA23
F883
F5D6
01E1
027D
0427
FED1
FEC4
FB14
0740
FA39
0670
FDAF
048A
026D
F478
F51A
FFE9
03F1
0639
F9F0
0500
02EB
F857
F90A
F398
FA32
FE31
FFD8
0223
0152
087E
FEB3
FEB7
0586
00ED
02D8
F8D0
0155
F5D1
F4ED
05EF
0199
FADA
F8F1
FBE7
04A0
06CB
F859
035D
FF9F
0304
FF45
F840
0056
F70B
FEA7
FF43
F926
03EE
058B
F4E2
FB7B
FA75
F6D3
02FF
F69B
FA45
059B
FEC5
FBE3
030F
048C
F6A8
FA2E
F785
FBE2
F897
F5C5
FBDB
F48F
FBF5
016C
01EB
FB84
0130
F45C
054A
F5E6
F6C7
F9E3
F744
06FD
FFBF
FA82
FC4D
03F3
FD92
FBD9
054E
06A6
05DD
F76A
F5FC
00C9
F667
FD9F
F9F6
03F5
F979
FBC8
009A
0150
F70B
074C
FDF3
FB5C
00B1
0644
0426
F803
F669
FC6D
F820
FD67
FB10
02B5
06F7
00E6
04F2
0519
0116
05D0
047C
FDF1
F7CC
FF3C
FEE8
FDD9
FEAA
FF7A
0843
FC35
034E
FAB8
F9FB
041A
0AC0
FBE9
FD53
F5D6
0017
F6E9
F9E7
FDE3
0095
FB43
FD34
FC07
FEF3
0543
02CC
0239
FD5A
FDB4
F997
FC9D
FDD0
F8F0
FD84
FBCA
03E9
05B3
FF59
0618
FBA8
F863
FEC7
F704
00A6
025E
F374
FB34
057C
0683
FB21
0665
00FD
FD13
0320
F963
025C
04E5
F591
FAEC
FDA6
0492
F7F8
020C
FB3D
F810
FC7B
078E
FF2D
040B
F702
F53C
F90D
FD01
0586
FC09
FF5E
FBA3
070B
0437
FFBC
02E7
EE9B
014E
FDE3
0125
0383
FD7B
075E
F8FA
F186
FA87
F687
01ED
F890
FBE5
FFD0
0254
F8F5
F998
0057
FDC3
F6E7
0712
FD6D
03D6
0484
F8DF
0175
FDAC
FE26
FAB9
F73C
F99A
0014
FB3A
0515
FC3D
FF1B
FB6E
F928
035F
F825
0564
F776
0031
07D0
F993
FE86
083E
010A
FA66
0320
031D
F972
083C
0650
FA1B
02B2
FE42
FAB2
FFE9
FA5A
F8F7
FC3D
0837
005C
F7DC
0330
06E2
0089
FDF9
FDF5
F6F0
04A0
FEA4
FD66
07E0
01CF
09C7
068F
FE04
0046
F800
F751
0202
040C
069B
F801
FEC4
FE16
F9B8
0496
F94D
0E15
0372
F700
FABB
FFED
F785
0109
0532
03A8
06A1
FBEB
0458
0138
F950
FD2C
01F2
0524
FD47
044A
FC2B
FD66
FB65
06CF
040C
FBCC
01C4
034C
065C
FDC5
0245
058D
FF60
0499
FBA5
052D
F95E
FFB6
FFDB
0052
01BB
F80C
0998
F75E
FF9D
F821
093B
FFBF
026E
01D7
0664
065F
FA1D
F94E
04E2
F9B9
07EE
FE0F
03AA
046C
FA5B
08A8
0756
05B2
FCB7
082A
0B94
FBF8
FBA4
0940
02B7
FBEE
00B2
044C
006A
059A
040B
026D
F8A1
02F3
F992
045B
F796
0276
FF66
FBEA
FAAA
0996
06CC
09F6
0654
0424
FFDA
095B
03FC
06E4
FCE5
FB28
07B0
FCD4
FF9F
FD82
FC9A
0486
0A59
05C4
0520
0588
02DF
08B2
0A35
07E1
0200
0041
0124
0627
04C9
060E
064D
FD30
FEA6
FF8E
076E
0448
F841
0B97
001E
FC19
0187
0CE6
084D
026E
FB63
0618
042D
0695
FC65
02BC
06F0
FFFF
05E0
08A4
0432
0096
03D7
FE0D
04BF
04B0
F829
016F
F952
FB3B
FC5B
0266
01C7
FADA
0061
FAC6
089D
0489
04F7
FD10
FB36
FCF6
090E
0901
FAA5
FDC1
00D5
07A9
0D7D
0755
FC54
0D53
FE7F
F9C8
016F
036B
0722
FF97
FFE2
078F
FE42
FEDA
FD13
0121
FEC5
FF74
05EE
0334
FBAD
FC90
FC50
0D2A
FE16
0793
FA44
F8E3
F823
0436
FFE6
01F6
FE3B
0393
031B
FAD0
0646
0B72
07DA
FD28
F87F
FE19
0091
FA04
07BA
06C6
068D
FB04
0498
0A74
07CD
0689
0B37
FADF
FCF9
0219
003F
0283
07D0
0A49
FF4E
02A9
0300
F946
0196
FD3E
0914
0CC6
05D2
0727
0895
0035
FF83
F506
06B1
022D
FFAE
FB33
FCC1
0742
062D
06E6
01A9
F69E
FD7A
FE0E
0659
065C
FCA7
FE83
F695
038D
04A8
0208
0695
FE0C
007C
F94E
F87D
F9B2
FC95
062F
0059
08A2
FAF9
0300
012C
F5E9
0733
05C1
0814
07A6
044F
F962
F76A
021A
08D4
FB6C
05A1
07E8
0188
F939
05FD
009A
F75C
074E
0194
04B6
F5B5
FDB9
FFEE
005F
01D7
00A0
FB35
FCE4
0832
0C06
FCF9
FBD1
0978
0CA2
FEAE
049D
FE9F
0044
0375
0A84
FECA
049D
0579
084F
0133
F6D8
01D6
FEC4
029D
FDBA
FE6D
0304
F96B
0A42
0569
0549
0C33
0847
FCC9
000A
F938
01EE
FA82
0421
09CA
086D
092A
F994
0279
FAB1
0947
FE83
0031
04C1
01F6
FEAD
03BA
02B2
F9C5
0C3C
0666
0598
F9ED
0525
0644
00C2
FD47
032B
038E
0800
0317
067E
0619
0085
0881
087F
086B
0706
08FD
005A
05E7
055C
05FF
0D4E
F737
0A57
F8BE
FC5E
0706
00E2
03D3
05BC
F9D8
0200
06FA
0499
0788
0032
0420
073F
FC64
0977
0158
0BE4
094B
074C
FCD3
FB07
06A1
F8DB
0A7E
0839
FCC1
08C0
01FC
002F
02AF
FF95
0473
F928
063D
02F3
FA90
0C24
00FE
FEA3
FFE5
0327
03BA
097F
043B
0284
FF47
F9AD
FF40
08D8
0515
0A5F
F4D2
065A
FBB0
F9A3
0A93
FF20
02C8
FB26
0813
FFEE
F1CE
0867
FB96
F892
FB87
FB66
FAE7
F69A
0706
F945
FECA
0394
0503
FC2D
FB8E
0520
FDE2
0541
F4E2
FA5E
FF4F
0001
0350
083E
0527
F97B
FA75
FD5C
FCBB
01B9
07B0
05E4
0061
FDF5
036F
0025
0710
008C
003C
031C
FED9
FA6D
FAD7
FB0E
0236
F856
F7C2
0387
F47C
FD99
00DE
02FC
0132
0496
0260
01F5
0360
011C
016B
03C9
FF99
FE12
FF25
FFD5
FCD2
F93E
0725
017F
0277
08BF
072E
063E
05A0
FC3D
088F
00DE
FA23
009C
FDA9
FBEA
07A2
01C8
FD6F
07F5
088B
04FC
0512
FD4E
02E3
084F
FB56
0556
FDD8
057A
0605
05A6
0722
0176
FFD2
FD30
0945
000F
FE33
0674
F8FF
021E
F98D
07AB
0826
0039
FCEF
08EA
0776
0411
0733
0873
0716
FAFE
F619
FAB0
FF09
067A
0556
F837
064B
FF4F
FE5A
FE25
04B0
0456
07F0
FB4D
05C8
048E
FAFC
F547
05D8
0121
FCB1
034D
FDA7
07F2
0098
07A6
F7C2
02CC
062F
F6FD
FA4E
F61C
F987
FD44
FC3E
0046
05A1
010B
05ED
0047
0214
FDD0
FD29
04E5
06BD
F785
FCA0
FDC0
FE43
FCD3
04B5
F85B
FE39
FE43
0571
0197
0080
F62C
FA13
FF7B
FE7C
04FD
0438
0302
F763
04A8
F732
FB1E
0349
FC4D
FFED
01D4
0238
F8C4
F8BF
F7A3
0054
068F
FBF5
FBFB
0431
03D0
01F6
049C
06CB
F652
F94A
F814
04D2
FA67
01BB
FB09
F9B9
0231
F9D7
FC27
027E
03D5
F6A8
07E4
FCD8
04DE
F9E9
04E6
F9CB
041A
06AF
F821
050F
F92B
034D
068B
FA74
0308
F6B9
F9B3
FB38
0488
FCD4
06EA
F6AA
F530
FEE5
F841
FE2B
0571
0350
FE0E
F7ED
04A9
064B
FFB9
FECE
F95F
F604
FC70
02F0
0C84
FD79
FF9C
FFAB
0A09
FE26
061E
FD2E
FFF4
FACB
03A3
0182
0342
FA00
F8AF
FB6F
02DE
01A7
FFC8
FFCB
078E
FE19
FECD
FBF3
097F
FCDE
0106
FB03
091A
009E
04E4
0418
04EA
FF60
0D54
F6CC
0A12
04AF
008B
FC0B
FF36
FC80
F4FA
0351
FBEF
00E1
0147
0725
02C1
08DF
F576
028C
FD6F
FD62
FF68
0A86
07EA
FC54
FD84
01BC
047B
0056
0562
FA7E
0B64
F8FD
03B7
FE54
0192
FF17
0599
FEA6
FEB3
03BA
FDBC
0358
09BE
0986
0C44
0559
FBA1
FF95
0454
0928
0015
0884
09F8
00D6
0BB2
0383
012C
0CA2
FE3C
0474
05BE
018F
0818
05EB
039A
FABD
FC31
0731
FD63
0663
10E9
FF9B
F85D
0294
FACE
076A
0077
0A7F
0B42
01CF
0181
0601
FD66
FFC5
01CB
F7FD
00EC
FD7D
07B5
04C1
052F
FA6B
00BE
FB62
0B3F
FE81
FE50
04CE
FC6F
0197
0070
0037
F93C
02B9
0892
0977
0415
F6F2
FAA6
F8F1
0123
04A5
FE3F
0691
00E7
F913
048B
0875
0771
F872
0759
062F
FC15
0677
FDD6
02B5
FDBC
0492
049B
F836
032C
0507
FF5C
FC18
040A
FE22
FB01
FE1A
F98B
FF8B
0324
F75C
FDA3
0BD7
F9CF
06FA
F7BD
FA89
FB38
000C
02E3
02A4
0677
FF1B
FEBA
01E5
F841
FEBB
0926
FDB5
F972
FB64
01B5
FD2C
0661
08F5
FE9D
01DA
FEB2
FC48
08A3
FBE6
FEBB
FE6E
FD3E
0292
084E
0704
0957
FD23
03EC
0746
FFE7
0696
FD27
0608
006D
FDBB
04F5
0886
0436
F9CE
0524
0623
FAC9
0156
F9B8
FA2C
0CFF
0261
FD4C
0242
F940
F89D
FCBE
037F
03DC
F993
FFB7
012E
FD9F
08E5
09DD
F82D
01BA
FEC1
FB30
FC73
0388
F755
F55B
FC45
FC2A
0184
FC51
F6B5
0BF7
049E
FB7D
FF17
FF6A
FEB1
0345
03F7
0389
0728
0735
F885
FB25
0164
0A66
FFC1
0432
00E5
FD8B
0617
0103
053E
0899
FF64
0901
0604
03AA
FDB1
03F6
07DA
0872
0509
FEAF
F5EC
0591
FA02
F99D
F794
FA1A
00FA
05F5
FC60
0185
036A
0BD3
FDC7
0135
F9F9
0907
0783
FFD1
FD96
FD01
FCE2
0A4A
01F9
0750
015F
06FF
FB71
057F
0AD6
FD46
0843
0683
FC71
05A6
F7D3
0490
F719
02A2
F959
03B5
FC28
06B0
0128
0901
0879
FBCD
FE1F
02B8
061C
FE2A
F92D
07E7
FF9A
F9F8
0866
F94D
FB86
FFCD
FF67
F8F2
08E4
0792
009A
0105
FE8E
0567
0117
05F7
081E
0925
03FE
021F
FE86
FC06
0236
0490
08B5
07F9
FD00
FE06
FCBC
F8E1
0191
01D7
02BC
F4C8
F6B2
0106
FF64
0508
0541
002D
06D3
FA47
0088
F658
FE2E
FDB7
0100
FBC1
FD87
007E
F718
F5C7
FB01
FAA6
03F9
FEC4
F4AD
FCA6
08FE
F7E9
02CF
F9D8
F8BA
00AA
FFA1
0333
0174
F5B0
FB2F
F9F2
F3A9
F644
0154
030F
FC9C
F55E
FCAB
F643
FE31
F994
03AF
026A
05B7
F70C
0276
FE86
08AB
F630
F716
0602
03D9
FE6B
05AE
0088
0730
0479
FC12
FF2A
FC68
FA67
FA78
05E6
04CC
FA8C
06CE
0886
056A
FAE5
030E
FA9E
080A
0692
03DD
0342
FFA7
FAE2
FBFE
026E
FBCA
F890
0741
0534
050A
062D
0940
FD13
FC0D
02B7
FD41
0185
05D5
0087
F983
09FB
0599
05B1
F858
FB4A
FBCB
FE8E
013A
FAD5
03E2
FE1A
0698
F85F
FF01
0105
FFAD
06FE
0505
FAA1
05DA
024C
0711
FE53
F9A5
FF24
009B
0384
00EF
FB9B
00E4
F894
05D4
08F2
020A
0C81
F7F5
07BA
09D6
0BAF
FDF5
FAED
FD1D
0192
0018
0AD4
08EC
07CC
06A6
0468
F8A0
F971
0A8C
04F5
04AF
F9D3
0732
FBAD
FD29
0558
043F
FC06
049D
0590
021C
FC3E
0708
07FF
042C
01D9
056F
FD6C
FA20
0726
0280
00F2
FCDD
0386
04D1
FDA9
FC62
F70A
F6CC
08AD
09CB
FD1E
FC42
070D
014C
08B8
0120
08F8
FA36
07D0
03CD
02BC
00B2
FE56
FDCB
01EF
FB11
07C7
FEC4
FEFD
0353
FAB0
FFA7
0183
00C6
FE5E
FA10
FE3F
0259
FA59
043F
0551
04D2
0588
F7D0
03BA
FC94
04F9
039A
FDD8
FA26
05A0
FEED
0336
FB01
F7CC
FA4C
0138
F9E1
FC39
00E8
FDA0
FB67
094C
FA2E
F953
0880
070F
FBC0
FED8
018A
FFEC
F671
0077
0500
FA0A
0712
08E6
0148
FEA1
FFE7
015C
06ED
F4D1
FA20
F772
FECF
F8F3
F9A7
04EF
0138
0539
F647
FBE0
0095
08AD
FBC9
014F
FD00
FD42
FA4B
F8D2
FA5E
078A
F8B2
FBB2
F5FE
FF39
08DB
F4DE
0619
020E
FC0C
F6AA
FE99
05A4
05C9
F912
F9B5
F8D3
F440
FDF1
FE9B
035C
FB44
06E6
F5EF
0851
FE3E
F2EB
FEF7
FDA1
F8E2
F71E
FE7E
F7F4
0390
FB07
FD55
05A1
07AC
F7FD
056D
04CE
070A
072B
F85E
0045
FFF5
028E
FB84
03ED
FE03
05F1
0224
FC92
0365
FE3E
0B5D
FF88
0254
0A9A
064B
0171
0362
F90E
002E
FD13
01D9
068F
054C
093B
F705
0678
0887
019C
0460
FC41
0376
02A2
01F6
FAC7
08C5
058F
069D
03F0
0869
09A5
07CE
0336
0689
FA2C
0487
0128
FFCA
060B
076F
070A
008D
0306
F82A
0372
015F
0841
F9F3
04D0
F83D
F482
F9E1
FE14
07EC
FD6E
FF9D
07FA
FB19
07F4
FE47
F5BE
06AF
F8DA
F8FC
FE3D
FE93
FAA2
FEF3
05F7
F9B9
FD16
FDDE
FDFA
06D2
0491
F8D9
0679
F89E
F711
F7FD
0086
FB92
03C6
0190
FBA5
017D
FD4D
FC39
FA0C
FE6A
F8EB
F3C9
FA9E
FA81
047C
03BF
FAB5
02CB
05C1
FBC8
FBDE
F9A6
FB24
FC01
F5B3
FB2D
FD3B
0381
04A2
F8E9
04FA
FB1D
FF95
