0181
FDFB
FEED
00ED
0168
FE8F
01FB
0154
0177
FEA1
FCE3
02C2
FEF6
012D
0152
FEA2
0170
00D3
0189
0075
FEA6
FEF1
00E7
00FE
0125
FE75
00EA
0121
FECB
FEF4
013E
00D5
FE8C
01D5
0182
0292
FEB3
FEFD
0175
FCDF
0155
018E
FE2A
FD8F
0182
00F4
01BD
00C7
FEA9
FE92
FEF0
FE67
FE60
FEF6
0069
FFDB
FE7E
0117
00D1
018F
FE08
FE83
0070
FEB4
