FFBB
001F
001A
FFCE
000C
FF8D
0080
0040
004F
0035
009D
00EA
001E
0033
FFFF
00FF
0036
000B
FFDD
FF9E
0043
FFAA
00AC
0036
FFF4
008E
002E
FFD7
007D
0010
0021
0023
0060
0035
004E
0094
0029
0015
006C
0152
004D
0054
00F0
00D7
0060
0038
0076
0032
0036
003B
0020
0034
00BE
FFED
0011
FFF8
005C
0030
0004
00EA
00A0
005F
0058
0037
