FE95
006B
FE1D
0029
FE31
FE15
FEE6
00C4
0104
004C
FE09
FFD9
01CC
0153
000D
0372
00CC
FFB7
0158
FE17
FEE1
01C4
014B
0279
FEBF
02A6
0090
011F
023D
0065
00B7
FEAD
0227
FF4A
FE11
023F
FE07
FF8D
004A
007F
FF11
FF7F
02C2
032A
FFCE
FF62
010C
0213
FF0D
FE7A
FFC3
0349
00B0
FE21
FF05
0007
FF7D
022E
FEB1
00AE
01DC
0284
00AE
FF1A
FFE8
00C8
FF2B
FFD5
FFDD
0188
FEB0
FE9C
00FD
FF17
FF3E
0265
FF59
FF50
FEE6
0085
01D3
FE1E
018C
FF4B
012C
FE36
FD34
006F
00DF
01B0
FE93
FF1C
019C
017A
0250
004C
0004
0010
0202
FEB2
FF99
FFEC
016B
014D
0136
0028
FF93
0110
FE26
0057
FE81
018B
004A
004F
FE11
0387
FED3
01A2
00BA
0073
FD9F
01C3
014D
0214
020A
FE2B
0089
FF96
0136
0232
FF4D
FE91
0211
FEC7
0069
01AF
FDCA
0039
FF1E
FDDF
FEA8
FE50
0258
FE39
013F
019E
FF49
FFEF
FFF6
FE8F
FEC8
000A
FF6A
011D
021F
FF05
FEE7
008B
01B8
FEA7
00DF
FEB9
FEC7
0193
FE0A
0123
FDA0
001D
FE42
FF7A
0175
FD7C
FE78
FFAC
005C
011A
FEA4
00C2
FFDB
FF78
003C
0198
0108
00DF
01A6
008D
005F
00C4
FE81
FF25
FDC9
00E0
FFBE
01D6
0015
027E
00C9
FFA4
003B
FED8
015C
0013
0162
026B
FF71
0008
0158
FE69
00EC
FE59
FE7B
01E6
0188
01EA
013E
FF1F
004B
FF5D
FE82
0149
007F
0224
FFD1
FD64
0285
013C
01AE
FF83
0067
00B4
FF03
FE77
FFB0
FF1E
0033
FE8D
FF2F
FE4A
00B5
0081
FF42
FF66
0120
024B
FF63
0111
FF7E
FE4C
FE60
FDFF
01FC
0300
FF98
00B8
FF7E
FE79
0095
0048
011D
028A
FFA5
FFA0
FF4A
00FF
00F7
FE28
FEB3
024D
FFD6
0088
0189
02B7
00F6
FED3
0074
006E
017C
00FE
00DC
0191
FFBF
FDBA
0229
0058
01DE
FF9A
00D4
FDE7
FF6B
FEE3
01DA
FF2D
00BD
016A
FEE5
0069
FFF6
FE87
020F
01C8
FE56
0079
FF99
005D
FF9B
FE95
FEC8
010F
FDD8
00E1
FF09
FF8F
FF6E
019C
FFFB
FFED
005D
FF5B
01CD
FF55
FF76
FD96
FF18
FDC6
FEE3
004E
0165
FD76
FFBB
FF6C
FD5D
008E
FE03
00BA
00AA
00DA
FF18
01F3
FE89
FE06
FEBD
00F5
0030
FE11
FEFA
0170
0119
FDF9
0234
FE1A
FE73
FEA9
003E
018A
0023
0073
FE16
0155
FDBA
FEED
FF78
0209
FE4D
FEFF
FE68
006A
FE11
00EC
FFFA
FDFF
0191
FDB2
0123
FF19
0078
0088
FDC1
FE94
0163
FF4C
FFD0
FE8A
00AD
00C9
01B6
01E9
FFB1
FF4F
014E
FDC7
FE3A
017A
007D
0059
FE96
FE0B
FE38
FFBC
01A9
02A1
FE80
FE75
0116
FD68
FFCE
0102
FF72
FF42
FEE9
FE23
FE64
00A9
0048
FFCE
FEE3
00D5
00C8
0103
FE16
FE31
FE26
011F
FFEC
FFD3
FE12
0136
FEA9
00D1
FF87
FE45
005E
016C
FF07
00BE
022A
0019
FF60
FFBB
FEF8
0006
FFD5
FE4A
00D3
00ED
0094
0009
01CC
017B
FF8D
014F
FFCD
0158
FF69
FEED
01C7
016A
FEE2
FEAB
FE8F
FF82
0004
012B
FD9B
FE95
FEB4
FF79
FDB3
00FE
0179
FDCA
01F1
01C2
01D6
FE32
FDFF
0070
0216
0185
FF7B
FEAB
FDBF
FF8F
0170
FF37
01F8
FE13
00D0
019B
018D
0068
01CA
010A
016A
01B7
019D
FE19
FE83
FF03
0040
FE5D
FE59
FEEC
FDCC
016D
0022
007C
010A
01BA
0246
01FD
00E7
001D
FE27
FF76
FE96
FD3D
FEC2
00F8
0358
0101
0036
FFC2
0160
FF6F
FE77
FE84
0054
010A
0046
FE68
02E4
015C
012B
FF5A
0320
01DE
0075
0362
FEA8
011E
0103
FE59
022F
018E
01D7
0039
FED0
01D5
0132
0086
FF22
0323
FF13
FF92
0048
020A
019F
001F
012D
FE11
03A3
0209
006C
033B
00B6
FFD3
00AE
004B
0267
0214
FF74
FE60
0344
02E2
0285
FFD6
00A2
017E
FE2A
FE6E
0166
FE88
FDB8
0124
011E
FE0E
011D
011C
FF78
0051
0005
FDD7
FF32
FF23
FDF2
FF2D
01DF
FE2B
FF09
023F
FEA8
0210
0110
FE1C
01BE
00F5
00B8
0188
FE6E
FF72
021E
0265
0144
002D
0130
FFB3
FF3B
005D
023B
FE71
01C4
011F
0154
FFCE
FDFF
FE08
014E
FF99
0139
FE34
FFE7
FEE7
FF6F
0158
FF6A
FFE6
005A
013C
0051
0046
032A
01F0
FF0B
0132
0438
0302
005C
00CA
0158
023E
00F4
0152
FF38
FF1F
FF3B
019D
04AC
0162
02A1
FFCD
0258
01EE
010E
0588
0027
00E5
02D6
0051
01FE
FE47
00CC
058B
0278
0142
016E
0443
FFB3
0134
0196
040E
02C0
031C
0654
02E2
008E
035B
00B1
0341
02FE
037A
FF4E
061A
031E
FEC5
0193
01DB
0453
FFEE
FEBB
0272
04FD
04DE
FF11
0050
FDC7
FE0E
0244
FF14
0111
FFD5
FFF5
0017
00C6
FF64
0052
01D3
FDC3
0231
01CF
FE55
FEEC
FE62
004E
FEFF
FF03
0147
0141
FE35
01C8
018F
FEEC
0004
00B7
0142
FDD1
01BB
00B7
01DE
FE57
FF5A
015D
FE7E
FFFA
FE10
0104
FFD8
007B
FEF2
0091
01A0
015D
009E
FF1B
0210
FECD
FED8
0095
0191
00CE
0274
FD15
FE8A
0202
FD8C
00B9
016B
017A
0118
01E8
FFDD
FE46
FDE8
0205
017D
FEE6
FF47
FEA9
FE60
0176
FF21
018D
006E
FE44
FF17
FDB9
00F0
FF5F
FFC3
FF92
FFF8
0200
FF67
000D
0086
009A
000D
0123
FEAD
FE13
02CA
FFF3
FE1D
00DF
FFE7
FE75
FDBF
FEED
0057
FDAC
0012
00C6
02C0
01E5
FFA3
00CD
0020
FF9D
0011
015C
0032
FF81
FE58
FD95
FDDD
0144
0050
01D0
0099
0027
01EE
028E
00D0
00BF
FFE5
01AC
FFC4
FDAD
FE95
FE78
004D
0140
0198
008F
FFD7
FFF3
FEAA
01FB
FD8B
0140
FE60
FDD7
023F
0046
0127
00FD
0211
021B
FEBB
FD8A
FE6B
FF04
FF7C
FDA3
FD77
FEB8
FE2A
FEA6
FE41
FF1B
FEF5
FED3
FE69
015D
0027
FD5D
FE64
00E1
FEFE
FF44
FEE6
FF2D
FE1C
007B
0083
FDEB
FE92
01E1
00EA
FD83
FDD8
01CD
0135
FD80
FE3A
FDB6
FF10
0138
FEAF
FED4
FFD5
0095
021A
0151
001B
FF77
FE49
FF9C
0171
01CB
004C
FFE8
FDAA
FF6D
019D
0297
FF22
0158
FE1C
FDEF
FF20
010D
FDD4
FEA2
00A1
FF2C
FF0F
0056
FE5A
FDFE
FE95
0093
FE57
0194
023C
0161
00DC
FEA3
0198
009E
FECE
FECC
FE1D
01A9
FEC0
01B0
FE06
01BC
018B
FE43
00A3
01AC
0090
00DC
FDD8
0294
0191
FE7B
FFD1
01B2
0002
FDD2
FF01
008F
FE28
FDF0
0065
01AD
007F
0176
FF3F
011E
FF0D
FBAB
000B
008E
FF44
FFE0
FE9B
FF65
FD60
FFB9
0269
FED8
FDB8
FEBC
0155
01F3
FD46
004D
0118
FE27
FC18
0166
FD1F
0190
025E
FFF1
FE08
0083
0027
FFD4
FF86
02A7
FFA8
00C8
002F
0167
FD01
FD81
0199
01C5
0226
0146
024E
FE74
FCEE
FE62
0198
0216
FD6A
00C3
FF20
FD8A
FFF2
0153
00F2
01A6
FECA
0221
FEE7
01B7
012B
01E3
FE30
0126
FDB4
0210
FEF6
024E
00AC
FE3D
00FF
025E
FF37
00EC
0051
FFE8
0214
0239
FEB3
FF93
FF45
0000
FEC2
0216
FDCC
FEE9
019B
FE0D
FE88
0185
0188
FE10
FEA7
FF0A
FF92
FD66
FE2E
FE53
01D2
0190
00B4
0013
FE03
0236
FFBC
0157
0026
FDDA
FECE
005A
023F
00A7
FDDD
FDC9
013C
FFD6
00AA
FDB1
0157
00B4
00EA
0152
FD50
0148
FE5F
00DF
FF2C
FF35
01EA
FEA3
0058
FF1D
FFB0
0064
01FF
FDB0
FE91
FF35
FEDB
001A
01CA
FD96
FE64
FEF0
01F8
FF57
FE1E
FE0C
00F3
011E
0011
01A5
01BD
0185
0176
FFE7
0112
0048
FEC5
FE5D
018B
023C
0022
0207
FEEC
FE07
FF89
0020
01AE
FDEC
0145
005B
005A
01BB
019D
01D7
FE99
007C
FF14
FF77
FE6B
01A1
FDB7
FFDC
003B
0112
FE3D
FFCE
FFF5
FDED
FDF7
008E
01BB
FDC2
0103
FE20
FF06
0233
FE40
FF9E
FFBF
0225
FFF8
FF4E
01F0
FD9A
003A
FFCD
0015
028C
00A4
FF29
028F
FE3C
FDF7
003C
00A7
FE22
0038
FEA2
015B
FF6C
FE60
FEC7
0193
0179
FE4F
FE3A
FFC5
FE78
FE89
FEA4
FEB3
018E
00FE
FE2C
0203
FE4B
FF2B
FF07
01BB
FE5B
020F
FF56
FDFD
00C8
FCC3
FF32
FF99
FFDF
FFD5
0111
0050
FF1A
FFD9
0267
FE12
004E
FE19
0231
FE40
FFAF
FD64
FF7D
FCE9
FE48
0162
FF08
FF4E
0194
FF51
FEE1
FD96
011D
FF0B
FED4
0451
01EC
FF77
FFDA
FFBA
FDE6
0080
FE4B
00B7
FEFF
FFAE
032A
0275
006A
021E
FF63
01FF
0220
FE7D
0043
FEB0
019C
FF3D
0109
FEF1
01CC
029A
013A
001B
0198
00CD
001A
FFBC
FF76
FE11
FE00
0187
FEFF
FEA5
FFAE
00A3
FFF3
0118
FEB3
FFFF
FFC1
FEA4
FFA5
FEB5
FF47
0061
FF00
FED4
FF76
0220
FDAB
006E
01E8
0145
00F3
020A
0049
FF17
024C
FFB4
FE33
FE92
02CC
00CE
FEAA
003C
0060
FFC3
00B6
FDD1
000D
004C
FF9F
010E
01F1
00D6
022F
FE7D
FE92
FF4F
FFB8
01EA
FF07
027A
FE5F
00C3
FFE7
FE0A
FDDD
0202
01F0
01C5
FD9A
0127
0215
FD51
01AB
0038
002C
01A8
FFD2
FEE3
FFB8
01BE
012F
FEC1
FE8B
FE34
0091
012C
021F
0022
FFCB
00C9
01C1
FFAB
FE09
0112
00EC
FEC4
FDBF
FF76
FDDD
FFC4
FE21
FFF4
000D
FFE9
0135
FE87
FEDC
FF09
FF8B
FF4C
FF6C
FF6F
FE08
0021
FE05
008B
0142
FF42
FE2E
0045
0026
00D1
025F
FDB0
0068
FF6E
00B0
FF2D
FE8A
FFE9
FE7C
01CC
00D2
007F
0171
FFCD
0213
0213
01F0
00F7
01C6
0185
01CD
0230
0019
FF99
FFE6
0027
FDE6
FF52
0189
FF43
00BC
FE16
0124
0048
0127
FE80
0254
0236
FE23
0021
FFF5
FFE3
0075
0068
007C
0175
00B4
FEA8
014E
FE4B
002E
01FF
FF7B
FD74
00FA
010F
01D4
00C4
005A
FEA1
01D7
FE64
00BD
FF68
FF74
FDF9
FDE9
FE79
FDB7
FE77
FF5C
0150
FE57
FFB4
FFCD
0624
FFF8
0390
012C
0205
0282
0126
0210
02BF
0188
03EE
0218
FEEE
FFB5
FFF6
FDD6
0005
FF8A
02E4
0070
FF1D
FE05
0282
FFDD
0189
FEF2
003F
FF18
01CD
0215
00C9
01CF
0046
017B
0404
FEC1
FFFF
FEFB
0055
00E0
0143
02DB
02B0
00CD
01A6
FF68
0167
0246
0081
FEED
0337
012D
0181
00F0
0271
02A5
FF8E
0124
03A6
0021
01B7
FF75
0003
0196
FF21
01C6
011D
0040
0346
FF1F
01CB
0000
FE99
0220
0267
0178
011A
02AF
FFF3
02E3
018F
0014
FFF1
01F4
FE7A
FE7C
00C6
FFB0
FFB5
FF94
FE1C
0289
FEB0
FEA0
FEBF
016E
FDBE
01F2
FFBD
FF62
0164
FD60
FE39
FE36
0011
FEDB
FF76
0156
FD29
0221
FE1E
FF6D
015F
0193
FED4
FE18
FE15
FFBA
FEDD
FFB6
FFEB
014C
FE29
00E8
020F
FF3E
014D
00FA
FE58
0052
FF4B
FEFF
FFA8
015F
0200
020C
0020
00E1
010D
0157
FFFE
FDB8
004F
0234
02C8
FEC5
FE68
00CF
FF3C
FEE1
006B
0201
01DD
FFC4
0222
FF72
FFBD
01C1
0083
FE0F
FEB2
FFAC
FE08
00A3
FEFC
017B
FF4A
01D9
012A
FE48
01CD
FF7A
0298
00E2
FE78
00F6
0193
FE5D
FEA5
01CD
FE35
019C
01FA
019B
0030
FE26
FE52
0209
FD8B
000C
00B3
00D6
0096
015E
0167
FE19
FE9A
FDFD
0143
FE7D
0141
FF7F
01C0
0007
0047
FE48
FE00
0131
FE10
01CA
0220
016B
FEFC
FDBD
0230
017F
00C7
00AF
010B
021E
00C1
01DE
FF3C
01D2
FFCD
012D
0060
FF63
FEFC
FE7E
FF8B
FF28
0199
FFBD
FF87
0013
FEDC
FDEC
FE58
FF65
FEF9
003B
00C6
FDF4
01A8
01E5
0285
FFC3
FE73
FE89
FFD6
FE2E
FE51
FF8F
FDDB
FFE4
02F8
0164
FEE8
011B
0265
FF01
0248
0167
00E7
0225
0282
FE7A
FF68
008E
FDFD
0073
FEDF
FFFB
0158
FF9F
FF75
FDD5
0010
0085
024A
027D
FF33
0158
020F
0042
0289
FE26
00E4
0002
00D8
0164
FE79
0238
0016
003B
FEFB
FFBF
0008
FF0A
0069
00E5
0161
01E5
001C
01C3
0078
014F
006E
FFF0
01BF
FE96
00E6
0047
014C
00CD
FE87
FEBE
FFD8
00CE
FFF1
00CB
FF65
FE11
01F1
FE76
01E2
FF31
FE79
FEF8
FF45
FEDB
FED7
FF30
FDE4
FF59
01F8
FFEB
FFD6
0109
01DB
FF3B
FFA9
00ED
FE09
FFC1
FE9F
018C
0185
022E
013C
FDDE
FDA1
0027
FEBF
FEA6
FF73
FF9C
FFF3
0109
FDFE
01E0
027C
FEE2
FF75
FF51
FFF4
01E9
0101
0047
0033
02A6
0244
0264
018E
01BC
FE49
FE0C
FF98
FEC4
01CA
FDC4
01CE
FF9F
FDE5
FEFC
FE67
00DA
0073
FF65
FE9D
00EF
00A3
FE34
FE93
FF24
0222
011A
FFD9
FFCF
FDC2
005F
0166
0079
FF2C
029F
0030
01CD
00D1
0255
FDC1
FE60
0164
00E7
FDC4
0130
FEE6
0254
FF03
00EB
0152
FF4A
0272
FEDB
FE01
FF1E
FFB6
FFED
FFBD
015D
FED6
0218
0062
0139
006F
FF1C
FFB9
00B4
016F
0214
01CD
0032
0099
0130
FF4C
FFCC
FEDE
0271
00CD
FF8B
FE2B
008B
021B
003A
FE9B
01FC
0142
FEA1
FFA8
FE20
FF24
0140
FECC
FF1D
0180
FF41
004F
FF9A
FF7B
01C2
0158
00BA
01CD
FE9D
01F2
FE97
009D
FE07
0230
FFAC
01DF
00FB
0012
0184
0141
0129
0070
FDB6
01D3
0035
001B
FFB5
0183
FDE6
FF91
FEAF
FEFD
0069
FE40
FFDD
014C
0248
FEB4
FEDD
FE21
0003
013E
FFC6
01F3
021A
FFE0
0208
021B
FDFE
FF8A
FE1F
FD63
FEFD
0137
FF58
00F0
0194
00EA
FDBC
FFBE
00AB
FED6
01F3
013D
FDF6
007E
0108
FF9C
FE34
FF4C
0122
013D
0113
FF07
FF44
01BE
01D9
FE64
0112
0160
FFA4
FE3E
FEA7
FF99
FF85
008E
0068
01CF
011F
0026
0087
01F0
0040
004B
0178
0204
FEE0
FDEC
FFFB
0102
021D
FE74
00C2
FE76
FF73
00BB
01C6
0064
003D
FF4F
