FFF4
000E
FFA3
FF60
FFD4
FFCA
FF3A
FFD9
FE0D
0007
FEF3
FEA8
FFB5
FEF3
FE8A
FEDE
0122
009A
FE11
01AC
0075
FED2
FEEF
015D
FE0F
013A
02A3
0232
0050
015F
FF38
FE7E
0030
FF13
017A
FEE9
FFE7
01CA
0120
005C
0069
0152
0097
0183
FFA8
FDE3
FEB8
0009
00E0
0017
0125
FFA6
FF34
FFDF
FF58
009C
FEE5
FF7A
00C7
FFD4
00BA
0107
FEA7
FE48
FEB3
0036
FE6D
FEBD
FFE8
FF09
0142
00FF
0074
01AA
0027
FF6C
0099
FDA7
FF17
FCBA
018D
FEAF
00CC
0053
FFAF
014C
00B5
025F
FF5B
016B
FF67
0104
FFF0
0104
0008
01CC
006F
011C
FFB7
00A1
016F
FEF5
FF0D
026A
0164
FF0C
0243
FE3C
0096
0168
FF68
FEEC
FFA4
004C
01C0
0097
01A7
01EE
FF3B
0046
00D9
024F
00D3
FFBB
016C
0052
FF8D
00D6
0023
FFDA
01FC
FE01
00DD
FE8A
0031
FE7A
FF87
FFF8
027D
FFCF
FE90
FF56
01D2
FF5D
007D
FF68
00A2
005D
FF38
0194
FEDA
FFB4
00DC
FF6E
00B5
0061
0120
01AA
FF72
0056
FDD4
FF03
008E
00A5
FF5C
FFFB
00BF
FF05
0125
0045
0157
002F
FF76
FF71
0011
0109
01A3
FED5
FF45
00ED
FFF7
0140
022E
00B3
FF66
FFD2
0072
0069
FF71
0187
00BC
FF8C
FF9F
FF9E
00B3
01AD
FF5E
FE2E
026D
FEBF
01DE
0142
0356
0150
FF24
005E
00FA
0060
01AF
FD36
010B
0024
0090
0030
0003
FF63
000A
00ED
0075
0162
008A
0123
FE3A
002D
002D
006A
00AD
005A
FFFC
FE85
FF19
019F
0042
FF98
FF4F
00A9
FED4
0086
FFAA
00F4
0071
0094
002B
019B
0006
02B1
01DF
00CD
FF40
FFD6
008A
00BA
FFD0
0101
FF5B
01B8
0094
010F
FFEB
FECC
FFC9
0036
FED3
FE14
FFE9
00CE
00EE
FFD2
FF9F
FE06
003C
0159
0140
0042
0276
00C2
FF3D
006B
00E4
0014
FF08
FFAB
00D9
0013
FDF5
FD92
FFB0
00EF
FF7C
FFCB
FEC4
FE60
0126
FF5F
FEF7
FEA8
FEDF
0059
01DB
004A
FF35
0166
FF63
00D4
FF13
FF61
FEC2
FF8C
001B
FE84
0094
0103
FFF9
FFA1
FFAB
FFB8
00C7
FF6B
FECA
003C
00D0
FE67
0098
FEB1
FF17
0121
0052
00B5
FF89
00D1
FF93
0076
FEB9
FDBC
0056
FFBC
FFA9
FFDE
013A
FEFB
FFFA
017D
0151
FE3B
00BD
FEF6
FE6B
FFC5
00A9
FF8C
0051
00AB
00FA
FFD1
FDE6
FF2D
00CE
FF18
01A8
011D
FEEC
FF53
009A
FE82
01FE
00C3
008A
FF47
00E7
0025
00F1
FF92
017F
00B3
FFA4
010A
000C
FFF0
0089
FF5B
0067
FFF4
003A
FF4F
FF8C
FE7C
0029
001A
0028
FFB8
FD71
FF3F
FF52
FE2C
FEF8
0140
FE41
00F9
022B
0055
0150
009B
FF3C
FECB
FF2D
FEBA
0292
FF3B
005D
FF77
FF6D
FFB3
010C
FF87
002C
FF8E
00A3
FE5D
FF15
FE33
FFA9
FF70
004F
FE79
FE7E
0091
FF03
0109
FF0D
FF6C
0008
FFBE
FE89
00EC
FFDE
FE4E
FFCF
FE3C
FEEB
FF89
0065
FFD1
FEE4
FDD9
FE84
0024
FFD0
00C7
0068
FF25
FE01
02D7
FF44
FE1F
FEDD
00A4
0073
0072
0066
FF99
FE1E
00F0
00A9
0067
FD28
00DA
003D
FFD6
FF61
FF48
0060
FF22
FF1E
FF2F
01A7
FE22
022A
0157
0056
007E
FFAC
FF51
FF53
FDCB
FF4F
0227
FF80
FD8B
FF21
0052
FD63
FEC5
0015
0191
FF68
0067
FF91
FF29
0022
FE5B
FEDE
FF01
00F4
FE71
000E
00F5
00D0
FEE5
FE89
FED7
FE73
FFA1
FF90
0010
005C
031F
00C8
0056
002E
016D
0255
FFDA
009F
0109
0088
FD88
FEE6
00B3
004C
FF86
002B
FED4
FEF5
FF96
009F
006A
FF4C
0017
FFD9
FFA7
002C
0120
0095
FF98
FE44
FEDB
00F3
FFCB
FFBD
FFEF
0123
00F2
FEAC
010F
FE8C
FDBF
FFD0
00A7
FE4A
FEB8
FE1F
0064
FF29
FEA0
000B
017F
FF33
FEEC
00DA
00BD
00F8
FE62
FFE4
00B0
0029
FE6B
FF27
FFF7
FF8D
01D4
FFB1
FF34
0120
011F
FFAF
0125
01CA
0020
0159
FF51
0140
FFCF
0207
FE77
008B
0198
00F8
FE26
00C9
FF94
0188
00C7
0140
FF4E
0066
009B
FDF8
FFD9
FFF0
0000
FFD5
01A4
FE58
00E5
0148
006D
FE36
FE95
01D5
003D
FF67
014F
0090
0055
FEB2
0063
001F
00F1
008B
00A1
FF37
FED7
006A
FEC3
0032
00F9
0043
00AF
FFF1
00DA
018C
0105
FFD3
FFBB
0102
00A2
0090
00A5
012B
FF82
FE44
0045
007F
01DC
0122
0030
0204
0129
00BE
0238
FFC9
FEB5
FFCF
0150
0098
000B
FFAA
010C
0092
FF36
00FF
01CD
FFCB
0173
01A9
0021
00AC
00B2
FEAF
01D8
FF8A
FFF2
0138
FF97
001B
00CA
00FB
00C3
0105
FF1E
00CD
0417
01BB
00B7
FF98
0053
FE29
FF01
0091
01C4
021D
01A5
003F
011D
FFA6
FD01
FF31
FFEE
FE57
FFC7
FF20
FDC4
FE3D
FFDD
FED3
FE60
0048
0099
FEA0
0176
FFCE
FFFE
0076
FD22
FFEF
FFC7
FF26
FF2F
004A
FE7C
FF8F
FF66
FF53
00E9
FFF0
0023
00A6
FF5D
000C
FEE8
FF87
FE0A
FE14
00AB
FF8D
FFFD
FD8E
FEF8
FEF0
FF33
FE10
0187
FF8C
0015
0009
FD51
FDE5
FFFB
FE66
FFF5
0028
001E
FF18
FDDD
FEEC
FE32
FFB3
FD78
0006
FE26
00C5
FFE4
0036
FFFA
0299
FEB5
FFD4
0185
FFC3
0097
FFFE
00AE
00EB
004F
0225
FF67
FECE
010C
FDDA
007E
008F
00E4
002B
0003
FF5F
0065
FFA9
00E1
FFAA
00AE
010F
0002
FECA
FECD
00AD
FF94
FF0A
FFC3
FFC2
013E
0084
FF38
002F
00EC
0259
023E
0018
01C2
002F
0051
0051
FF8E
FD7D
FF3E
FF8D
FF53
0239
0067
00FE
FDD9
FEF4
013D
FF37
0018
0002
0086
FE6F
FE9D
0014
0185
013B
FFFD
00AC
FE68
FFD2
FED4
FFD7
FFE0
00EA
005C
022B
0076
013A
FEF1
FFBC
FF8E
FFFA
FFF9
0160
0050
00CB
FFD3
0124
00FD
0168
004B
018E
00ED
FFF7
FEA9
FFCA
FFA1
012D
FFC0
FF3F
0216
0075
FF5D
01D9
FE7C
007E
FFA9
FECC
FF0A
FE74
00CE
010E
FF73
00A0
FEB2
010E
0082
00B7
015D
0055
FFB0
FED7
FEA8
FFF5
FEC0
0006
FFBA
FF91
FF10
003A
FFCE
FFFA
FEF5
007D
FFBF
FFED
FF9F
FE82
0152
0047
0007
FF0F
FF0F
FFBB
0061
FEAC
0058
FED8
FF35
00ED
004B
FF76
FE9B
FEFA
0010
FF20
FF1F
FFB5
00BD
FFCF
0003
FFCA
FE3E
0058
FD73
FED4
003B
FF3C
FED7
FF7D
FEE5
FED5
FF8D
FDA2
FEF6
FFCD
FF24
0076
FF87
0144
0029
FF56
FED8
FFAA
FEEF
0002
FC8D
FFD5
FF4D
00EB
FEFB
FD4F
0184
0023
0072
0122
FD48
0014
FDF2
0049
FEDC
FF20
FF58
FD5C
FEC7
FFE9
FF63
FE8C
005F
011B
FF64
FE83
0029
FE42
FFF2
0133
FEF6
FFA6
FF9F
00F0
FF93
FF56
FF55
0031
FF3E
009B
FFA0
0165
FE97
FE91
0022
002B
FFD9
002D
00AE
FEC0
FF96
FEA5
FEBF
00B1
FFB3
FD67
00E1
000C
013B
0048
014C
FE8F
01C9
01BC
FE20
000C
0093
FD95
FEE9
FF14
FF7E
FF7D
FEDC
FEFA
FEA1
0091
00BD
FEAD
01E6
FFBB
009E
008A
017F
FFC8
FF1A
0182
FEEC
004C
FF76
FE4B
01AE
0081
FEEC
0193
FFA3
00C3
FF17
0131
FFF4
FF88
FEE3
0095
FE69
015B
0054
FF2C
FF64
008C
00FB
0036
FDF0
FEFE
FF5D
FFAD
FBDC
FEF6
FFC2
FFB0
0196
FFFD
00A1
004F
FEA4
0074
FD68
FEE6
FFB0
FF39
00A7
FE62
FF84
0116
0033
FE4C
018C
FF97
FE50
FD6B
FDCD
0066
FF42
FED8
FF0E
FFD4
0038
003E
FEBC
0058
FFE4
0087
0098
01A5
0003
00CB
FFC2
FFD2
00D1
0075
0299
0031
009B
003E
FED7
FF70
FED7
FDF7
014D
005B
0120
0064
FEFE
01BB
FFF5
FF09
01EA
FFD3
FEE3
FEA8
FE77
FED0
00C5
FF73
0048
FF7F
FEDC
00C3
0041
FF98
FF96
FFE7
0045
0079
001A
FF2C
0013
00CD
00A0
FFA5
FF20
FE4E
FFB6
FFE3
FEDA
FD9C
FF0C
003C
018B
FF5A
00CE
0109
011B
0017
0040
FE00
FE16
FFCC
FFA5
FFD9
FFE5
FE94
FF1B
FF1B
FFC9
FF2D
FF0B
00D3
FF7E
0018
0113
FFFF
FF00
FEB2
00C5
FD27
008F
FF60
0000
0000
FF5B
FFD1
FF23
0050
0075
FCA9
FF1D
FFA8
0013
00A2
001D
FF95
FE12
00F8
FFB3
FF8F
02CC
FF86
FD96
FF30
000F
006C
FFE8
FED1
FFCE
FF9C
0028
FEC6
FDEF
0069
FF72
00CD
FFD9
0194
FFC9
02C4
FF03
FF38
FD9E
FF24
FEBA
FF7D
004F
00A9
006E
FEFA
FF7D
FF46
008F
000F
FF4D
FECB
0144
017B
FF6E
FF87
0084
002C
01D1
FF8A
0031
0049
00B5
00C9
FF24
FFA5
00A3
00BA
FE41
0093
00EA
FE5F
001C
001B
0115
000C
004D
FEC9
FF5A
FF7A
FFCD
002F
FFE9
0028
FFC6
FFEE
006A
FF1E
00E0
00FC
00F3
FF56
FFDC
009F
001F
002B
FE8C
017B
01B5
0126
FF20
0088
015D
FE05
FFC7
0078
FE80
0098
FE8B
0060
0063
FF6F
FDD7
FE2A
FDF4
FFE9
00EC
FFD6
FE09
0097
0164
01BA
00BF
FFCE
0059
00FA
FF96
FF60
FFF3
FEBB
FF67
00CA
018B
00AF
0200
FF9C
FFC0
0062
00A5
0044
01A6
00AC
FEFE
FF05
0136
008A
FDCB
FE21
0060
00EB
FF63
FEEE
FF35
FF63
013B
FF86
0008
FF61
0071
0117
FF38
016B
FFB2
FEC9
003D
FD71
FFE0
FF57
FFCF
0147
000D
0087
00DE
002A
FF30
000C
FF36
0259
FFE4
FE02
00C1
00BD
FEA2
0196
FFA2
FF2A
016C
0015
FFF4
01D1
00D1
FFDB
0049
FE86
FFC0
FFFE
FF18
FEF6
FE6B
0050
0067
007E
0023
0074
FFAA
0183
0040
00FD
0096
FED0
FDE3
00C5
007F
00D2
FE9F
FD60
0023
0008
FFE2
002E
0014
FFFB
FD78
002F
FEFD
FF59
0038
FE88
00AE
00ED
FD7D
FDF9
FF7B
FFD5
FFA8
FFD3
FF05
FF8D
FE62
FF15
FFDF
007E
FFFA
FFE5
FF09
FF2E
FDCD
FEC8
FEC9
FD93
0025
FED6
006B
0145
FF96
FD8F
0009
FED9
010F
0017
0037
FF9C
0057
FDAC
0119
FFD1
015A
FC95
FF17
021D
FE9F
FE21
FF3C
FE79
FF50
FF53
006B
FF95
FF69
FE4C
0052
00FF
000B
FF1F
FDF0
025A
0070
0025
01BD
FF11
FF02
FFD1
FE8E
00D3
FF3B
FE40
00DC
FE58
FDED
0132
0091
00BC
0039
0037
FEE4
FFFB
FEF8
FF63
00DC
FFE7
006C
014C
FFD7
FE71
FE5C
FDC9
FFC1
0123
FEA1
FD6C
014E
02C3
FFFE
0070
FEC3
FF67
0164
FF2A
0013
00E2
0041
012C
FF26
0015
FD63
001B
0132
0108
FF16
FF7F
FE91
0161
FF7A
FF98
FF5D
FFBC
013F
FEFA
0092
FE23
003A
00D2
FF46
FF4D
FF4F
FE82
FF03
FED1
0068
FE0F
FED5
FFBB
FFCC
FFC1
001F
FF7A
020A
FDE6
0006
FFF7
FFAB
FFA9
0014
FFE5
FEA5
FF0B
00E7
004C
FFEE
FED0
0006
FF78
00A6
FEF1
FE44
0036
FF40
FD78
FD05
FE3E
0039
00AC
00CE
00D7
FEE4
0074
019F
FF85
FEC5
FE9C
0129
002C
0005
FEFB
FFB5
0036
00AB
FFE3
000D
FFE0
00A0
FFB6
0075
FFA2
0012
0125
FF86
FF89
016E
FD8D
00F1
0066
01ED
00D8
FF16
00F8
00AE
FEE2
0152
FEBA
00BC
FFFC
FE63
FF75
0027
0085
0064
FFAF
00A0
0046
0013
00F3
FEDB
0101
0175
FFD2
00BC
FFE4
FFC7
00C0
FE99
018A
005D
FFE1
FF29
0112
FE86
00EB
00D4
FE9A
00EA
0229
0134
00B2
FE1D
FE5F
FF0D
00AC
FEC4
FF5E
FF2F
FFB0
FE57
0291
0053
FE89
00C2
FFE8
FEEF
01E1
FDE3
FFFB
FEDC
FFA9
FF5B
0098
FF1B
00E0
00AF
FE96
0119
0095
0092
0033
FF79
00E8
FFA8
FF15
FCA9
0169
0105
FFD2
FFBE
01A9
00CD
0057
006C
FFA8
FF58
FF60
FFD8
00FD
FFA3
01C0
004D
0095
FE8B
FD2A
FF9F
0099
0005
007B
FE96
FFFC
FF49
007A
FF2F
00D8
FEC6
FF3A
FFF5
FF09
FDF3
FE56
00F9
FDA7
FF0A
FEC0
008A
0066
FFDB
0096
010D
FE05
FF7D
FF72
FE8F
FEFE
003B
0059
00EB
01A8
FD60
003A
FFD9
FEBC
FE75
01EF
FF98
FF5E
FDD0
FE85
FF4A
FF9B
00A2
FEFC
FE04
FFD1
011F
FFF9
FED2
0083
FF44
FF3E
FFDE
FEC5
FFA0
FF87
FDC3
0007
FD41
0098
016A
00D4
FDAF
FE58
FE64
0035
FFBD
FF32
FF31
FF35
FFA4
FFC5
0083
FE89
0014
FFFA
FF2A
005A
FFBD
FFFE
00C4
FEFC
FE50
FF7A
006E
FED0
FEE0
00A0
00F5
FEC4
FF32
FFF8
0166
FF9C
FEEB
0282
0006
FEBE
0082
FFC5
FF93
FD9A
FF59
004A
FDE6
FE8E
FDD9
000F
FFC8
00D0
FF80
FF88
FF71
00EB
FEB7
00E3
FF94
FF74
FE6B
FFB9
FEBA
0159
0017
FEE0
0012
019F
00E4
00BC
FFD9
FFFB
018A
00A7
01D6
FF7A
0179
FEB5
FF14
01B1
003D
001C
00CA
FEDB
001A
FF24
FF09
FE73
0010
FFF0
0081
0112
FE4F
0089
0054
FDFF
FFD2
FF5D
FFE9
FF74
FE1F
FE10
0149
0134
0250
FF08
0100
0128
FEB5
015F
0025
004C
0002
FFED
FEC8
FE0C
0016
0075
001B
FFF9
FD1B
FEA8
FE90
012B
FEEE
FF7E
FE6E
FE61
00D2
01E3
FF2F
01EE
0018
FFE7
01E0
0182
01B4
0086
0027
00B8
FFB7
FFDA
021C
FFF2
FF93
008A
FF63
0084
FF1E
FFC2
00F9
FFA9
00A5
FFAE
FF5D
00CB
0012
FF0E
FF1C
FFD8
FED7
FFCA
003B
003D
FF9D
002A
0098
FFA8
00E6
FFF4
FF41
FEC2
0036
FE38
0128
0036
00C2
005C
00BE
FE56
FF4A
026E
FF66
FEDF
FE5E
FE83
FEA8
FEE6
0090
0104
01FF
009E
008C
015D
0014
0023
FFF3
0272
FD86
FFB0
0065
FE50
FF27
029E
0013
FF21
00BA
FFEE
00DE
FFFB
FE07
FF80
006E
FF2A
FF3F
FFA2
FEB3
FF7F
FFF4
FF16
016A
FE16
FE80
FEBD
FFAC
FEDA
0186
0004
FE6E
FEE9
002F
FF1B
FF27
FF0D
FFDD
FFC7
FFDC
FF68
FF6D
FF29
000B
FFB1
FFF8
FFDB
FDD8
01D9
FFB3
00B1
01D8
0186
018B
FF69
0214
FDFB
FF60
0107
FE0F
0076
FF9C
FF1D
0078
012F
FE76
001C
FF64
FE1F
FF84
014E
FF15
00F2
0047
FFAE
00CB
001C
01EE
0108
001A
0114
011D
01DE
FF28
0005
00D8
01E1
0002
0163
FF60
011D
FF22
0045
0011
FF24
0139
0045
021E
00D1
0077
01EE
FEC0
0155
FFC3
FF59
FE66
FF4F
FEED
0025
007B
FEB4
00ED
00C0
0196
02A5
FFA5
FFAB
FF59
FF4A
0004
0170
000F
00DE
00A5
0156
005B
00A1
FF6F
00CF
007D
FEB8
FFD8
00EB
00EC
FF72
0017
FEB4
0043
FFDC
001D
FFD1
FD8E
015E
0001
FD64
FE14
FED2
FE11
0137
0005
0227
0038
FFA8
007E
00B4
FF83
FFE6
FF0C
FEBC
FD92
0099
00F2
FEC9
0108
0070
FFAD
0114
FD4B
00E7
0066
FFE4
003A
FFA2
007E
0055
FCFE
01BA
00FB
FE3C
FF01
FFB7
0081
FE01
FEFA
FE6C
FE6D
00C3
FF0B
FFD1
0037
FF7F
FDC4
00B9
002D
0028
FE1A
00A5
FE93
FEF0
004B
FEBB
FF0B
0267
0149
FE7B
00D7
FF8A
FFD8
FFC1
FF33
FE92
FFA7
FFD2
004D
FFFE
FEA4
FEED
FFA0
0090
FFD8
0070
FF46
FFC6
01A1
00FD
FF8A
FF54
FF0B
FE84
FF4C
FFCA
FFE1
FF93
0010
FF68
FED7
010A
FF26
01A3
FF9C
FF73
FF43
FE00
0033
FFBD
FFA6
FE0A
FEE2
00CA
FD74
FF3B
FE5B
FE8B
0044
007C
FE5E
FE7F
FFA1
FF43
FD69
FF5B
FE75
FF90
0127
FEC4
00AA
0024
FFFF
FF55
FDE0
00BA
FF47
00C1
FD3C
FF7B
FD11
0003
FFC6
0120
FF9E
0146
00CE
FE6B
FEA5
FFA1
00FD
006F
FFED
01A8
FFBF
FF80
FDB4
0097
00AD
004F
FF17
FE88
FF16
FFDE
FEEF
0165
FFB0
FFA6
00FF
FE8B
FDE8
FE51
0110
FFFF
FF6C
FF33
0024
0040
FF1D
0104
FDFD
FF63
FEFC
00E6
00A6
0108
FE31
FF32
FDDC
FE0D
0029
FEE8
FE59
0006
FF9A
004E
FFCA
0095
FFC4
004D
0038
FF36
00D4
FEF0
FECB
FFBE
004A
FF4C
0060
FFF4
015C
015C
009A
00D4
FECC
005C
0022
0144
0044
0162
FFD6
01D3
0088
FFEF
FEA5
FF9B
FF78
003A
FF39
000C
FFA4
FFAB
FE74
0051
FE60
FECF
0078
FF8E
01A5
FF75
FF3C
FF55
022D
0046
000D
FF64
0223
00F6
FF64
0028
FD5A
FE29
FEF8
006D
FFBD
FE57
006C
FFF4
004A
0037
FFC4
0046
FFEF
FFC6
01F2
00DC
FEFF
FE9F
017B
0128
FEFB
FFE5
03A9
00ED
FFB8
0061
0084
018B
0073
005B
FE82
FF5A
00B8
0117
01C1
0107
013D
FF6E
0143
0196
FF7A
FFB9
FFF5
0164
FFE0
00C5
FFCC
FF76
0015
01D2
005A
FEA3
00C3
0195
009B
0177
00AF
009A
01C5
00C1
005D
000E
FFCA
FE33
011E
000A
0055
000E
0183
003F
0143
000C
FEDA
FEC9
0085
00C8
FFD4
FF3D
002B
FEAE
008F
FFA1
003A
0104
0013
008C
019E
FF8A
FCE6
00D9
0034
FF31
00D4
0001
0033
FF50
FF55
FE59
00E6
01CE
FF8B
0169
FF4C
00B8
FEFD
FFB8
00AE
0199
FFDF
FFB5
0040
FFBE
01BA
0031
FFD5
FEFD
FEE3
FE48
00BE
FFDB
00A1
FEE1
FED5
019A
FEF9
FFE7
FF34
0137
008D
FF41
FF96
0105
FF82
005F
FFC2
00BD
0173
0109
002F
0088
019C
01A4
0238
FF25
005D
00A0
02C6
01C5
0015
0038
FF33
FFCC
FFD0
0060
00DB
0221
00B3
009A
0255
FFBC
FF23
0047
0123
0058
02A8
FFAE
002C
FE63
0150
018C
0078
003E
FFBB
0172
010B
0128
FF96
0322
0213
01D6
0056
FF67
01FC
0272
01C6
0140
015D
00F6
FF07
0088
0057
008F
01B4
00FB
0197
0073
00F7
FFBD
0134
FF4F
0128
00F3
01F8
00E4
FFAC
FF75
00A7
0092
FEB1
0114
FE3F
0168
FF6E
0070
0137
FDBF
FE42
FF95
FDFC
FF61
003F
00A3
FE6C
FFF3
FEF4
005E
012A
FFC9
FEFF
FE18
FEB1
0137
FF48
FF59
001A
FFC8
0099
0091
FE10
FFE3
005E
FD3E
FF47
003F
00C2
FEE6
FF5A
00C4
FF3C
FEAF
FD89
FDDF
FE20
FF63
005C
FF74
001B
0163
0055
FF34
FF44
007B
0093
FD4C
FF18
FEAF
FED4
FEFD
0063
FF85
003F
FF40
002C
FFD6
0073
FFCB
FFD0
0055
FF41
0062
0078
00D5
015B
FFA1
FE1F
FD2B
FF4D
00EF
FF96
00ED
0042
FFE6
0065
0099
0009
01A9
FEF1
FFD7
0064
0064
0268
0015
FFEC
003E
0008
FF98
FF43
013D
0231
FF23
01A2
FFDC
FEBE
FEAE
0096
022A
FFEC
003F
01B4
FF21
FF39
FFB0
00DC
FF9A
FF89
0276
0123
00A9
0318
00FE
0035
0113
00AA
016C
020F
0117
00DC
0108
0183
FFE3
0045
FFBB
FFAE
FF91
010C
0102
FFC4
01F9
008B
FF95
0124
0058
0147
0188
0119
0025
0077
005C
000C
FE83
008C
0018
0227
FF76
FFA7
01AC
00EC
0127
0120
02ED
FEAA
FF0F
0074
0252
FFBF
0167
002B
FE7F
0162
021C
FF23
0123
01AA
0116
FFE0
0036
FF00
0287
FE53
009B
010B
FF31
006E
0166
00FA
01A6
01F0
0129
FF76
FFAF
01F0
00B8
FF56
FFCB
FFAD
FF78
FF7F
024F
FF32
0075
FFCD
FFD1
FFD3
FF87
011A
FF2A
FFB9
00A6
0087
01A3
0045
FE9F
0062
004F
00EE
01B7
0101
00A1
FFFA
01C8
00B5
0107
009D
0103
FF2E
FFB6
FF9A
0116
FF5B
0255
0389
00C9
03E3
00F9
0112
00D2
FF16
FF95
00A9
00C8
0496
02A1
0081
013E
0056
0252
FF18
00A2
FFE7
00E6
FE68
FF93
FF35
01A8
FFDC
0135
001C
FF5B
0182
00DE
00D7
FF5A
FEEE
007F
00B1
008A
010F
FF88
01DF
FE9C
FFA1
0099
007E
0059
FFEE
0043
0064
FE99
00B7
004F
FFE8
0001
016E
FFB6
00C1
FFB3
FF65
FF1F
FD83
0140
00C6
0097
FEDA
FF74
0088
FED2
FEBA
FF55
0183
00A6
0014
00C8
0083
FEB6
01AE
012A
0099
02C7
FF79
00DE
FFE1
00A0
FFD9
FF52
0071
FE98
004E
0017
FECD
00C7
0094
01FC
00C9
0129
FFDC
00F4
FF51
008D
0169
FFB4
FF2D
01C0
FF2A
0109
FF43
004E
FE1B
FEEB
FEC0
0230
FFFC
FFF9
FF0D
FFEB
FEFE
00CE
FF4F
FF02
00C1
0104
00AB
FEF7
FF64
00FF
0102
010F
FFD9
00EB
FF80
FFB6
FF60
FF79
FF42
FDF4
FE07
0214
FF98
FF86
FDE6
0114
FEE8
001B
0078
FED2
0057
017D
FFCD
FF33
FF46
FE96
FF65
0077
0069
FD51
FE49
FFB8
00C6
FE92
FE56
FF6D
FEC1
00D0
0058
FE67
FE5C
006D
0022
018F
FF92
018A
FE82
FFCE
FF3D
FFDA
FF5B
FFF9
013C
0042
FFB4
00CB
FF5C
00EE
FF02
00AE
0069
FE50
FE07
FE18
0025
006D
0063
007E
002B
FFEA
FF48
00E6
FEA4
FEF8
002B
FFDB
FE7D
0133
00F1
FF0D
FF68
FE67
0068
FEB2
FFCE
0255
0104
00B3
0114
01CF
FE7E
001E
0122
006F
00D5
0014
0035
000B
0104
01C7
FF6C
0035
0354
00F6
0154
0154
FF07
00C9
FEDE
00DE
FF7C
FEF2
002C
01B8
001C
0018
FFBC
FFC2
FFCA
FEA3
0067
006A
01D8
FFA7
0196
008A
017A
0173
0136
FECE
0047
00DD
0025
FFFE
FF3B
0163
FFB2
FED9
01FA
00CD
FF39
FFD0
FF2B
0118
0179
00A3
01B0
FF71
013A
FF12
FF46
FF72
FF23
0028
FF3E
0113
FE61
01BF
02F5
0006
0005
011B
FF03
001D
FE90
0122
FF8C
0036
FF3D
FF3F
0161
FF64
FFE0
FFA4
FFC7
00AE
001B
0003
FFA5
FFD9
FF0C
0159
0149
FFD3
0055
013A
0123
FFC6
004E
02BF
01CC
FEE9
FFD2
0039
FFEE
FFFC
FFA7
FFD8
0204
008D
0027
FE84
01CB
014B
0050
FEE3
00DF
FF9F
0005
00A9
FF4B
FF24
FF40
0002
FFD3
FF9E
FF4C
0026
FDD3
007A
FFD8
015C
0286
0017
0060
FFC7
FF9A
00C7
000D
0049
0075
0004
FE33
FF57
0232
FFE9
FFA6
0064
0110
0147
015C
FFC2
0032
004B
00EF
FF2E
FE24
017E
FEA9
FF68
FF0E
0163
FFC3
00FD
FF2D
FFF6
FF8B
0113
FF4E
0127
00B8
02F4
026B
0117
FE99
007F
014C
0070
00B0
0272
001D
FEF6
FF0D
00D8
018D
004B
021D
0075
0014
FF41
01A3
FFCC
FFFA
FFC2
FE98
02EB
01DD
FFD4
FF83
FFB5
FF2C
00FA
FFE1
00E3
01DA
FFCB
00B6
01A3
0082
FE8F
0045
FF76
0134
FF84
FFDC
FEF8
0034
00FA
0067
017F
026F
00FD
FF5C
FF70
FFFC
010C
0114
0006
010F
01BD
FF9D
FF8F
FEDF
00ED
FF0E
FFF0
01CC
FEB8
FFF9
FFE9
0041
FFB6
0002
0092
029D
FF8A
0010
FF30
FFCE
FE60
011B
0021
FEA9
0032
FF1D
008F
FFD0
006B
0150
026E
00CD
FF57
FF7F
FF71
FFCA
0157
FFCD
FE9C
009D
0180
FE90
0227
FFB0
FF67
01F0
0053
FE13
FFEF
00DF
0037
02B8
0045
FFF5
FF83
0367
00D4
0193
0135
0238
0197
FEFD
019F
FFB1
FFF1
FEA2
028C
FF6E
01F7
01FC
FFE6
019B
03F1
FDDD
010F
0036
0041
0048
013E
0021
01D9
0220
FF5F
0145
0110
FFDD
00E1
0057
FE7F
FFA2
01AC
00C2
00F2
01B6
0010
FFA7
0018
01AC
FF24
FF96
015A
FEDE
FE73
FE45
01FF
0162
FEEA
00D1
0098
0048
FFF8
01D8
FE83
01B6
FF33
FF13
FF15
0179
018E
01A2
0022
0164
00A9
0026
FF6A
00D9
0230
FFF7
FFD4
0031
0031
FE5A
01A2
FF63
00BA
0253
003F
FE7E
FF8F
FEDB
FFB0
FECF
FF6D
0107
01B2
013A
FE5C
00D0
00A6
FF5A
0139
FFE3
00E1
FFED
FF4D
0057
FFE7
004E
FE65
FFC6
0110
005F
00AB
FDF8
002A
FF5B
FEDB
FFD3
0089
FEE9
011D
FDFF
FE80
FF61
FF86
FE6F
00B1
FE91
FED0
FF42
004B
FF9F
FF2B
00A5
FFB0
0121
0096
FE00
004C
0049
FDFA
FE34
FE59
FF40
FE9C
FF55
FF19
FD95
FFFE
FE8B
002F
FF50
FFC1
FEA2
FEBA
FF62
001E
004D
001C
FF73
FFE1
FFB2
013A
0120
0023
FF79
00B6
FF67
00FF
0022
FFD7
FDE2
FDF3
00A4
004B
FF1B
FE73
014B
026A
FFDB
0124
01AC
FE03
00EE
FF4A
00EC
010C
0156
FEDA
FFCE
0127
0010
FF65
0099
FE80
0148
FEE9
00A6
003A
0189
002C
0213
0167
FEFF
0071
FEBF
00C7
FFCA
FFEB
01C2
005D
00DA
FDD6
0160
00D2
00B5
00B1
0084
FF40
00D8
FE64
0113
FF73
FF89
0015
FFA2
FEF7
FF8D
01A4
FF24
00C0
FF13
0217
015A
FE2F
FF86
FDFA
FEAE
0030
FDC7
00E8
FF3C
FEA6
FFC4
FFA7
FFAA
FF92
001C
FE70
FFFE
0140
FFE9
002C
FE6F
00DF
FFE7
0027
FF60
000A
00C2
00A3
0043
0094
000D
FED9
FE47
FFA1
FDD2
FEB9
009E
0149
FDF6
FFA5
0014
FEA6
FFE6
00B3
FE61
00B9
FEF0
0042
FDBE
011F
0009
0047
0064
003E
FF76
FE8C
007C
0033
FF79
001A
FF6A
016D
FEA5
FE78
003B
01F9
FEFC
FE5C
FF0C
01C3
002E
0161
FEB2
FFAC
FF60
008A
021C
FF40
00D5
FF2F
FFC0
004F
FEE6
FFF4
00C4
FE0C
FFF5
FEEA
FE66
FF67
000B
0018
FF9F
FF3D
FEF9
011C
FDFE
FFAE
FF70
0012
FF73
0033
004F
006A
FFAE
FF36
FFFC
0119
FFF2
0077
01B4
FF20
0142
FF06
012B
00C5
FF6C
00CF
00F9
005F
000C
FE18
0005
0155
FFC2
0052
00AF
018B
FEBC
0016
0157
FFFC
FF34
0237
FF2B
01A2
008B
FFF0
0070
02A6
FF29
0065
FF24
001F
FEA3
FDC4
FEC4
FF16
01B0
FFF7
007F
0078
FFB9
FF83
01F7
FF7E
FEC6
00D9
01EA
FECC
009A
FE15
0026
0089
0191
0057
FF63
00F8
FF9F
FE93
001E
FF9A
FE31
005B
001D
024C
FFCB
FFBA
FF67
00E9
FFBE
FF39
FFD9
0207
008F
FF09
FF0B
FFB6
FFBA
000B
FDD6
0077
0084
0054
FF7D
00A5
FF1D
0175
FEDA
0024
FEB7
FF55
00FC
0006
FFFB
0179
0004
FF65
0027
0145
FEC5
FE4D
FFC7
FFD6
00B5
FFEC
FFEB
FF51
FE53
FF68
FFDF
FE88
01D8
0027
FF37
0018
02B7
FD13
FCD4
00E1
FDBC
FF36
0183
FEEC
000E
0118
FF01
FFB5
0050
FF36
FFCE
FF3C
FEDE
00E5
FFAD
FDE7
011F
0130
0106
FF00
FD93
00E7
0054
008D
009B
0006
FEBC
FF31
FDB9
0064
FE59
FDFA
014E
FDC6
0101
FDB8
0066
FFA4
0042
FEF0
FE7A
FF0E
009C
FE3E
0091
0042
FF5A
FF5F
FEBE
FF37
FEF1
FF20
016E
FF3D
FEC6
00BE
00DF
FFA8
FDA5
FEA6
0105
FE28
FFB2
007C
00E9
FF13
0043
FFAC
FDA7
00B2
FB77
FE4A
00AB
0016
FD13
013D
FF73
002C
FF86
FE09
FE16
FF61
FFA0
00F3
01CB
0022
FE53
FFA7
01F0
00D3
0057
FF71
0141
0077
FFC7
0080
FE7C
0065
00DF
00AE
FF80
FF71
024C
0145
015F
FFD4
0039
00AE
FF1E
0242
0040
FF3C
FEBC
FEE1
00FF
FF58
FF15
FFD1
FF0E
FF71
00B5
00C7
01D1
FE1E
0207
01EC
00B6
FF0A
FE2E
FFC3
FF46
FFBA
005B
023B
00EB
FF3B
FE9C
01E1
FF9D
00BD
FFA6
0151
0250
FF9E
FFBD
FF2C
015E
01C2
000D
0052
FF93
01DF
FF50
0119
0051
FFC4
FDBA
FF99
01E0
FFEF
FEE4
FFA0
FF71
00BC
0030
0169
00E4
FEDB
FFC7
00DA
020B
FFDA
FFCF
FFF6
0031
0082
006F
0088
FF8B
FF28
FF86
0274
0265
FF7A
014A
FEE6
00E5
012E
00C4
02BE
011A
FD38
FE3F
00C3
FF12
0117
FFAB
FFFB
00E2
0024
FFFF
0193
0056
FED2
0113
00E0
0146
0098
03A5
0098
01E9
FF64
00DF
FD27
00E5
005C
018E
FF1A
FFB2
00B7
FF6A
FFCE
FF37
FDE6
0012
000A
0009
FED6
FF12
FF72
FFD1
00C4
0028
FEC5
FF2B
FD58
FE38
FF08
00AB
003C
FEB9
0035
FF8A
FECF
004C
015F
0035
00A9
006E
0017
FED7
0007
FDBE
FF0E
FE6D
0016
FF08
003C
00D7
002C
FFD6
00E4
FECF
FED1
011C
FE11
0015
FF4B
FFB8
000D
FDD7
FF9A
FFAA
FFCA
FF7E
005F
00D5
027F
FF92
FED4
0080
00A4
00F2
FFF3
FFF2
0175
0117
FFC6
FF33
00F9
FEAE
01EF
00E4
00BE
0014
FF73
029B
FF72
0004
00B2
00BD
010B
002C
FEE4
0067
FDA0
0068
FFDD
0014
00C8
026C
FF94
0052
FE3B
0021
0149
FFA0
02CF
FEDC
FF4B
FFE1
001E
FDB8
FFB3
0091
0076
018A
00E8
0119
FE10
FFB8
013C
FFF2
FE25
0055
00C8
FF7B
FF12
00D3
