FEEB
002A
0065
FF2A
0023
FE2A
01E5
00A3
012F
00BA
015B
02B7
0094
00B2
FFC8
0345
0080
001B
FF5C
FE52
00F7
FEA2
0253
00B2
FFDE
0204
00BA
FF54
01E2
0069
0080
0072
017F
003A
00E3
01B9
0091
0040
01C4
0371
00F2
0168
0263
01CC
017A
00E1
018D
007F
00A6
00D3
0078
005C
027E
FF90
0004
FFA0
017A
00A6
0000
03D6
022A
00E5
0103
00A2
