0313
00DA
0185
0234
FDA6
FE63
FE05
FEBD
FE08
0053
0364
FC24
FBC2
001E
0380
FC95
FFAB
FF84
0171
FC41
02BA
00A2
0337
023D
03E1
041C
02EA
04C4
00EE
FFC2
043E
FAF7
FEFE
FDBC
045F
0394
FD00
01E3
0337
02D7
FCA9
FFB3
00F6
00E5
0172
04DA
009F
FEBC
0369
019A
03C1
0109
0404
FE56
FCE3
FE42
FEF5
FE96
FF1E
FD39
FFA0
FCC0
0252
FC57
FFD6
FF6D
041F
01DD
FE99
013A
FEA5
FF6A
FBF2
FFDB
0111
010C
FEFE
FF48
0163
0316
0066
0145
FDF0
FC67
FFC8
FFB4
FD9B
03F7
FDAD
0407
0024
FEF7
FEF7
FE26
FC16
FFFC
02AD
0186
FF4F
02DD
0437
044C
009A
0103
FEAE
FF65
0266
FE41
FED7
01D3
007C
FF8C
FFBE
01D9
FFA5
FE95
FFED
FF91
00C5
03DD
FB42
00DF
FC3F
0051
0235
0246
FDE5
FCB5
03F9
01CC
FD4C
FC35
FCC6
FD49
04BE
03CA
01F9
FD9A
0258
FDCD
02FD
047C
FC4E
FEC2
0439
FD60
022A
FC6C
02F8
028F
FF0D
FB6F
FB17
FD67
FD57
02B2
03E9
FC7A
FEF7
04D9
02CA
04BA
035C
02A9
FEE5
FB76
03A6
022E
01B6
FD44
FBFB
001F
FD6C
FE02
FF01
FB46
0299
021B
FEB9
0129
049D
010E
FE39
0186
0083
FF6A
FE19
0078
013D
007F
0332
01C0
FF18
FC80
FEBF
03A0
0367
014C
0338
FE96
0276
FEC1
FFAA
0362
00D6
04C8
03D1
048C
048F
FD11
FDF9
0393
01F1
0112
FD51
FDDD
FBB3
FD2F
FB6B
FD5A
FD70
004B
FBCB
FD43
02CB
0478
FF23
FD44
0404
0153
0497
00CC
0157
035C
FF5D
FF77
FB90
002D
FD15
FDE4
FFBD
039C
0358
042B
FE4C
FCF1
0167
FF4C
04CA
04F0
041B
FCE5
FC8F
FCC2
FDA2
FE25
FBC7
03A6
00D1
013D
FC68
FF83
FD01
013F
02DB
029A
049A
0250
03F6
FE20
0097
0055
FD83
0459
03C4
FBEA
04EC
0379
03E5
03AD
FD97
FE6A
FF1C
0103
FF78
0390
006D
FE99
015E
FB86
FB98
FE06
FF8C
FD7E
FD0B
FF5A
FC85
FC5E
FD11
FE9A
FBAC
019D
0128
00E7
FB61
FC9F
FC05
FD6D
FCFA
FDD1
FF6E
FC4F
FD1D
FF20
0109
FAD9
FDF2
FE57
FC9C
0265
FCEA
0312
FDFF
FBB6
FBC4
FE2B
03D6
00C7
FBA8
0296
FECC
0151
0380
FDD0
FF79
0257
FC33
00F3
FC01
FF0B
03D9
FF69
02B8
FED4
0320
00BB
01AE
FEC9
FD45
02D0
0235
FBCE
0489
015D
0549
04CB
030F
FFBA
FDCC
018A
024A
FB65
FF40
FDFA
0150
FC03
0212
FDDC
FC6A
FD1B
FF8B
0353
FFF1
03C1
FE7B
FEAB
FEB5
FFB0
FEC1
0292
FB40
FB12
043A
FF5B
