FB61
057B
031A
F6EB
0797
0979
FCBC
0535
07BB
02FC
F5A8
FA32
0331
0E0D
0522
080E
01CD
FBCD
082D
0B1C
0A26
0A41
F9C9
04F3
02B4
096A
03E4
FB38
F980
F85A
FE83
02C4
062D
FF9F
09FF
FAB5
FAAE
0350
04D7
F75C
FF5C
068E
FDAE
0A63
0745
0520
035E
FF66
02BE
02FB
FA8C
FE02
FF43
F810
032D
05F6
09A9
0318
072A
07AF
FABA
FC96
0692
01E1
FD85
FFD0
0036
FA53
0845
0A05
FBD9
04BB
035A
F8F8
FC7B
FBC2
FAF6
038A
089C
0473
FC78
F8C0
0091
0737
035E
0045
0046
FF66
FCA2
0314
FC4C
095A
05C1
FCAC
F7C1
0825
076A
FB79
F978
FD60
F917
0940
FCDA
045F
0182
0394
F8EA
0906
FA0A
FF69
0150
0525
0AD2
0242
FCFE
F9E2
FEA7
00C3
FDA8
0746
FD46
F926
04A5
0517
01D4
0A60
0640
FEB9
F5B9
FAFC
02A8
078E
FB88
02B5
0B9B
FC7D
0BA1
0625
FB89
FD95
FB0B
063C
F9DE
FDD0
FA9C
096B
FFAB
0955
06BB
04EE
F9F6
03DC
06D4
FD31
F9FF
FD21
FDE1
FB41
FF96
05AB
FA89
FB37
FDE6
042B
FA05
042A
046E
F7B2
03D3
09ED
FB88
02BC
099C
F78D
053B
088C
FBD1
FF88
04B9
FCD0
005C
FA6D
02F4
0645
FD01
03ED
02C5
FD57
03B5
01FC
FE7F
FC38
F7D0
0DC9
FDC6
06D1
FFD4
0640
F6CC
FAFC
0200
F8C6
F6AC
FCEA
0454
FEAA
FCEC
02D1
F88E
04CA
0CE2
FB39
0A82
0789
0341
031B
F84F
FFF2
FA2D
0512
FA06
0AEC
0061
FE03
FE6E
0A18
F9B5
0382
03A2
094D
037F
FA22
0920
FF2E
02A3
F8D2
00CC
0200
0261
0687
04D6
0213
FF03
007E
FF15
06C4
0FA0
FA6A
0874
04D4
0479
0997
FA8E
04E9
05B3
07AF
02BA
0578
0486
FD7B
0899
FE12
FDDB
00C8
0626
FC05
FD6E
F6E4
F342
FC51
F816
FFD2
F890
000E
FF8F
FDD4
0BC5
0699
FEF2
FEC4
09BE
F7CE
0225
0A2D
FEDA
FA8F
01F6
FCD2
00F9
0657
0599
FED9
F992
0AB7
FFFB
028E
FB1C
FBF0
FC5D
052B
F743
FC53
04E0
FA33
FE48
FDAC
FFBD
F8BD
0279
004B
0FFE
F8AF
FA81
FE88
FB21
FF35
FD3C
027D
FE74
04DF
F5F3
F956
FF29
F8F2
F9C9
0320
F606
F7D2
0522
044E
FDFF
07A6
028D
007D
FF61
FAD6
F65B
0560
05C3
FB1F
00BB
F6EB
FBCA
05B6
F8F9
FEED
08EA
FCA0
076A
F585
07A8
05F2
FA00
F96B
053E
FB9C
FB38
0837
F88E
FDC4
F78C
FDA7
FDE5
FED0
FD51
0291
F882
0300
F762
F8DF
06E1
F9B4
0830
004F
F768
FA3B
FD5A
044D
05D9
052C
0239
010C
0435
084A
