FED8
015F
00C6
FDBB
01E6
025E
FF2F
014D
01EF
00BF
FD6A
FE8D
00CC
0383
0149
0203
0073
FEF3
020B
02C7
028A
0290
FE72
013D
00AD
025A
00F9
FECE
FE60
FE17
FFA1
00B1
018B
FFE8
0280
FEAD
FEAB
00D4
0136
FDD7
FFD7
01A4
FF6B
0299
01D1
0148
00D7
FFDA
00AF
00BF
FEA3
FF81
FFD1
FE04
00CB
017D
026A
00C6
01CB
01EC
FEAF
FF26
01A4
0078
FF61
FFF4
000D
FE95
0211
0281
FEF6
012F
00D7
FE3E
FF1F
FEF1
FEBE
00E2
0227
011D
FF1E
FE30
0024
01CE
00D8
0011
0011
FFD9
FF28
00C5
FF13
0256
0170
FF2B
FDF0
0209
01DB
FEDE
FE5E
FF58
FE46
0250
FF37
0118
0061
00E5
FE3B
0241
FE83
FFDA
0054
0149
02B4
0090
FF3F
FE79
FFAA
0031
FF6A
01D1
FF52
FE4A
0129
0146
0075
0298
0190
FFAE
FD6E
FEBF
00AA
01E4
FEE2
00AD
02E7
FF1F
02E8
0189
FEE2
FF65
FEC3
018F
FE78
FF74
FEA7
025B
FFEB
0255
01AF
013B
FE7D
00F7
01B5
FF4C
FE80
FF48
FF78
FED0
FFE6
016B
FEA2
FECE
FF7A
010B
FE81
010B
011C
FDEC
00F5
027B
FEE2
00AF
0267
FDE3
014F
0223
FEF4
FFE2
012E
FF34
0017
FE9B
00BD
0191
FF40
00FB
00B1
FF56
00ED
007F
FFA0
FF0E
FDF4
0372
FF72
01B4
FFF5
0190
FDB3
FEBF
0080
FE32
FDAB
FF3A
0115
FFAB
FF3B
00B4
FE24
0133
0338
FECE
02A0
01E2
00D0
00C7
FE14
FFFD
FE8B
0145
FE82
02BB
0018
FF81
FF9C
0286
FE6D
00E0
00E8
0253
00E0
FE89
0248
FFCC
00A9
FE35
0033
0080
0098
01A2
0136
0085
FFC1
001F
FFC5
01B1
03E8
FE9A
021D
0135
011E
0266
FEA4
013A
016D
01EC
00AF
015E
0122
FF5F
0226
FF84
FF77
0032
018A
FF01
FF5C
FDB9
FCD0
FF14
FE05
FFF4
FE24
0003
FFE4
FF75
02F1
01A6
FFBD
FFB1
026F
FDF3
0089
028B
FFB6
FEA4
007D
FF34
003E
0196
0166
FFB6
FE65
02AE
FFFF
00A3
FEC7
FEFC
FF17
014B
FDD1
FF15
0138
FE8D
FF92
FF6B
FFEF
FE2F
009E
0013
0400
FE2C
FEA0
FFA2
FEC8
FFCD
FF4F
009F
FF9D
0138
FD7D
FE56
FFCA
FE3D
FE72
00C8
FD81
FDF5
0148
0114
FF80
01E9
00A3
001F
FFD8
FEB6
FD97
0158
0171
FEC8
002F
FDBB
FEF2
016D
FE3E
FFBB
023A
FF28
01DA
FD61
01EA
017C
FE80
FE5B
014F
FEE7
FECE
020E
FE24
FF71
FDE3
FF6A
FF79
FFB4
FF54
00A4
FE20
00C0
FDD8
FE38
01B8
FE6D
020C
0014
FDDA
FE8F
FF57
0113
0176
014B
008E
0043
010D
0212
