0601
0147
FE19
FD48
FF6C
FF2A
FF85
F8C8
F71D
FB83
04AE
FA66
F811
0663
FD4E
F94E
080E
F8B1
F9DF
0626
0937
02CF
FC81
FCFF
FB69
F977
06C9
FB8C
0453
FEF4
FAC3
F9BE
FC35
0125
02D0
F878
F7DF
0271
0BCD
FA00
072D
04C2
FD15
F74B
FA69
023F
03CE
FB65
09FA
0736
0236
0725
016F
0493
062A
090D
FB28
07EA
053D
0235
0365
0793
FFA8
063C
F73E
FDCF
FB3E
FAC8
F91E
04D4
F7E0
0A1C
FE59
093F
05E7
008C
00C2
F8E9
0229
FE1F
FDC0
07EB
FF85
00BE
F917
FA4B
001C
FD23
FD2C
FD12
057A
05A9
0452
FFB1
FCE4
FB32
0B24
FCFE
07E9
029C
0228
02F0
FB7E
0411
FE18
FBC7
02ED
0159
F7C0
04C9
F776
FF55
FD57
0756
F918
0081
0809
FFBF
0563
F9A7
FDD2
0958
FD54
05D2
F84F
0238
F9F0
0028
FDFD
0A2A
0398
0768
F613
04D6
FC49
02D5
FA4F
FFAB
FB28
FCD9
FE53
0CD7
FBD5
081D
F9FB
FBCC
080E
FBB1
FE54
F9E3
0328
00F1
0029
FB90
F9B7
00A4
F84D
05F5
0522
05DF
09B9
FD89
FF8C
0957
0332
F96B
FF69
0300
FD02
0284
08A4
FCC5
FD5B
0829
05A3
05E4
0200
09A2
FFDE
F7BC
FE60
F8B9
07F6
0719
FDF1
058E
F8B6
050A
0755
FFF5
FA52
08DA
FB8E
07EA
FB7E
F7DF
069F
FE24
F666
FDCA
068A
F80E
076C
FA03
FB6B
07D3
070C
F90C
057A
01A5
041B
04EC
0098
003E
FEC3
039E
F7ED
F7A5
FAFB
FD34
F7B9
F9CE
046F
06FA
F96E
FC8D
05FB
0202
0184
09AC
FA0D
0419
0189
03B8
F86A
018E
FC60
079D
074A
FC97
F9C4
FAB6
FB68
F8CD
08DA
FC2D
0301
FDF5
0A61
FDFC
07DA
08BF
024A
FC6D
0247
01F7
F8BB
0C13
03E8
0162
069F
FDAE
0063
FD78
FCA3
0303
F79E
034F
018E
FFC5
F9B2
FF2C
03CB
FEB7
04E1
001E
FDF9
02FC
0494
023C
F8C8
F82C
F9E7
FBEA
FD57
06E5
08C6
0092
09BD
0A31
0770
0513
0960
08D0
FAA9
FAFA
058A
063E
031E
FBD8
0890
044C
067E
072F
05C4
FAC1
06C9
0214
05EF
043A
0C31
02D7
0450
02E0
062D
02FB
085B
016F
0241
FCB4
0172
FC9F
FE17
F699
F6B0
0558
FE4B
FE92
05BC
FFEB
0589
0835
FD15
FD5F
FD40
FE78
FE97
F8ED
03F9
0A07
0620
F57F
FEB8
F784
F8B4
04EE
F642
0393
F936
009F
F846
FD2B
03E6
00A0
FFEC
F9B7
02B8
0152
0209
FC67
07E5
F9CC
FE69
FB96
F7F6
FF88
044F
F874
FB04
FECE
F9B2
0340
09EA
0129
F987
052E
F862
F9B1
040F
F5C2
F91D
03E2
F996
042C
