3EE1
4171
40BF
3EB2
3F6D
4281
3F9C
4092
405E
3FF1
4024
4007
3F6B
40B1
4065
40E2
40B5
40EA
4128
4344
4100
40AE
3F6C
3FE8
4078
3F82
40E6
41FB
40AF
409A
4030
4099
4087
4050
409F
40CE
40A6
4126
421F
3F47
419C
40E7
4089
40CE
4032
4083
3F6E
3FE1
40B6
40D5
3FA9
4022
40A8
40DE
4260
410D
4150
4058
3FC6
4165
3FD2
4406
4133
4181
