FF08
0336
0165
00E4
010C
0CED
FCC1
03A6
0298
FE8D
0369
FC9C
FEB2
FCF4
FE3B
FEDE
FF48
0215
044A
01A4
FDA0
FEC4
FC21
FEBE
FA54
021B
059C
0105
FAC6
0368
FD98
02B0
FF84
FB99
F7D8
028B
00E2
0302
FB0E
00F4
002E
FC5F
FF63
FE29
0045
004E
FB4D
0179
0121
0316
FBA6
FFDE
FB28
FE4F
FDAE
0336
FECB
02CA
03F2
00CB
0081
F781
FD71
FE65
FBDF
01F8
041F
FDCE
0119
0707
FCDC
FF17
FBB0
00BF
0181
07A1
F88D
0237
00C9
03E7
0515
049E
FCF3
FF08
FD2D
0159
FF75
FDD1
0109
0664
FE3A
044A
0397
FA6D
04E9
0033
FD7A
0568
01CC
0265
0172
0303
092B
FF90
0324
0404
F964
016E
0148
081F
0561
FD7B
FF4E
0137
0034
FF20
01F2
0205
FDEC
FF0D
FFF0
FC78
0738
FA7F
0488
FEEB
FE7C
01C3
FC5C
FE97
F8B3
FD9A
FD8A
F820
F5C8
FFAE
F988
FEDD
F90A
FA97
0457
FA93
053B
F9AA
01A8
FEAF
0143
0655
041B
F5CF
F86F
FEAE
002E
0187
FA12
FE65
FEB9
FCED
0168
0364
FE64
FC30
00D9
0044
FD2C
006C
FFB4
03FD
FDA6
07E8
FA45
FE13
FAF5
FF77
FA0D
F6D9
F9FD
043A
FDB8
F95D
FEDA
FC0B
FB3E
FC15
FF6A
0072
FDB7
048A
FD27
EEE9
004F
04CE
0846
033F
FFE5
0204
FF97
F87A
F710
FED6
0160
FA4A
FD10
FFD3
0045
0186
02F4
F8B8
03A8
FE4F
F6A9
FDD7
FD33
FE51
FD6A
00B1
FBA6
04F1
038F
F7B1
0304
FED3
0106
01E3
FFC7
FFBB
FDCC
03F4
0409
FB04
FA1A
0031
FEE8
041D
00EA
0056
00E8
FB44
FB7C
00A4
FBC8
FA7A
FBCA
FB13
047A
00C4
02EE
FDE3
FF58
FA86
0558
FBAE
0296
FA5C
FA53
FCB1
0036
0308
FDB6
02CC
FBA5
FDED
FF74
02BB
FE8B
FDC3
0323
FFF2
00D9
FD68
0964
FEA5
056C
FD17
089E
FBFC
012C
FB9A
FD8D
FC35
04F8
05B3
01AD
FE87
FC72
017C
FDFD
0878
0BD1
F91D
0110
049D
FCA9
0111
065A
FF39
06D3
01B6
FF1F
FC6D
0295
FFE9
02B2
FFE7
0465
02DF
FA42
0468
F88B
019C
08FB
FF5E
FD3A
04CF
03F8
FE33
FE9C
00E6
F906
FD4E
FBBC
FE0E
FB75
0694
033B
FBE5
0868
FC37
FC94
F8F5
FE00
FEC6
05E0
F8FE
FB18
00DD
FD1F
F86A
00AA
FD70
FDC1
F8C5
FED2
FBE9
042A
030C
FB3F
F50B
FEDE
FDCE
FA34
FD4E
026D
0022
0090
00B8
FECD
017F
F7F7
FFD6
015D
FAF1
0455
00CF
F980
FD5E
FD2E
0056
FEB1
FAE6
FBE2
F6C0
FC0D
004B
FD29
057C
FD97
FB41
02F0
FB02
FF54
F54D
FDA8
FC02
F99A
0022
FE2B
0486
FD8C
060F
01E8
FB69
FA38
0171
FDC9
028D
042E
01A5
FF67
FEC9
FD01
0291
073F
06A4
02C9
04CA
0A02
0475
F6DC
0216
03AA
FE50
FCD3
00E5
FDC3
FB85
FF2F
FA5C
FD64
F9FD
F701
03FA
FC4A
FEC9
0B53
00E1
007C
FE27
FA85
FED6
FEEB
044C
FD13
0345
00AE
F9F3
088D
FDEC
037D
03EB
FC02
02F5
FB62
FCA1
FE38
064E
03DC
0590
FF4C
0344
FF45
018E
FD1F
02D8
037D
FF23
FA78
0018
01A0
FF3F
F8B3
0CD5
FC24
036D
0A43
028D
01AC
02EE
0484
006F
FF31
FFC6
01CF
0777
F99A
02F4
FC2F
00E2
FBD3
FCAB
FFA7
FF06
0231
0188
FF91
FCC7
0315
0057
025E
05A1
09A4
FDFA
04B0
02FC
08A7
01DF
0013
0250
05CA
F426
FE89
0197
07FE
0752
076B
FF5C
FFF6
FD5F
05DD
08AB
00D3
FDFE
083B
FD75
F4D4
01DA
FC29
FB03
004A
FB00
FD3B
04B7
0273
0767
06FF
FB82
08C1
FC02
FB9D
F7C8
019A
FAFD
F923
FBF1
05A6
03A9
FE77
FCE8
FF84
FA32
FB3E
FC01
02CB
FF04
FD05
00AF
01AB
F7E3
0234
FF79
FBDE
04F5
F835
025A
FD97
FE15
02CB
011D
FEF2
FE06
02C4
0386
FB4A
00D6
FA8C
0628
FDE0
FCD4
FA03
03B3
02FC
047F
00D9
F60A
F744
FC86
F940
077B
FEBF
0353
FEFA
FEA1
00B2
F962
F8F8
FC51
06CF
FDFD
0504
00A1
FF6A
015E
00B3
FDA5
0427
004C
FDEE
FF4C
FB9F
03F4
FF3C
075E
06B1
FFF6
00BD
FC90
006E
FC13
FDCF
FD8A
0559
F9B9
FF71
07F2
F8AD
F933
FF6E
019B
006A
0038
0491
FB38
0192
FD2F
04F9
FB8C
FE1F
0577
FFF6
0014
00FA
FDFA
FFE8
073F
FB76
FE25
FE6E
09B2
058C
0221
0428
FA33
034F
FC1B
FE8D
0185
FFEF
003A
FD36
044D
018A
02FE
0141
F9C6
049D
FFA5
F6BC
0160
00CF
F8D0
FD5F
0512
0151
011D
F989
FDBD
F51E
FB97
F448
F9F1
0404
FC99
0642
008E
03EA
03BB
00F6
0529
0398
014E
FC17
0704
0163
0202
00FC
FF4E
0414
089A
FE46
FF1A
FDC4
FEC6
040D
0131
FC97
F931
00AB
FC45
FFA6
0A1F
03D6
0825
FDA0
FF6E
F4F0
FE27
FBA1
FE61
052A
0241
FB8A
FE33
FC44
FE04
04EE
FDBE
FF04
FDB3
FED6
0534
FDC8
05C3
FF4A
FF8A
FFAB
FE54
0201
F78D
FCFC
0750
00D1
FF3C
F5C3
F417
05B8
00FE
040D
FE86
06E8
003D
049A
FF79
0129
FB93
F472
FB08
FDCE
03FD
0900
015D
F956
F96F
0124
FD6A
FCB4
FC34
FF82
FE9A
F932
F8BA
0330
FA9D
FF4E
02D2
0404
FED1
04B4
FE5D
FC9A
F3A2
0035
FB95
0499
FBC1
F899
FD03
01AB
05E3
0015
FFFC
FDED
035D
FE53
FD18
FE6A
FBEC
FF4B
02E0
FD03
0C56
010D
02E7
0221
04A6
0113
FBF9
FD6D
0232
F984
05D2
FDBF
F9F8
FD12
056E
0276
0299
FB2F
0BB1
FDA6
0018
FB11
FEBA
FC88
002F
FB62
099E
05E9
0021
FA7A
FB06
F55B
F9CF
008A
FAA7
FA9E
FC91
F892
FDA4
FBAA
FEB2
FDFB
FA3E
0607
FE63
F99E
FCEC
026D
FE49
FC9D
022B
FCF1
FCA7
01D7
0074
0176
00AB
FD63
0396
02AC
05FC
FE5B
FEC1
0129
FC0C
FF3A
FF03
FFFA
FC03
FB12
FBF1
FD27
FE3A
006C
FDC1
F9E3
FE4B
FCBF
FA06
FDC5
FE22
F70A
FD18
F48B
F6B7
0050
FE58
FDD6
FC10
FBCA
FC61
FE52
0236
FE66
FD25
FFA1
FB83
0196
FBBF
0223
00C3
0350
0103
027D
FF37
F8DA
0147
F9DA
0782
0283
0203
FBD5
00B7
FEE4
FB26
0227
0383
F6DB
076F
FC53
02F2
09B0
0BA2
00C2
FCB6
01DF
0147
0106
0579
0008
00E5
0655
FE5B
074C
068A
00FE
00DF
FF6C
FE9C
00D1
01DB
0484
FF55
0007
FED3
0109
F74E
03C5
FBF7
02BE
043A
FAE9
0404
037C
0881
078D
06E5
FFF8
FC67
099D
0E14
02FF
FE33
0388
FD61
FFC7
FFD0
FA2E
04C1
07AD
0593
0666
000E
0004
008D
05B0
F658
FF98
03B5
09E5
0071
FD3C
F9CB
FEDE
FD2C
FDCA
FA82
FA99
FE86
FBA5
FB22
FA34
FA20
06D2
F763
FC9A
037E
FEDA
F6FE
027A
FCB5
FFA0
FB2B
FA93
FA1E
01A4
FE98
FF1C
05D3
FB95
FA33
FFB4
FDAE
F714
0160
FF7D
FD50
024D
FC9A
01C7
F8C7
FDAD
F84B
F8E1
F6E9
FCEC
FC76
FDBD
F5DF
03D1
FA91
F8DC
F6A5
FC0A
FCF3
0082
FADC
0598
FBB1
FD37
0252
0042
F912
FCE2
FC12
012E
FF34
F6F8
01E2
FF21
04C2
0258
02F1
052D
05AF
010E
0399
04AF
029C
001C
0038
01F8
0898
0117
0564
F9B4
094B
07AC
01D6
FFA4
017A
0665
0541
FF0F
01AA
03B4
000B
0000
0514
0502
07A1
FCA7
0438
FAE3
021E
FDB4
FC33
F879
0255
FF09
FE20
FE56
0153
0433
038D
FEFF
05AB
04B7
FA3A
042A
FD43
FF3C
FDBA
FE10
003D
00C4
019A
02E5
03A0
FE18
0052
029C
0670
FEC2
049B
00D1
F939
0200
016E
FD2A
0113
FD9A
04CE
018A
01B1
FF97
0036
0093
043F
015E
01C0
0059
FEA8
007F
008A
03A7
08A4
FC27
F992
04FE
02B6
FC40
07DA
FEF4
0959
06F0
FFE1
0703
FE4A
010C
FBEC
FF60
0376
FFE1
098B
FD3A
0350
03DA
0184
074F
060A
0CD3
04EA
0021
0383
07F7
FF21
019F
0108
FDBD
027D
0816
FFDE
FF10
032A
00FF
FFCC
025B
FC1D
033C
F7EC
0850
FD33
0340
FD9F
026B
0042
FE7F
FEF0
FD9F
FB4C
02C8
0038
FF53
05EB
09C5
04A6
01CF
014D
00FD
0075
0AE3
03D9
F98C
0050
FACC
04FA
02D4
015F
F914
04EB
FBBE
FF97
FC6A
FF70
04E1
05F7
029A
FF38
FFE8
012C
FF95
FCCA
0386
054A
0231
01DC
00A2
02EA
01A5
FF7B
FA12
04A3
FF79
0998
FC5D
031E
FF3B
05BA
FCD0
01A3
F9E0
FA56
0B7A
FD06
F866
02A9
FFCA
0259
02FC
016F
0277
02C3
0438
02C5
FF05
0220
FE78
0286
05DF
02C6
FB94
F641
0095
0015
FC8E
0279
05BE
FB67
FF3B
FB74
02F4
05C7
02EC
06CB
057A
F83B
FF6C
FC9A
0B63
06A8
07B5
FAE9
03E1
0473
FEDA
030E
01D7
0636
096E
F71C
FD0E
07D9
02D8
F66B
02CE
000B
F8B2
0648
01D2
FCEC
02F0
059C
020C
04E9
FDA1
0389
FB8C
FAFF
0589
F9D0
083C
01A1
FC4A
03E2
0434
02CB
0567
FDE2
FCE9
091B
FABB
02B6
FD1E
0273
04FE
FFEA
006A
F9ED
03DE
0699
FBCB
FD61
02F1
FE56
FD70
025B
0285
03E9
01DD
FF7D
0977
FB2D
0224
FD79
0205
0295
0177
08D8
052B
0198
FE50
03A0
07A2
FF3C
FB17
00EB
0584
FD3E
FFDA
032F
057B
F69B
FABC
065D
0335
0070
047B
FEAB
FF3D
03F3
01F9
FD7D
07F8
06EC
067F
FB22
0040
00C7
00E0
0147
0AEF
FD39
FDC1
09EE
0494
00E8
029E
04AD
03D2
0321
0001
FF22
06B6
FF4C
00A2
0824
09DB
048C
005A
FC48
0035
FD55
FD05
FF74
0188
FE9C
074D
081A
09B7
006F
07FB
0236
FB75
FAED
0276
07B1
0047
0115
F769
FC13
0718
05C3
FBEE
0554
F5F4
FEF4
0031
0517
0220
03EC
080F
058A
031D
020D
0388
FF42
FF5D
FC96
0444
04B1
060C
0316
FA30
FD4C
FF8F
02F2
03F3
04EE
FAF4
FC08
04ED
FF76
007E
00BE
08C6
FC7A
032D
FD69
00C9
04FD
FA90
0860
FEDC
06DE
02B5
01F2
0650
FF87
03CC
00C6
0196
FD01
0106
05BB
053A
033C
027B
0640
FFD0
0DBC
0834
0A76
0659
FB35
011F
092E
073B
0377
0426
FFD2
FE0E
04EA
FA98
FE86
00A1
04A6
FEB1
FF48
06FA
FDFA
FE82
F714
FAF1
00D3
0544
FF73
0514
053E
FDEB
01FF
FDA0
0107
04F5
FC3B
F7E9
F7B9
F8E2
FB68
F95A
003B
052F
06CE
F99A
00B6
FC25
000E
02E8
FB31
04B1
FE1E
F91B
017F
020A
FCF2
02F4
01AF
F5E7
FD3B
FC8A
FE49
08D5
01E4
FFCB
FF02
FD17
02B6
0098
01B5
07BC
FF94
FFE8
03CD
0073
03BD
FC9D
0180
F5FF
F5B6
FD7D
055C
FDD6
0442
00DA
FE06
016C
FCB4
FEEB
FF02
0197
00B6
0865
023D
FA98
05C1
FED4
0171
FE48
0924
011E
FE1E
FE0F
FFEC
F91A
03D5
018A
FE6D
0208
FFEA
0457
002A
02E6
028B
04CF
070C
012B
FDD0
FE51
04D6
FCB9
FD5F
0945
0AB9
00A3
00CC
FC71
0194
F910
0050
FCC8
03B9
FB95
0228
FCC0
031D
F864
0274
FFA3
FC88
014D
07EF
0052
034C
FAC0
0138
016E
0748
0630
FE94
01FD
01F3
00FE
00D8
032C
0201
04F0
FA1E
056B
00CE
FFDD
FDC0
F9E3
FDCF
FFDC
061A
FE37
FD23
0539
045D
FFD0
0868
FF96
FFD2
FBBF
04D5
0436
FFBE
F912
0266
FF8F
031D
FEAE
FEAD
044E
FE0D
030B
022A
077A
0449
011E
02F1
02B5
0763
0556
F6D3
01E4
0707
FB72
022D
02CE
0982
0459
03CB
FE57
01B1
FB59
02DF
0187
0162
0193
06B2
FE91
FD50
0763
FCEB
0130
018B
0106
FE7A
FE6C
019E
051D
0636
007A
013B
FF86
FF61
FDF9
076A
01AB
FC23
07CC
FD84
0546
FEF1
0500
0543
0446
0093
0507
02FC
01DD
0336
FCD7
020C
0543
F737
03D1
FD55
07CF
03A1
031A
065B
01B1
FFB9
FBE1
00CA
0256
005C
F9C7
FE6D
0520
F6A4
FF62
FEF4
03AE
0010
0592
FC5A
0452
F75E
FC41
FD9C
FF18
024E
00A5
F9D4
FD67
FF0D
F826
F86A
059C
FBA3
FBB7
FB61
FF8D
001F
FD6B
FF0A
0438
FF3B
FDCF
FDDA
F9EA
FC76
0307
006C
F7D4
0332
FA7E
0042
06DB
0145
FE51
F996
073E
FE9A
FCB7
0079
FFDD
02D2
F917
F9D8
00B1
F984
FE43
F88A
FFF2
FFC0
FCFD
F75A
0052
04A7
F858
08B8
03C6
FD29
FDE9
003F
FF73
016B
FB4B
FE05
FCF6
01AB
03CB
00D5
FC40
030B
018B
0A20
0122
027E
08A1
002C
FEC8
063E
FC59
FD1A
FFB9
FF1C
0126
0245
02C5
03D4
064F
FE9A
FCDC
0230
0087
05AC
06EA
FE51
06E6
FEEF
FD34
FFA1
02DD
029D
FD64
03A5
0006
0483
01DD
033B
02F3
0606
0133
F8E2
012F
FA9E
07B4
0145
FC97
0A03
01D9
FDFA
FC60
02BE
0161
FB6B
FD2D
0759
FFA4
FC51
00B2
04E0
FBB4
FA3D
FC39
FE49
F9F1
0307
FFB7
0018
04DD
FC14
08B9
014A
F9B7
FC2F
FAFB
05E8
040E
FEE0
02B5
FEFC
0155
0651
0046
02E7
04FD
F931
FCDA
004D
FF90
0154
0C07
0016
FB32
0305
FF1B
FF99
0056
071E
FE1E
05F5
0508
031C
FCED
0114
FF73
FE73
081C
02FA
FE02
F99A
00E4
0E05
052C
028F
0425
03DF
FDC7
034A
01C0
FFD8
FD86
F844
0350
0266
04A2
FED3
FC5E
FFDF
FBBA
F8C5
F975
F8DE
FF37
FFFD
FD42
F610
029D
F9D5
F8C1
FDD6
FBF6
FA32
F7DB
FB85
FB20
01D5
0361
FB9F
0105
FC46
0381
032C
FD7A
0122
00A8
F9A4
098C
054F
0261
015C
FF96
FE4F
0142
0760
F9EC
0375
FD5C
004F
01EE
0500
FDF3
FFED
0044
FB66
FEF4
FC3D
FDFD
017D
023E
031A
FFDA
FD4A
0036
0262
06A7
FE38
00E9
009E
FCF3
028A
0817
FFEF
05A0
03DE
010B
FBD1
0743
FD2F
FAB6
0797
017F
F82C
0337
03AF
0325
FB24
FB77
FB53
FB73
005E
FE5B
05EA
0028
03E7
F958
FB63
FFA8
0714
FC4B
F977
0347
012B
04AF
F95B
03F8
FF28
00CB
FE74
FE34
FCAB
FE83
FF15
FFAE
030F
FCD6
070D
FBD0
FD88
FBA2
01F9
FE04
04DF
0280
0361
F9C9
0054
FD8B
0236
FF95
08F5
02C4
FF88
08D0
0321
FCFB
0667
FE77
00AA
FE0D
051F
FED0
027E
057A
FADF
0196
0249
03D1
FEEE
FD91
0A20
0198
FF18
0079
FE0A
07FB
FE3E
FF15
FD96
072F
04DB
077D
039B
FFDC
023D
0178
0615
0407
FF4B
06EB
F733
0115
FECC
00EB
024B
05F8
0012
0541
F7ED
04FC
0360
FA19
FF3A
FF83
08DA
06C9
FED1
0136
FE29
FC05
03A8
057C
FDE1
FE8E
FC77
FCC7
F9F4
0140
FA9B
0577
0181
FF65
F974
059D
FC2C
0724
FCEA
04B4
F9EC
FEB6
F64D
0128
FC65
F8D1
FE4E
05B4
F5C7
01EC
00F9
FCD4
049F
FEB3
FE8F
00D7
0220
FF78
0084
FF6C
051C
FC06
FC50
0124
08C3
FC74
0035
008E
F8B7
F98F
FB6B
F628
FDF7
FAA0
FBA9
055B
FB2F
0176
F6DD
056E
043F
FF56
01F9
FC3F
FFAB
FC03
FEDB
0177
075F
00D7
015B
FF62
00F5
03AD
03CA
0211
0876
0219
FFBD
FC43
FE8F
F7A5
0475
071A
FCCB
FDE0
0761
FEE4
FDEA
FE32
F9C1
0077
01B2
0084
FFD8
065D
0126
FE84
071A
04F5
FFD5
FB0D
FC8F
FFC8
0109
0871
0387
FE80
0211
FE10
FF4B
0631
0313
024B
FEFD
FC27
001F
08C6
F793
FB5C
0577
0310
04DA
0027
0836
FE8C
FE7F
017D
FE1B
F821
054F
FC68
FCF7
028D
0163
FFAF
FB86
02CB
FEFA
FC0C
0300
FCAE
FFA7
FFEB
0055
02D1
041D
0066
02BB
FE00
FEF7
FBE1
FEA6
FDCE
FD92
FD76
F9FF
0206
04A0
0581
FE43
013D
0278
FED5
047E
FFFB
FFAB
FED5
0608
FB79
02B9
02A7
FF84
091E
0157
FE77
0261
0417
03C4
0397
0261
001C
05E0
FB50
0092
0382
0054
FA12
0607
FC7B
0772
FD14
0194
FA1F
036B
FEF6
FD06
063D
FE87
03DD
00DB
01CC
FDBB
FC8E
00C2
00F1
FAA5
FC32
033B
FFAC
FB95
FBF2
FCAD
04CD
02A6
FE08
FD7A
F811
FDD2
FB96
FE7B
FF95
FC11
FF88
03C4
014F
F9AA
FA2C
0686
0238
0532
FA96
FCA3
FBE9
088A
F609
01F8
001F
FF54
F9B1
FF31
0600
0462
FC17
000D
0015
FCAC
FF13
071C
0402
FA9E
0441
F822
FC59
FDD6
03D0
0219
FC96
FE0D
F831
F74F
0020
FDBF
FFF3
F7A2
FC43
FF8A
FF3C
FFC2
0156
F8FA
FF1B
FE93
0085
0148
F886
00A6
FFDD
FD12
03AE
FC67
FF3D
0175
045A
F447
F965
F8D4
0299
FFA0
00B0
FB7E
07A5
000C
FB70
FDF2
F863
03E2
FC2A
F928
006C
0024
FE1D
FCA5
FDB7
FF3B
FC2C
FE03
FD7E
F68E
FD2D
0282
FD7C
0845
FC0B
0322
0092
FAF8
FF4B
0049
FED5
0AB3
075F
FD20
F9BE
07E2
0231
0577
0047
01F5
008D
0806
017F
FD37
0285
FBE8
FF23
0168
009E
04CD
0588
01B8
01F6
032F
0A11
FD2F
068F
001C
FB9B
FF2B
FE62
0357
0262
022C
0574
0739
030B
0661
FE25
01A7
01B8
0349
0170
021D
FA78
0685
F69C
FDA4
FD9F
01E0
0580
05A1
00FB
FB0F
059B
0187
FF0D
02E8
02EF
FCF5
048F
0A45
068D
03E1
0160
FE4B
FC20
01A9
FE5F
03EE
0485
03A0
0169
FDD3
0393
FB83
00F2
033E
FB4C
0748
FFE8
FFEF
FC07
FE0A
FBA4
0B53
F9F6
022B
02A0
0053
0412
F960
0126
FD26
012B
FF8A
FAC7
FF05
006B
FCCC
0182
FC3F
FFBB
FEE2
03CF
0000
017F
04C9
054B
0144
FF89
FF63
016D
F9F5
0390
FFE9
FF08
FA62
FA38
FFC8
FBE7
02C9
FF24
FB7F
FE68
FDF4
01B4
00A5
0565
FF9C
0970
FE07
FF7F
FF45
027C
F956
00EF
FD4A
F8A7
F73B
0176
FF12
FE9A
F8E8
FEE6
031F
0305
0432
FE43
016D
F9FB
049E
FA20
00B5
05A6
FE36
0070
FDE6
03BC
F677
FD85
FB1D
07F0
0239
03EA
0656
06B3
F8B1
F817
FC94
034C
F9CF
FFFC
062B
FB67
034A
FEBD
FF79
03F1
FBDD
018A
FEE7
038A
FC65
FB6C
05CC
FAF9
00E8
FDDA
F28E
F97D
02D3
FEB6
0B23
04C5
022C
00D5
0326
FAD9
0125
0199
028B
F954
FD6E
FCF3
FB6A
02D9
05F1
006B
FD91
0102
0791
FFFB
011C
FB56
0325
0494
0435
FDB5
06E2
004F
FD84
07EC
04EE
0405
0360
0217
03AB
FD72
FEE7
019C
FFE4
F9C1
040B
0339
026A
F800
065D
06E3
FB99
0146
FD2C
FA96
037B
F9BF
0571
058A
05CE
01DD
0035
FCF1
FF6B
04D4
FEDD
FF58
058A
008C
02CF
FC83
FE9A
0A2A
FC7E
04BC
FABA
FCE7
FA96
0681
01D6
FABE
FA07
FFBA
014D
F8D2
FCDB
FF70
011C
FBD6
0623
00AD
FC07
FAB8
FEA1
FDE8
FF25
FF12
FB1F
FBD0
00FC
0375
0131
FEF9
FECA
FDC7
017D
FB9F
0A4B
F791
FBD6
0333
0027
FE10
03D7
FE3F
FF2B
0840
047A
FEEE
026E
01FA
FFBC
F9DF
05B1
FD6D
FDC5
FFC2
FDE6
022A
F5C8
01CA
0329
FE5A
FBDA
FE16
02EA
02B0
FC64
FFF9
F6B1
FE01
F9E5
FDBD
0863
FDF4
F7A9
00FB
FA8C
F9E6
02DE
F8DE
F8E8
FE65
FE87
FBBB
FF3C
01BE
053F
F92D
017D
FACC
FE78
FD1A
FA6A
F7F4
02F9
F7BE
0100
FD6B
FFE1
0315
0723
0045
0105
FD7F
FE6F
01C8
FDE9
0403
FE65
FD03
013B
FE3C
02D2
FDF5
F7BA
FBE5
02FA
F7AE
FC21
FA10
0267
036E
FE45
FA66
FC95
FE41
FF64
0550
0613
FE5E
0910
062F
FCA3
0547
0313
FD57
FEE9
F99A
0220
04E9
022B
0707
08C5
002E
0C22
02E7
FE0B
02A0
08EB
0193
018F
FD1F
013F
07E1
0053
FB00
0327
FEAD
03CC
FF31
046B
FACA
03B8
0167
06CA
FD01
033F
FDDD
F78C
F9F8
03BB
00E4
0594
FD8B
FB1C
FC6A
FD99
FEEC
0317
01D3
FEDD
0C81
FFF3
03C0
02CE
FF88
07A1
0229
0323
0180
F727
000A
04B5
FA51
FB95
FF26
FB47
FF11
FDCF
FF6A
004F
084C
00DB
01D3
FDFB
F5C9
0840
FB40
FE75
FD92
FFE3
01F7
FD48
03F4
0095
FC34
FAA6
0245
F9B3
FC3F
FA23
003A
FD79
0462
FF38
FEC4
F757
01BA
FEB2
F826
FB27
02AB
022A
05ED
FBCA
FFF7
FF99
FA6F
0307
FE14
025A
FEB9
FCC6
FA42
FEDE
FEB9
FBD5
044C
FFE9
FBD0
F3D5
F728
FB28
07D1
04E0
FFDB
F926
0577
0E33
003B
FFE2
02D0
0355
FF5E
00B7
064A
0C14
0322
003A
0442
FFBE
0501
0504
03F0
069E
0123
FDBF
0379
FD04
0516
FBAA
02F8
FCCD
00D5
0061
079D
F738
0071
FF5C
FC0A
009F
FBEA
02F5
025D
FCC8
FFBE
0176
FCC4
FEE1
02DC
0848
01BA
0140
FAEC
FDB0
09B8
097C
FEA7
FFE2
0359
FAE2
00B3
FFCA
0536
03F8
049E
FF09
FF94
F9D6
FEB1
FCA2
05C1
F7F4
FF9B
FBD2
02F8
F9B3
FC10
FF61
038D
FE26
0824
0120
FB1E
035C
F5F7
F977
FEC9
FB80
0507
FABC
011E
F9D7
00F7
FF78
F684
04F8
FAC7
FF27
FD84
FEC4
FE6A
FFEB
015A
04C3
0182
FEFC
FC67
F445
FE68
F913
020B
FF21
0322
F993
FD9B
FE4D
FC11
FB98
FC69
F5D7
004E
0167
041E
FA32
FB15
02DC
FE99
FA85
FB84
FAB2
F843
03EB
FFF2
F2A2
049D
0484
FBA7
FAAB
FF30
FD4C
011B
FD3F
F8CB
0868
02A7
0703
0026
0987
08B2
0721
FDF2
FD38
FB79
0835
00D8
F7D4
0430
FFAD
01D7
03F9
0121
026D
0827
02E2
008C
0370
0079
031D
0AB6
F7D1
04E9
08DF
FDD9
0109
FCE7
F9AD
026C
02A1
03CE
0444
02DE
FC10
081F
FFB4
070B
050D
FF4D
0538
FCBF
FCDA
05AE
0588
057C
FD7D
FC80
01BA
FEBE
03AB
0578
FCD8
002F
FF5F
F9AA
FEB6
0320
F219
FD28
F424
FAC1
F9A6
0198
F797
FDE8
F64D
059A
FD28
02CE
0359
043B
F988
019C
0288
03B4
003B
0038
F783
FD77
FEAD
FD47
0466
FD71
0096
FEB0
FFE5
F6CC
FFE0
013F
FAFE
FE8F
001A
0500
FC80
FDED
F5BB
F9E5
0320
0488
01FB
001A
005C
FC59
FFEA
0213
FE1A
07A1
ED27
FFC4
FA69
01F9
F766
0220
03D3
01FE
FD3D
01C7
0750
FBA9
0183
FD3F
FE88
0019
FECE
02CF
06FA
F881
FEC3
F9B4
09FC
F688
FA21
FFC3
0584
FB9C
0479
FBC1
053E
0591
024C
0040
0172
FDC9
05EF
0261
FF92
FB71
041F
F85D
F7E6
FADB
FCD0
FFD3
FE7A
047B
FC7D
F9EA
FB16
031C
FEFD
FEC1
F9D5
F975
033F
F9F5
03B2
02BA
0491
0110
F999
F88F
FDBC
FB49
F8E8
FFA2
0677
0052
FBA9
FBD9
FB6B
0521
0259
005F
FB1A
00F9
FBFD
01FD
06A9
FDEE
02AB
FC8A
0167
067C
01C1
0491
FAD4
FA7C
08E4
FE6D
042D
0212
0650
FD49
FE9B
FD7A
039D
FDD5
FD9B
FE1A
03CF
07A2
0056
FDAA
0225
00DE
065E
FDAF
F99C
0031
0390
02F8
FE83
0245
0189
FCA0
007E
0506
064F
049E
FB0B
07D9
F975
FAB3
04A4
01E7
037E
FFD9
0226
FE6B
0280
FD9D
0145
0263
FA06
FF6A
00A5
0269
F9CC
0077
FD03
06AC
FFC7
FA41
F9B1
F9CA
F467
0012
FA28
FD3D
FED5
0036
FE27
FFF9
0548
F507
05DE
FA1F
06A9
011B
FFF1
0218
FC17
0093
F9E1
FAA2
F704
FE80
FE0A
FE27
FF23
FC2F
FE50
FD97
F531
FB29
07E8
FA84
FAF0
033E
043E
0154
FEA0
0191
0100
FA47
0746
FB4B
FB48
0624
017B
037D
0092
FCB9
0112
066F
FEDF
FCD8
FD9B
FE55
0713
FD76
03A0
FEF8
0166
FE64
FAB3
031F
FEF7
01D8
00BB
0135
08D0
037B
02AC
0406
FCDA
036A
FD2B
FBC2
FC6B
FD96
06F9
F764
0292
0285
04EE
FF18
FD25
FFF1
06C7
030F
FF54
FF1C
026E
0A4B
05D2
00DB
FD77
0118
021F
03A5
02DC
00B7
051B
FE8B
FCFC
FF64
0062
03DD
F6B9
FD8A
0143
FEE6
02A3
0693
036B
021A
FCDB
047F
0564
FDA9
0430
FF85
0291
FCD9
019C
FCB1
06A2
FC6A
081A
F983
00D6
0319
03B5
0404
FB4A
0078
071B
021A
FD51
FC61
FF5E
0737
FF2B
0457
01AD
022F
FF24
0624
FCA3
039D
0644
FE25
03CE
08F6
03F9
06B8
FDD4
02A7
FCCE
F8E1
028A
0292
005D
0A0F
FE72
02D3
FC78
041B
05B8
0223
F7EF
0798
0201
FA4E
04F0
FE71
058A
0E7C
036B
03CD
020C
FD90
FEEF
FE50
FCAE
F65B
0872
0273
FC08
014A
FD15
FF33
FBDB
FEAE
0241
05FC
05D2
06D7
F9E3
FB6E
FCF8
01EF
FB14
FA31
FF02
04B7
0235
0465
FAE0
FED1
05B2
FB4B
004A
FFB1
004A
0302
005E
F9E9
FEA0
0156
041B
0024
042C
0187
FF85
FD09
FEBB
025E
0147
FE39
0395
0020
067F
05A2
FFB2
FFE4
FCB3
003E
00BE
FC63
F58D
FD09
FE7E
011F
FE5E
0162
FABC
FB6E
0107
00B0
FF89
030F
FD64
026B
059F
00BD
00E3
FBE2
01D9
0136
F9AF
066D
0771
0487
0629
FFA3
00DE
0210
0286
0A30
0356
0B7F
0650
07E8
FE14
FF2D
02DF
FC69
FE03
031B
04FB
0152
01E5
040A
FEFF
F8EB
0333
02AD
FEBF
03D8
FF41
02AD
FEA7
FD3F
061B
FF02
02AD
0848
FD18
FE4A
03D5
FA4E
01D5
002D
FD5F
047E
097A
0201
0815
0425
0069
010F
003D
FEB5
0294
FFFA
0762
06FE
026F
0297
0932
F9FE
0A82
F9E6
0799
04DF
0797
094C
0526
0148
FBB2
FE48
043A
046C
08C8
048C
020D
FE07
FD78
045B
02AD
0434
FDDC
04B4
01B0
FFBD
FC59
038F
0117
01AD
FBB1
FF71
07BD
0110
06F1
0451
FCB8
FB5B
FEB0
04B8
0036
0323
02DF
FA57
0326
FF10
064D
03BC
0E5B
F969
0461
029B
00BC
FE78
F9DD
FB9C
06DA
FDE6
FD4C
0013
FBF3
FF54
04B1
0540
FD70
FBDE
FBF5
00DD
FF13
FBAE
FC85
033B
07BD
05D9
0256
FB77
06CE
FB77
0965
02F4
FD41
F7F2
F567
00AE
0203
FC68
02A6
F7C0
F780
00A5
F890
FE0F
FC64
0200
FF37
FF8E
0400
F838
FDC5
0986
055A
001A
FFFF
05E5
0003
0670
039D
FDFC
FFE6
F95F
00F9
0565
0786
0213
FE0F
FE88
016C
FB14
FC17
FDED
F853
FE22
00F8
F815
FAE9
FEE7
FC34
FDF2
FB7C
FF08
F7E7
FAB6
FA03
FB83
FCCD
FE98
050E
0296
00AF
01AE
FE35
0200
0572
04D3
FAD0
0084
FB3F
0071
033C
FD43
FCFE
FF4A
01FA
04B2
0152
F5BE
F9A3
FCA3
F8D1
FFDF
FEA6
053D
014D
FDF4
027A
0712
045C
FBF2
00D6
FE63
021B
06E1
F942
0457
FCE9
F8F6
FCDE
FA02
FF28
026A
FA65
F99A
FC2E
01B4
FCFB
0583
FB0D
04E7
FADB
FFC9
FEC6
00A2
FC13
0416
FD71
0366
FF96
FF87
FE3D
FC89
FCD6
0098
FBAA
FB51
FECD
026F
FFB4
FA20
F9A3
FF71
FAF5
F536
FB39
013E
0058
014C
F8DF
0304
FC88
FA79
F83C
FE66
FFF9
F915
F68B
F9E2
0133
FDB1
0162
FC4C
0606
FC15
FE65
0229
FF76
FE5C
F8F7
019A
F937
066B
FDD7
FEB1
0463
FBD0
FDD4
F764
01FF
FE6D
070C
FFBA
014A
03D8
FD9C
FE1A
0329
FA1E
FF6E
02F3
FB04
F460
0AB0
0014
FDCE
01EC
FDAA
FA31
FCF1
FE73
0529
FCFB
FC8A
FD95
FCCF
0405
FD68
FC88
049B
FB36
FE49
00DA
04E2
FDC3
03C2
008D
FE0A
FF9A
033B
0019
F666
001E
FF18
00FD
00B8
FEC0
FA2A
0373
FF75
FAAB
FB6A
FE1E
042D
FFF5
FF7F
00EC
00B7
03B2
0717
FE89
FCD5
06BE
FF8E
0606
FCC9
FEE6
06F1
FE92
FC70
FD57
FD66
FE17
FDAC
F203
F586
000A
0173
0399
FA16
FDED
0761
0163
FEEB
FE79
FEDE
FD56
0706
FB4E
FDEF
02C5
FC42
03EE
FD3E
FCC2
0519
FA5D
FEE8
002E
0019
0146
FEFD
00B9
0672
FBE3
077B
FC26
FF4A
0087
FF24
F6B5
FA21
F9E6
09B1
0743
036D
FCAD
019A
FECE
03C0
00E7
05B8
FE39
FF80
073E
FCA9
0167
0497
01C1
F92A
FCB5
0372
F825
0161
03C5
FFA8
03F5
03C4
FFFC
FC93
0010
FB16
FF22
0270
FBE1
F67E
065E
00BE
003D
FF5E
F93A
FB54
FAA5
FD6E
FA61
FAAF
07C3
02CA
FBD9
FCDD
F951
FFBA
FEF0
FCE6
FE6F
F4F8
FE26
F906
041D
FC43
FA93
F86F
FD53
0188
05AF
0272
F91E
FE73
04B4
03B6
FE40
F541
0045
02AB
FCAA
F8D4
FD79
023D
