0079
011A
007C
01A2
FFAF
FF37
FE4C
00F7
008D
FEB4
FE92
00B6
FF3E
00D5
FEC2
FEC6
FFE5
FF73
FF11
FE3F
FED9
FFE6
019B
FFB3
0179
0183
FF7E
FF37
FFA2
FF7D
FE5E
FF7B
0017
0032
003E
FEB5
FE6B
FF3A
002A
FF42
FF0B
FED2
0036
0037
0003
FFCB
007B
FC65
FCEC
01F6
FF00
FE2D
00B5
FE9C
FE99
FFBC
01BF
FFBB
FF7D
FE8F
FECE
FF15
FE5C
002F
FFE0
016C
FEAA
0078
020A
01E1
0001
FFC1
0026
FF95
FE9E
FFAD
FF6D
0194
00FD
0112
FFD6
FF96
FF7C
0078
FDE8
FDF6
FDEC
FF4D
FF96
FFCD
0101
FEFE
005F
0169
0115
0032
000A
016E
0034
016A
0006
0046
0036
000C
006C
00C1
013A
FF8B
0078
00F6
FEF3
FF16
007F
030E
000C
00B5
FF0C
00CA
0156
0132
0062
FF63
00A9
FFCC
FFFB
0321
0088
00EA
0023
FDC0
FF43
0112
FFE8
FF8A
0027
FF66
019B
FE74
00A5
FEF3
0081
FC7A
FF17
FF71
FDD3
FE24
FF95
00A5
021C
FDD7
FF28
FF80
FF97
0043
FF53
00DC
0090
00F0
FF39
002F
FF41
FEF6
0093
006D
FF02
0284
FE17
FE34
FE2F
FF3A
FEF9
FEED
FF3B
FF5B
FFE0
FE6E
FFE1
FF0F
0031
FFF3
FF80
FFB2
FDE4
FEFC
01D2
FF3A
FE9E
00AA
FF88
FEDC
FBF6
006A
FFB1
00C7
0013
FEA5
009A
FE5B
FE85
0168
0083
FFFD
FED5
FF8C
FF2B
FFC8
FF7C
FE70
0166
00A6
FE66
FEF4
0167
0074
FFF8
FF75
00A4
FF61
01D5
FFE1
00C1
FEDC
0059
0069
01C4
007E
00ED
00D0
02C5
00B0
FECF
0082
0261
FFB2
FE97
FF5E
0079
FFD3
006D
FFBD
FFA3
FFA2
FFEC
0120
FDA4
FFFB
0139
FFF5
FFE1
FEBA
FF53
FFE1
006E
FE56
01C6
FEFD
FF9F
FE80
FEB3
FFF2
FF61
FCE0
FE9F
004A
FEA1
012E
FE8C
000E
FF65
FD90
FF66
006B
0075
00D1
0064
007C
00AC
FD7E
FF9A
FFC6
FFCA
FF13
FE8E
FF9A
00F9
FE69
FF6C
00DB
FF86
FFD8
0064
003A
FF6F
019F
00C2
01B0
FF54
FF6C
00BF
FEDC
0031
0084
FFCF
00A5
008B
FEEF
00E8
01CE
0140
FF4C
00B6
0159
FF3E
FF64
FF22
FE3D
0159
006C
00C5
0140
FFCA
FEC5
FF9A
FF88
FF1B
FF78
017C
FFEF
FFB6
FEBF
FFF1
0197
002A
FE42
0054
FEAF
0029
FE0D
FECB
003A
FF39
0043
FEF6
FEE8
FDFD
FE0C
FECF
00A1
FE20
FEC3
00F8
FF1F
0126
0080
FE94
FF6D
00D7
001B
010F
0003
FCB2
0111
FF5A
FF49
0083
004C
FECA
FDA9
FFEF
FFEA
FF2B
00A8
FEDE
0089
00D6
0017
FF24
FEA6
00AE
FDF2
FF9C
FEAB
FD34
FEDE
0064
FF1D
010B
00B0
01F7
014E
00B1
0097
001B
0115
0101
012A
0081
0071
00C0
0257
01B5
FF5B
023C
0121
0051
FFDA
007A
009D
FF13
018C
00A6
00D4
0272
FF54
FF84
FE42
0022
0093
00DA
0037
FFBB
FE15
FE26
0077
0264
FE56
0104
FED5
001C
006E
FFED
0185
FF9E
011F
FEDD
FFCE
FF59
000B
00D1
FE36
001B
0194
FFCB
FE85
0103
005B
02B1
001D
01E8
FFE8
FEB8
FFC5
FF57
01DD
0151
00FA
0061
0138
005F
0250
FF22
006C
01C3
0045
FFA0
FEEE
00A5
0110
0050
004A
FE7C
015E
0030
0006
000B
0003
0033
016D
FF0F
009A
015B
FF84
FF06
00B2
010B
0160
FFDA
FEA2
01B9
00A4
FFA7
FE75
002A
FF75
00F3
FFDC
FFE6
007A
0136
FEDE
FFED
0071
018B
FD35
0050
FF8C
FFB3
FF84
FFE4
0031
0073
0113
0283
0036
FF0B
0061
0058
FF00
0116
00E7
FF80
FE3D
0144
FFA3
00AE
FFBA
00EA
FF1D
FE8F
003E
FEA8
003F
FEE2
0013
FDC1
002E
0066
000A
00E7
0091
FEEC
FFE3
0020
00B4
FF80
0133
01AA
011E
FEA8
FE93
009A
01E2
014F
FFEC
008C
FE65
004C
FF15
FF46
FF6B
FFC1
00A3
015C
FEA6
FF3A
012F
0044
0026
0188
FF0F
00AD
0015
FF25
FE23
FF2E
FE41
FE83
FFF1
008A
FF7F
00EB
00EB
0220
00D0
FFDA
0014
0050
FF5F
FDDA
001B
FF11
FE76
009E
0000
FF6A
006E
011C
FEAB
0198
00E1
0065
FF94
0026
0204
020B
FF6A
FF3B
FF3A
0036
00A2
0065
FFD1
005A
FFCB
0175
FFC4
0030
00A7
0071
0225
005C
007F
0149
FFE7
00A5
FFC8
010F
0162
012A
012C
00DC
0105
FFB4
000A
0052
00F4
00E1
0142
0103
01F5
FE09
FFC7
FE60
018F
0035
0009
00A1
013A
0176
00B8
00BC
FFD0
FDF2
00E1
013B
FFBE
000D
00FB
008F
FF7D
0126
FF09
00F3
0151
FF09
0222
FFFC
FEA6
007F
FFCA
0107
FF90
001F
012A
0102
0000
005C
00A9
013C
FF2F
0003
007C
FF3B
0006
FF69
006C
FEBF
FFEC
01DE
0009
FF61
FF2F
02BE
0165
0068
0029
00EE
009C
021B
00EB
0111
00F4
0195
020C
FF08
FFC7
FEFF
FE57
FEE5
0228
FE7F
0012
FFF9
FED9
001C
0084
00AF
FFF1
FF72
00C5
FEF9
0015
FF65
FF55
FFBF
FDF3
004D
00DC
FE0F
00A3
FE6B
FFBE
00E1
FEAA
0045
0108
0012
0077
FEF9
FF1E
01C1
FE78
FE18
0042
FFF2
002A
FFD5
FE1F
FFD2
FF0F
0018
FF11
FED5
011C
FE63
FFCD
FF52
FFB1
FE6F
00AE
00C4
FDC6
FF9A
008A
FF68
FFBB
01CA
00F4
0076
FEC4
0029
007D
FFEC
FF88
FFD5
007C
FEFC
00EA
016D
FF8E
0076
FF95
FF31
FF3A
00E9
00B5
FF1D
FFFC
FF25
FFF7
FFCB
FEAB
FE55
FD5D
00C9
006E
FFA2
0054
0205
0051
004D
0038
FF96
0027
0043
FFCC
0122
0064
FEEC
003C
003C
FFE1
FED3
FE57
00B4
FF19
0019
0166
FFC2
00E5
FF86
FF93
FFE9
FF4D
FFCA
FF41
FDFD
003D
FFC0
FDCC
FE23
0099
0040
FFA4
0089
0125
017E
FF3B
027B
004B
FE91
FFF4
0030
FD9D
FEC4
FF6F
FDB2
FFF6
FFC7
00FE
FFF2
FF17
00B6
FEBD
FF0B
FE8A
FF9A
FE88
000B
FF61
FF3B
FEEC
0084
00B5
FF88
FED0
FF2D
002D
FF28
FE22
FEB1
0052
FE56
00B1
FFCB
00EE
FF3C
FFB0
005A
FFA4
FFFC
FEF3
FEFF
010F
FC44
FF3E
FE71
0066
0091
FFDF
0099
FEC5
FF78
001B
FC70
0222
00FC
FED7
020A
FFCD
FFD4
011E
FF2D
014D
01DB
009A
00E9
0139
0007
0007
FF5E
007F
005A
01E7
FF76
FF07
FF85
019E
FE34
FEBB
FF9F
0090
00F4
01DC
0143
FF9D
00BB
004A
FF82
FEED
004A
00B4
01C8
007C
009A
FF56
FF6C
0003
004D
0064
0085
0004
0148
0207
0106
0181
0199
006D
00A2
0072
01C0
0008
FF8C
FDAC
FEFC
0135
FF16
0116
031B
FF96
0035
0098
FFDB
01DC
01F6
FEF2
0004
FE9A
FF1C
0050
0135
0008
0041
0074
0121
FE3C
0013
00E4
FEC4
FFF1
003A
FF18
0132
FF56
FFC0
0068
FD88
FF2E
FEE0
01D8
FFAD
FFA0
FFFC
006D
FFFD
000D
006B
FF75
FE4B
FFD4
001F
FF57
0201
0043
FDE1
FDF8
0034
FF44
0087
004D
FED1
00D1
FF5D
FF9C
0013
FF37
00FE
0030
012C
FF48
0008
FFBC
FD20
0248
FEBE
FF03
0065
FFB7
0029
0072
0090
FEEA
FF7D
FF50
FED9
0101
FFCF
0233
FF47
FF58
FFA4
02D1
02AC
01AA
0073
00D0
FFA8
FFFB
0043
015C
FFE5
00A4
01AF
FE81
FF8C
0006
0029
FEFE
FEE9
0211
0072
FEC5
0098
001D
005C
FDAE
0311
FFA9
0163
FF47
0026
0039
FF17
FF9C
007B
00BE
0088
FFAF
01D5
00BD
FFC0
00FE
00FE
005D
0034
0117
008D
FF44
FF75
024E
00E3
00D1
FFCD
002E
FFAB
00C3
018D
FE8A
00FD
FF8D
FF30
0054
FFC2
0145
FFCC
FF26
00A3
00D9
FF64
FFF8
0246
FFCA
00C0
FF81
019D
0041
FFB0
0045
0233
0042
0066
0076
FF2D
0006
FFA6
01F5
FF9D
0125
FE4F
00A2
0048
00FA
0050
FEA7
00D1
021A
FEE1
FF76
00E5
0134
00D1
0245
FE3E
002F
FF8B
FF4B
0003
FEA6
FFFA
01D2
0274
0179
0053
01A5
0065
01B6
005A
00C4
FD9C
00A0
FFD2
0130
FFD4
004E
FFAE
FFF2
FFD2
015F
00A1
028A
0218
FEEA
0266
0111
FF05
013F
00C8
FDE1
FF3A
FE5E
00F6
0130
FEF5
FEE6
00A4
0236
FEEB
FF18
FFA8
0059
005B
FE0D
FFA7
FF35
FE48
00B6
FF09
FFDB
01A4
00AF
FF09
00D1
0216
01BD
0274
016D
FED9
FD83
FFEB
FF79
0058
0099
0009
02AA
FF45
009D
0051
FE20
FE79
00D5
007C
022F
0127
0019
FFAA
FF36
FF45
02C2
0019
012F
FF0E
0067
0057
00A5
0083
0155
01E0
0120
014A
FFDB
FF67
FFC6
FF64
FFD0
007C
00CC
0015
0035
FE44
014D
0102
0201
00CA
FF16
0065
FEFB
0183
FE75
FFCE
0035
FF39
021D
0045
01E3
000B
00AB
0082
0185
0218
FF90
FFE6
01DF
021F
01CD
FEE1
0094
009D
01E2
0444
FF65
000F
0092
00C2
FFFC
FF2A
006F
FEA4
FDE0
0059
FFC1
0045
004F
FF9E
FE63
FFBF
00F9
013A
0026
003A
00C2
01F8
0098
FF4E
0158
007A
FF76
01B0
0137
0161
0024
FEF2
007B
FFEA
00F6
015A
00C1
FFF0
01B1
00CB
0085
0083
FF61
006E
FFFC
FE89
FFFE
00CC
005B
FF90
FF8D
FEE1
0104
FFE6
0213
FFBE
0004
0037
00FD
0259
000E
FFCE
0115
0110
FFE9
FEE0
00C9
FFBC
0171
00B7
01D4
0174
00DA
00A2
FF4A
FF35
0157
0038
00CD
FF71
00AF
0150
017D
01CC
00CE
0046
02F1
FECD
0015
FFF6
002E
01D9
0172
0048
0160
FF25
009C
003C
0069
0021
007E
FEB9
0170
FF94
00D0
FF55
FE91
0089
0143
FF53
FED3
00AE
00DF
FF82
0087
FFF6
FD9E
FFC6
0091
0056
014A
0101
0099
005B
022A
004C
0200
003E
015C
0021
005C
006D
0127
00F0
0160
FFDC
FFBB
003F
009B
FFB4
0249
0032
016A
027B
FFE7
00CC
FF5F
FFE8
0058
01DA
001E
FFE6
0254
FF6F
010A
005E
FF98
FEEE
01C9
FE8C
FF9D
FE8F
FF4A
0014
0028
01F4
FF9B
0079
FFB3
FEAB
00F8
FF87
00D7
00C0
FD87
FFDD
021D
FFC2
FF01
0147
00C8
02DE
0127
00F5
00D7
005D
0042
0040
FF82
01AF
0031
01AD
FF6F
0011
FEA0
FFE8
019D
FDC3
0096
0082
00FE
FE37
FFAD
0095
00B2
FFA2
0039
FEE3
0232
FFCB
000E
FF8B
0113
016B
FFCB
0013
FF49
FE13
008D
FEDC
FFD2
FD8F
FF7B
FF35
FF48
007C
FF50
0119
FE69
FE65
FEB3
FD98
00C7
FFB1
004E
001B
00E1
FF6F
FF1E
003C
FF88
FED3
0085
FEDD
FE2A
00CA
0039
0085
00A3
FEA1
FDEB
FE80
FFF7
FFFB
0188
FF93
FFCF
FE51
008B
0044
FF9D
0154
0036
01FB
0299
0179
016A
00BC
FF84
FFDD
FF1D
FF71
FED1
FFF3
00CC
FFC6
0135
00A5
005E
00D7
FFBC
FF8D
FF02
0030
FFD1
FEAD
00B4
0091
0037
FED6
002F
006E
0145
003C
00AD
010C
00F3
FEC1
01A3
FF93
FDAD
00D4
FF83
FFCF
FEBF
0007
014C
FEE3
00B0
0085
FFB9
FFB5
016B
0017
01CD
FFE2
01C2
0024
027E
FF39
0080
FFD7
FFB1
02B0
011B
FF4E
00C7
00C2
FF76
006F
FFE5
020B
017B
FDE7
FF0C
002C
013C
019F
FFC9
015B
016B
005A
FF64
FFCF
0117
009D
0063
FF17
0080
FFF1
0162
00D6
FD50
01CB
FFEC
002C
FFA0
FFAA
009F
FE5E
FF1D
FFCF
FF20
FF92
FFE1
FE4D
FF89
FF11
0116
0198
01C2
0096
018F
0045
FF3A
006A
FFD7
003E
0224
FFAD
00E3
0149
013D
04D4
005F
FF73
FFE8
005A
0003
007F
00C7
FFAA
FFF5
0115
00AC
FF9E
0025
FFA5
00AF
0131
FFFF
FF8F
FFC2
013A
0096
00F4
00E5
0201
FDE3
00E4
0101
FF7F
FFD7
FF8E
0053
00DC
00C5
0141
0033
FFB9
01B9
FE79
FF17
FF5D
00C0
00B1
021D
FFB4
0144
FF66
01D6
00CF
FF6B
FEB7
0140
0054
0211
00CB
008A
00CC
FFFE
FE6D
0099
FEC7
0066
008F
FFEC
FFA0
000F
FEFA
FF39
00B7
FFB3
0080
0023
FEE4
0039
FFBB
FFE7
002A
0051
001A
FFEE
FF73
00C3
FE70
FE12
FFE1
FE60
FD6F
0059
0030
FFAD
FE66
FF76
00F8
00D5
0094
FFBD
0087
FF6F
00E8
FF7C
019D
00D2
0158
FE63
FF7E
0019
0023
FFFB
FFE4
FF7A
FF93
FFCE
FF66
FFAF
FEC5
0046
FE79
00A4
0149
FFC8
FE5E
FE6B
FFD3
FFEE
FEB6
00A8
005D
FDD5
FE7C
FEBB
00D0
0113
00F4
00B1
FFA6
02CA
0086
0102
0116
0119
FFF3
0047
00C2
007A
0075
FF55
FFBE
00E7
FF92
0117
0093
00BA
FE2A
FEBD
0038
FF62
FE62
00B4
024D
014F
013A
FD95
FFA3
000C
00D8
FDA2
FE98
FFA7
0097
010C
00CA
010F
0081
004E
FEC7
00C4
FED1
0231
FECC
0164
0179
FF75
FFD4
FF27
FEFE
0025
004B
0033
FEC6
000F
00B7
009C
019A
0064
FFEB
017A
FDCF
FEB9
0086
0239
0096
0128
0021
0031
0071
FFAA
FE8C
0071
008D
0195
015E
000D
0068
0259
0160
00D2
FE97
FE59
0182
FF03
00F6
FE80
009C
FF2A
FF73
FD95
FE50
FFE9
0077
011B
00F8
006E
0151
FF9E
010C
016A
00D8
FF6C
FEAA
FF76
0141
0181
FE8F
FF01
FF7B
FEBF
00BB
00C5
0099
0345
FEE1
FFF5
FFB9
016C
FFCB
0199
023F
002B
00BE
FE91
FF0E
0070
FD09
FF6F
00BC
FF90
009B
007E
FF8E
FD8A
0062
010C
006A
FF52
FE8D
FFCD
FEA5
019B
FF40
00BA
0010
0101
0007
0016
FEAF
001D
FF06
0043
FFDA
FF12
FF87
FD7F
FE76
FFC7
FFE2
FEA3
0014
00C9
FF7B
0075
FFBB
FEA1
FEFE
FF29
FF85
0148
0105
00C4
FEF0
014B
FE5D
004D
FDEB
FFA3
FED2
0143
FFBE
FD90
FF1B
00A5
FF27
008D
FF2A
00EE
01A0
00FC
00A7
FFC8
FE72
FFD2
00DF
FE7C
FDB0
FF36
00CF
0028
FF92
FDF3
FD8D
0130
FF95
FFA4
0046
FF55
00F4
FF6C
0108
FFD2
008E
FE25
FF01
01E5
FFAC
00AA
000F
FF85
0100
FF2D
FF02
0018
FF24
FF06
FEA8
008C
FFA6
FFE6
FF94
FFCD
FFA9
FFB7
FFEB
FF41
011D
FF1B
FD9D
01A2
FF48
010D
01B8
FF87
FF18
0035
FE73
FF5A
FF20
00AD
0045
00B5
00DE
001F
00CD
00DD
004E
FFFB
0253
0009
012D
02AD
FDB5
0032
0014
00B2
009E
FFB4
0024
FFD7
0271
005C
000C
FC7E
021B
0000
0088
017B
FF56
FFD5
0074
0118
FF66
011D
007D
FEBA
006B
0079
0194
00D8
FFB6
FF51
000E
FE8F
00CE
00B3
0011
00A4
FEED
FE2C
FF46
FEA1
FFD1
005A
0295
FEA0
FF09
FF76
FFAC
FED8
FFB4
FF36
0366
00B4
004A
FE20
FFEE
0052
FE77
FE2B
FEFC
FEFC
01BA
FFA9
FF80
0012
FEFE
007A
016F
FFD5
0107
0048
FF79
FFD0
FE3B
004B
FF23
FFA4
00BC
FE68
FEAD
FED6
FFBF
FFA4
0199
FF30
FF61
0071
012C
00C2
FFEA
FF8B
00D1
013F
FEC9
FECB
FF84
0140
0047
FFE0
FED2
00A1
FF4C
FF90
0039
FE0E
00A5
006B
FF41
FF02
0176
FF65
FF94
010D
FDFF
FFFF
FFF8
FECC
FE58
0109
00A5
00E1
00A8
012F
FECE
FEC0
0053
005F
FFEA
00F2
FEB5
FEA5
016C
FFA4
00C6
011E
FFEA
028A
FF7B
0028
000A
FFCF
0051
008E
0026
00C4
017F
0079
0118
004C
002F
0141
00A7
0025
005B
0089
FFBD
FED3
0120
0019
010B
0068
0062
000A
01E0
FE9D
0006
0066
0295
FFC3
00B5
01AA
FF99
000A
0003
0084
FE26
0119
0125
015A
014B
FEDD
FEC2
00A4
FFB6
FF91
0075
01E8
FEE6
FF9F
00BD
0109
0159
0140
FE05
00DC
01E4
FF71
01E5
01A9
0038
FE1F
00A9
0236
FFB5
0150
0251
00B4
FF83
FFDD
0301
013D
01A8
FFB8
0028
FF8B
00E6
01ED
FFEE
0192
006E
FF35
FE7D
0065
FF85
00EC
0046
0284
00B8
0023
FFCD
01C0
FF1D
FEF4
003E
FF7F
0136
FF19
015A
FF74
FFB3
0167
FFD4
0142
015A
01C2
FE7D
FE19
033C
00ED
00A2
FE40
00B6
0107
FDAD
0125
00A2
FF73
0299
00D2
0211
FFC3
FF56
00C1
00F8
00C1
0037
FE46
FFA4
FFF5
FEFF
FE4A
FF40
FE4A
FFD8
FF00
00FC
FFA7
FE3C
000E
003F
FE59
0122
FFC1
FFF0
FF6F
0059
FF8E
0060
FE19
FFE9
0072
0035
FFAD
FE72
FFF2
013E
0007
FF0A
0007
FDCD
FFF6
FF4F
FE6E
0068
FFF9
FF3E
FD00
FEF9
00AA
00C4
004B
FE95
FF74
011C
FF17
FF1B
0173
FE53
FEBE
00A3
FF02
FED5
FF82
0071
0031
FE33
00D6
0008
019A
FE22
FF08
FE8D
FFE5
FEA3
00BF
FFAF
FFC5
FF98
FF3F
FFB1
FE7D
FF28
FD85
009D
FF6C
FEFD
FF76
0063
FE4E
FF4B
FFEB
FF24
FF89
000E
FF74
FF6C
FEC7
FF49
002D
FED5
FEFF
FFA1
FF80
FF47
FF40
FEAC
FFB8
0043
0162
FF9B
FEE6
FD4D
004C
007A
FF9E
FFE9
FEB7
0124
010D
FF34
FF5E
FF4D
01CB
0198
FFAD
FF9D
0140
FFCB
0234
0051
FF45
00CC
0074
028D
00CA
FF5C
0027
019E
FFAA
0250
FF81
016A
00AF
FFFD
00C3
023E
FEEB
00E3
0115
004A
FE9F
0127
0099
FFE1
00BD
FFDA
00FA
0066
FFF4
00D5
0140
FFBD
008C
011F
FF63
025D
0015
01DE
FF4F
00BA
FF9D
01A3
0002
FE44
024C
02F0
00C2
025C
0197
FF7E
0272
FE93
002D
013C
005E
015F
FF40
FFC5
00C9
024B
008D
0107
0113
FED5
0145
00BC
FEAE
00AE
00BF
004C
00FE
002C
FFEF
0042
FFF2
FF77
FFE8
0037
FFB3
FF3C
FF37
0150
FF61
0058
FD4C
FE35
0150
0137
FF38
FFA9
0063
FF40
0027
000C
FFC4
FF2A
007D
01C8
FD97
FF09
00D2
FE9D
FF71
FEFF
FFCA
01DE
01D5
02F5
004D
03B6
FFEC
FE6E
FEAB
FFAB
FF5F
00C1
0036
FF09
00C3
005B
002F
00BC
FE95
FFAC
FCF4
FF98
FF12
FF7F
FE6A
FEC3
FE19
00EC
002E
00DC
FFA1
0082
FE6F
FE94
FE8A
FF98
FF78
005C
FF8C
FF72
005D
FFB1
00E3
0138
FF57
0070
FFA0
FF6F
FE2A
019F
FFD1
000A
FF1C
012A
FF5F
FE29
002C
FF1C
FFF1
002B
0211
FFAA
0008
008A
FF08
01AB
FE1A
0206
0010
FDDE
FF9F
FFBD
FED4
FFAA
FEC3
FEAA
01FB
FFDA
FFC8
00D5
0057
FF31
0099
005B
FF37
FF46
006E
00CB
00F0
0299
017C
0020
011E
FFC6
01EE
006D
00C8
00F4
FF48
FFF1
007E
FF6B
FF83
FF52
0213
FF26
005B
0174
0050
01D3
FEDA
0077
0089
0125
00BA
FE7B
029C
0068
0076
00BE
0028
00B5
FF33
FFCD
02B5
00BD
FF38
0141
01B5
FF28
FF42
00A3
FF76
0279
02C6
0058
FFD4
FED5
FF11
0104
FD96
0026
FFCE
FFE2
FFF8
FFB2
FE49
FFBB
FFB6
FFD9
FF9D
FF78
FF63
FF40
0071
00B3
0008
FF5A
FF8A
007B
FFDB
FFAC
0115
FDE0
FFB5
00FE
FD89
FED3
FFC5
0017
FFFB
009A
02DA
FDC2
FF02
FFD5
FED0
FE81
FFEC
006D
FFB1
0047
0014
FED3
0053
FF0B
0017
FF60
004B
FE55
FF90
010D
FFF4
0004
FF53
0070
003E
FF76
FD09
0088
FEE5
FF63
00D2
0106
FEF7
0184
FF6F
FF89
FF65
0016
FFB0
007D
0138
00A0
FE4B
FEBF
FF39
FF94
FE4F
0074
FF85
FEA5
FEB4
00D8
01F4
01BA
004D
0050
FFCD
0019
FE83
00D3
FF58
FFC4
FE36
0032
FDB0
0181
FF30
FDD8
00BC
FF83
FF55
FEAC
0016
00E9
FFAF
FE2F
FF06
FFB1
00DC
00C8
015D
016B
01E9
01EB
0150
003A
00D3
FE5D
0018
FE73
FE96
0085
023C
00A9
0057
FF44
FFA3
FFBD
FF6B
0038
FECD
FEC4
0015
FE07
00A7
FE77
FE85
FF8D
FFCD
FFFF
0254
FFA2
FF8D
01D3
0134
0103
0009
FFDB
02CA
025B
0069
016B
00C9
FF7C
FF23
FF16
0096
FF67
FE93
FFFA
FEAB
00D7
0198
FE73
0053
017D
0112
FFD3
FFDB
0094
FECB
FF95
00A7
FF79
FFF7
FFBB
00D3
FFAA
FEFE
02A0
0045
FFF4
00DF
0157
0128
0094
FFC1
FFAE
00FF
0132
0003
0018
FEAC
FFB6
FEDF
FFE6
FECB
00EA
FEBC
FF57
004A
00B3
00C0
0174
FF2C
FD89
003D
0168
0082
FDF1
FE5E
00C6
FF91
FEEF
FE16
002F
FE83
020A
03DC
00FA
008D
00A0
FFF3
FF08
FFFB
FF49
00BF
FF94
FFB8
FE75
001A
00A7
FFC4
002F
FEBB
FF51
0090
FF6A
FF03
FF78
FFCC
0168
FE43
FFB4
FE50
FEE2
FF50
FE3C
FFD1
FFE3
0113
FEF2
FE6D
01AA
008D
005F
010C
0024
FF04
00B1
0071
FF78
00BC
0191
FF0D
FEC1
013D
00F7
017A
015F
FF15
FF94
0025
FF25
013C
FF40
00A5
00BC
FED0
FF81
FE47
0218
003D
FFF2
FED0
013F
002D
016D
0001
010F
FFE2
FF4F
FFAF
FF62
0131
FF6D
01E6
005B
FF3E
0098
004E
017C
FF9C
0095
FF78
FFEC
FFD4
0142
0082
FEFE
FFB9
00D0
FEB7
00D4
010A
FF64
00A3
011F
00C0
FE04
00BC
FEC0
0178
FFB7
FE06
FEE2
0054
FFC0
0040
FF27
FF93
FFAA
FF40
FCF9
FE3F
00E9
010E
FEC7
FEA9
FEE6
0162
FEFC
FFD1
00A1
FFF4
FF5E
FE9B
FEA9
0152
FED2
FFF4
FFD4
00AC
FED5
FF20
FE16
FF4D
FF52
00D0
FF0D
00B6
FEA5
00C2
0196
FD9A
FEF7
FE89
FF1A
0103
FF2A
FF56
FF84
006C
00A0
0034
FF91
FF3F
FF8F
01DE
FFBE
0093
FE18
0077
FFEA
008C
000A
0024
FF6E
FFD0
FF6C
FF25
0069
FF2B
009E
0068
01A9
0006
027C
FF9D
FECB
0056
FF2E
FF5C
015D
FF85
FF5F
012D
00B9
02CC
00C6
0045
0161
FFC1
00B0
FFA4
00BA
005B
FFE6
00BE
00D7
FFA8
0143
01FB
0168
0242
0072
0220
0092
001A
0229
FFE1
01B4
FF19
0022
0130
0023
FF1E
FEAF
0058
00CD
0180
005C
FEBB
FFCB
00C3
00E2
FEBE
FE30
FF1D
FF8F
FFF7
0044
FE03
FEE3
FF14
FFA2
FE6E
FE88
FF14
00AD
FE57
FFC9
FDFF
FF2C
007B
FFD4
FF22
FFA6
FFC4
FE1E
0076
0089
FE0D
FF4E
0073
002A
0091
FEEB
FF23
0067
00FA
FFAF
004C
FF2A
FE3D
FDD9
FF2D
017D
FE0D
FF7B
FE7E
FF57
FE11
FFF3
FF8D
FF03
FF6B
00D9
FFC7
FD6F
FCC7
FFFD
FE8B
FDC4
001F
FFAB
0072
FF00
FFEF
001A
0039
FE27
FF00
0035
FF64
0010
FE1F
FFE1
0014
FF45
004C
01AD
009D
FE29
0117
FF83
FF67
007A
FE55
FE9F
00E1
0116
FF79
0059
000E
FFE9
FF79
FD74
FFA0
FF1E
FD94
FFBC
FE13
0041
FF64
0232
00BB
FE3F
FF53
0078
003B
FF10
FE83
02E9
01C1
FF3E
FFF6
FF02
0155
0131
0108
FF7E
FEE3
FF42
0075
FDD1
FF8A
FE9B
FF96
FFC9
010C
002D
0079
0030
0182
FEE8
005E
FEF2
FEE1
FEEB
FF13
00E6
FFF0
FFC2
FF45
008F
011A
FF9C
FF20
00D5
029C
FF77
0183
FF3E
011D
FFCF
FFB8
FE9C
0136
FFA4
FF5A
FFFC
0107
FF44
016C
FFD8
012B
00E2
FF6D
FF58
FFD1
007E
015B
000C
FF81
0046
00AF
FFDC
FF87
FFC2
FFF7
FF80
00E0
01B1
00BB
FF26
007E
FF07
FFDF
0120
0086
0372
01E8
FD95
FFB4
01B1
FFA0
FE78
008D
FEEB
0090
FDE5
FE2B
0054
01F0
FFB7
00F8
FF2C
FEA3
FFE8
0034
0066
001B
0031
FFFB
FED3
009B
FFFB
FF4F
FE55
01AF
004D
01FF
0174
FE7C
FFB7
001C
FD56
0203
FF61
FECD
FF00
0079
FF56
012D
FF6A
FFF5
FF6A
00CF
FFD8
005B
FFC6
FFCE
0018
FF2A
FEE0
0032
00A4
FE1A
FF10
003B
00C1
FF77
FF2D
006E
029C
FF27
012B
00CC
01CD
FCC8
FFC8
0165
FF86
FF6E
00A5
FF8E
003C
00A9
00E0
FFD7
FF7D
FFAA
00CE
FF9B
0091
00B2
034C
FF37
FFAB
011D
FFF1
0059
0080
FEB9
FF7F
00B1
FFA0
0158
006D
02BA
FF88
0024
0010
FF78
018A
0065
FFAF
00A4
0187
0076
008C
0081
0069
0079
0105
0166
0037
0025
00B5
0075
02C7
FEAA
0125
FEA8
FF0B
004D
0323
0283
01A4
FFD9
0051
FF8D
0041
FEFD
FE1F
015D
014B
FF55
0021
0148
FF5C
FF32
0007
0264
006F
002A
00BB
0048
0153
000C
FF72
015C
0049
FFF0
FEBB
FF25
014E
01AA
002A
01E7
00C5
FFEF
FFD4
FFE5
00D6
0040
001B
019C
0125
0093
004D
0073
FFF6
00B7
0058
FF7F
0050
0090
00C4
FE81
003E
FFF4
00BC
0038
01EA
009C
00F3
FFFF
0014
FF29
FEA2
0235
0220
01B1
0038
009B
FECC
FFC9
0037
00F8
FEA0
FFFA
0049
0001
0102
FD46
FFBC
FEA7
0136
0015
0180
FF0E
016C
FFA1
002A
FF45
FF3D
014D
001F
FF00
0048
FDE0
FF83
FF49
FFA7
0006
FFE0
002C
FDA2
0124
FE40
FEEE
FFCC
01E8
FD3B
008B
FEFF
FEFF
00E1
FEBE
FFEF
FF70
0005
0032
0107
FFEA
FF0E
0193
00D2
00E6
00EE
FF16
0021
00F2
FEEE
FD68
FC64
FF66
FF11
0053
FF6A
FE76
0139
FFF4
00BE
FFA0
015B
007D
FF9F
00D9
0036
007F
00B7
FF91
0173
0048
00A1
01C8
FF93
FFF9
FEFD
FFF8
FF05
FFB0
FD41
0108
FF94
0026
FF6A
0260
00EB
004D
01F5
FEC1
FFDF
0068
019B
FF5F
0059
FF93
FEC3
FFA7
0023
0119
FFE6
0029
0012
00F3
0031
0032
FF92
0092
014B
FFA0
018E
0031
FF34
FF55
0084
FFE8
0208
01E9
FFF0
006A
00BA
FECD
0020
005A
01B8
013B
FEA4
FEEE
FEAB
0146
FFF4
FFE0
01E4
FF38
0004
000F
FF77
023E
01B6
FF8A
00CB
FFFE
00FC
000E
FFF7
FFF6
FFC8
FFD3
FFD5
01FB
009A
007E
014F
0130
0011
0011
00F7
FF18
FF83
FE7A
FF53
FF7B
FE51
01D5
FF45
015D
FF9E
0284
00D0
0019
01B8
0071
017D
FECF
001A
008C
FE10
FF77
FF3B
034B
033F
00CE
FFBD
020E
00CF
FFAC
FFEF
0163
0085
0027
FEFE
FFBB
009E
019B
FFD6
010A
0099
0104
FFE0
00D4
0111
0198
01B9
012D
0054
FE90
FF25
0030
FEE9
FF3E
00D8
FFEE
004E
FF67
0147
0059
FFEF
FF76
FF6E
FEF6
00A8
0075
FF4F
FE99
FF75
FEF3
FFAC
00B9
FEE6
FDE7
0057
FE95
FF14
0011
0147
FDE4
006F
FF14
FEFD
034C
0127
019C
006E
00B4
0128
0037
003F
005B
0057
0180
FF89
FE47
0005
001F
012D
FF88
FED5
FC57
0091
FF3C
FF5A
FFF1
0003
0035
FE0A
015C
FF2D
FF15
0177
00F8
FECF
FF92
FFA2
0142
FE54
00BD
002A
FFD6
008A
0087
FD42
FFA5
0079
002F
FF43
FFD6
FFBA
FE4F
FEEE
FF84
010F
0116
0087
001C
FE8B
00B2
00C3
FF3D
008F
0061
00CF
009E
0062
FF01
FFB1
FFE4
0021
FDA6
FDE8
FFA6
00DD
FFC4
FEA7
013B
FF2B
FE42
014B
FF1C
FF88
01E3
00D2
FFBA
FEC6
FEAB
FF91
FE67
FF7A
FE7B
0061
0067
0046
FFA5
FFD6
0041
FF43
010F
002A
FECA
0170
0063
014C
0032
FF4D
FF64
0054
00AE
FF00
0070
FF46
0009
FF1A
FE91
0043
FF8A
FF1A
FF00
FFB2
FF8E
009A
FED9
0106
FF7C
FEDE
FF95
FFCB
014E
FF74
FFDD
FEB0
0092
0043
FF11
FF32
0010
FFFE
FC6C
FFB9
FEF8
FF48
008C
001D
FFE9
0072
007A
FEE4
00F0
FF2F
FFB9
0193
0069
FFEE
00A9
FDD6
FD97
005C
FF02
FF3B
005A
FF6B
FFB2
02B6
FE6B
FDF0
FF55
FF26
FD13
FFE1
FFE4
FE92
001C
FF56
0065
01F5
00C3
0008
FDBE
FF6C
000B
FF16
FE6E
FFD2
01BC
0259
0027
00CD
0023
FF6C
005A
FC25
FE8E
FFFB
FECC
FF91
FEE9
01C7
00C5
FFD8
01F4
FE53
FF9D
019F
0077
002F
FEB9
01F3
FEC0
00CD
000D
0018
FECA
FF3D
00BB
FDB4
FE7F
0098
00CC
FFDF
FD9D
FF07
0061
FEE1
FFCE
00FA
FF1D
FFC7
FF72
FEF1
FDE3
FFD6
009B
025F
FEB2
FEAA
00CD
FF1E
FFDF
FE63
FF75
0237
FFC8
FFE5
FD7D
FEA1
00CD
00E7
FFFD
014C
FF3E
00A2
FE6F
FE7C
00B2
0180
FE82
FEEF
0055
00F6
FEBB
01C3
FED4
FD91
003C
FF7B
FDE5
FF35
00BF
00ED
FF88
0017
009F
FF21
FF9F
0088
00F5
FE25
FE76
FF9F
FF61
FF4E
01F4
FFC5
FEAF
FF6A
FF88
0179
FE3A
0174
0020
FFC7
FF7C
011C
007F
FE6E
0040
FFA8
FD8D
006F
004E
00DF
004E
00A7
00AE
FEEB
FFB1
FF36
FEAF
FFAC
0015
0034
FFA3
FF74
FFD6
FF77
FEB9
004E
0162
FECA
0133
001E
FE51
010F
FDD5
021E
FE4A
FD10
FEF7
