FFE4
FFC5
02AC
0097
FF71
FD5C
FBFF
FC04
FC79
F8AB
FDD4
FF3D
FB71
FF9F
045E
FFB9
0080
FA53
094B
04B7
0237
0029
FABF
FEC8
0040
FF72
FD4D
FDA0
0244
FFD0
FC32
045C
FE16
02AB
FFF8
021B
026B
FED8
04A7
01B4
0554
0163
FE44
0393
03EB
0665
038E
05C9
FE60
00CF
02B4
0054
FC2C
00D9
FEED
FB53
FF50
02B7
039F
FDD1
FD6B
0132
03A9
01AF
FB78
FDF9
FD6C
05E9
FE39
FFC5
0639
062E
0206
00C5
064E
00AC
FC86
FF90
FF3B
FB64
FE85
021B
036C
FD95
FDF9
00B1
F87A
FF3D
FF8E
000F
0008
FE09
06CB
FFEE
FF8D
01DA
FEB7
0377
FD3C
0632
0302
FD12
03CF
0177
FFC1
0012
FB39
083C
FC6B
0685
FAF5
FDAE
0380
030C
00AA
FFED
0044
0570
FBBF
FB22
0121
03D8
0451
FE6E
F945
0B71
03C9
0105
0229
02F7
FD80
FEB7
00CB
00CD
FE5A
001B
FDF8
00A7
04CA
05B4
FE36
0ABA
FF5C
FF39
03EB
FD5F
01CF
FB63
0010
0095
F919
056A
FF92
FB87
FEA9
04A6
005C
0313
03FA
FFFE
F88B
032B
F921
FEE8
07FD
FBC0
FF51
FBA4
08E3
FC77
FD6F
FEA6
FF27
FB65
FD72
0923
FFC5
058A
F99E
0170
00FD
FFDC
FF63
0664
03DD
FCDB
021F
03E8
FE23
07F9
FE5D
00F7
0516
FFFE
03BD
FEF5
FE14
0234
00B2
FE03
FCD3
FAB8
0427
09E1
0557
FFCF
0238
0132
0330
004B
FD59
FBA3
F850
0803
FDFF
040B
057E
F826
FFED
FF40
0271
FE2D
00D8
FF15
FE68
FF6F
FEEC
0276
FE84
FBC0
F7F2
047C
077D
FE6B
0E55
0052
FD13
0138
03C6
04CA
0407
FC3A
FEFC
FED5
021C
FE72
FCCC
FC20
FDC7
FF74
0388
05F6
0074
02B1
FE49
FBC0
0960
FE26
071C
FDC2
FF42
0C43
0184
00D6
03A3
FD54
04AC
FF1F
FA4B
078F
FFA0
02E6
FADC
0120
05D8
FED5
FD9A
FEF9
F507
FB6D
0276
FD6F
FBCE
0170
FD75
01F5
0313
005C
00F4
FD44
0BAA
FD0A
FD24
0994
F8FE
065E
FEB7
FEF3
FBBF
0331
FB5E
0107
0306
FC81
F7FA
F9B0
0524
03C3
0049
FA9A
FE8C
01F4
FF96
FD5B
FF90
FC6A
0081
0361
FA45
011A
04D0
00AE
0336
FE02
FE86
0126
001D
0293
06B0
0BDD
060D
F9F1
F9F6
0AA0
02CA
FE9D
0213
FDB4
00BF
FFD8
0208
09A5
0270
FDDE
005D
008B
045A
0301
FE39
F791
038C
F9BD
FC61
0331
FCA8
0132
0129
00DE
021D
02CE
0158
FF44
FFD4
00CA
FD81
00FD
0533
F9CB
0469
FEC0
0076
0379
03F6
077B
0325
01BC
FE7C
00E3
FF08
0756
FBA0
FFAD
048F
0175
FED1
FDF4
00C3
FF74
FCB4
00C7
0148
015D
01B3
0249
FD94
02BC
FDFD
01ED
FBC8
FB81
FD1B
0375
FE96
FA1E
0116
0283
FDCB
FC5D
FEC1
FC7A
FC62
0661
FEF1
FAA7
FE7F
0172
F790
0567
07D0
FFE4
0CC2
FFAB
0011
011C
009D
0244
007E
FF30
0435
013C
056F
FC7B
FDB8
F8F9
0325
FC97
010F
FE85
027B
F3FB
04D4
0313
F754
0447
FFBF
F9BD
FE07
0189
02BD
0154
FDBF
FF5D
F931
FC58
05DB
FFD9
00D7
FED7
FDE0
FDCF
0103
FDE1
FEF5
05F3
07DE
0046
0216
0B1F
FD63
023B
009E
04F3
FD3C
01D8
02FF
02B2
0467
030F
FB4A
FF1D
0019
FBE3
FBAD
0261
FD04
0338
04A5
FFA9
0295
0129
0002
0885
FF55
FD28
027B
FF92
043D
FBE7
006F
06E0
0222
FC1D
FE16
FFEA
FB80
0355
FDB7
FD75
0616
00B0
FF59
01E7
FCC2
022C
01F7
FCFD
0311
01F1
003C
037A
FD18
0051
FD0D
FA9B
03EF
0791
07D6
039C
0175
FE98
FC1C
FE61
017A
FCC6
05B2
F838
00E1
01D2
FBBD
0124
0361
0846
04A6
FE3B
FC09
0086
FB4C
FCF7
0529
082F
0138
FE78
096D
0573
FE07
FBB8
052A
FFCA
031D
FB78
0581
FE04
06AA
0168
03DA
FF28
0734
FBDE
FA44
FB19
03A4
FCF1
007B
FE45
04CC
F91D
FB65
FD07
FF16
01A9
FDDD
028B
F84F
090F
F70E
FF07
FDFD
0184
FF06
04FF
0767
FD56
083F
0196
FFF3
06C6
01B5
0382
FB1F
05C7
F8AF
07C2
0610
F68B
04D4
04BD
FD8F
FB0A
033F
FF53
04B3
067A
FCD8
0701
019C
00AE
FFDF
FEDE
02FF
02AF
FD81
FCAA
FD3C
FDFD
0300
FD7A
0480
FD86
F6DF
06AA
FF49
FF2E
061F
03AA
F82F
03BC
FCFB
FD56
0516
F8B6
FC35
FF80
05C0
FD03
02AE
0100
FBAC
FAE5
02F6
098F
FB8F
07A9
FAB7
012E
00FD
05AC
FD38
FE6F
04F5
F8AB
00D2
02DD
FF65
02F6
F9FA
0268
0822
0400
FE23
FACF
0000
041E
0011
0377
02D9
040E
FDCA
FC66
0316
FFAA
0ADC
02F2
FD92
05F2
FB5A
0532
0286
00DE
F982
FEC9
02FB
FDC1
FEED
0247
013B
F9C3
FBFB
0116
FE56
FE65
02C3
03BC
F4F6
0064
020A
FF0B
010E
036D
FBAD
F4B3
FD2A
FABF
FFBF
FD5C
FD7C
07AD
FCD6
026A
FE0E
0301
0082
02AC
0170
FF35
00B7
FE60
FCC6
F4F7
F5E9
027B
FF03
0639
FDAD
0488
0297
FE54
0198
0234
0135
FC3D
FEC3
FADD
029D
FCB1
F840
00CE
043B
F7FB
010B
01D2
01FD
00D2
FCFB
FEE9
0006
0650
FFF5
F918
FD10
FC7B
FCDF
FE90
FCE8
FDCC
004E
FF20
FA5B
F8B1
F91B
FD1D
F973
FC71
FD1A
FE10
013C
04B2
05FF
006A
FF3E
076D
FF41
01C8
0035
FEEC
04A9
FAEC
003D
0109
FE61
FDA3
064E
03A6
03C9
FDF9
FBF2
0249
03CA
0323
0264
047C
01DE
063E
051B
FEA4
FBD8
02DE
0010
0456
01C2
FE64
FCB3
021A
FBC1
05FC
FE81
0434
FC23
FF43
FF42
0744
FFB5
0760
FF1F
0380
FAD6
079E
FDFA
0564
03C9
F5D2
061C
035C
0055
F9E1
01E6
05F6
FC1F
F7B4
03E8
024D
F995
FF9D
F8C0
03D4
0245
FD81
FB1D
02B1
0148
FAB1
01FF
FA9A
FF31
02EB
FD4D
FB04
0410
FD44
FB23
FC03
FC95
F678
0271
0170
005B
057F
00EC
FD3D
0065
02DB
F8D5
00DE
FF67
FC36
F7FB
FC4C
021C
05AA
0122
0435
0629
FC98
08A6
060B
03CD
FE9B
002D
0401
FA92
FA8F
0068
0552
F8A4
01B7
FE25
FF34
00F1
0032
0326
F757
FC39
FDCC
01AB
0186
04A5
FCCB
0051
03A8
FB91
FB2A
FE02
F87E
FF95
0401
0574
FD95
003E
FD41
02CA
032A
0101
04DF
0207
FC4F
0657
FF9A
0605
FF55
07FA
02B4
00DF
0933
FFAB
0452
FE96
0064
FDD3
071F
FA2A
FE33
FE38
022D
0055
0A88
0109
02C9
FF20
0103
FF3C
FF4E
FC8B
FC99
FFE0
FFFB
0183
FEE8
02BA
0512
FD7E
F9E2
FB9F
0231
F81D
FC73
FDFE
0395
FE3B
FC07
FE8E
FF60
FF25
FE3E
0384
03AD
FD5C
00D0
FDD4
03AA
0723
FF89
FCB6
FBCF
FC56
0087
02A3
FD69
FD4D
FEB4
FA8D
05E3
048D
FE17
F970
04A7
FF8B
04F8
00C6
033C
FAA3
F97F
0402
044C
02E5
FAC8
FFE1
F581
FCBD
FE04
FEC5
00A7
0065
FF08
FA32
01B6
FC51
05FE
FA27
FA05
0048
FE29
02BB
0020
024F
03B4
FDBE
FF33
0797
FCB1
FF3B
0175
02D1
091C
FF92
029B
0093
00E6
FF39
01E4
0176
03FE
FD76
03C1
03EB
04F4
FE72
0865
0225
071E
FDDB
00A5
FB61
F828
0101
FEB5
0322
00D9
FAB4
FEBC
F200
02A0
F8FB
02CE
0036
FCA4
FD04
FCDE
FA7C
0116
FDA6
F947
FC8B
0850
0777
FCB5
FB32
017F
04C3
0133
FB63
FD2B
FE49
F762
00A4
F901
FB9D
FAC0
FDB1
FA30
028A
0462
012C
0297
01BD
F90C
0659
0372
FE0E
F6FA
FC19
FEBF
03D1
0057
FEDB
0229
FFB7
0326
FBDB
03CD
FF12
06B6
0600
0108
0010
0792
09C7
00BB
0480
FDAF
FD49
0215
FC7A
FFE4
FD3D
FFDF
06CC
FC2A
03DE
02A2
F7A3
00D0
FF96
FDBE
FE94
024A
06C9
07C2
FC36
F693
FCE2
0133
FD81
FBAC
04E2
FF98
FE7A
FE1D
0A28
FEC0
0022
FFCF
FC0C
FF33
04A5
FC88
0346
055B
00B2
0519
FCCC
0788
028A
FC4B
025D
0020
018D
016E
FBF1
0433
00FC
FE64
FE90
FD51
0729
FF92
0003
F41E
00B2
0502
FDC6
0450
FC6E
0176
01D6
FF89
FD08
042B
0161
0432
06F7
F6D8
0389
FFF4
029E
062F
F777
03E8
F8C6
FB5F
017C
FC29
01A6
FA45
FC3F
FBA9
031D
FC2E
FD23
0742
031D
FFE0
FAE9
05F3
FE2F
08BA
05A3
FB05
0062
FEE1
F96F
F633
F798
F992
01DE
00BB
FB83
FD2A
00C8
FCBD
FD59
FACE
FE2B
F95C
FEA8
032B
0195
0763
FE89
0474
0906
FBFC
0309
0499
02A6
0368
0243
08FB
FB7F
FFA6
FD1D
01CE
0365
04A2
FF56
0381
071F
0618
FDD7
FA5D
FF90
0182
FEEB
FBE4
016D
0577
00DD
0125
FE6F
005D
0586
FEC0
0227
036B
0357
0639
00D5
FFC7
0121
FE50
FEF1
FF7D
F943
0678
FDDE
0134
0099
02BC
FDF7
FCC5
FB69
0411
05BE
FE77
F9B4
FF36
0725
F8CE
F62E
021A
0021
FD65
FDBC
00E0
FCAB
01C7
0373
0315
FA1F
FEE8
0253
F9A6
086B
FFDC
008B
07FB
01ED
0426
FBCA
0167
0A1A
FBFC
FB55
02AD
0023
027A
FC2D
FB95
0037
F925
04CE
F766
FA79
F479
0449
FF52
FFAA
FDDD
FCB8
0363
FA9C
FFD7
0233
08C3
01F7
00BA
068B
FD7F
FD75
FCF9
02A9
06E7
0421
016A
FA9C
02F7
FFF9
052F
021A
FC9F
FBD3
FAA6
FDF5
F9BC
0286
0127
F9F9
FE87
038D
0587
FF5B
00DC
0BAD
F847
013C
009D
FADB
FCEB
0091
03B2
0224
02B7
FE65
0272
02A2
03BA
FC93
0788
012C
FD6A
FBC4
FEF8
00EF
0088
0155
03A5
FFD8
02EC
064B
0378
00FE
07CB
0023
030D
01C8
FE61
FF36
0270
FEE9
FEAB
FE22
029C
FB5F
02FA
FDBA
FDCB
0173
FBF5
0412
05B6
0333
FE74
0434
FFCE
0032
FB15
F8B9
FDA2
FA3D
FE2D
FB37
040A
FE8E
FD18
FABB
FE46
F75F
01A4
00FE
FC18
FEDD
F816
00E3
0117
FADD
FC91
02B3
0307
05FE
0936
0250
FC2C
02A6
FF64
02BB
FBFB
0964
029C
049E
0031
04C8
001A
FDB2
FDDC
0002
FCAD
F94C
FDEA
FEF0
FCF1
FA73
FC49
013F
FCC3
003A
03CE
0235
FD94
FB90
0047
FDF3
01FC
FCD3
FC75
FEC6
FC90
03A3
019D
05F7
FF58
FCE1
FB4D
FDFA
0127
003F
FF91
FECD
FEB4
0470
0305
FB20
FF9E
0169
047F
FC14
FF76
0313
06F8
FFC9
0047
0424
03B4
FE7B
FF70
001B
F7E0
FE4E
01DD
FD3F
F9DC
02C6
096C
042D
02AE
071B
FDF7
0175
FE2C
0442
FCE8
0073
FF24
FBC0
FD20
FFCC
F73C
FCCD
01DF
0133
0E74
01C5
04B1
0100
02AE
FFE2
0120
01EC
FC73
0145
010F
FBEB
F88E
021B
FF79
0435
05B2
09BC
FB19
FA32
059B
FDF3
0065
FBE4
001C
0076
04B8
FAE7
012E
FF0A
F720
0295
FE59
FE1A
023F
01C0
0362
FD28
F8AD
FAE9
0499
06B7
FBA2
0536
FF4D
00F1
031E
03D2
03CC
0159
FB99
024F
031C
02F2
02DE
0084
006E
01D3
FE0A
FF15
0241
080B
FF39
0174
0350
F839
00A9
0652
0058
02C4
FF17
0386
FECF
0097
FA5D
FD89
039C
05DA
032A
00D9
FFB2
FF2C
FB2B
FAE8
FAE6
FC7F
FF45
FC0A
00F5
0021
FAEC
F929
FD88
02CE
FA74
00AD
FFA1
FE66
FF0B
FF0C
FD91
012F
FD13
FA98
FF87
0444
0251
0BD9
06E2
049C
00CF
FB3D
0414
FC2F
0422
FDAA
F977
F8BF
FF41
05D4
FEA1
0299
0055
0224
016A
FDCE
FD5A
06D3
FF82
03F1
FDFD
FEC8
F8A5
F763
0196
FF53
0422
0482
02F3
FBB2
FDFE
00C9
FB84
FDCE
0028
016F
0352
045F
FEA4
0639
0700
08E7
02FE
FF0E
FA95
007F
FD66
051D
FF66
FE33
FAF4
03C8
0163
FAAF
FB03
FF1E
FB50
01EA
FE3B
00FB
FB95
FABC
012F
0571
03BB
04C1
FE18
0492
0467
FE4D
031D
07AC
007F
0488
01D0
0574
FD62
029A
0254
FE4F
FD4C
018C
FD3D
0DF4
FFE5
0081
05B9
FD37
FBD4
FDE4
0205
05A1
029D
0542
0499
FABD
FF6C
01F0
FA2E
0317
03A0
FE0C
0333
039E
FE3F
0320
01D8
0347
FFB6
FB5E
0591
003A
FA45
FE6E
FBF2
FDF1
FB62
037F
F7F3
FBC6
F932
F9D5
FFA0
FA3A
01F9
FF16
06C9
04D2
FB04
0230
0436
01F8
FB64
FF94
FCA9
FE68
069C
FA72
FE37
FB01
FBE2
0393
FE92
0115
072D
FF1E
0391
FB19
FDC0
FD47
00C6
0978
F9FF
FCE9
FF91
0170
FE9B
050C
F54F
0213
FED6
07CC
0098
032A
FFF3
0271
04F6
019F
049E
FF0D
016B
00D5
FD56
FF70
FE2B
0316
FF61
0488
FC3D
FE5B
01CC
FDF5
014A
01A6
0286
FBB1
01FA
006D
0703
FF8E
01B3
08B4
F916
02FB
FB18
FB08
013C
FCA5
01B6
0FE6
03A1
FF80
F90F
0880
FE7C
03D4
F8AF
FEA5
FD10
FF12
0169
000E
FB38
FAED
0223
FECF
FE85
03E5
013D
FB04
0041
018C
0320
FF22
0145
0291
0373
FBF8
027E
FE8C
FBDB
095E
FD04
FE2E
FA10
F971
FA10
004E
02AE
FFEA
0108
055A
FC56
FF8D
01E7
0320
FBBC
0188
051C
FD43
00DD
F946
FCAF
0237
FFFA
0240
0083
FDFB
0359
FD38
05EB
0044
041F
0512
FADD
FF99
01B4
0183
014B
02BD
0A52
00D1
08FF
FC9D
FE8E
FE19
FC83
FDE0
FE7A
01B8
FF25
01C2
FFB4
026E
04A0
FFB3
0052
020C
00F7
FB51
0423
FBAF
F6AD
042D
02C3
0507
01FD
082F
FF0A
F94C
0318
05A4
0254
014B
0479
FE46
FFA9
0470
FE18
FB05
FECD
FE42
FE06
01B9
FB07
FECC
FEE3
010D
F98E
021E
FCEF
038E
0412
0208
FB93
FA0D
FB6B
F8FB
07D9
00DA
0420
FEDA
FBD1
02B7
0780
0168
FE8C
F891
FA59
FFAF
FFF1
F563
00A0
FD2D
FD85
05FB
FEA4
FE7B
0117
05AD
FE1A
0291
0319
0115
FFE8
0650
03BD
FDBE
0102
FD82
00B5
F878
FC75
FD72
01E3
00E3
FC15
06EF
0568
FFF1
FAA2
FD67
0188
013B
00D6
0167
00D1
0001
FBC6
02F5
0522
093C
FB4A
062C
F846
FE8E
0246
FCC8
0153
05D4
021E
FA07
FCB2
014D
0388
FED7
FCE0
0487
FC80
F8B4
04D4
FC4E
02C7
FE52
F8D4
FDC4
0016
03F5
FF14
FBCF
0200
09C1
0329
0389
016A
04E6
FE2F
FDA3
04D3
0211
05C1
034B
FD3B
034E
FD68
FA78
FEC6
02F8
F680
FD26
0197
FABB
057F
01E1
FE2B
027B
01D7
0246
0129
03D4
FF08
025D
FDBD
FEB5
FBDF
011A
008F
049D
FD43
009A
FFBB
025E
009F
01D0
0613
FC28
0078
FD83
07EA
FBF4
FCBE
FAB2
036A
FCFE
019F
00D2
F91B
039C
0A36
FFBD
FE49
F73F
FCA1
FDA3
035F
FFA1
FFF7
FE19
FC9A
FAF1
F9FE
FD5B
0771
FEBC
034D
FFC8
F9C1
FD71
0820
0369
00BA
FD39
0571
FF80
F98A
FFF2
030A
FE18
0206
0390
0109
0046
04B3
016B
F6F8
00D8
FED8
07F0
FCB7
0185
010F
FE9D
FD17
F828
0082
0499
0167
07DA
FC10
FF19
FFC5
02FC
FF18
FE97
013F
FD5F
FB2A
03F1
FE98
FE91
FB37
FF60
0443
FC2E
FBE8
0214
FCCA
FF71
049B
FB57
FED9
0117
FE3A
04C9
FE90
FA25
FE75
0269
FFA0
0278
0547
05BB
F569
0211
FF3C
FF74
FD1C
FE99
FD8D
F957
029C
04F7
F53B
0224
061F
F8BA
FC50
0168
F90B
FE56
07F3
FC0B
038C
017A
FA15
FAF7
0222
01F7
FF10
FEDB
01E0
050E
FF24
029D
FB21
07C7
03C1
052E
0156
021C
035A
0102
FE37
002A
01A9
0406
FBE3
0474
FDD8
FF6F
FE1E
02B3
FFFB
FF10
FF2A
FD56
02AB
042C
F62E
0322
FFD1
FE69
00FD
0240
040B
0216
FECF
00E8
0630
FB39
00BE
FFE3
FE98
0383
005D
03E2
FF53
00B4
F751
FF50
01B4
FDE9
0504
FFFD
F345
FBFA
0535
FF59
00D7
0413
FC69
0033
0108
FAD4
FB04
0456
03DB
FE05
0450
F7A2
0059
03E0
0742
FCDC
0326
FFFC
FB74
01F0
FE17
FE9A
063F
05C8
04FB
FB1B
FFAD
FFAA
FDC7
FE15
FF8F
FBFB
FC2C
025F
FEC9
FAE4
FF5E
FC68
01A3
FC8C
019C
F7C5
065C
FBE0
FB85
024E
FF84
0300
0228
0277
0182
08E5
064C
FBDB
014A
FF29
FBDE
FF92
FDC4
FFC7
FAD3
041F
0247
0086
FF28
009B
03A6
0121
FCE3
013A
FD09
022E
FF8A
FB3A
0414
0401
004A
0027
00BB
02B6
FC27
00E6
0028
FB74
FBBF
0396
FAAD
FE2F
00A3
03A3
FF99
01B3
FEAF
01F0
05D5
05C3
03BB
FEF3
FD6E
0204
016B
02C9
03D2
FD0A
FC67
01F1
01CD
FD84
F537
FCB7
FE79
FE05
FF74
FA09
FEE8
035B
054F
0B72
064A
FF27
0348
01A1
FEC5
F942
0248
FDC4
01EA
FCD6
062B
0642
05C2
02A7
F9F5
001F
FE8E
FD6D
FD11
FFB8
FA05
FFEA
FF0F
0150
F801
FC78
FCE7
02BA
02EB
0456
02CF
F9D9
01A0
00D1
0351
0208
00E8
FC5E
FC9F
FD2F
01BA
FD66
03A7
009C
FE9D
FFB6
FF28
08F3
0419
088A
0567
04FB
FEC5
FFAD
01CF
005B
05F9
0A7B
0240
0878
F85D
030E
FE10
F7D2
0559
005A
0429
0228
FC32
0851
FF81
01B5
0007
FCD3
06F6
08F4
FF18
FE03
017B
0455
0313
FBAA
0456
FE2D
04B7
FF2F
FD25
FCE0
F885
0510
0262
FF23
01B8
FDA5
05B3
014A
05A3
FEBA
FB8D
FB3D
04C1
04FA
FF4A
0887
04B3
FCF2
068D
FEEE
FD93
0085
FEF4
FEAA
FEF3
006D
073B
FC79
FE87
FF25
FFC8
067C
FF96
FF0E
056F
066D
F6CC
02FF
01CD
06BB
FFEE
F7EA
FBB9
FDDE
03AC
004E
02B7
FB44
005E
0053
FF0F
FCE5
002F
F6CC
FDDB
00A4
03F7
021D
0179
FD67
07E3
FE2E
FDF3
032B
FCAD
02D6
FB79
FB4F
00AC
01F4
02ED
0529
FD51
031C
FD9C
038D
03A9
0289
FEA1
0454
FC7F
0360
FFCB
02AC
FFE5
010A
0012
FFCF
FFF3
0166
053A
030D
FF15
00B6
003E
FCE7
027B
00DD
FCFB
040E
00C3
024D
FD57
FCC1
FBA8
FD65
FFD9
015C
FF31
FDC0
FBEE
FF96
092F
012E
FBCD
F9E5
FA7F
F9B8
0A96
FFC8
0437
00AC
F9BD
FFF0
FF41
0367
FB81
FF69
023E
FC0E
00D3
FF8D
027B
FE4F
00AC
FF08
03A0
00DA
FE54
04CA
FE3E
F99E
052D
FE7F
0CA7
0088
0296
051B
FB27
037A
FBCF
FBE1
011B
028D
FBF7
03A8
F996
07B2
041D
012E
FDE2
FBA6
0167
FF38
FF18
0D9A
FD2F
FE61
0068
F69D
04E0
FFF3
03CF
FEB2
065E
FE84
FD8F
FFF2
FB98
FFB5
FFD7
03C0
F7F8
FFE3
00AD
F950
00E5
0133
FA0E
FEC0
FC85
0442
FA72
F94B
FF10
FE97
01D8
05F2
0411
FAAF
0149
FE32
FF28
FB09
FE4C
00EB
0097
FF30
FADC
FE7C
F980
FD83
F70C
07BF
018A
009B
030D
FFB2
03D7
FFCA
FF60
01D6
F883
FCD3
F8A8
FB47
0B2D
FEAA
02B9
007B
0121
02D8
FFC5
FF35
0403
FEE9
FDAF
06C4
FBA1
0090
0148
F9C3
073A
FA58
01B1
FEA5
FD4B
0098
FB63
FC76
FDC4
02D6
F90A
F94A
FB47
045D
FE1E
FFB5
FCFF
FE94
FD7F
0076
FCDE
001C
02CD
FC57
FA12
01F6
FFC9
0702
0330
FE7B
F9BE
04E5
009C
029F
FE4B
F938
FBB5
FF3B
FC8C
FD43
054A
FF24
0159
07C7
04A5
01D1
F9EB
FB3B
FFD9
012F
FC4B
007D
00E1
02CF
FF13
FD18
FC22
FE5F
007E
FB4B
0063
0AE1
0258
FBDD
FD53
0099
FB0B
F8B1
009A
005A
0575
FC1E
F75D
F9B2
045E
0860
FF95
0196
FF4D
0111
01FF
FC08
FC90
00BC
0094
FBAE
F8FF
FF62
024C
05D7
FFEE
FFBA
FBC7
FA78
FBA2
05DC
01CB
FF57
F985
FA61
095D
0049
018D
0133
0499
0339
0112
FC69
08D4
005A
FD51
0085
035A
FF0A
FEAB
04BD
012E
029D
003F
FD9E
0203
047A
FE26
FF7E
FA52
FE5B
FCC7
FE54
03B9
FD06
FC59
FE7D
06A9
FFAD
0250
04EC
0473
01BD
FD4C
0373
FA0F
031F
FF40
0A78
FB38
0377
0024
0473
0309
03AF
FD57
FC55
002A
F990
FEA8
01DE
FDB1
FD08
01E4
FED3
FE77
036B
FE14
06B3
0400
FF3A
FD14
FE76
00B8
FCA4
066C
0174
010E
F73A
015B
FAA4
FE4B
FB3B
06F6
FFFE
FF19
FD61
FF3B
FD35
06E9
066D
FE4F
0170
FDB7
0405
015A
006B
06D4
002B
038B
FE2C
FFCD
069E
FD85
FEBC
FBFB
FEFD
09AA
0216
FE61
FDBB
F4BC
FEC9
0138
FC25
0A2B
03AE
0114
FF97
05C4
04A2
FA08
FCB5
FB6A
FF62
025E
0112
0194
FEE0
0557
062D
F734
F8B0
0004
03AC
004B
F958
03C7
FCF1
03BA
0121
0089
0172
FB5E
017A
04C6
FF7D
FA92
FE5D
FE6B
FB81
0150
FD47
F83D
FD01
0704
FD55
FE06
FA1E
FF7F
02D1
0276
FCD4
000E
0312
04C1
FF87
08C6
0019
FF3D
0394
0968
0251
0108
0419
FAF9
F758
FF92
04F6
0796
0333
F9E8
F7FC
0373
FF5A
FFDC
0219
02C8
FBD7
FF8B
00FB
04B3
FEB7
065F
0779
FD0C
FEFB
FD4E
F728
005B
FD60
FC4F
04B2
FFFC
0082
0126
FF24
03E6
014C
FF06
033A
FBAE
FB62
F942
FB39
FF1F
0070
FF86
FB4D
00B0
0364
FCCC
0296
0184
FBD1
FB83
0341
02BA
0200
FBC0
0362
0546
06C8
FCEA
0250
FEA9
003E
02C4
FAF6
0261
FF73
F869
F97F
013A
FBD4
FDFD
FFEB
FB35
00D8
FFB6
FDA8
0005
0158
FF0F
FFA7
FEBB
FF0E
0062
05AE
F8D4
01EF
0112
F91C
FFF5
0280
FDA6
FDAF
0301
048C
0197
FFC1
040E
FCBE
08CD
FDA6
FD50
F8EB
0384
0073
00EF
FE20
FDEE
0620
0238
FF65
02EE
02E3
0019
00E0
0007
FC4E
FE86
FD93
05C3
FFE8
02C4
F990
FA9D
04FC
FAEE
0382
0317
04C6
0099
FF52
01DC
FB95
FEE7
FD77
0197
0426
FC8C
0481
0183
FD03
FEAD
0C17
FC3E
FF83
0135
029C
041C
FE7C
066B
01DA
FF95
03F7
F2EA
FF0E
00ED
FADA
074E
FEBB
FD74
F808
0672
FDD2
F6E5
036A
0251
0479
FFFA
F83A
0AA1
0608
0202
013A
02D5
02F9
FE65
03D4
FC3D
FB92
FF8E
01A8
0007
FE87
FD56
FD78
012A
F8E7
0200
FD65
0554
FFFD
FC60
FF4A
04F6
0721
0074
FFDF
0024
016F
0457
0272
04E0
02CD
FFB8
0090
FB2C
04A8
FD66
FDD6
FD93
0146
FDCB
056B
FF46
0339
FEE5
FC19
070D
FD5C
FFB7
027A
0559
0436
FBBB
042F
FB5B
0450
0423
0473
F8B7
F8E2
FF24
017F
0204
01AA
FE01
02AF
0172
FCAE
F9BA
FB23
00FA
07A4
00E8
020F
012D
0111
F9D9
00C6
FDB3
03BA
FEE4
0275
0407
FE0D
FC9E
0213
F9F9
FC7F
FEBC
FA1A
0135
0521
021F
FCD0
FF90
040B
FA9A
FE41
05D1
0126
0788
FCF8
F93F
FDFA
FD41
F9DC
FC3B
FC3A
0300
0351
013B
00A3
01A2
F8D7
FE8B
FE31
FFA6
FBAA
FEA2
FF0B
048D
076D
0074
008B
FDCB
F6C6
0822
FCD7
FAF2
FC10
04DA
FFF5
0374
FAC0
FC8A
0964
05E0
025B
FF78
FF1F
00D1
0465
FF2E
021E
004F
0321
FB21
040A
035A
FDE2
FC74
0228
FA28
FB83
03AC
F9C8
FC6F
0050
FFAF
004D
0267
FACA
FE90
F90B
FC80
02A6
FBE0
0187
0312
01BC
03E4
FFFC
FBE4
037F
F813
0051
F9A8
005B
027D
00C4
FD0A
FBEA
FDD5
0012
0205
05DC
034A
FB31
F914
FB49
02DB
0286
01C2
038C
03B5
FDA3
0040
FD4E
0670
FCBF
06F3
FA23
054F
FD68
08A6
0083
015F
019F
FF0E
0058
FCE8
0236
FA70
FD7B
FD91
028F
FF3C
01F8
0290
FF33
FAF9
0117
0550
0268
0305
FE97
01F1
FC32
F90D
0405
FBA3
0173
FF28
029F
FD47
01E8
086F
FF89
037D
01DE
05FD
0203
068B
005F
020F
012D
FC28
F86C
012F
FD33
0136
FE28
026B
0802
0754
FC0A
F863
FEC6
0230
0056
FE06
F7AD
FE98
012C
FA69
071A
00D4
037F
0547
00FE
0638
0676
0273
072A
F68E
0095
03AD
0273
FEDE
0922
0346
FDC1
00B6
FB88
F844
0054
F9B1
000F
0297
FCF8
FE5C
FD07
FD47
007F
FA48
03F9
0577
02A4
FF3F
04B7
FAE8
FF48
03E2
031D
07DF
0011
FABD
F9C4
FFC8
FF45
FB5D
0415
0167
0296
F891
062E
03F2
0758
FE9C
FD38
F433
0074
F76F
06C0
026D
FEB9
FB52
0371
FF61
FEEB
01AE
0287
FD6A
FE3C
F98F
0073
F936
03C3
FE99
0657
FCB0
0127
026F
FE89
FAD2
FF23
0418
076C
FC8B
FB73
0150
FFEC
FE76
FDB6
0317
FF73
F76A
058A
FB7B
00CF
004C
0235
F554
FEA2
FD07
03BF
0076
FA01
FF91
00C7
FD7C
0472
FFAE
08F0
00C4
FAC7
FE39
F841
0055
056A
017C
FBBB
003E
F614
0128
042B
FF2F
FDC6
0262
FE25
020A
0090
0855
01DB
FD6A
FD13
0075
FD32
F6F9
FC62
FF97
F894
FBCE
024B
FFB0
F645
03A0
037C
0103
FF33
FA84
0032
00AA
0194
081A
FA55
0267
0237
FAA2
02E4
FE90
FD55
FA94
01C6
FCAA
0415
044C
0025
FE90
FBBF
FB0B
028F
0738
024E
0295
FD82
0181
FE55
FD9B
048E
00C0
FD69
0486
FF4A
FE47
0163
010E
FBC2
036B
0203
006A
FB28
0217
FB8B
042F
03A6
0404
0149
0019
FE13
00E2
0388
0876
02AE
F9F5
FDE1
0314
FEED
FB13
FA69
F9D7
079D
0B69
08C4
FCCA
03A9
FD67
FC55
04C8
0068
0754
03E0
005B
F7C3
0439
06B4
FE4F
05C2
0095
FA35
04BB
02E4
FE28
FF57
FD1F
012F
06F4
FEF3
068A
0574
FE01
05CF
FE93
04D6
FD72
015E
0002
0747
001A
02C7
FC4F
FFDB
F8FF
0395
02C4
0261
024E
0176
03EE
FEE9
FF62
FC9C
073B
FBA3
02C4
FA1C
F70C
FE33
0017
0347
0204
FC45
0014
FEDC
FC35
01CF
FA4F
0351
FAA0
FE2A
00AE
FA3E
FFF7
FC51
0623
00D4
FF7F
0557
FFDE
0626
FB1C
FA9B
FC40
017B
FA42
FEDA
FB67
FD1E
0487
015D
00FC
01D8
03A3
FBB6
06EC
0117
FF4A
032F
037B
013B
0442
03AB
FEB5
FCA5
F6E8
04AA
0506
FC2B
FC72
FDDE
FE61
00E8
FC58
0261
FC91
03E7
FE47
0293
02CE
0288
0249
00C9
FE82
FCDD
FAC7
FC70
FEE3
0480
00C7
05B6
003F
FE23
FC4A
03BB
FB42
FFAB
FD52
0394
011C
FDC9
F44A
FF60
FD69
0126
01B7
00ED
08CC
FAD1
043B
FB89
FC98
02D0
FE4C
FF77
0238
FFB0
0283
02C3
FF8A
FC6E
0485
FE29
0206
FB71
FD37
0096
0029
FD24
016E
0672
FFA7
F7F8
0588
FF8B
0131
FC4B
0295
FCB4
FD74
FC75
FFA4
FAE5
010D
F932
01E7
FFFC
075B
FE36
02C9
06F7
0061
FB76
0087
F653
083E
FFE3
FE3A
0314
02E2
02DC
0426
FF84
FAC3
FD86
FE16
FD72
FC72
0321
FC04
FB02
FFDE
FED2
05CD
FAD1
03FA
FC5F
02DB
00F1
0C4D
FA90
0034
FBBC
03A1
FE2A
0302
FB7F
FDC6
FD48
069C
FC0C
0034
FDC6
0ACF
FD0E
FDDC
00E2
0303
0839
FC4F
00A9
0265
FE12
0241
0180
0017
05CA
FA5B
00C0
F65A
FD71
0222
0422
FD98
FFE7
0518
03F3
FC09
FF0B
0176
04F4
0887
02F0
FDDD
005C
FF69
059C
FEDB
FB69
F59B
FE6C
FD51
0642
0007
FDEB
04B5
FF00
0572
02E4
F8EA
0554
FE5E
FF93
FF5C
FEDD
FD34
F843
FF23
FCB8
04C0
F79D
0206
01DC
0501
FB96
0352
FA01
FF8B
01C2
04AC
FDF4
02A5
F9CB
0507
0682
F90F
FB4F
041C
FFC5
027C
FF94
0365
064A
FF7C
08BE
FD39
FC46
030E
FF93
FA36
FDF5
FF67
009E
05DD
FBB3
F929
FB4C
00C0
FFFA
07AE
0067
0E68
FF26
FAC9
FD57
038D
01CE
F7D3
0483
02B2
FD06
0170
01CB
FEF6
0449
FBA4
004E
FEC8
0760
05EF
07E7
FE35
FA69
014E
FB33
00CD
03D4
FA91
00E0
FC8D
037A
04AD
07AD
043D
04C5
054F
0489
FAF0
FEED
00F8
FD1E
FF59
0157
FBC1
FF5C
FCA5
F9AC
FF01
FF31
FC50
004E
0287
040A
068B
03DC
0383
0166
FF40
0196
FEEE
0422
FAC9
FB48
FDA1
01E2
01A0
FF8F
0705
06F9
FD9D
FB3B
FA14
FDFA
0305
F6B1
054D
086F
F637
FE62
F9B5
FDC8
0125
FF51
013E
01B4
FC87
009A
0028
0522
FC87
FFF3
FEF6
0171
063A
037E
042F
FA41
FD3A
0142
FF88
FD80
FBB5
04C6
FA03
0159
042C
F89C
0089
F9FD
000B
FC5F
FD25
FE80
FF1B
04D3
FDB5
0058
0483
0922
F79C
01CF
FC89
0668
026A
