FFF9
FFF1
00AB
0026
FFDC
FF57
FF00
FF01
FF1E
FE2B
FF75
FFCF
FEDC
FFE8
0117
FFEE
0020
FE95
0253
012E
008E
000A
FEB0
FFB2
0010
FFDD
FF53
FF68
0091
FFF4
FF0D
0117
FF85
00AB
FFFE
0087
009B
FFB6
012A
006D
0155
0059
FF91
00E5
00FB
0199
00E3
0172
FF98
0034
00AD
0015
FF0B
0036
FFBB
FED5
FFD4
00AE
00E8
FF74
FF5B
004D
00EA
006C
FEDE
FF7E
FF5B
017A
FF8E
FFF1
018E
018B
0081
0031
0193
002B
FF22
FFE4
FFCF
FED9
FFA1
0087
00DB
FF65
FF7E
002C
FE1E
FFCF
FFE4
0004
0002
FF82
01B3
FFFC
FFE3
0077
FFAE
00DE
FF4F
018C
00C0
FF44
00F4
005E
FFF0
0005
FECE
020F
FF1B
01A1
FEBD
FF6C
00E0
00C3
002B
FFFB
0011
015C
FEF0
FEC8
0048
00F6
0114
FF9B
FE51
02DC
00F2
0041
008A
00BE
FF60
FFAE
0033
0033
FF97
0007
FF7E
002A
0132
016D
FF8E
02AF
FFD7
FFCE
00FB
FF58
0074
FED9
0004
0025
FE46
015B
FFE4
FEE2
FFAA
012A
0017
00C5
00FF
0000
FE23
00CB
FE48
FFBA
01FF
FEF0
FFD4
FEE9
0239
FF1E
FF5C
FFA9
FFCA
FED9
FF5D
0249
FFF1
0163
FE67
005C
003F
FFF7
FFD9
0199
00F7
FF37
0088
00FA
FF89
01FE
FF97
003E
0146
FFFF
00EF
FFBD
FF85
008D
002C
FF81
FF35
FEAE
010A
0278
0156
FFF4
008E
004C
00CC
0013
FF56
FEE9
FE14
0201
FF80
0103
015F
FE09
FFFB
FFD0
009C
FF8B
0036
FFC5
FF9A
FFDC
FFBB
009D
FFA1
FEF0
FDFD
011F
01DF
FF9B
0395
0015
FF45
004E
00F1
0132
0102
FF0F
FFBF
FFB5
0087
FF9C
FF33
FF08
FF72
FFDD
00E2
017D
001D
00AC
FF92
FEF0
0258
FF89
01C7
FF70
FFD1
0311
0061
0035
00E9
FF55
012B
FFC8
FE93
01E4
FFE8
00B9
FEB7
0048
0176
FFB5
FF66
FFBE
FD42
FEDB
009E
FF5C
FEF3
005C
FF5D
007D
00C5
0017
003D
FF51
02EA
FF42
FF49
0265
FE40
0197
FFAE
FFBD
FEF0
00CC
FED7
0042
00C1
FF20
FDFE
FE6C
0149
00F1
0012
FEA7
FFA3
007D
FFE6
FF57
FFE4
FF1A
0020
00D8
FE91
0047
0134
002C
00CD
FF80
FFA2
004A
0007
00A5
01AC
02F7
0183
FE7C
FE7D
02A8
00B2
FFA7
0085
FF6D
0030
FFF6
0082
0269
009C
FF77
0017
0023
0116
00C0
FF8E
FDE4
00E3
FE6F
FF18
00CC
FF2A
004D
004A
0038
0087
00B3
0056
FFD1
FFF5
0033
FF60
003F
014D
FE73
011A
FFB0
001E
00DE
00FD
01DF
00C9
006F
FF9F
0039
FFC2
01D5
FEE8
FFEB
0124
005D
FFB4
FF7D
0031
FFDD
FF2D
0032
0052
0057
006D
0092
FF65
00AF
FF7F
007B
FEF2
FEE0
FF47
00DD
FFA6
FE88
0046
00A1
FF73
FF17
FFB0
FF1E
FF19
0198
FFBC
FEAA
FFA0
005C
FDE4
015A
01F4
FFF9
0330
FFEB
0004
0047
0027
0091
0020
FFCC
010D
004F
015C
FF1F
FF6E
FE3E
00C9
FF26
0044
FFA1
009F
FCFF
0135
00C5
FDD5
0112
FFF0
FE6F
FF82
0062
00AF
0055
FF70
FFD7
FE4C
FF16
0177
FFF6
0036
FFB6
FF78
FF74
0041
FF78
FFBD
017D
01F8
0012
0086
02C8
FF59
008F
0028
013D
FF4F
0076
00C0
00AC
011A
00C4
FED2
FFC7
0006
FEF9
FEEB
0098
FF41
00CE
0129
FFEA
00A5
004A
0000
0221
FFD5
FF4A
009F
FFE5
010F
FEFA
001C
01B8
0089
FF07
FF85
FFFB
FEE0
00D5
FF6E
FF5D
0186
002C
FFD6
007A
FF31
008B
007E
FF3F
00C4
007C
000F
00DE
FF46
0014
FF43
FEA7
00FC
01E4
01F6
00E7
005D
FFA6
FF07
FF98
005F
FF32
016C
FE0E
0038
0074
FEEF
0049
00D8
0212
0129
FF8F
FF02
0021
FED3
FF3E
014A
020C
004E
FF9E
025B
015D
FF82
FEEE
014A
FFF3
00C7
FEDE
0160
FF81
01AA
005A
00F6
FFCA
01CD
FEF7
FE91
FEC6
00E9
FF3C
001F
FF91
0133
FE47
FED9
FF42
FFC6
006A
FF77
00A3
FE14
0244
FDC3
FFC2
FF7F
0061
FFC1
0140
01DA
FF55
0210
0066
FFFD
01B2
006D
00E1
FEC8
0172
FE2C
01F1
0184
FDA3
0135
012F
FF64
FEC3
00D0
FFD5
012D
019F
FF36
01C0
0067
002C
FFF8
FFB7
00C0
00AC
FF60
FF2B
FF4F
FF7F
00C0
FF5F
0120
FF61
FDB8
01AA
FFD2
FFCC
0188
00EB
FE0C
00EF
FF3F
FF56
0145
FE2D
FF0D
FFE0
0170
FF41
00AC
0040
FEEB
FEB9
00BE
0264
FEE4
01EA
FEAE
004C
003F
016B
FF4E
FF9C
013D
FE2B
0035
00B7
FFD9
00BD
FE7E
009A
0209
0100
FF89
FEB4
0000
0108
0004
00DE
00B6
0103
FF73
FF1A
00C5
FFEA
02B7
00BD
FF64
017C
FED6
014D
00A2
0038
FE60
FFB2
00BF
FF70
FFBB
0092
004F
FE71
FEFF
0046
FF95
FF99
00B1
00EF
FD3D
0019
0082
FFC3
0044
00DB
FEEB
FD2D
FF4A
FEB0
FFF0
FF57
FF5F
01EB
FF35
009A
FF84
00C0
0020
00AB
005C
FFCD
002E
FF98
FF31
FD3E
FD7A
009F
FFC1
018E
FF6B
0122
00A6
FF95
0066
008D
004D
FF0F
FFB1
FEB7
00A7
FF2C
FE10
0033
010F
FDFF
0043
0074
007F
0034
FF3F
FFBA
0001
0194
FFFD
FE46
FF44
FF1F
FF38
FFA4
FF3A
FF73
0014
FFC8
FE97
FE2C
FE47
FF47
FE5D
FF1C
FF46
FF84
004F
012D
0180
001B
FFCF
01DB
FFD0
0072
000D
FFBB
012A
FEBB
000F
0042
FF98
FF69
0194
00EA
00F2
FF7E
FEFD
0092
00F3
00C9
0099
011F
0077
018F
0147
FFA9
FEF6
00B7
0004
0116
0071
FF99
FF2D
0086
FEF0
017F
FFA0
010D
FF09
FFD1
FFD1
01D1
FFED
01D8
FFC8
00E0
FEB6
01E8
FF7F
0159
00F2
FD75
0187
00D7
0015
FE78
0079
017D
FF08
FDED
00FA
0093
FE65
FFE7
FE30
00F5
0091
FF60
FEC7
00AC
0052
FEAC
0080
FEA7
FFCC
00BB
FF53
FEC1
0104
FF51
FEC9
FF01
FF25
FD9E
009C
005C
0017
0160
003B
FF4F
0019
00B7
FE35
0037
FFDA
FF0D
FDFF
FF13
0087
016B
0048
010D
018A
FF26
0229
0183
00F3
FFA7
000B
0100
FEA5
FEA4
001A
0155
FE29
006E
FF89
FFCD
003C
000D
00C9
FDD6
FF0E
FF73
006B
0061
0129
FF33
0014
00EA
FEE4
FECB
FF80
FE20
FFE5
0100
015D
FF65
000F
FF50
00B3
00CB
0040
0138
0082
FF14
0196
FFE6
0181
FFD5
01FF
00AD
0038
024D
FFEB
0114
FFA5
0019
FF75
01C8
FE8A
FF8D
FF8E
008B
0015
02A2
0042
00B2
FFC8
0041
FFCF
FFD3
FF23
FF26
FFF8
FFFF
0061
FFBA
00AE
0144
FF5F
FE79
FEE8
008C
FE07
FF1D
FF7F
00E5
FF8F
FF02
FFA4
FFD8
FFC9
FF8F
00E1
00EB
FF57
0034
FF75
00EB
01C9
FFE2
FF2D
FEF4
FF16
0022
00A9
FF5A
FF53
FFAD
FEA3
0179
0123
FF86
FE5C
012A
FFE3
013E
0031
00CF
FEA9
FE60
0100
0113
00B9
FEB2
FFF8
FD60
FF2F
FF81
FFB1
002A
0019
FFC2
FE8C
006D
FF14
017F
FE8A
FE81
0012
FF8A
00AF
0008
0094
00ED
FF6F
FFCD
01E6
FF2C
FFCF
005D
00B4
0247
FFE4
00A7
0025
003A
FFCE
0079
005D
0100
FF5D
00F0
00FB
013D
FF9C
0219
0089
01C7
FF77
0029
FED8
FE0A
0040
FFAD
00C9
0036
FEAD
FFAF
FC80
00A8
FE3F
00B3
000E
FF29
FF41
FF37
FE9F
0045
FF6A
FE52
FF23
0214
01DE
FF2D
FECC
0060
0131
004D
FED9
FF4B
FF92
FDD8
0029
FE40
FEE7
FEB0
FF6C
FE8C
00A3
0118
004B
00A6
006F
FE43
0196
00DD
FF84
FDBE
FF06
FFB0
00F4
0016
FFB7
008A
FFEE
00C9
FEF7
00F3
FFC4
01AE
0180
0042
0004
01E5
0272
002F
0120
FF6C
FF52
0085
FF1F
FFF9
FF4F
FFF8
01B3
FF0A
00F7
00A9
FDE9
0034
FFE5
FF70
FFA5
0092
01B2
01F0
FF0E
FDA5
FF39
004D
FF60
FEEB
0139
FFE6
FF9E
FF87
028A
FFB0
0008
FFF4
FF03
FFCD
0129
FF22
00D2
0157
002C
0146
FF33
01E2
00A3
FF13
0097
0008
0063
005B
FEFC
010D
003F
FF99
FFA4
FF54
01CA
FFE5
0001
FD08
002D
0140
FF72
0114
FF1C
005D
0076
FFE2
FF42
010B
0058
010D
01BE
FDB6
00E2
FFFD
00A8
018C
FDDE
00FA
FE32
FED8
005F
FF0A
006A
FE91
FF10
FEEA
00C7
FF0C
FF49
01D0
00C7
FFF8
FEBA
017D
FF8C
022E
0169
FEC1
0019
FFB8
FE5C
FD8D
FDE6
FE65
0077
002F
FEE1
FF4B
0032
FF2F
FF56
FEB4
FF8B
FE57
FFAA
00CB
0065
01D9
FFA2
011D
0242
FEFF
00C2
0126
00AA
00DA
0091
023F
FEE0
FFE9
FF47
0074
00D9
0129
FFD5
00E0
01C8
0186
FF76
FE97
FFE4
0060
FFBB
FEF9
005B
015E
0037
0049
FF9C
0017
0162
FFB0
008A
00DB
00D6
018E
0035
FFF2
0048
FF94
FFBC
FFDF
FE51
019E
FF77
004D
0026
00AF
FF7E
FF31
FEDA
0104
016F
FF9E
FE6D
FFCE
01C9
FE34
FD8B
0086
0008
FF59
FF6F
0038
FF2B
0072
00DD
00C5
FE88
FFBA
0095
FE69
021B
FFF7
0023
01FF
007B
010A
FEF2
005A
0286
FEFF
FED5
00AB
0009
009E
FF0B
FEE5
000E
FE49
0133
FDDA
FE9E
FD1E
0112
FFD4
FFEA
FF77
FF2E
00D9
FEA7
FFF6
008D
0231
007E
002F
01A3
FF60
FF5D
FF3E
00AA
01BA
0108
005A
FEA7
00BE
FFFE
014C
0086
FF28
FEF5
FEAA
FF7D
FE6F
00A1
004A
FE7E
FFA2
00E3
0162
FFD7
0037
02EB
FE12
004F
0027
FEB7
FF3B
0024
00EC
0089
00AE
FF99
009D
00A8
00EE
FF25
01E2
004B
FF5A
FEF1
FFBE
003C
0022
0055
00E9
FFF6
00BB
0193
00DE
0040
01F3
0009
00C3
0072
FF98
FFCE
009C
FFBA
FFAB
FF89
00A7
FED8
00BE
FF6E
FF73
005D
FEFD
0105
016E
00CD
FF9D
010D
FFF4
000D
FEC5
FE2E
FF69
FE8F
FF8B
FECE
0103
FFA3
FF46
FEAF
FF91
FDD8
0069
003F
FF06
FFB7
FE06
0039
0046
FEB7
FF24
00AD
00C2
0180
024E
0094
FF0B
00AA
FFD9
00AF
FEFF
0259
00A7
0127
000C
0132
0007
FF6D
FF77
0001
FF2B
FE53
FF7A
FFBC
FF3C
FE9D
FF12
0050
FF31
000F
00F3
008D
FF65
FEE4
0012
FF7D
007F
FF35
FF1D
FFB2
FF24
00E9
0067
017E
FFD6
FF38
FED3
FF7E
004A
0010
FFE4
FFB3
FFAD
011C
00C1
FEC8
FFE7
005A
0120
FF05
FFDD
00C5
01BE
FFF2
0012
0109
00ED
FF9F
FFDC
0007
FDF8
FF93
0077
FF50
FE77
00B1
025B
010B
00AC
01C7
FF7E
005D
FF8B
0110
FF3A
001D
FFC9
FEF0
FF48
FFF3
FDCF
FF33
0078
004D
039D
0071
012C
0040
00AB
FFF8
0048
007B
FF1D
0051
0044
FEFB
FE23
0087
FFDE
010D
016D
026F
FEC6
FE8C
0167
FF7D
0019
FEF9
0007
001E
012E
FEBA
004C
FFC2
FDC8
00A5
FF96
FF87
0090
0070
00D8
FF4A
FE2B
FEBA
0126
01AE
FEE8
014D
FFD3
003C
00C7
00F5
00F3
0056
FEE6
0094
00C7
00BD
00B7
0021
001B
0075
FF83
FFC5
0090
0203
FFCE
005D
00D4
FE0E
002A
0195
0016
00B1
FFC6
00E2
FFB4
0026
FE97
FF62
00E7
0177
00CA
0036
FFED
FFCB
FECB
FEBA
FEBA
FF20
FFD1
FF03
003D
0008
FEBB
FE4A
FF62
00B3
FE9D
002B
FFE8
FF99
FFC3
FFC3
FF64
004C
FF45
FEA6
FFE2
0111
0094
02F6
01B8
0127
0034
FECF
0105
FF0C
0109
FF6A
FE5E
FE30
FFD0
0175
FFA8
00A6
0015
0089
005A
FF74
FF56
01B5
FFE1
00FC
FF7F
FFB2
FE29
FDD9
0066
FFD5
0108
0120
00BD
FEEC
FF80
0032
FEE1
FF73
000A
005C
00D4
0118
FFA9
018E
01C0
023A
00BF
FFC3
FEA5
0020
FF59
0147
FFDA
FF8D
FEBD
00F2
0059
FEAC
FEC1
FFC8
FED4
007B
FF8F
003F
FEE5
FEAF
004C
015C
00EF
0130
FF86
0124
011A
FF93
00C7
01EB
0020
0122
0074
015D
FF59
00A6
0095
FF94
FF53
0063
FF4F
037D
FFF9
0020
016E
FF4E
FEF5
FF79
0081
0168
00A7
0151
0126
FEAF
FFDB
007C
FE8B
00C6
00E8
FF83
00CD
00E7
FF90
00C8
0076
00D2
FFED
FED7
0164
000E
FE91
FF9C
FEFD
FF7C
FED8
00E0
FDFD
FEF2
FE4D
FE75
FFE8
FE8F
007E
FFC5
01B2
0134
FEC1
008C
010D
007E
FED9
FFE5
FF2A
FF9A
01A7
FE9D
FF8E
FEC0
FEF8
00E5
FFA5
0045
01CB
FFC7
00E4
FEC6
FF70
FF52
0031
025E
FE80
FF3A
FFE4
005C
FFA7
0143
FD54
0085
FFB5
01F3
0026
00CB
FFFD
009C
013E
0068
0128
FFC3
005B
0035
FF56
FFDC
FF8B
00C5
FFD8
0122
FF0F
FF97
0073
FF7D
0052
006A
00A1
FEEC
007F
001B
01C1
FFE4
006D
022D
FE45
00BF
FEC6
FEC2
004F
FF29
006D
03FA
00E8
FFE0
FE44
0220
FF9F
00F5
FE2C
FFA9
FF44
FFC5
005A
0004
FECE
FEBB
0089
FFB4
FFA1
00F9
004F
FEC1
0010
0063
00C8
FFC8
0051
00A4
00DD
FEFE
009F
FFA3
FEF7
0258
FF41
FF8B
FE84
FE5C
FE84
0014
00AC
FFFA
0042
0157
FF15
FFE3
007A
00C8
FEEF
0062
0147
FF51
0037
FE52
FF2C
008E
FFFF
0090
0021
FF7F
00D6
FF4E
017B
0011
0108
0145
FEB7
FFE6
006D
0061
0053
00AF
0294
0034
0240
FF27
FFA4
FF86
FF21
FF78
FF9E
006E
FFC9
0071
FFED
009B
0128
FFED
0014
0083
003E
FED4
0109
FEEC
FDAB
010B
00B1
0142
007F
020C
FFC3
FE53
00C6
0169
0095
0053
011E
FF92
FFEA
011C
FF86
FEC1
FFB3
FF91
FF81
006E
FEC2
FFB3
FFB9
0043
FE63
0088
FF3C
00E3
0104
0082
FEE5
FE83
FEDB
FE3F
01F6
0036
0108
FFB7
FEF4
00AE
01E0
005A
FFA3
FE24
FE96
FFEC
FFFC
FD59
0028
FF4B
FF61
017F
FFA9
FF9F
0046
016B
FF86
00A4
00C6
0045
FFFA
0194
00EF
FF70
0041
FF61
002D
FE1E
FF1D
FF5D
0079
0039
FF05
01BC
015A
FFFC
FEA9
FF5A
0062
004F
0036
005A
0034
0000
FEF2
00BD
0148
024F
FED3
018B
FE12
FFA3
0092
FF32
0055
0175
0087
FE82
FF2D
0053
00E2
FFB6
FF38
0122
FF20
FE2D
0135
FF14
00B2
FF94
FE35
FF71
0005
00FD
FFC5
FEF4
0080
0270
00CA
00E2
005B
0139
FF8C
FF69
0135
0084
0170
00D3
FF4F
00D4
FF5A
FE9E
FFB2
00BE
FDA0
FF4A
0066
FEAF
0160
0078
FF8B
009F
0076
0091
004A
00F5
FFC2
0097
FF6F
FFAD
FEF8
0046
0024
0127
FF51
0027
FFEF
0098
0028
0074
0185
FF0A
001E
FF61
01FA
FEFD
FF2F
FEAC
00DA
FF40
0068
0035
FE47
00E7
028E
FFEF
FF92
FDD0
FF28
FF69
00D8
FFE8
FFFE
FF86
FF26
FEBC
FE80
FF57
01DC
FFAF
00D3
FFF2
FE70
FF5C
0208
00DA
002E
FF4E
015C
FFE0
FE62
FFFD
00C2
FF86
0081
00E4
0042
0011
012D
005B
FDBE
0036
FFB6
01FC
FF2E
0061
0044
FFA7
FF46
FE0A
0020
0126
005A
01F7
FF04
FFC6
FFF1
00BF
FFC6
FFA6
0050
FF58
FECA
00FC
FFA6
FFA4
FECE
FFD8
0111
FF0C
FEFA
0085
FF33
FFDC
0127
FED6
FFB6
0046
FF8F
0132
FFA4
FE89
FF9D
009A
FFE8
009E
0152
016F
FD5A
0084
FFCF
FFDD
FF47
FFA6
FF63
FE56
00A7
013E
FD4F
0089
0188
FE2E
FF14
005A
FE43
FF95
01FD
FF03
00E3
005F
FE85
FEBE
0089
007E
FFC4
FFB7
0078
0144
FFC9
00A7
FEC8
01F2
00F0
014C
0055
0087
00D7
0040
FF8E
000B
006A
0102
FEF9
011D
FF76
FFDC
FF88
00AD
FFFF
FFC4
FFCB
FF55
00AB
010B
FD8B
00C9
FFF4
FF9A
003F
0090
0103
0086
FFB4
003A
018C
FECE
0030
FFF9
FFA6
00E1
0017
00F9
FFD5
002D
FDD4
FFD4
006D
FF7A
0141
FFFF
FCD1
FEFE
014D
FFD6
0036
0105
FF1A
000D
0042
FEB5
FEC1
0116
00F7
FF81
0114
FDE8
0016
00F8
01D1
FF37
00CA
FFFF
FEDD
007C
FF86
FFA6
0190
0172
013F
FEC7
FFEB
FFEB
FF72
FF85
FFE4
FEFF
FF0B
0098
FFB2
FEB9
FFD8
FF1A
0069
FF23
0067
FDF1
0197
FEF8
FEE1
0094
FFE1
00C0
008A
009E
0060
0239
0193
FEF7
0052
FFCA
FEF7
FFE4
FF71
FFF2
FEB5
0108
0092
0022
FFCA
0027
00EA
0048
FF39
004F
FF42
008C
FFE3
FECF
0105
0100
0013
000A
002F
00AE
FF0A
003A
000A
FEDD
FEF0
00E5
FEAB
FF8C
0029
00E9
FFE6
006D
FFAC
007C
0175
0171
00EF
FFBD
FF5C
0081
005B
00B2
00F4
FF43
FF1A
007C
0073
FF61
FD4E
FF2E
FF9E
FF81
FFDD
FE82
FFBA
00D7
0154
02DC
0193
FFCA
00D2
0068
FFB1
FE50
0092
FF71
007B
FF36
018B
0191
0171
00AA
FE7D
0008
FFA3
FF5B
FF44
FFEE
FE81
FFFA
FFC4
0054
FE00
FF1E
FF3A
00AF
00BB
0115
00B4
FE76
0068
0034
00D4
0082
003A
FF18
FF28
FF4C
006E
FF5A
00EA
0027
FFA7
FFEE
FFCA
023D
0106
0223
015A
013F
FFB1
FFEB
0074
0017
017E
029F
0090
021E
FE17
00C4
FF84
FDF4
0156
0017
010A
008A
FF0C
0214
FFE0
006D
0002
FF35
01BD
023D
FFC6
FF81
005F
0115
00C5
FEEA
0115
FF8B
012E
FFCC
FF49
FF38
FE21
0144
0099
FFC9
006E
FF69
016D
0052
0169
FFAE
FEE3
FECF
0130
013F
FFD3
0222
012D
FF3C
01A3
FFBC
FF65
0021
FFBD
FFAA
FFBD
001B
01CF
FF1E
FFA2
FFC9
FFF2
019F
FFE5
FFC3
015C
019B
FDB3
00C0
0073
01AF
FFFC
FDFA
FEEE
FF78
00EB
0013
00AE
FED1
0018
0015
FFC4
FF39
000C
FDB3
FF77
0029
00FE
0087
005E
FF5A
01F9
FF8C
FF7D
00CB
FF2B
00B6
FEDE
FED4
002B
007D
00BB
014A
FF54
00C7
FF67
00E3
00EA
00A2
FFA8
0115
FF20
00D8
FFF3
00AB
FFF9
0043
0004
FFF4
FFFD
005A
014F
00C3
FFC5
002E
0010
FF3A
009F
0037
FF3F
0104
0031
0093
FF56
FF30
FEEA
FF59
FFF6
0057
FFCC
FF70
FEFC
FFE6
024C
004C
FEF3
FE79
FEA0
FE6E
02A6
FFF2
010E
002B
FE6F
FFFC
FFD0
00DA
FEE0
FFDA
0090
FF04
0035
FFE3
009F
FF94
002B
FFC2
00E8
0037
FF95
0133
FF8F
FE67
014B
FFA0
032A
0022
00A6
0147
FECA
00DE
FEF4
FEF8
0047
00A3
FEFE
00EA
FE66
01EC
0107
004C
FF79
FEEA
005A
FFCE
FFC6
0367
FF4C
FF98
001A
FDA7
0138
FFFD
00F4
FFAD
0198
FFA1
FF64
FFFD
FEE6
FFED
FFF6
00F0
FDFE
FFF9
002B
FE54
0039
004D
FE84
FFB0
FF21
0110
FE9D
FE53
FFC4
FFA6
0076
017D
0104
FEAC
0052
FF8D
FFCA
FEC2
FF93
003B
0026
FFCC
FEB7
FF9F
FE60
FF61
FDC3
01F0
0062
0027
00C3
FFED
00F6
FFF2
FFD8
0076
FE21
FF35
FE2A
FED2
02CB
FFAA
00AE
001F
0048
00B6
FFF1
FFCD
0101
FFBA
FF6C
01B1
FEE8
0024
0052
FE71
01CE
FE96
006C
FFA9
FF53
0026
FED9
FF1E
FF71
00B6
FE42
FE53
FED2
0117
FF87
FFED
FF40
FFA5
FF60
001E
FF38
0007
00B3
FF16
FE85
007D
FFF2
01C1
00CC
FF9F
FE6F
0139
0027
00A8
FF93
FE4E
FEED
FFCF
FF23
FF51
0152
FFC9
0056
01F2
0129
0074
FE7B
FECF
FFF6
004C
FF13
001F
0038
00B4
FFC5
FF46
FF08
FF98
0020
FED3
0019
02B8
0096
FEF7
FF55
0026
FEC3
FE2C
0026
0017
015D
FF07
FDD7
FE6C
0118
0218
FFE5
0066
FFD3
0044
0080
FF02
FF24
002F
0025
FEEC
FE40
FFD9
0093
0176
FFFC
FFEF
FEF2
FE9E
FEE8
0177
0073
FFD6
FE61
FE98
0257
0012
0063
004D
0126
00CE
0045
FF1A
0235
0016
FF54
0021
00D6
FFC2
FFAB
012F
004C
00A7
0010
FF67
0081
011F
FF8A
FFE0
FE94
FF97
FF32
FF95
00EE
FF41
FF16
FF9F
01AA
FFEB
0094
013B
011D
006F
FF53
00DD
FE84
00C8
FFD0
029E
FECE
00DE
0009
011D
00C2
00EC
FF56
FF15
000B
FE64
FFAA
0077
FF6C
FF42
0079
FFB5
FF9E
00DB
FF85
01AD
0100
FFCF
FF45
FF9E
002E
FF29
019B
005D
0044
FDCE
0057
FEA9
FF93
FECF
01BD
0000
FFC6
FF58
FFCF
FF4D
01BA
019B
FF94
005C
FF6E
0101
0056
001B
01B5
000B
00E3
FF8B
FFF3
01A8
FF61
FFAF
FEFF
FFBF
026B
0085
FF98
FF6F
FD2F
FFB2
004E
FF09
028B
00EC
0045
FFE6
0171
0128
FE82
FF2D
FEDA
FFD8
0097
0044
0065
FFB8
0156
018B
FDCD
FE2C
0001
00EB
0013
FE56
00F2
FF3C
00EE
0048
0022
005D
FED8
005F
0132
FFDF
FEA4
FF97
FF9B
FEE0
0054
FF52
FE0F
FF40
01C1
FF55
FF81
FE88
FFE0
00B4
009D
FF35
0003
00C5
0130
FFE2
0231
0006
FFCF
00E5
025A
0094
0042
0106
FEBE
FDD6
FFE4
013D
01E6
00CD
FE7A
FDFF
00DD
FFD7
FFF7
0086
00B2
FEF6
FFE3
003F
012D
FFAE
0198
01DE
FF43
FFBF
FF54
FDCA
0017
FF58
FF14
012D
FFFF
0021
0049
FFC9
00F9
0053
FFC2
00CF
FEEC
FED8
FE50
FECE
FFC8
001C
FFE1
FED3
002C
00D9
FF33
00A6
0061
FEF4
FEE1
00D0
00AE
0080
FEF0
00D9
0152
01B2
FF3B
0094
FFAA
0010
00B1
FEBE
0098
FFDD
FE1A
FE60
004F
FEF5
FF7F
FFFB
FECD
0036
FFEE
FF6A
0001
0056
FFC4
FFEA
FFAF
FFC3
0019
016C
FE35
007C
0045
FE47
FFFD
00A0
FF69
FF6C
00C0
0123
0066
FFF0
0104
FF2F
0233
FF69
FF54
FE3B
00E1
001D
003C
FF88
FF7C
0188
008E
FFD9
00BB
00B9
0006
0038
0002
FF13
FFA2
FF65
0171
FFFA
00B1
FE64
FEA7
013F
FEBC
00E0
00C6
0132
0026
FFD4
0077
FEE5
FFBA
FF5E
0066
0109
FF23
0120
0061
FF41
FFAB
0306
FF10
FFE1
004D
00A7
0107
FF9F
019B
0077
FFE5
00FE
FCBB
FFC4
003B
FEB6
01D3
FFAF
FF5D
FE02
019D
FF74
FDB9
00DB
0094
011E
FFFE
FE0F
02A8
0182
0080
004E
00B5
00BE
FF99
00F5
FF0F
FEE5
FFE3
006A
0002
FFA2
FF56
FF5E
004B
FE3A
0080
FF59
0155
FFFF
FF18
FFD3
013E
01C8
001D
FFF8
0009
005C
0116
009C
0138
00B3
FFEE
0024
FECB
012A
FF5A
FF76
FF65
0051
FF73
015B
FFD1
00CE
FFB9
FF06
01C3
FF57
FFEE
009F
0156
010D
FEEF
010C
FED7
0114
0109
011D
FE2E
FE38
FFC9
0060
0081
006B
FF80
00AC
005C
FF2B
FE6E
FEC9
003F
01E9
003A
0084
004B
0044
FE76
0031
FF6D
00EE
FFB9
009D
0102
FF83
FF27
0085
FE7E
FF20
FFAF
FE87
004D
0148
0088
FF34
FFE4
0103
FEA6
FF90
0174
004A
01E2
FF3E
FE50
FF7F
FF50
FE77
FF0F
FF0E
00C0
00D4
004F
0029
0068
FE36
FFA3
FF8C
FFEA
FEEA
FFA9
FFC3
0123
01DB
001D
0023
FF73
FDB2
0208
FF36
FEBD
FF04
0137
FFFD
00DD
FEB0
FF23
0259
0178
0097
FFDE
FFC8
0034
0119
FFCC
0087
0014
00C8
FEC8
0102
00D7
FF79
FF1D
008A
FE8A
FEE1
00EB
FE72
FF1C
0014
FFEC
0013
009A
FEB3
FFA4
FE43
FF20
00AA
FEF8
0062
00C5
006F
00F9
FFFF
FEF9
00E0
FE05
0014
FE6A
0017
009F
0031
FF42
FEFB
FF75
0004
0081
0177
00D3
FECC
FE45
FED2
00B7
00A2
0071
00E3
00ED
FF69
0010
FF53
019C
FF30
01BD
FE89
0154
FF5A
022A
0021
0058
0068
FFC4
0016
FF3A
008D
FE9C
FF5F
FF64
00A4
FFCF
007E
00A4
FFCD
FEBE
0046
0154
009A
00C1
FFA6
007C
FF0D
FE43
0101
FEE9
005D
FFCA
00A8
FF52
007A
021C
FFE2
00DF
0078
017F
0081
01A3
0018
0084
004B
FF0A
FE1B
004C
FF4D
004E
FF8A
009B
0201
01D5
FF03
FE19
FFB2
008C
0016
FF81
FDEB
FFA6
004B
FE9A
01C7
0035
00E0
0152
0040
018E
019E
009D
01CB
FDA4
0025
00EB
009D
FFB8
0248
00D1
FF70
002E
FEE2
FE11
0015
FE6C
0004
00A6
FF3E
FF97
FF42
FF52
0020
FE92
00FE
015E
00A9
FFD0
012E
FEBA
FFD2
00F8
00C7
01F8
0004
FEAF
FE71
FFF2
FFD1
FED7
0105
005A
00A6
FE24
018B
00FD
01D6
FFA7
FF4E
FD0D
001D
FDDC
01B0
009B
FFAE
FED5
00DC
FFD8
FFBB
006B
00A2
FF5B
FF8F
FE64
001D
FE4D
00F1
FFA6
0196
FF2C
004A
009C
FFA2
FEB5
FFC9
0106
01DB
FF23
FEDD
0054
FFFB
FF9E
FF6E
00C6
FFDD
FDDA
0162
FEDF
0034
0013
008D
FD55
FFA8
FF42
00F0
001D
FE80
FFE4
0032
FF5F
011D
FFEC
023C
0031
FEB2
FF8E
FE10
0015
015A
005F
FEEF
000F
FD85
004A
010B
FFCC
FF71
0098
FF89
0083
0024
0215
0077
FF5B
FF45
001D
FF4C
FDBE
FF18
FFE6
FE25
FEF4
0093
FFEC
FD91
00E8
00DF
0041
FFCD
FEA1
000D
002B
0065
0207
FE95
009A
008E
FEA9
00B9
FFA4
FF55
FEA5
0072
FF2B
0105
0113
0009
FFA4
FEF0
FEC3
00A4
01CE
0093
00A5
FF60
0060
FF95
FF67
0123
0030
FF5A
0121
FFD3
FF92
0059
0044
FEF1
00DB
0081
001B
FECA
0086
FEE3
010C
00EA
0101
0052
0006
FF85
0039
00E2
021E
00AC
FE7D
FF78
00C5
FFBB
FEC5
FE9A
FE76
01E7
02DA
0231
FF33
00EA
FF5A
FF15
0132
001A
01D5
00F8
0017
FDF1
010E
01AD
FF94
0171
0025
FE8D
012F
00B9
FF8A
FFD6
FF48
004C
01BD
FFBD
01A3
015D
FF80
0174
FFA5
0136
FF5D
0058
0000
01D2
0006
00B2
FF14
FFF7
FE40
00E5
00B1
0098
0093
005E
00FC
FFBA
FFD9
FF27
01CF
FEE9
00B1
FE87
FDC3
FF8D
0006
00D2
0081
FF11
0005
FFB7
FF0D
0074
FE94
00D4
FEA8
FF8B
002C
FE8F
FFFE
FF14
0189
0035
FFE0
0156
FFF7
0189
FEC7
FEA7
FF10
005F
FE91
FFB6
FEDA
FF48
0122
0057
003F
0076
00E9
FEED
01BB
0046
FFD3
00CC
00DF
004F
0111
00EB
FFAD
FF29
FDBA
012B
0142
FF0B
FF1C
FF77
FF98
003A
FF16
0098
FF24
00FA
FF92
00A5
00B4
00A2
0092
0032
FFA0
FF37
FEB2
FF1C
FFB9
0120
0032
016D
0010
FF89
FF13
00EF
FED0
FFEB
FF55
00E5
0047
FF72
FD13
FFD8
FF5A
004A
006E
003B
0233
FEB4
010F
FEE2
FF26
00B4
FF93
FFDE
008E
FFEC
00A1
00B1
FFE2
FF1C
0121
FF8A
0081
FEDC
FF4E
0026
000A
FF49
005B
019D
FFEA
FDFE
0162
FFE3
004C
FF13
00A5
FF2D
FF5D
FF1D
FFE9
FEB9
0043
FE4D
007A
FFFF
01D7
FF8E
00B2
01BE
0018
FEDD
0022
FD95
020F
FFF9
FF8F
00C5
00B9
00B7
0109
FFE1
FEB1
FF62
FF86
FF5C
FF1C
00C8
FF01
FEC0
FFF8
FFB5
0173
FEB4
00FF
FF18
00B7
003C
0313
FEA4
000D
FEEF
00E8
FF8A
00C0
FEE0
FF72
FF52
01A7
FF03
000D
FF72
02B4
FF44
FF77
0038
00C1
020E
FF14
002A
0099
FF85
0090
0060
0006
0173
FE97
0030
FD96
FF5C
0089
0108
FF66
FFFA
0146
00FD
FF02
FFC3
005E
013D
0222
00BC
FF77
0017
FFDA
0167
FFB7
FEDA
FD67
FF9B
FF54
0191
0002
FF7B
012D
FFC0
015D
00B9
FE3B
0155
FF98
FFE5
FFD7
FFB7
FF4D
FE11
FFC9
FF2E
0130
FDE7
0081
0077
0140
FEE5
00D5
FE80
FFE3
0071
012B
FF7D
00A9
FE73
0142
01A0
FE44
FED4
0107
FFF1
009F
FFE5
00D9
0193
FFDF
022F
FF4E
FF12
00C4
FFE5
FE8D
FF7D
FFDA
0027
0177
FEED
FE4A
FED3
0030
FFFF
01EC
001A
039A
FFCA
FEB2
FF56
00E3
0073
FDF5
0121
00AC
FF42
005C
0073
FFBD
0112
FEE9
0014
FFB2
01D8
017C
01FA
FF8D
FE9A
0053
FECD
0033
00F5
FEA4
0038
FF23
00DF
012B
01EB
010F
0131
0154
0122
FEBC
FFBB
003E
FF47
FFD6
0056
FEF0
FFD7
FF29
FE6B
FFC0
FFCC
FF14
0014
00A2
0102
01A3
00F7
00E1
0059
FFD0
0065
FFBC
0108
FEB2
FED2
FF68
0079
0068
FFE4
01C1
01BE
FF67
FECF
FE85
FF7F
00C1
FDAC
0153
021C
FD8E
FF99
FE6D
FF72
0049
FFD4
0050
006D
FF22
0027
000A
0149
FF22
FFFD
FFBD
005C
018F
00DF
010C
FE90
FF4E
0050
FFE2
FF60
FEED
0131
FE81
0056
010B
FE27
0022
FE7F
0003
FF18
FF49
FFA0
FFC7
0135
FF6D
0016
0121
0249
FDE7
0074
FF22
019A
009A
