FF44
FD56
0024
02F0
F886
F95A
013E
05A5
FF3C
F9B6
00C4
FD7B
0750
0252
007B
01E6
059B
F5C7
0496
FD9E
FEFC
FB35
0831
FFE2
FC9B
0296
FBC1
FEC8
00F1
FE11
0183
FAD9
FF0D
FA7D
FD54
F77C
00D6
0763
F88F
030A
FB49
FE8F
FBC8
06B3
0526
0188
F984
FFA1
F783
FA21
0080
FFB8
0128
013A
007A
0445
F347
FBF9
FFE8
FCF0
0035
0781
FA21
0426
0365
04FB
FD58
F773
045C
0365
FD49
054C
FECB
FCC5
0407
04C5
FA5C
FFC9
0668
029B
FF8D
0804
0488
0543
03EB
011F
FCF0
06A7
FFD8
09B9
0303
03F0
FECF
065A
0428
0386
06A2
FB8E
03C5
0491
FA2F
03E1
0992
FF9F
0133
043B
F899
FAFA
FDCB
0194
FEB3
0290
03A3
0384
0476
FAA7
08C8
0459
FE16
04BA
0198
072F
0739
0140
FDE1
00B0
0727
00C6
FF2E
063E
0000
FDBF
FFD9
F1D0
0297
F782
05A3
F584
FAE0
F461
FD90
F696
FDCC
FAEF
F936
FD95
FE0E
016C
03AA
FD2B
FA9A
FEC5
01AB
F89F
F7AB
F8CD
FD03
F6AD
FBCC
F94F
FFFD
FC6C
FBE3
FE25
FDB8
0350
FF1C
FDC9
FAE0
F9E5
F8B7
F759
00AB
FCA6
FF65
F99B
FFA0
FD97
FE14
FAAE
FD52
FC55
0438
010C
FC8E
FCB1
022C
F6E4
FC55
F24C
FBED
020F
02C6
FD9E
FA8E
FD7A
018D
F960
FFA9
03D8
FF39
007C
FE4A
FDA6
FFE0
FF97
F9C0
016C
03D3
05D1
FCBD
048C
FD0F
F825
FE82
0158
010C
FDC0
FFDB
F9A5
F982
FB20
FFB1
003B
0757
0238
03B8
FF91
0163
0271
FB56
FF51
FD0C
01C9
FF89
0966
FA67
0800
02A6
FEAB
FEBD
FA8C
FD6E
FAA1
0536
0AAD
02CF
07A7
FEC4
FFC7
03C4
0043
FE3E
FC07
F83A
FE5B
001C
FE3A
FB23
FBC9
FEFC
F782
F677
F9A1
FF32
01E4
FEE4
FDF8
FE17
FC2D
01E0
FBB5
001F
FC40
0059
0AFB
0296
06B7
F99F
FE66
FFCD
0076
FAC4
024B
FC79
FFFC
038D
FD27
FCC8
FBF6
FBA5
0440
0241
040B
FECE
F87A
FBCE
FAB4
F8CD
0120
FF62
03C8
FFF6
02A5
FF7F
FECF
0310
FAC7
FF06
FE57
075C
FC3C
FCD7
039C
0312
0143
0481
FCC7
FD17
0688
0582
FBD9
FCA1
FD34
0102
F7C9
FC3E
FF31
FEA8
FD07
0363
FC13
FB26
F9A2
F92B
FAD9
0775
FC35
FAEC
FF52
FDEB
04C9
00FB
006B
024D
0012
F914
FCEA
FB54
FA89
0222
FD2E
FED4
F96E
F81B
F523
03C4
FBE6
F626
FE91
0067
0311
04B2
029B
FD11
04FE
F859
FAA1
FBED
025D
F9F5
FFD8
F69C
07DA
FFF8
FC91
FF21
FFCC
FEA1
F66F
FF94
FF15
F982
F9A1
0212
001B
FD83
0650
F901
0617
00D5
FF41
020C
014E
04E1
03FF
02D3
0628
FCBD
01E0
FDBB
FC08
02B0
01F6
FF97
03C6
00A2
03E2
FE62
050F
0083
01A7
036D
FD03
F791
0474
FDDD
FED7
08EC
FDE3
01A1
F542
FDAF
0601
06FF
F839
FB34
00B2
FA58
FDD7
067C
06FF
006D
087A
059B
FAC5
0075
FD2F
FE45
03D0
FC3D
036F
0061
FC16
FE69
03ED
084C
F986
FAEF
012C
FFD8
0418
FBB7
FF1D
FB19
0207
022C
FDE7
FEFA
00D6
0620
0161
FE0B
0C59
F8F5
0059
FEEC
01F4
0852
01C6
0068
01CF
00BA
05C9
FF16
0293
04DC
06A5
FD45
0301
F7F4
0989
05B2
01F5
0389
0535
0B2F
FFAD
059B
00FC
0297
001F
FF25
06FB
0061
FA67
015A
FE1E
FD97
FF1D
FC02
FA63
04F4
FFEB
00BE
FC12
020B
073A
0A05
05B1
FA1A
FFDB
03E0
FBDD
FB50
009F
0376
FDBC
FC4E
03A8
FEAA
FFF2
01F2
0051
0747
FD99
034B
0095
00B9
F7E6
FE54
FC0C
FA72
F772
FC71
0541
FC67
FE77
035F
01A9
F963
FB14
F992
FDF0
010B
02D7
FD96
FC76
F5F7
0056
FC99
0050
FA6B
01A5
FD65
FEB4
03AD
FE3E
FD7A
FE28
FE43
022E
FC50
0068
F6C0
F914
FE3D
016C
F851
FD96
FD37
012D
FF31
F64D
F609
02AC
FEA0
0366
0279
FE4E
033D
01E7
00D6
FDCA
0715
004D
FCDD
03F8
FBD1
030B
00C6
05C7
0380
03A3
0157
F9C4
00B5
FDA6
03E3
FF83
FD09
FF33
FEC8
FD8E
0204
0332
06F4
027B
03C6
070D
063D
05BE
01D8
04A5
07E4
0490
003A
0073
FED3
FB5F
025B
0221
FB3A
00A8
014C
00D8
0041
FC49
FF84
01B6
FEF8
07D7
F700
FF6B
0092
0657
04C4
0312
0512
FED5
FAE0
FDE9
FED2
F48E
005C
FE5B
FB40
FE85
FE2C
020C
0253
FC35
FEC9
0529
FD1D
033D
01F5
01EF
05CF
FDC0
05DC
016F
0510
06AF
0475
068A
FB60
000B
FF67
FE27
002C
FAD8
0514
074C
0092
03BD
FBFF
0254
FF86
01D4
010F
FFC5
06ED
FFDB
0750
0061
024B
FFA0
016A
F899
FE30
05AC
FED6
03D6
01C5
F90F
04FD
FFE8
FFB2
FFF9
06AA
0498
0B81
047D
002A
038B
FE3A
FE5B
00FA
FF4A
FBDB
FF95
0062
0C97
FE20
00FE
0BB3
FB7E
088F
FFC3
FFDD
FF85
F842
F8CF
F992
FC17
FBBC
0683
F287
0212
FC3B
0248
F9A5
FE27
FD4C
FE02
0023
019F
FC9E
FB7D
0005
FA8B
058F
FEEA
FBA7
FF7A
0154
073C
00C6
002F
045E
01BD
0426
025D
F7D2
0561
027F
00E9
F2EF
FDAA
FA34
FCD4
FA7E
035D
FC6B
FFCD
057E
0358
04CD
F9A1
F71A
01D3
027A
FE2D
FF3E
FE7E
07FA
FF87
FFB1
F8CB
00A0
F642
FAB6
F83E
FCD0
03DF
0078
0309
FF99
FD7F
FC1A
0329
02A9
F771
004C
01A3
FDE9
00C5
FF2B
048B
FD9C
006E
0053
02D1
FD32
FFAE
FC91
FD71
01FC
0288
FF08
009E
0378
FF51
01F5
FF60
0281
FD75
05DD
01D3
03E7
FC75
F7D1
FD16
F61B
FA3E
FC48
006C
FDB1
026E
FAE6
0072
02AE
F917
FEC2
FC7D
FCC3
FDCF
FC1A
FC4E
F978
F2D2
00CE
F42A
FD32
0075
00F6
FE20
FCD5
FE82
F9CC
008D
015D
FD84
065E
FF1F
FE59
019A
01A8
0343
F954
0063
0071
FF3F
F84E
FA3F
0208
06D5
FB28
FD75
FB7E
FDA2
F8BF
016D
011B
056A
FA34
FCDD
FE37
F683
F9EF
001E
FC2E
03A7
F831
F845
08A2
FDA3
FA60
FB4A
FC8F
F511
022A
F72B
F6C4
FBD8
F85C
00DD
059D
0015
032D
04B7
004F
0031
00B1
FFE0
FA99
07E9
0864
FFA4
F971
089A
026A
FEDD
FF89
FEBC
05F3
0713
0594
FAE9
0324
FFC8
02DB
0420
0A00
012A
067B
0294
007F
FDE9
04BB
017D
FD47
077A
0485
FAB3
FD44
021E
FC60
0437
0237
FB88
00A2
06E4
014C
0315
FE77
04FE
FD0D
0355
04D1
0227
02CF
FC48
FE86
FE2C
FE90
0236
06E2
FC84
000E
FF03
FBB0
FF4E
0746
FC12
FF59
01C3
FB5C
FD09
FF5A
FC93
0313
00E1
F6AA
F90F
03B1
F6D3
0388
FFC8
FD91
0231
FBC8
FAEA
F710
06EC
FFE8
FE38
FC36
F659
0725
FC9F
F843
FE49
FEBB
F990
FDF9
FF59
FA20
FA99
FEFC
FB1F
FAC0
FF04
FC33
0058
0025
FE5B
FFA3
F907
FB8B
FF1D
F8CE
F7DE
0432
FB1F
FF9F
F5D3
FB76
FEDC
FBAC
F9F9
F267
F3E8
FAE0
0657
015A
FB0A
FA53
030E
0674
FC93
01A5
074C
03EF
06D9
FBE0
002E
FDCB
005D
02D4
FA8B
0605
FCD7
0384
FB9A
03C0
FEC8
041B
0308
0131
FD6E
FE7A
0205
FA6B
03A0
04DA
FEC1
0542
0237
042A
FD8B
0077
03DD
005B
0599
005B
FE3F
FE33
0502
03E8
FF08
0260
0213
FF4B
FB96
0365
FE35
00AB
FBDF
054B
FF31
040C
FF21
0070
02E0
039B
FF12
005B
05DB
FB08
FCB8
F996
06A6
00DF
02F9
003F
05E6
FDCF
FFFF
FA8A
08B8
04CB
02C8
01C2
FAF7
0598
003C
0276
04FF
FEFB
FFCC
FD88
FA8E
0013
0AB6
017B
FD2F
FDF4
01B3
01B8
03DA
0516
FE99
0206
00C5
0AAA
F9E4
016D
02BC
FCB8
0152
0370
026F
0247
04E6
01F3
FFA6
0468
FBD7
05DB
02A5
FB59
FDC8
0670
FC8C
0560
04A9
09A8
006E
0C32
FA70
FD48
0470
0B38
FF47
022E
0054
0212
FC69
01CE
021F
FFEE
068F
01D7
FE5B
0374
076A
FF3E
FE98
0907
FEBA
0D54
FDFD
017D
06D9
051F
00DA
00F2
FB1D
006F
0376
053D
0814
0126
0620
0AB9
0327
0150
0641
0307
FCB9
05FE
0574
05E5
0683
0239
0096
FFD5
0169
FFD3
058E
05BC
FE15
0356
0BAE
FB99
FE0E
01F0
05CC
FE23
FFDE
05B3
FA33
0100
0141
0706
01B0
FE3F
0087
F980
07DA
02D3
07A4
F77A
00FD
FB63
00BD
FD2F
0838
0171
00BA
03B0
043F
05EE
0299
FEE8
0210
FFD5
0119
0527
FD8A
03BB
020E
03EB
0123
0425
0318
05F3
03C8
FF2D
01CD
0025
F7DF
03D9
064F
FFC5
FBE3
FF95
FF57
FD0B
FDC7
FAA9
0599
FF9A
05E0
FF10
01DF
FE77
033A
0341
F83A
0012
02D3
FD48
017C
08D9
0710
0E78
0667
0302
0328
06C0
FE70
0297
047C
0014
FFD5
FB6F
0686
FB3E
03F5
02A1
FCF3
01AB
048A
FA5A
FE0D
0253
058B
09A5
FFD1
035F
0392
0525
0160
02C3
062D
FEDE
0592
FABA
F88D
09BB
0390
024B
016A
00F4
091E
0462
FEE7
FE17
FA2A
03A4
02FF
FFD1
0516
026C
0700
00DB
FE77
FDC0
0597
0AF9
FC2B
0482
0286
0224
03D4
0490
0367
06A7
09F8
0D5F
FB4D
FB56
06D4
FC10
FD3A
FAC4
075E
0112
0233
01F1
06B7
FD1B
00E0
03E6
02AD
FED1
FA56
06EE
FF5B
0204
0990
03C3
0576
FA03
FA4E
0055
0BE4
0667
02BD
00EC
0343
01E4
0303
0699
0350
003D
049B
FCEB
FF86
0667
FF3F
0347
02D8
FFDD
07D1
0A59
0A21
0576
07CA
0192
03A1
0988
FFE9
08EA
05D8
0471
FC00
FED1
0B80
03BB
0B7F
0509
04CA
0770
0390
0330
01A1
048D
FE61
FA3F
03FC
0295
FDD2
00B7
0299
02C6
0315
009B
FEC8
0347
0029
0180
016B
07A4
0411
01C9
0861
05F2
FBCE
001E
091C
FE95
FD39
0167
0636
0400
0086
FD8F
062F
FD34
09F9
FEE7
FF3A
03FA
02DB
F8CC
FE41
0453
02AF
FB63
0010
009A
0A23
0031
021B
04F7
FF38
03AB
07C5
04A1
0232
F5B0
03AB
FCB2
0519
F914
098E
041A
070A
FE27
FBA6
FE58
05A3
05E0
04A5
02BF
FEC3
04E4
0430
0525
03CD
FE60
F807
FE0D
F9CC
04AB
0B3C
F82E
FE6E
F6DD
FA81
0687
02A3
FE4A
FD51
FAB0
03B2
02C3
0129
01FD
FB0F
043B
FA06
0142
FCFC
05EE
FB52
FCF9
04DF
05A7
FBDE
FC18
01FA
F971
00E9
0198
0145
00CB
FDA2
F96D
FEEB
FBF9
022C
01E9
FBB0
00BB
FC7B
FEA0
0171
FE89
02ED
FDE6
F764
FF60
FB51
07CA
03DD
FAB5
01D9
0344
FC75
01A4
FB27
0227
0633
08FF
0093
043D
0323
0125
FAEB
FFEA
0593
0307
0230
0158
008C
013D
FE31
08B2
030C
FD88
0580
FDCA
017C
0386
FD49
0613
FFF2
FC39
F529
04A6
0784
0652
029A
FF65
001F
02B8
02A0
028D
FD50
FECB
FC3B
FFFB
0518
0793
0457
0328
0738
03A1
01C6
024D
0465
FB69
FD04
F9C8
01F8
04C2
0005
0140
FB6D
FF8D
0E4C
FE8E
01C3
0043
0121
0860
0388
FC69
0351
02CD
0347
FC75
01FB
FEB6
FFC5
0531
FD0B
0223
0022
FC0B
0162
FDC3
0269
FD53
0488
0640
FCC1
024C
05AE
000D
FD30
0487
093B
FB8C
0947
08FF
0A30
FAF2
0327
036D
0346
0294
FE4D
FE2D
0506
01A0
FFD1
0754
FE28
06B4
0027
0170
02CD
FC39
05C6
0296
037D
06A9
02B3
0083
04D0
08B5
F82B
FE18
02C0
FC1C
FBDD
03E6
0617
0058
0133
FE1A
08FD
FDB7
FB6F
FDC6
0249
067B
089E
05AA
0401
FB6D
0880
FA6B
FDCB
FCF8
F74C
F666
0676
FFD7
0702
051B
0A9B
05A2
0261
FCEB
05E9
07D4
FD8D
02AF
02A2
06FF
013D
0382
F7E0
0246
0A29
02C6
027A
006C
0237
01AF
FB71
010C
0221
0425
0167
FB91
06AE
F948
02A1
0109
06E2
0653
F948
FE20
FB7F
031B
FA78
FA8D
FFFE
FAC0
F53E
0082
FB7C
FDEE
F601
02BC
FD38
FE55
025A
F981
FDA1
FC39
FB6B
F9D1
F9C9
03DD
FE36
F8BB
02C5
FA80
FEAA
05D5
FA4E
011F
0320
0334
FFC5
F448
0077
FAD2
FDD3
F82D
FCF1
FDF0
FFDC
FF19
FCC2
FD64
FA90
FC6C
FF6A
F7FE
F1E2
FD8D
FA61
FFE3
FDE8
F788
F5F0
0441
FF87
FD1D
F147
F81B
F9C4
02A5
01D4
FC2D
FB00
0365
FEEE
FF2E
FDBB
0446
06CD
0082
08CD
FFE8
0758
FEE0
FCC7
000C
FC86
051D
02F2
069A
FC04
F9C9
02B7
0826
FBF0
FED7
02E2
0080
02B1
0459
011B
018B
FB21
01F1
0311
0220
003E
068D
055C
FA86
F97C
0823
FCF2
FEF3
052C
FBD4
0270
030B
0325
FF39
FF0A
04BA
039B
0579
07EC
030A
00D3
FBCA
05C6
0404
0BEE
04C0
FB52
0373
0649
03E2
FE37
FD59
02B8
0A94
FD55
0269
03B2
FC9D
0211
0086
001D
02AA
068F
039A
029D
0204
FD34
0207
0502
FF8B
081B
FDDA
045E
FFAB
04E5
FFC1
FB2A
FD34
0287
0570
09C3
025B
00AE
08AE
096E
FAB9
FBBC
FE51
035A
03A6
0107
00E4
04D0
FDD4
03D2
FA8C
01D7
0352
00B2
02F5
0200
0910
FF3C
0410
FA22
0657
013E
0170
FD3A
04F3
0390
F94D
072E
FA0E
015A
FD72
FA19
FEDB
078D
03F4
FBFB
0294
FD3B
0413
0342
028D
FEC7
0232
091E
FCE1
FCA7
FBED
FEC1
03ED
0047
01EB
00D1
F915
FF2A
0070
FFD3
FE41
0112
0304
017F
FE24
0255
F753
FFBA
F67E
01D7
FEB6
FD00
F8F0
FC53
FE3B
FDA3
0204
0023
FF65
0518
FD77
0227
0372
04D3
FB07
0470
FB95
01D9
00FE
00F5
03C9
0629
FD64
FB1D
0606
FD8A
FC27
FD4E
0536
FDB9
FEA2
0267
FF47
00EA
FEA9
FF36
FDF4
FE4E
FC0B
00CF
FCF6
014E
027B
FCEF
FA8C
FF8C
0211
F96B
FC45
FAF0
FF37
FD5D
F6A8
FC86
FF5D
FF09
FCD2
FBAE
FB5B
0314
FFCB
F665
F538
00F5
01A3
FCB0
FFA1
F7A2
FB20
FB89
03D7
F8E7
035D
0558
F971
F7A0
FD4F
0278
FA4A
FE75
FC37
FDC4
FFA3
FB14
FFEB
F788
FA8D
FCD5
01F2
056D
FDDA
FE25
0266
052D
026D
FCD2
FED7
FE38
06F1
055E
029C
FFDB
03E6
0329
FC9D
FC38
0704
054C
0B36
019B
036E
FEC2
042C
032E
FCF4
0365
00F9
0190
013D
056C
FEEC
037B
0785
004B
03EE
FFDF
FF94
0239
FDDA
01DE
FEBC
FE30
092E
0215
0665
090F
01C6
056D
06C0
04B6
08A7
09DB
FC7B
FBBD
050A
0520
FACC
F942
FE7C
04A7
07BA
FD0E
0135
FB9D
F9A0
FF21
FC0E
FEF7
0222
FEBF
0148
FE54
05DF
F928
FFDE
F9A1
FCA2
F967
0010
FA2A
FAC9
01BB
FD45
F8F4
08B9
FFF4
03E0
FA8B
FEB5
FCFD
FE81
FED6
0302
F72E
FCBA
00EA
0228
03AA
FA87
FE4C
FB20
0082
FD4B
F9D4
F9AA
FE99
00C4
0041
0172
FF38
FB83
FDBF
0020
026D
F62A
FA98
FDD8
0743
0034
FE86
04AE
FEFF
FEF1
FBC0
F8FF
F9E7
FED6
0390
FBD5
0233
FDC3
025F
0114
FA4A
0272
FBD0
02CA
0596
014D
F6C0
039D
00A7
057E
0417
FEC5
0794
F87D
0739
FE63
FF9B
F948
0087
03D7
0022
02AF
FCEB
FF24
001A
0396
FEFB
03D6
05F2
07A1
0596
077F
0298
07BD
0051
FDE8
039B
01D4
F78B
FFFA
035A
030C
FF5D
04D4
FDF6
FF3C
0727
0B4C
FAA5
06BC
002E
0523
01F9
0127
09C4
01A7
F900
FD8D
0653
04A2
0723
FBE8
08CF
FE6D
FECB
02EB
0618
F62A
007C
0299
0167
0129
0019
F9C7
03BE
0557
0407
FEF9
0376
03E7
FDA1
FC0B
0027
055A
006D
FC4E
02A7
FC7F
FDD9
05EA
FE60
FE66
FDAE
0011
FE28
034A
FD8D
00E2
061C
FB3E
0735
029A
060C
FD93
0183
0015
0773
FEDD
FA27
068F
FABE
087B
F945
01FB
051E
FED7
0087
0190
077B
0440
008E
0499
00CC
02F9
FF7F
F9BB
F4AD
02C9
011E
FB9A
F7D8
F5F3
F72D
05AA
FC7E
F73F
FD55
01B4
0190
FC50
0378
FD2B
F9BC
FE95
FDF9
F5DC
004C
FECB
06E3
FC2F
FF1A
FEE3
04AD
00F7
02FE
F914
F7A9
FAF0
FC23
FEE1
01DB
F926
015B
FF9A
FE66
038B
FF19
FC57
0069
FFA1
FDF7
FC5D
FDDA
F7E9
01CA
FA2C
FDCC
0206
FE68
0267
F9B8
FB74
00D9
F659
014A
F960
F9F3
00D1
0705
F7D4
F9F7
FB50
05E1
0154
0006
02B6
FAFF
FEBB
01E6
FF9A
FBEA
FFAC
00C2
FC7D
03A8
FA1E
FADC
F322
FA2F
0249
F85C
FE72
FD25
F740
F650
07A0
FC38
FA1C
FA0F
F9A4
FAF4
FFB4
FD80
FEF0
FB1F
0110
02F3
02DE
FC81
FAB0
00A3
F685
00E7
02E5
FB97
F642
05EE
016A
FE21
FF79
003B
0036
06AF
0742
FBFF
FC03
FF9B
FA20
F5D5
06D4
04B3
0063
FF1D
0097
06D7
03AD
03E8
0566
04C0
FF42
0048
FA49
FF48
01DE
02D8
0185
0231
FF36
0338
031D
0AA0
FEC3
014C
FC8F
057A
043F
F9B1
0302
FEF6
013C
02E4
FE51
FEAC
09BB
0262
0857
FBEF
0504
036B
FDAE
FBCC
0004
05FB
01A4
FD94
0288
FDB2
FB60
FE65
03A9
03AF
02E9
03DD
0282
FCAB
0C17
0A08
0038
095F
0227
0AE0
0DF6
03D9
FD3A
028F
0035
FB93
FD67
FEF4
03B4
0395
0822
FE2F
FF63
0730
FF53
00DA
0640
08FB
FD2F
0334
000F
068D
FD26
02FB
08A9
0376
0D38
0974
FF94
FDD3
0272
FB47
FEB3
FED2
FC94
FFC9
0561
02B3
02A4
01E6
014E
05F2
FB59
0266
FCBA
011B
FFD8
FC6E
0113
0340
FF0F
03F3
02BC
03F1
0195
FBDC
FEA0
FCD2
0128
FE91
FC6C
F948
009D
04B6
09AD
02F3
015B
F72D
0172
00DD
035C
FEE6
FCD2
FEB8
00CC
FA20
0A26
F799
0380
0073
FCA3
FB38
F6B0
FF58
FB38
050B
055A
FB8B
FDBC
008B
FA6B
FEB7
017D
FF59
FC03
F59D
025E
0010
002D
02DD
F46E
0551
FC67
03B1
F9A6
FCD8
F957
FD8B
F8F9
F9D0
FBEE
082F
008A
FEC8
FD8B
FF0A
0372
030A
F65F
FD5C
FAD0
FF96
018B
0503
FE2C
FDAF
0172
FC8D
F55B
FF38
01A3
0456
005E
F5F4
FFE5
00C2
FC53
FE5C
FB9E
0182
0365
FE70
FFFF
0232
FF7B
FD94
F7B3
0297
08F7
0309
0423
0266
055A
024B
0519
FDD3
01E4
0118
0201
FE36
022D
07C6
05CC
FCC0
0C09
FDAA
071D
00D7
FEF6
FC5B
047B
0311
FD66
0497
01DA
082D
00A3
011B
FED7
FAC0
FE4E
FBA3
0164
02CB
0086
00AD
0134
FEF2
FD1C
07BB
F90D
0167
06FC
0463
079D
FE0D
FF9B
0389
01BA
F644
FDC5
F6F9
FFBF
FFEA
01C3
FF1C
0163
009B
FF0E
FBF4
03F0
FDC5
FF09
FBE6
009F
0348
0109
FFBB
FD58
09DF
0123
01A2
FF0F
0234
0ACE
FE72
FE7E
00E3
FD99
076A
037E
FCCE
FD7E
0912
02E2
F9EC
0300
0311
FCB9
FD26
08D2
FE1C
01E6
FED3
007B
FC6E
FCAD
F90D
F856
F7CC
FF0F
024A
FFE3
FDCC
0197
F813
F8B2
FEC5
FD0C
FD83
FC67
06AB
FE77
FE29
05C0
FD95
000E
FF4B
FCDD
FDED
08B5
FF0F
03F9
FBFE
FC35
F901
FB15
FD33
05DC
003C
FB3D
00E8
FF1E
FB59
FC01
03B8
FFDF
FEED
00EA
FEBE
FC01
FD07
0362
F731
FE82
FBC2
FCE7
FFC3
FA66
FC87
F8F1
0280
F683
FC9A
00F5
0610
FC95
F592
0022
FB2D
FDC0
FD14
FF4D
FF91
FA16
01F0
FDE7
FA89
02BF
FB49
F8E7
FFFA
FA46
FFCA
0545
0175
FF43
012F
FEEB
FCB6
FC71
FEE8
FE12
04A1
012E
0002
061C
FD10
02B3
0254
01DF
0850
000C
04A2
FF17
06C3
032D
05F7
0260
028E
00CB
FA8C
FE5D
0403
01C7
0A1D
0833
FB1E
023B
0061
02A9
F8FB
FFE5
F9EC
0413
035A
FCF2
0116
0608
077C
01CF
09D2
FB93
02BF
082F
0462
031C
0250
FA78
00F2
00EE
03F2
00C4
04D1
026F
0421
0778
0232
F8A0
041F
F5BE
F913
04F2
FCDD
01E6
FDF8
00E5
FBAF
05CD
F81E
06B8
0097
00A4
FEA8
024C
F687
F622
FBED
FA97
F81D
003C
0247
FFA1
FA49
00CD
FC6B
02FC
FADC
0091
0254
00B6
002D
FC99
0537
FBB7
FA8C
FB4C
0244
FEDB
FABB
FD5F
FE2D
FFC1
00D0
FD31
033D
F8CD
FE5F
FD89
FD84
FA75
06A1
03BA
FB5C
F41C
FC8B
03F0
FD4E
00B7
0013
FFFB
06A3
034E
F8FE
0518
0676
FE3A
FFD3
FC4F
0206
FF8D
02E9
0345
0372
05DC
029B
F57A
0245
0446
FF3A
FB68
008E
0304
FA32
FB97
FD93
01EA
0199
0494
FF09
FA2A
0255
FC5F
FFC8
0381
01B4
FF33
002B
037D
FFA4
09D1
FCAA
FFC8
01BB
08D6
023F
00BE
03C4
059E
FC2F
02D1
04D6
0304
0046
0042
033A
FD05
072D
0227
0400
0152
02F2
0717
FCEB
06EC
FD24
05D0
06AA
0241
0039
07E0
FAA1
0040
F828
FCDF
0344
06DA
06C2
FC19
04CB
FD3B
FC94
FD96
FA9B
F94F
FCB5
057A
FF17
00E1
03AF
FBFC
0099
FE67
F8D1
03C7
F7BF
0252
FFAD
0135
FD61
FDEF
FF9E
F8C2
019F
0351
FA5A
FD2A
F9E5
038B
039B
FD2D
02ED
FE25
FDA0
FFA3
FF64
FC57
005A
FB04
FECC
FFF3
FE8B
044A
FA0A
FCBA
FCF3
FD9C
FD96
0508
05B1
057B
FCD1
01F5
06BF
0094
FDED
FDA1
0385
FC17
06AB
FA3A
F9E1
0388
0713
07C6
F9A3
0694
FEB0
FDA6
03FB
0306
0309
066B
02AF
FD03
FEC8
F741
0327
044B
0894
06AF
02D8
0826
0303
0222
FBE8
04B5
FAF3
FCE5
03F3
FD39
059E
FDBE
0317
035C
FB7F
02E5
04AC
0341
0780
0087
03F3
0A5B
FC93
0658
FB6E
062C
0349
02BE
08A3
0441
00DC
F949
FB92
01C8
01A0
0554
F77E
FFEE
FBDF
FAF2
FE24
F88B
F5D2
FDAD
F9DF
050C
FCB5
004A
FA83
F9FA
0041
0251
FCE2
FD4C
FFB9
FFB5
FEC2
FF7D
F969
F6C7
FBEA
F80C
FDC0
0025
FC09
FD0A
0CEA
F814
04C8
F2A9
FEB3
FFCD
FE64
FCB7
0283
007A
FCBA
0013
FEBA
0327
FFE7
0192
FCE0
F9BC
FAFD
FF84
F92F
FCA1
004D
0595
F61B
00D4
F854
F405
FAE7
FFAA
FC5B
FACA
0554
FE10
FD28
FD5B
FBBA
0142
033F
0628
FD3E
0849
FB0C
FB8A
0112
0072
02B9
F65C
07DA
FA8D
F985
FD26
F37E
03A5
FC99
F8DD
FF97
057D
FFCD
0068
0211
FE8A
04C3
03B5
0487
FAEB
F9BE
F851
FE44
FD4D
00D5
FBF7
0600
FF1A
FD6F
F86E
FAE2
026D
FE38
02F6
FF62
F6F6
00C7
FD36
FD99
FC10
FE0E
FB65
03A5
FE12
FA19
FF76
FFD1
00A1
04DA
0135
040C
FC78
F856
057D
0400
06F9
FC10
FCDD
0534
F9AC
FE9C
00BD
00B2
03D9
035B
0330
0396
0189
FCE7
010C
0598
FD29
FFF1
FAF5
07CA
0322
084C
FE3E
FFEA
FF96
06CA
010A
F744
FA2A
FCBE
0302
FA50
03A4
02CE
FDA2
0000
FA09
F848
FDFA
FCE6
FC5F
FF81
045C
0617
0561
FFF0
0240
FDE2
017E
0A1E
FCF8
0738
FF61
0178
05FB
F944
0249
0207
0356
01F5
FB01
0422
FA65
052F
FBB6
FAC5
01EA
FD4B
017F
0545
FD43
FD11
0042
F6F3
02FA
0255
0497
FF8E
F9A7
FDDA
03D5
039D
FD09
021A
00D5
053B
FDA0
FE96
FC93
0018
0008
037B
048D
0003
01CF
0310
FF10
F6F6
FCB4
FAD3
F9DC
FFD3
0772
FFA9
00D9
F805
0902
0255
04E1
0287
0D3A
FDD6
01DF
0904
F973
F856
02E7
FDF9
FBC3
0509
FBD6
06EA
0674
FD56
FE15
0312
0029
01D4
068D
061F
FE37
F750
FDDF
0324
0552
03C5
FFEF
FE98
0178
0547
0065
02B1
03DC
02F9
FF6B
FD9B
09D0
0746
0523
051B
FF1E
0890
03A7
FA1E
0063
0228
02AA
06B8
0415
FCC0
FAE3
05CB
0265
FF6E
06B3
032E
0325
0586
0418
0055
0386
FE75
0508
FF61
0933
07A5
025F
07A3
0601
0395
049F
FEAF
02F2
FEEE
024C
0923
03EC
FD7F
F4A8
0520
FCC1
0018
0099
02E0
007D
09D7
05FE
073F
00B0
020E
03BC
FF63
037C
0772
0681
0486
005E
0072
058A
0158
0223
021B
F601
04F4
F8F9
04C3
FEAE
FF47
069C
FF31
06ED
0AEF
02B7
0530
0115
063A
FF54
0152
FF3F
00A5
FFAC
00B4
03B3
FCE5
081D
F945
FFCE
FFEE
09C5
0293
054B
0CF9
0091
0576
02B3
0654
0BB9
045D
FAA9
030C
FF4F
F68A
0615
FBF8
F87E
FF90
0196
FDC9
FC1E
F84C
01E6
F858
FF8F
FC34
00C7
006A
FD35
FB89
FB03
FBFE
F8C4
FFE8
0474
01CF
FD20
00B1
017C
F87E
F74E
00CF
03D6
00AE
0266
051F
0230
FE61
FB2E
FF12
026F
F9E4
0104
F980
0185
029C
FEBC
0156
0343
FB47
FE80
FCB1
FD07
FF8C
0297
FA11
047E
F93B
F666
F7EC
0237
F95F
F6D2
FE95
01A9
0239
09E2
00FA
FBE0
03D3
0234
00AD
09EA
FE7F
F9A2
00FD
FB90
0774
FA58
FC56
FBE6
0177
04F7
FD76
07E4
05FD
01AE
03DB
0686
0608
FD76
FDD5
02E5
03C3
FA6F
FCE6
0D89
051F
02E8
FF32
015C
000D
0A35
FF57
020B
FF34
07B3
08CB
FF30
04EB
0A10
0234
042F
FEEA
041B
04CF
FF38
078D
0A57
FDA6
05FA
016D
03A3
0328
FCF6
0113
0B10
FC5D
FDFF
0847
0204
010A
0150
07F9
03E6
FCB0
FEEA
063C
02DC
05C3
006F
FCCE
01E9
0346
0496
FFF6
F8CB
01C6
04A7
0507
012D
FF45
0272
02B7
09B1
030E
FF0F
FF5D
FAFB
01E1
028F
02CA
0438
FADD
01B8
039D
FD3A
F94E
0294
03D0
080E
003B
01D9
FF2B
FA6C
090F
FDA0
0785
0244
FEDA
06CD
04D8
045D
FAA3
013F
00CC
FD62
038B
00B2
FE52
042C
0226
0346
FDE8
00C8
FEC7
FFC1
F4F7
FC24
FC42
01E3
047D
FDD9
07FF
FFF7
084B
FCB0
F87E
0490
04C2
FFE3
0616
F9C4
FF2B
06D5
FD4C
0218
005C
0608
03E2
FF6C
FCC3
F8C9
FBE5
FDD5
027B
0923
FE3E
FE86
051D
0386
FE8B
FDC1
024C
F60D
0038
FC4C
0258
FC03
00E6
FB74
0275
0481
01B3
026F
00A2
FCE7
0064
FDF6
FDF6
0545
0829
0351
0240
0834
FCC0
057F
F9D8
FB4C
008D
FA6A
FB46
F94F
0813
01CA
02A1
02AB
FBEC
FE22
FC3B
F932
F9D8
FE1E
FA38
FCCF
FFDA
FEF7
0463
FC29
FF17
FB36
FBC0
03BD
FAED
FA5A
04A2
F3FD
FDDC
FBC2
FE5C
019D
FF06
02E8
0077
FBAE
0778
F751
01EE
FCDF
FBC2
FD15
FE16
04F9
FF9C
F3D9
010F
FBCF
01EA
FBCC
FDC1
FE18
FCF4
FB26
F722
FFE2
FEC9
022B
FDB5
F778
F892
0193
F6E2
FD78
06B1
020B
027B
0246
03CC
FC2C
027A
065E
FED7
0750
FBC9
FCFA
F5C9
FC02
00AF
F9A5
FAE1
00A8
FD49
FDE6
F618
0840
FAF8
F811
FD55
F8F4
F607
FFC4
FDE0
FF5B
FB8B
FB86
FC6E
0246
FDFD
FE1E
035E
F53C
0413
FBA9
0196
FE29
FB64
FF0F
0145
036D
FFC0
02CA
050F
FE9D
FC01
F6A9
F965
FAA8
F9D7
FC0D
04C5
FC4B
F866
F50E
0269
FDDB
0035
0219
0188
0780
0404
FCA0
FE0C
FEA3
FECE
042F
01D4
FE79
F972
0249
0025
FC5A
072E
0B1A
FEC9
F5CA
F643
032C
0557
00F3
FF9F
FD3B
FA09
F9CE
F68E
00C4
FCB0
046A
FDA2
05AB
0087
0284
0465
0223
FB5E
FC63
FE7E
03D7
FF91
000A
FCB2
045C
02DA
FABF
FDBE
0043
FD87
026B
FE7E
F68A
F705
007D
021D
01EF
FCF8
06E3
0511
00CB
00F2
0665
F749
0574
018A
0324
FA9C
079E
0472
0019
005F
00B9
FEA0
FBE9
FA5D
FD5B
FF3C
0449
02EF
F849
FE3B
FF09
09B7
FE12
F864
FE2D
FDC8
F8E2
FE8F
FD22
0068
01E5
FEE9
0536
01FD
F66C
FE2E
FF62
FAC5
08B5
FDA9
FF98
F9EE
F916
FD70
0332
0204
010F
077E
FB38
FBE7
FF5D
FFA4
0247
F7F6
0B65
FEB0
F9CF
0B3A
FDF1
F876
FE82
FA79
FC06
FBBD
022B
F916
0000
FE95
04A3
FAA0
00CE
0A3F
FF64
FD6A
FE9C
00B9
016C
F840
FB17
F75D
FD5A
005B
0100
F9A1
FB23
FE51
FEA9
FEDD
003C
FCD5
F99D
0110
FBF1
03F5
FDF8
FC5D
000C
01C1
05E1
0113
02AC
FE2F
FB46
FD99
0010
FCD1
FE1F
FE03
FF58
00ED
02B8
FBBF
FD2F
011C
FDC5
FEFE
FCE6
F93B
FFAD
0692
FF79
FE1A
008B
F8ED
F4B0
F90F
F917
FA46
