010B
008A
00C7
FF8C
FFE7
FFC2
015E
008E
FF90
FF7E
009C
00B5
FF97
0026
0055
000E
005D
00BD
FFEF
0166
FF51
0017
00DB
00E8
0060
00BA
0073
FF28
0057
0037
FFC1
FF7F
0061
0025
0056
00C5
FF93
FF98
0088
00B6
FFC1
0050
FF8B
FF76
0054
FFC1
FF35
0072
0094
FF9E
FF1F
FFEF
0104
0086
00F0
FF73
00FB
0038
008D
0001
00AC
00CE
010D
FF96
