FED1
01A0
004F
FEA4
FF71
026B
FF9C
0090
0055
FFE1
FFEF
00FF
FF62
0090
004F
0089
00D3
00AD
011D
02F1
00F3
00A7
FF7C
FFD4
00AC
FF97
00AD
01B3
0096
0094
0031
00A9
0025
004C
0095
00AF
0095
00C3
01C9
FF5C
0123
00B2
007B
00D8
0043
00A9
FF61
006D
0083
00A7
0012
001D
00C8
00D0
01F3
0069
014A
005B
FFF5
013A
FFD6
02F5
039F
00EA
