0FB8
105C
1030
0FAD
0FDB
10A0
0FE7
1025
1017
0FFC
1009
1002
0FDB
102C
1019
1038
102D
103B
104A
10D1
1040
102C
0FDB
0FFA
101E
0FE1
1039
107F
102C
1026
100C
1026
1022
1014
1028
1033
1029
104A
1088
0FD2
1067
103A
1022
1034
100C
1021
0FDC
0FF8
102D
1035
0FEA
1009
102A
1037
1098
1043
1054
1016
0FF2
1059
0FF4
1102
104D
1060
