FEEA
0240
0079
FE97
FF71
02F2
FF9D
0097
0042
0026
FFBE
0108
FF5C
01A1
0088
0191
0129
00D2
01A0
02F7
0137
0118
FFB4
0036
00B4
FFC0
00F0
020D
0112
011A
002E
00FD
006A
00BF
00DA
00E4
00E0
012B
022D
FF5C
018C
00C9
00B1
00D8
0040
0108
FF5C
0074
008C
00AF
0082
0034
0096
0101
0247
0070
0193
0056
FFE6
01D9
0014
02E6
044B
012E
