01E3
0468
01F1
0689
FEBD
FCDB
F930
03DC
0233
FAD0
FA47
02D8
FCF6
0356
FB08
FB18
FF95
FDCB
FC45
F8FC
FB63
FF98
066D
FECB
05E5
060B
FDF9
FCDB
FE86
FDF4
F97A
FDEC
005A
00C8
00FA
FAD5
F9AE
FCE6
00A7
FD06
FC2C
FB48
00D9
00DC
000E
FF2B
01ED
F192
F3B1
07DA
FC00
F8B4
02D4
FA6E
FA65
FEEF
06FE
FEEE
FDF3
FA3D
FB39
FC54
F96E
00BE
FF7F
05AF
FAAA
01E0
0828
0784
0005
FF02
0099
FE54
FA79
FEB4
FDB5
064E
03F5
0446
FF5A
FE58
FDF1
01DF
F7A0
F7D9
F7AF
FD35
FE56
FF34
0403
FBFA
017D
05A2
0456
00C6
0026
05B7
00CE
05A9
0016
0116
00D8
0031
01B0
0306
04E6
FE2C
01DF
03D7
FBCC
FC59
01FC
0C38
0030
02D3
FC2F
0327
0556
04CA
0187
FD8E
02A3
FF30
FFED
0C84
0220
03A9
008B
F701
FD0B
0448
FFA1
FE28
009D
FD99
066E
F9D0
0295
FBCB
0204
F1EA
FC5B
FDC3
F74B
F891
FE52
0293
086E
F75B
FCA1
FE01
FE5D
010D
FD4B
036F
0240
03C1
FCE5
00BE
FD05
FBD9
024A
01B2
FC06
0A10
F85C
F8D0
F8BB
FCE7
FBE6
FBB5
FCED
FD6E
FF7E
F9B6
FF83
FC3A
00C3
FFCE
FE01
FEC8
F790
FBF1
0749
FCE9
FA76
02A7
FE21
FB6E
EFD8
01A7
FEC2
031A
004B
FA96
0268
F96D
FA16
05A1
020C
FFF3
FB55
FE30
FCAC
FF1F
FDF1
F9C0
0597
0298
F999
FBCF
059D
01CF
FFDF
FDD5
0292
FD83
0753
FF84
0306
FB71
0162
01A3
0711
01F9
03B6
033F
0B13
02C0
FB3A
0208
0986
FEC9
FA5C
FD79
01E3
FF4C
01B6
FEF5
FE8D
FE87
FFB0
0482
F691
FFEC
04E5
FFD4
FF84
FAE8
FD4D
FF85
01B8
F957
0717
FBF2
FE7D
F9FE
FACB
FFC9
FD86
F381
FA7E
0129
FA84
04B8
FA2F
0038
FD94
F642
FD96
01AB
01D6
0345
018E
01EF
02B1
F5F8
FE67
FF19
FF29
FC4D
FA37
FE69
03E5
F9A5
FDB2
036A
FE17
FF61
0192
00E7
FDBB
067C
0309
06BF
FD4E
FDAE
02FE
FB6F
00C4
020E
FF3B
0293
022B
FBBC
039F
0739
0500
FD2E
02D9
0565
FCF7
FD90
FC8A
F8F2
0564
01AE
0316
0502
FF27
FB15
FE66
FE21
FC6A
FDDF
05F0
FFBB
FED9
FAFC
FFC4
065B
00AA
F90A
0151
FABB
00A4
F836
FB2E
00E8
FCE3
010B
FBD7
FBA2
F7F3
F830
FB3D
0285
F880
FB0C
03DF
FC7C
0498
01FF
FA52
FDB4
035B
006D
043E
000D
F2C7
0444
FD68
FD23
020D
0130
FB27
F6A4
FFBD
FFA7
FCAA
02A0
FB77
0224
0357
005D
FC8F
FA99
02B9
F7C6
FE6E
FAAB
F4CF
FB77
0190
FC75
042A
02C0
07DB
053A
02C3
025D
006B
0453
0403
04A6
0205
01C4
0300
095A
06D4
FD6D
08F1
0482
0143
FF69
01E8
0273
FC4C
062E
029A
034E
09C7
FD51
FE0F
F907
0087
024B
0367
00DB
FEEB
F855
F898
01DA
0991
F959
040F
FB55
006F
01B9
FFB6
0616
FE76
047B
FB75
FF36
FD64
002D
0345
F8DA
006B
0650
FF2C
FA15
040C
016D
0AC3
0074
07A0
FFA0
FAE0
FF13
FD5A
0774
0543
03E9
0186
04E1
017C
0941
FC89
01B0
070D
0115
FE80
FBB7
0293
0441
0141
0128
F9F1
0579
00BF
0018
002A
000B
00CD
05B3
FC3B
0268
056A
FE11
FC16
02C8
042E
057F
FF6A
FA89
06E3
0290
FE9A
F9D3
00A6
FDD5
03CD
FF6F
FF96
01EA
04D7
FB79
FFB4
01C5
062B
F4D2
0141
FE30
FECD
FE0F
FF91
00C3
01CD
044D
0A0D
00DA
FC2A
0183
0161
FBFF
0457
039E
FDFE
F8F5
050F
FE8C
02B9
FEE9
03A6
FC74
FA3C
00F7
FAA2
00FD
FB89
004E
F706
00B6
0198
0028
039E
0246
FBB1
FF8B
0081
02D2
FDFE
04CE
06A8
0477
FA9F
FA4B
026A
0787
053D
FFB0
0231
F994
012E
FC55
FD16
FDAC
FF04
028B
0571
FA99
FCE8
04BE
0110
0099
061F
FC3E
02B5
0055
FC94
F88B
FCBA
F904
FA0D
FFC6
0229
FDFD
03AD
03AD
0880
033F
FF66
004E
013E
FD7A
F767
006D
FC44
F9D9
0278
0002
FDA7
01B8
046E
FAAB
0660
0383
0193
FE51
0099
080F
082E
FDAA
FCED
FCE7
00D8
0287
0196
FF44
0167
FF2E
05D3
FF0E
00BE
029D
01C6
0892
0170
01FD
0525
FF9C
0293
FF1E
043C
0587
04A7
04AE
0372
0412
FECF
002A
014A
03D1
0385
0509
040D
07D3
F825
FF1D
F981
063B
00D2
0024
0285
04E9
05D7
02E1
02F2
FF3E
F7C8
0384
04EC
FEF9
0035
03EC
023D
FDF3
0499
FC25
03CA
0545
FC25
0886
FFEF
FA97
01FA
FF27
041C
FE41
007E
04A9
0406
0001
016F
02A5
04F0
FCBC
000A
01F1
FCEB
0017
FDA5
01B1
FAFB
FFB0
0779
0026
FD83
FCBB
0AF9
0594
019E
00A3
03B9
0271
086C
03AB
0444
03CF
0655
082E
FC21
FF1C
FBFB
F95D
FB95
08A0
F9FE
0049
FFE4
FB65
006E
0212
02BB
FFC3
FDC8
0315
FBE4
0053
FD96
FD53
FEFD
F7CB
0136
0370
F83B
028C
F9AE
FEF8
0384
FAA8
0115
041E
0048
01DE
FBE3
FC78
0706
F9DF
F861
0107
FFCA
00A6
FF54
F87B
FF48
FC3B
0062
FC42
FB53
0470
F98E
FF34
FD49
FEC5
F9BC
02B8
0312
F718
FE67
022A
FDA0
FEEE
0727
03CE
01D7
FB12
00A3
01F6
FFAF
FE1F
FF54
01EF
FBF2
03A9
05B5
FE36
01D6
FE53
FCC5
FCE6
03A6
02D2
FC73
FFEF
FC94
FFDB
FF2C
FAAA
F956
F574
0325
01B7
FE88
0150
0815
0144
0134
00DE
FE59
009E
010B
FF2E
0488
018E
FBB0
00F0
00F1
FF83
FB4D
F95C
02CF
FC65
0064
0599
FF07
0393
FE1A
FE4A
FFA3
FD33
FF29
FD02
F7F4
00F6
FF01
F731
F88C
0266
0100
FE8F
0224
0495
05FA
FCEB
09EB
012D
FA44
FFD1
00C0
F674
FB0F
FDBC
F6C8
FFD7
FF1C
03F7
FFC8
FC5A
02D8
FAF5
FC2E
FA29
FE6A
FA20
002B
FD83
FCEB
FBAF
020F
02D2
FE20
FB3E
FCB3
00B5
FC9E
F888
FAC4
0148
F958
02C5
FF2D
03B8
FCF2
FEBF
0166
FE90
FFF0
FBCC
FBFA
043D
F111
FCFA
F9C4
0197
0245
FF7B
0265
FB14
FDE1
006D
F1C0
0886
03F0
FB5D
0827
FF33
FF52
0478
FCB5
0532
076B
0268
03A2
04E3
001A
001E
FD79
01FA
0167
079C
FDD8
FC1C
FE15
0679
F8D1
FAED
FE7D
023F
03D1
0771
050C
FE73
02EE
0126
FE08
FBB4
0128
02CF
0721
01F2
026A
FD56
FDB1
000E
0134
018F
0214
000F
051F
081C
041A
0604
0663
01B4
0289
01CA
0701
0021
FE30
F6B1
FBF0
04D4
FC5A
0457
0C6E
FE59
00D6
0261
FF6A
0771
07D7
FBC9
0011
FA69
FC6F
013F
04D5
0020
0104
01CF
0486
F8F2
004C
038F
FB10
FFC6
00E9
FC61
04CA
FD5A
FEFF
01A0
F621
FCB8
FB81
0760
FEB3
FE7F
FFF2
01B3
FFF3
0035
01AD
FDD5
F92B
FF4F
007B
FD5C
0805
010C
F782
F7E0
00CF
FD12
021A
0135
FB45
0344
FD73
FE70
004E
FCDB
03F9
00C1
04AF
FD1F
0022
FEF1
F480
0922
FAF7
FC0B
0194
FEDB
00A3
01CA
0240
FBA8
FDF5
FD42
FB63
0404
FF3A
08CD
FD1D
FD61
FE91
0B45
0AB1
06A6
01CC
033E
FE9F
FFEE
010E
0572
FF93
0290
06BE
FA04
FE2E
0018
00A4
FBF6
FBA6
0845
01C9
FB13
025F
0072
0170
F6B7
0C45
FEA2
058D
FD1C
0097
00E4
FC5C
FE6F
01ED
02F7
021E
FEBC
0753
02F4
FF01
03F9
03F7
0174
00CF
045B
0235
FD10
FDD2
0938
038B
0342
FF34
00B8
FEAD
030E
0634
FA27
03F2
FE34
FCC0
0151
FF08
0515
FF2F
FC98
028A
0362
FD90
FFE0
0917
FF29
02FF
FE06
0674
0104
FEBE
0113
08CB
010A
0197
01DA
FCB5
0019
FE9A
07D3
FE73
0496
F93E
0287
0122
03E7
013F
FA9A
0344
0868
FB85
FDD8
0393
04D1
0345
0915
F8F6
00BD
FE2E
FD2D
000D
FA96
FFE8
074A
09CF
05E4
014A
0694
0194
06D8
0169
0312
F671
027F
FF4A
04BE
FF4F
0136
FEB8
FFC7
FF49
057A
0285
0A26
0862
FBA8
0997
0443
FC15
04FC
031F
F786
FCE9
F976
03D9
04C1
FBD4
FB97
028E
08D7
FBAD
FC61
FEA0
0164
016D
F832
FE9E
FCD2
F91F
02D9
FC24
FF6C
0691
02BC
FC25
0343
0857
06F5
09D0
05B4
FB63
F60C
FFAD
FDE4
015E
0264
0023
0AA6
FD15
0274
0144
F87E
F9E3
0355
01F2
08BA
049A
0066
FEAA
FCD6
FD16
0B09
0065
04BD
FC39
019E
015B
0294
020C
0552
077E
0481
0526
FF6B
FD9C
FF17
FD90
FF40
01EF
032F
0055
00D5
F90F
0534
0407
0804
032A
FC57
0194
FBED
060D
F9D4
FF36
00D3
FCE5
0872
0115
078C
002B
02AB
0207
0614
0860
FE41
FF98
077D
087D
0733
FB82
0250
0273
0789
110F
FD93
003C
0249
0307
FFF0
FCA9
01BE
FA90
F781
0163
FF05
0112
013C
FE76
F98D
FEFA
03E5
04E7
009A
00EA
0307
07E0
0260
FD37
0560
01EA
FDD9
06C0
04DC
0583
0090
FBCA
01EB
FFA9
03D8
0567
0304
FFC1
06C5
032C
0213
020D
FD86
01B7
FFEF
FA25
FFF8
032E
016A
FE42
FE34
FB82
040F
FF98
084D
FEF8
0012
00DD
03F5
0966
003A
FF37
0452
043F
FFA4
FB82
0323
FEEE
05C5
02DC
0750
05D2
0368
0289
FD26
FCD5
055D
00E0
0333
FDC3
02BE
0540
05F4
0730
0339
0118
0BC5
FB32
0053
FFD6
00B7
0765
05C9
0121
0580
FC93
026F
00F1
01A5
0083
01F6
FAE4
05BF
FE52
0342
FD55
FA42
0223
050D
FD4C
FB4A
02B7
037C
FE07
021C
FFDA
F677
FF19
0243
0157
0528
0404
0262
016C
08A7
012F
0801
00F7
0570
0084
0171
01B4
049B
03C0
0581
FF6F
FEEB
00FC
026D
FED0
0923
00C7
05AA
09ED
FF9C
032F
FD7C
FFA0
0162
0768
007A
FF97
094F
FDBE
0429
0179
FE60
FBB8
0725
FA32
FE75
FA3A
FD2A
0050
009E
07D0
FE6C
01E5
FECC
FAAC
03E1
FE1C
035D
0300
F61D
FF73
0874
FF0A
FC02
051B
0320
0B78
049D
03D4
035C
0174
0107
0100
FE08
06BE
00C3
06B4
FDBA
0045
FA7F
FFA1
0676
F70C
025A
0207
03F6
F8DC
FEB2
0255
02C9
FE89
00E6
FB8A
08C7
FF2D
0038
FE2D
044C
05AE
FF2B
004E
FD23
F84A
0232
FB71
FF49
F63A
FDED
FCD6
FD1E
01F1
FD3E
0463
F9A6
F992
FACD
F65F
031D
FEC3
0138
006A
0382
FDBC
FC79
00F0
FE20
FB4D
0213
FB73
F8A8
0327
00E5
0214
028B
FA85
F7AD
FA00
FFDC
FFED
061E
FE4B
FF3E
F942
022C
010E
FE72
054F
00D7
07EB
0A65
05E4
05AA
02EF
FE11
FF75
FC75
FDC4
FB42
FFCC
0331
FF18
04D5
0292
0178
035E
FEF1
FE33
FC0A
00BF
FF42
FAB5
02D0
0245
00DB
FB56
00BE
01B6
0515
00F2
02B3
042F
03CB
FB02
068C
FE4C
F6B4
0350
FE0D
FF3D
FAFE
001C
0532
FB8D
02C2
0215
FEE3
FED5
05AD
005A
0734
FF86
0707
008F
09F8
FCE5
0201
FF5D
FEC6
0AC0
046A
FD37
031A
0309
FDD7
01BC
FF95
082A
05EB
F79D
FC32
00B1
04F0
067E
FF25
056B
05AC
0168
FD90
FF3E
045B
0272
018D
FC5C
01FE
FFC5
0586
0358
F541
072E
FFB0
00AF
FE7E
FEA9
027A
F976
FC74
FF3D
FC7F
FE48
FF82
F932
FE22
FC45
0459
0660
0707
0257
063D
0115
FCE8
01A9
FF5C
00FA
088F
FEB4
038E
0522
04F3
1350
017D
FDCB
FF9F
0169
000A
01FC
031D
FEA8
FFD3
0453
02B0
FE78
0093
FE93
02BA
04C5
FFFC
FE3B
FF0A
04E8
0258
03D1
0396
0805
F78B
0391
0403
FDFB
FF5B
FE37
014D
0372
0316
0505
00CD
FEE3
06E4
F9E2
FC5C
FD73
0300
02C4
0875
FED0
0511
FD97
0757
033C
FDAA
FADE
0500
014E
0844
032B
0229
032E
FFF9
F9B3
0263
FB1C
0199
023C
FFB0
FE80
003C
FBE8
FCE5
02DC
FECA
0201
008D
FB90
00E2
FEEC
FF9D
00A7
0145
0069
FFB9
FDCD
030B
F9BF
F846
FF85
F981
F5BE
0165
00C1
FEB4
F999
FDD8
03DF
0353
024E
FEF3
021E
FDBB
03A1
FDF2
0674
0347
0560
F98B
FDF9
0064
008D
FFEB
FF90
FDEA
FE4D
FF39
FD99
FEBD
FB14
011A
F9E3
0291
0523
FF21
F976
F9AB
FF4C
FFB6
FAD8
02A0
0175
F752
F9F2
FAED
033F
044C
03CF
02C3
FE99
0B26
021A
040A
0457
0464
FFCE
011B
0306
01E9
01D6
FD55
FEF8
039B
FE47
045C
024D
02E6
F8A8
FAF6
00DF
FD86
F986
02D1
0935
053C
04E7
F655
FE8A
0030
0362
F687
FA60
FE9C
025B
0430
0327
043C
0203
0139
FB1D
030F
FB43
08C3
FB32
0591
05E5
FDD5
FF4F
FC9B
FBF8
0092
012B
00CD
FB1A
003D
02DD
0271
066A
018E
FFAC
05E7
F73B
FAE3
021A
08E4
025A
04A1
0084
00C6
01C5
FEA6
FA30
01C3
0233
0656
0579
0034
01A1
0965
057F
0349
FA5C
F963
0609
FC0B
03D9
F9FF
026F
FCA9
FDCB
F652
F940
FFA3
01DE
046D
03DE
01B6
0545
FE76
0431
05A7
0360
FDB2
FAAA
FDD8
0506
0604
FA3C
FC05
FDED
FAFE
02ED
0313
0262
0D15
FB85
FFD5
FEE6
05AF
FF2C
0663
08FC
00AB
02F8
FA45
FC37
01BE
F424
FDBC
02EF
FE3F
026D
01F9
FE37
F629
0189
0432
01A7
FD4A
FA33
FF32
FA96
066C
FD01
02E6
0040
0404
001B
0057
FABB
0073
FC18
010B
FF68
FC49
FE1D
F5FB
F9D7
FF1C
FF89
FA8D
0052
0325
FDEA
01D3
FEEB
FA84
FBF7
FCA2
FE16
051F
0412
030F
FBC0
052B
F973
0136
F7AE
FE8B
FB48
050B
FEF7
F640
FC6D
0296
FC9B
0235
FCA7
03BA
067F
03EF
029D
FF1E
F9C7
FF49
037B
F9F1
F6C1
FCD9
033B
00A1
FE48
F7CD
F632
04C0
FE53
FE90
0117
FD54
03CE
FDB2
0422
FF49
0239
F892
FC03
0796
FEB2
02A7
003D
FE14
03FE
FCB2
FC09
005F
FC8E
FC19
FAA0
0232
FE97
FF98
FE51
FF34
FEA5
FEDC
FFAD
FD05
0474
FC6D
F674
0687
FD1E
0434
06DE
FE1A
FC60
00D5
F9CD
FD67
FC82
02B5
0114
02D6
0377
007A
0334
0374
0137
FFEC
094D
0024
04B2
0AB5
F6D5
00C7
004E
02C8
0276
FECF
0090
FF5B
09C3
016E
002F
F1F6
086B
0002
021F
05EC
FD5A
FF53
01D0
0462
FD97
0476
01F3
FAE8
01AD
01E3
0651
0360
FED7
FD45
0038
FA3E
0336
02CB
0045
028F
FBB6
F8B1
FD18
FA86
FF43
0167
0A55
FA7E
FC23
FDD6
FEB2
FB62
FED0
FCD6
0D9A
02D0
0126
F87F
FFB6
0148
F9DD
F8AA
FBF0
FBF1
06E9
FEA5
FDFE
0048
FBF6
01E9
05BB
FF54
041A
011F
FDE6
FF3E
F8EA
012C
FC8D
FE90
02F0
F9A1
FAB2
FB56
FEFB
FE8F
0664
FCC2
FD86
01C3
04AF
0306
FFA7
FE2B
0344
04FB
FB25
FB2A
FE0F
0501
011B
FF80
FB49
0286
FD2F
FE41
00E3
F836
0293
01AD
FD04
FC06
05D8
FD94
FE51
0434
F7FC
FFFC
FFE1
FB2F
F961
0423
0295
0384
02A0
04BC
FB38
FB01
014D
017E
FFA7
03C8
FAD5
FA92
05AF
FE91
031A
047A
FFA7
0A29
FDEB
00A2
0029
FF3B
0144
0239
0099
030F
05FC
01E2
0460
012F
00BB
0504
029E
0092
016C
0223
FEF2
FB4B
0480
0064
042B
01A2
0189
0026
0780
FA74
0017
0196
0A55
FF0A
02D2
06A9
FE63
0027
000C
020E
F899
0465
0495
0569
052D
FB73
FB08
028E
FED8
FE45
01D4
079E
FB97
FE7B
02F3
0425
0564
04FF
F813
0371
0791
FDC2
0793
06A5
00E0
F87C
02A2
08D9
FED2
0541
0945
02D0
FE0C
FF73
0C02
04F3
06A1
FEE1
009F
FE2C
0399
07B6
FFB8
0647
01B6
FCD3
F9F6
0193
FE14
03B0
0119
0A0E
02E0
008B
FF34
0700
FC73
FBCF
00F9
FDFD
04D6
FC64
0567
FDD0
FECB
059E
FF4E
0506
0568
0708
F9F5
F865
0CEE
03B6
0289
F900
02D9
041E
F6B2
0494
0289
FDCB
0A65
0348
0843
FF0A
FD57
0305
03E1
0303
00DD
F917
FE90
FFD5
FBFC
F927
FCFF
F927
FF61
FBFF
03EE
FE9C
F8F2
0038
00FB
F965
0489
FF06
FFBF
FDBC
0164
FE39
0182
F863
FFA2
01C8
00D3
FEB6
F9C7
FFC8
04F8
001D
FC28
001E
F732
FFD7
FD3C
F9B7
01A0
FFE2
FCFA
F401
FBE6
02A6
030F
012E
FA53
FDCF
0472
FC5D
FC6B
05CB
F94C
FAF9
028E
FC07
FB53
FE08
01C3
00C3
F8CD
0358
0022
0667
F88A
FC22
FA32
FF93
FA8D
02FB
FEBC
FF13
FE61
FCFD
FEC3
F9F4
FC9F
F613
0274
FDAF
FBF6
FDD9
018E
F938
FD2C
FFAB
FC8F
FE23
0038
FDCF
FDB0
FB1C
FD24
00B4
FB54
FBFD
FE83
FDFE
FD1C
FD02
FAAF
FEDF
010A
0588
FE6D
FB98
F533
0131
01E7
FE78
FFA3
FADC
048E
0434
FCD1
FD77
FD35
072E
0660
FEB3
FE74
0502
FF2A
08CE
0145
FD16
0330
01CE
0A32
0328
FD71
009E
0676
FEA6
0941
FE02
05AA
02BC
FFF5
030C
08FA
FBAB
038A
0456
0127
FA7C
049C
0262
FF85
02F5
FF6A
03E8
0197
FFD2
0352
0501
FEF3
022E
047C
FD8C
0976
0052
0778
FD3A
02E7
FE75
068B
000A
F911
092F
0BBF
0308
0972
065B
FDF6
09C9
FA4E
00B6
04F2
0179
057D
FD00
FF12
0323
092B
0232
041E
044B
FB55
0513
02F0
FAB6
02B7
02FA
0132
03F7
00AF
FFBC
0109
FFC7
FDDC
FF9F
00DB
FECA
FCEE
FCDE
0540
FD84
0161
F531
F8D3
0540
04DD
FCE1
FEA4
018D
FCFF
009B
002E
FF0F
FCA6
01F2
071E
F65D
FC24
0349
FA74
FDC2
FBFA
FF27
0776
0755
0BD5
0135
0ED7
FFAF
F9B9
FAAB
FEAC
FD7A
0302
00D8
FC24
030D
016D
00BC
02F1
FA55
FEB1
F3D0
FE61
FC48
FDFB
F9A8
FB0B
F864
03B1
00B6
0370
FE82
0207
F9BB
FA50
FA27
FE60
FDDE
0172
FE30
FDCA
0176
FEC3
038C
04DF
FD5E
01BE
FE82
FDBD
F8A7
067D
FF45
0027
FC6F
04A9
FD7C
F8A4
00AE
FC72
FFC5
00AC
0843
FEA9
001F
0227
FC1F
06AD
F867
0817
003F
F778
FE7D
FEF4
FB4F
FEA8
FB0B
FAA6
07EA
FF67
FF1F
0354
015C
FCC2
0264
016D
FCDE
FD18
01B9
032B
03C1
0A64
05EF
0080
0479
FF17
07B7
01B3
0320
03CF
FD20
FFC4
01F7
FDAD
FE0C
FD49
084B
FC99
016C
05CE
0140
074C
FB67
01DE
0226
0495
02E8
F9EB
0A6F
01A1
01D7
02F9
00A0
02D6
FCCC
FF35
0AD5
02F6
FCE1
0506
06D3
FCA1
FD07
028E
FDD9
09E4
0B19
015F
FF50
FB52
FC42
0410
F659
0097
FF37
FF87
FFE0
FEC7
F926
FEEC
FED7
FF64
FE73
FDE0
FD8A
FCFF
01C5
02CE
001E
FD67
FE29
01EA
FF6A
FEB0
0455
F77F
FED3
03FA
F623
FB4D
FF12
005C
FFEB
026A
0B66
F709
FC08
FF52
FB42
FA06
FFB1
01B4
FEC6
011D
0050
FB4E
014E
FC2A
005C
FD81
012C
F955
FE41
0433
FFD1
000E
FD4E
01C1
00F9
FDD7
F422
0221
FB94
FD8C
0348
0418
FBDA
0610
FDBA
FE25
FD95
0058
FEC0
01F4
04E0
027F
F92A
FAFD
FCE5
FE51
F93B
01CF
FE13
FA94
FAD0
0362
07CE
06E9
0135
0141
FF35
0063
FA0E
034D
FD60
FF10
F8D7
00C8
F6C0
0604
FCC1
F75F
02F0
FE0D
FD53
FAAF
0057
03A5
FEBC
F8BA
FC18
FEC4
0370
0320
0572
05AA
07A3
07AC
0540
00E6
034D
F974
0060
F9CB
FA5A
0214
08F2
02A6
015E
FD0F
FE8E
FEF2
FDAA
00DF
FB33
FB11
0054
F81B
029A
F9DA
FA15
FE32
FF33
FFFE
0950
FE87
FE35
074D
04CE
040B
0023
FF6B
0B26
096C
01A4
05AC
0323
FDF1
FC8B
FC5A
025A
FD9D
FA4C
FFE7
FAAA
035D
0661
F9CC
014C
05F4
0448
FF4B
FF6B
0251
FB2A
FE55
029B
FDE3
FFDE
FEEB
034E
FEA7
FBF8
0A80
0113
FFCF
037C
055B
04A2
0251
FF02
FEB9
03FC
04C9
000C
0061
FAB2
FED6
FB7A
FF97
FB2A
03A6
FAF0
FD5C
0128
02CC
0301
05D2
FCB0
F625
00F2
059F
020A
F7C6
F97A
0318
FE46
FBBC
F859
00BA
FA0D
0828
0F71
03E8
0233
0282
FFCC
FC20
FFEB
FD24
02FB
FE50
FEE1
F9D4
006A
029D
FF0F
00BC
FAEC
FD44
0241
FDA9
FC0B
FDE1
FF31
059F
F90E
FED0
F941
FB87
FD41
F8F0
FF42
FF8A
044B
FBC8
F9B3
06A6
0234
017E
0430
0091
FC12
02C4
01C2
FDDE
02F0
0643
FC33
FB04
04F4
03DB
05E7
057C
FC54
FE50
0094
FC93
04EE
FCFF
0296
02F0
FB42
FE03
F91E
0860
00F4
FFC6
FB3F
04FE
00B5
05B4
0005
043A
FF86
FD3D
FEBD
FD88
04C5
FDB3
079A
016C
FCF9
025F
013A
05EE
FE71
0256
FDDF
FFB2
FF52
0508
0207
FBF6
FEE6
0341
FADE
034E
0427
FD8F
028C
047D
0302
F810
02F0
FB01
05DF
FEDD
F819
FB8A
014E
FEFF
00FF
FC9E
FE4C
FEA8
FCFF
F3E4
F8FB
03A5
0436
FB1B
FAA4
FB97
0587
FBF0
FF44
0286
FFCE
FD79
FA6D
FAA6
054A
FB49
FFD2
FF4F
02B1
FB55
FC7F
F85A
FD35
FD4A
033F
FC34
02D9
FA95
0307
0658
F667
FBDC
FA24
FC68
040A
FCA7
FD57
FE0F
01B1
0280
00D0
FE43
FCFE
FE3C
0776
FEFA
024B
F861
01DA
FFA8
022F
0026
0092
FDB8
FF41
FDAE
FC94
01A4
FCAC
027A
019F
06A2
0017
09F2
FE73
FB2C
0159
FCB8
FD6F
0573
FE12
FD7A
04B4
02E6
0B31
0317
0115
0585
FF03
02BE
FE91
02E7
016E
FF97
02F8
035B
FEA2
050A
07EE
05A1
090A
01C9
0881
0249
0067
08A4
FF86
06D1
FC63
0088
04C1
008D
FC76
FABB
0160
0332
0601
016F
FAED
FF2B
030E
0389
FAFA
F8BF
FC75
FE3C
FFDC
0110
F80E
FB8C
FC4F
FE86
F9B7
FA20
FC52
02B3
F95B
FF23
F7FD
FCB0
01EC
FF51
FC8A
FE97
FF0E
F879
01D8
0225
F833
FD39
01CD
00A6
0242
FBAB
FC8D
019D
03E9
FEBD
0132
FCA7
F8F4
F763
FCB6
05F5
F835
FDEC
F9F9
FD5B
F844
FFCE
FE36
FC0E
FDAD
0363
FF1C
F5BE
F31C
FFF3
FA2A
F70F
007B
FEAB
01C7
FC00
FFBA
0069
00E5
F89E
FC02
00D5
FD90
0041
F87C
FF83
0052
FD14
012F
06B4
0274
F8A3
045C
FE0B
FD9B
01EA
F954
FA7B
0386
0459
FDE4
0165
0036
FFA5
FDE4
F5D0
FE80
FC79
F651
FEF2
F84D
0104
FD90
08C6
02EA
F8FB
FD4C
01E1
00EA
FC41
FA0E
0BA5
0703
FCF9
FFD9
FC06
0553
04C4
0421
FDF9
FB8A
FD06
01D4
F743
FE27
FA6B
FE59
FF22
042F
00B5
01E5
00C1
0606
FBA0
0176
FBCA
FB83
FBAB
FC4A
0398
FFBF
FF08
FD14
023B
0467
FE71
FC80
0352
0A70
FDDA
060B
FCF8
0472
FF3D
FEDE
FA6F
04D8
FE91
FD69
FFF0
041D
FD12
05B0
FF61
04AD
0386
FDB5
FD61
FF45
01F9
056E
002E
FE06
0119
02BE
FF70
FE1E
FF07
FFDD
FE00
037F
06C3
02ED
FC99
01F8
FC1D
FF7D
047E
0219
0DCA
07A1
F654
FED1
06C3
FE81
F9DF
0235
FBAD
023F
F795
F8AC
014E
07BE
FEDD
03E0
FCAF
FA8C
FF9F
00D1
0196
006B
00C3
FFEB
FB4B
026A
FFEC
FD3D
F955
06BE
0135
07FA
05D1
F9EF
FEDB
006F
F556
080D
FD86
FB35
FC01
01E4
FD57
04B5
FDA8
FFD2
FDA8
033B
FF60
016C
FF1A
FF39
0061
FCA8
FB7F
00C9
028F
F867
FC3F
00ED
0304
FDDD
FCB5
01B8
0A70
FC9D
04AD
032E
0733
F320
FF1F
0595
FE19
FDB7
0295
FE37
00F0
02A5
0381
FF5A
FDF5
FEAA
033A
FE6C
0244
02C9
0D2F
FCDC
FEAC
0472
FFC2
0164
01FE
FAE5
FDFA
02C5
FE7F
0560
01B5
0AE9
FE21
0090
0041
FDE2
0626
0193
FEBD
0290
061D
01D9
0231
0204
01A3
01E5
0415
0599
00DB
0092
02D5
01D2
0B1C
FAA9
0494
FAA1
FC2B
0134
0C8B
0A0C
068E
FF65
0144
FE36
0105
FBF3
F87B
0575
052B
FD55
0082
0520
FD71
FCC7
001C
0991
01BC
00A6
02EC
011E
054C
0030
FDC9
0571
0124
FFC1
FAEB
FC95
0538
06AA
00A8
079A
0313
FFBA
FF4E
FF93
0359
0102
006D
066F
0496
024D
0133
01CB
FFD7
02DD
0160
FDFD
013E
0241
0311
FA04
00F8
FFCF
02F1
00E0
07A8
026E
03CB
FFFA
0050
FCA2
FA87
08D3
0880
06C3
00DE
026D
FB30
FF24
00DD
03DF
FA81
FFE8
0123
0004
0408
F516
FEF2
FA9D
04D8
0056
05FF
FC37
05B0
FE82
00A9
FD12
FCF2
0533
007D
FBFE
0121
F780
FE0B
FD25
FE9A
0018
FF81
00AE
F686
0490
F900
FBB9
FF2F
079F
F4EC
022B
FBFB
FBFE
0386
FAF7
FFBE
FDBF
0012
00C8
041B
FFA9
FC36
064C
0348
0397
03BA
FC57
0085
03C9
FBB7
F5A0
F18F
FD97
FC43
014C
FDA8
F9D6
04E2
FFD0
02FA
FE81
056B
01F4
FE7A
0365
00D7
01FE
02DD
FE46
05CB
0120
0282
0721
FE4C
FFE3
FBF4
FFE0
FC15
FEBF
F504
0420
FE50
0097
FDA8
097E
03AC
0134
07D4
FB02
FF7B
019F
066E
FD7B
0166
FE4E
FB0A
FE9A
008A
0465
FF96
00A4
0047
03CA
00C2
00C7
FE46
0249
052E
FE7F
0637
00C4
FCCF
FD54
020F
FFA0
081E
07A5
FFC1
01A6
02E8
FB33
007E
0168
06E1
04ED
FA91
FBB7
FAAA
0518
FFCE
FF7F
0791
FCDE
000E
003D
FDDD
08FA
06D8
FE28
032C
FFF7
03F0
0038
FFDB
FFD8
FF21
FF4A
FF54
07ED
026A
01F9
053B
04BF
0044
0045
03DD
FC61
FE0D
F9E8
FD4D
FDEA
F945
0753
FD14
0574
FE79
0A0F
0342
0062
06E1
01C3
05F4
FB3B
0066
0230
F840
FDDA
FCEC
0D2D
0CFE
0336
FEF5
0837
033A
FEB2
FFBE
058D
0212
009D
FBF8
FEED
0278
066A
FF59
0429
0263
0412
FF7F
0351
0445
0662
06E5
04B6
014F
FA42
FC92
00BE
FBA4
FCF7
0360
FFB9
013A
FD9D
051E
0163
FFBA
FDD8
FDB8
FBD9
029F
01D6
FD3A
FA64
FDD6
FBCD
FEB0
02E5
FB97
F79B
015D
FA53
FC50
0045
051D
F78F
01BD
FC52
FBF3
0D32
049B
0671
01B8
02CF
04A1
00DB
00FD
016B
015E
05FF
FE25
F91D
0013
007E
04B4
FE1F
FB56
F15A
0245
FCF0
FD69
FFC3
000D
00D5
F827
056F
FCB2
FC54
05DB
03E1
FB3C
FE49
FE8A
0508
F952
02F3
00A6
FF59
0227
021D
F50A
FE94
01E5
00BC
FD0C
FF56
FEE9
F93A
FBB9
FE0F
043C
0457
021D
0072
FA2D
02C9
030D
FCF6
023E
0182
033B
0277
0187
FC04
FEC3
FF8F
0084
F697
F79E
FE96
0373
FF11
FA9D
04EC
FCAB
F906
052B
FC72
FE22
078B
0347
FEE7
FB18
FAAB
FE43
F99D
FDE7
F9EB
0183
019D
0119
FE96
FF58
0106
FD0B
043C
00AA
FB28
05BE
018C
052F
00C6
FD33
FD8F
0150
02B6
FC02
01C2
FD1A
0026
FC68
FA46
010E
FE26
FC66
FBFE
FEC6
FE3A
0266
FB66
0418
FDF2
FB7A
FE53
FF2E
0537
FDD2
FF76
FABF
0249
010C
FC45
FCC7
0041
FFF8
F1AF
FEE6
FBE1
FD21
0230
0076
FFA3
01C6
01E8
FB90
03C1
FCBC
FEE4
064A
01A3
FFB7
02A4
F758
F65C
0171
FC08
FCEB
0168
FDAE
FECA
0ADA
F9AE
F7BF
FD53
FC98
F44D
FF85
FF8F
FA49
0072
FD56
0193
07D5
030A
0020
F6F8
FDAF
002D
FC59
F9B7
FF47
06F2
0962
009B
0334
008E
FDB0
0166
F096
FA39
FFED
FB32
FE45
FBA4
071A
0314
FF60
07CE
F94E
FE72
067D
01DB
00BE
FAE3
07CB
FAFF
0334
0036
005E
FB28
FCF4
02EA
F6CE
F9FC
0261
0332
FF7A
F675
FC1C
0184
FB84
FF37
03E9
FC72
FF1C
FDC6
FBC5
F78A
FF5A
026C
097D
FAC8
FAA9
0333
FC79
FF7A
F98D
FDD3
08DD
FF20
FF93
F5F2
FA85
0334
039C
FFF4
0530
FCF9
0289
F9BC
F9F1
02C6
05FF
FA09
FBBC
0154
03D8
FAEB
070D
FB50
F642
00EF
FDED
F793
FCD4
02FA
03B4
FE1F
005B
027D
FC84
FE7C
021F
03D4
F892
F9D7
FE7B
FD82
FD36
07CF
FF13
FABC
FDA8
FE1F
05E6
F8E6
05CF
0080
FF1C
FDF1
0470
01FB
F9BA
00FF
FEA0
F636
01BB
0138
037D
0139
029B
02B7
FBAC
FEC3
FCD7
FABB
FEAF
0055
00CE
FE8E
FDD0
FF57
FDDD
FAE5
0136
0588
FB26
04CA
0078
F943
043C
F753
0878
F926
F442
FBDC
