08FD
0A43
F6CD
FF06
0663
FE20
061C
0789
FD69
03B2
004E
FE31
0263
F72C
F77F
0007
08CE
0417
F80D
06BB
0583
0560
0792
FAF1
FE7E
FF11
0914
F572
FEEF
FDD6
F7A2
F7F0
FDD8
06A9
084F
05C1
06AE
0923
F8FB
F905
0757
033A
FDC3
0264
06D7
FB33
004B
FA98
F77B
FEC6
088B
0582
F9A5
FE7F
0063
F9F3
042D
045D
0817
F7BD
FAAB
F854
FEF9
05A0
FA53
F900
041E
0729
07CE
04F7
0498
04BB
00BA
05D6
FC9B
F7E0
05AC
09A4
FE39
0307
FCB6
FED6
FF4A
FF8E
F86B
FF3E
FA8B
0A2C
FEF0
FC11
FCD8
0614
082A
07CE
FC2B
FA38
0753
028B
098E
05A6
FFE0
059E
02BF
F817
FAD7
F6F7
08A0
F56F
012F
F9B4
FCC1
FD7B
05EE
FF67
052E
FC3B
FC18
0AB3
01EA
F78E
0131
00F2
0259
00F0
FAA6
FCBB
05F2
0772
FAE8
008F
F6D1
FB9B
F872
F406
F899
0016
FCEC
072B
06E3
07E7
F8EF
02F7
0753
FA0F
0AE6
0666
021F
07AC
FADC
0437
FF1A
FFAB
0477
027E
0067
013D
0289
FD5D
0563
FE90
FA79
F702
09BB
04E1
F74C
FA5C
022D
09B9
FAC7
0954
F622
FD87
FC45
0285
0575
FE40
007B
F965
0350
0995
F7EB
032B
0142
078F
014B
FC26
F863
F53F
F6A8
020C
F6A4
F8F6
F943
048F
08F2
0130
FE4B
FB46
F8A6
00E6
01F1
04F9
FAC7
FBA1
FAAE
FAB9
FF0C
0017
F9CB
03A3
09BE
F8A6
FE77
0318
F6BF
F6E9
07EC
FEAA
0478
0446
0253
0731
F9FB
F5C3
0728
FDF1
09A9
0779
F7E5
F97D
06CB
FBE2
006D
02D0
F792
F8D0
03F4
0014
0775
F6B7
089E
0096
F5CB
061D
0B70
FB00
0024
051E
086E
0404
F680
06EB
F739
FCC8
03C5
F64C
01FC
048B
025F
016B
06DD
03F3
036C
010C
FE24
039D
06CC
F8AC
0385
0297
060C
FBFD
03BD
08C9
04E6
FA9E
0732
037B
083D
FA34
FDD7
F97F
04A2
009A
0032
001C
069B
FD7F
FF7A
FBA0
FAE9
0285
0712
F940
0C1E
F92F
05F0
0826
063C
FE99
FFB0
F6C4
FA79
F938
0669
00A2
F637
FEB8
01F4
0976
0775
09D5
0897
04B8
FF58
056F
F712
F837
0ABB
0779
0027
FE92
0CAE
FA78
09AB
F6B2
FED3
08A8
FA5A
048C
085A
03EF
FEDD
077D
0211
0144
0311
0566
FC1A
03E5
0877
02F8
0454
FC80
F92C
06AE
FA78
FDA7
F835
023D
0048
FEB1
02EA
F7FF
F9DC
FB3C
F69B
01BC
FD5F
F7CC
01A0
086C
02AF
FC9F
016B
FC02
0381
01DC
0729
0784
03A3
065A
FB40
096B
01DD
FFC2
0490
FD9E
F9CB
FDF6
FBA8
0C51
00EE
F94B
