023F
0291
FDB3
FFC1
0199
FF88
0187
01E2
FF5A
00EC
0013
FF8C
0099
FDCB
FDE0
0002
0233
0106
FE03
01AF
0161
0158
01E5
FEBC
FF9F
FFC4
0245
FD5D
FFBC
FF75
FDE9
FDFC
FF76
01AA
0214
0170
01AB
0249
FE3F
FE41
01D6
00CE
FF71
0099
01B6
FECD
0013
FEA6
FDDF
FFB1
0223
0160
FE69
FFA0
0019
FE7D
010B
0117
0206
FDEF
FEAB
FE15
FFBE
0168
FE95
FE40
0108
01CA
01F3
013E
0126
012F
002E
0175
FF27
FDF8
016B
0269
FF8E
00C2
FF2E
FFB6
FFD2
FFE4
FE1B
FFCF
FEA3
028B
FFBC
FF04
FF36
0185
020B
01F3
FF0B
FE8E
01D5
00A3
0263
0169
FFF8
0167
00B0
FE06
FEB6
FDBE
0228
FD5C
004C
FE6D
FF30
FF5F
017B
FFDA
014B
FF0F
FF06
02AD
007A
FDE3
004C
003C
0096
003C
FEAA
FF2F
017C
01DC
FEBA
0024
FDB4
FEE7
FE1D
FD02
FE26
0005
FF3B
01CB
01B9
01FA
FE3C
00BE
01D5
FE84
02BA
0199
0088
01EB
FEB7
010E
FFC7
FFEB
011E
00A0
001A
004F
00A2
FF57
0159
FFA4
FE9E
FDC0
026F
0138
FDD3
FE97
008B
026E
FEB2
0255
FD88
FF62
FF11
00A1
015D
FF90
001F
FE59
00D4
0265
FDFB
00CB
0050
01E4
0053
FF0A
FE19
FD50
FDAA
0083
FDA9
FE3D
FE51
0124
023D
004C
FF93
FED2
FE2A
003A
007C
013E
FEB2
FEE8
FEAC
FEAE
FFC3
0006
FE73
00E9
0270
FE29
FF9E
00C6
FDB0
FDBA
01FB
FFAB
011E
0111
0095
01CC
FE7F
FD71
01CA
FF7C
026A
01DE
FDF9
FE5F
01B3
FEF8
001B
00B4
FDE4
FE34
00FD
0005
01DD
FDAE
0227
0026
FD73
0187
02DC
FEC0
0009
0148
021B
0101
FDA0
01BB
FDCE
FF32
00F1
FD93
007F
0123
0098
005B
01B7
00FD
00DB
0043
FF89
00E7
01B3
FE2B
00E1
00A6
0183
FEFF
00EF
0232
013A
FEA8
01CD
00DF
020F
FE8D
FF76
FE60
0128
0026
000D
0007
01A7
FF60
FFDE
FEE8
FEBA
00A1
01C4
FE50
0307
FE4C
017C
0209
018F
FFA6
FFEC
FDB1
FE9E
FE4E
019A
0029
FD8E
FFAE
007D
025D
01DD
0275
0226
012E
FFD6
015C
FDC5
FE0E
02AF
01DE
000A
FFA5
032C
FE9E
026B
FDAC
FFB5
022A
FE96
0123
0217
00FC
FFB7
01DF
0084
0051
00C4
015A
FF06
00F9
021E
00BE
0115
FF20
FE4B
01AC
FE9E
FF6A
FE0D
008F
0012
FFAC
00BB
FE00
FE77
FECF
FDA7
006F
FF58
FDF3
0068
021B
00AC
FF28
005B
FF00
00E0
0077
01CA
01E1
00E9
0197
FED0
025B
0077
FFF1
0124
FF68
FE73
FF7D
FEEA
0314
003B
FE53
