FAA9
0559
05B2
FE40
FFD7
0941
FBEF
F900
0721
02FE
0610
00CE
031B
0922
0761
F992
FC61
00D0
0A8A
F98D
0AA1
FC55
F814
0383
07F2
FFCE
FDEE
FAC9
087F
094D
038E
08F5
016C
FC73
FC93
0005
03D7
FE74
0AD1
FE19
F8DE
0083
F781
FA73
076F
0A7B
0430
FDF5
FF89
FE7B
FB49
01D8
00E8
01E6
0AA0
014D
FDFE
FB78
00EB
0B1F
F99D
FFD2
06DC
02DB
0462
001B
01CC
046E
FED5
0115
0490
FEB1
096A
0981
0649
080B
061B
FA39
F6E9
F87E
0543
056D
07F0
044F
060F
F88D
00E6
07E7
08DE
0229
02F3
01F4
F8C3
0564
F980
FB3B
0394
0932
03CD
FE62
FE6E
066A
FCF6
01B9
0DBA
FB6E
F771
F966
0223
FEE0
010D
064D
04D4
FAFA
0507
FB09
05D0
F9D6
0159
0774
0964
038E
FB5C
FCC5
06BD
FA1D
FB68
FAFD
0206
0605
0A2E
F657
F811
FD35
09C3
FB31
FD5B
09EE
08FF
0616
0665
0148
0A1D
0501
04E4
0637
0017
FC99
0403
FF68
0995
09D4
02AF
FCE7
F8D4
06A3
FC7C
FCF4
09D7
008E
0857
0494
0161
F7B5
F850
048D
0657
F999
0212
0090
0A1E
057B
04F9
0033
FC57
053F
0455
05D4
0927
FE54
03C2
FCAF
028D
096C
FB86
FF32
FD8B
0818
0578
05A5
076E
00A1
F9D3
077E
09AD
049B
0808
052D
0878
03DB
01CA
FC7E
07E1
071F
05C5
FBFA
F783
FF7B
FE6F
0057
0182
FAB2
03F2
FE13
FE91
053D
FE59
03C8
F851
0265
FADE
0454
FF10
F7BF
F6AC
0747
02C4
FCCF
F9D7
0A78
FF62
F8B3
FFA3
07DD
FE33
FF71
0072
0013
FAC4
0169
FDD8
07D1
08FA
0186
081B
0542
0112
08A4
0BAB
0908
08FF
0896
0120
06A9
FEF9
01AD
F608
0471
096D
045A
FD35
FA05
0519
044B
01D6
01AE
04CC
035D
F6BC
0093
FB26
FAF9
FEB0
F9FE
0CE3
FA2E
02AB
09ED
F4E4
018C
08FA
FEA9
0649
043E
0561
FB59
F762
FDC3
F88F
F92C
095B
0740
05F7
FDE5
0078
0264
0724
FCD2
FAD8
0947
01B8
0BBC
0596
0632
0996
FF4E
0E2D
027F
FF61
0215
0415
059C
FE32
067C
0427
FD26
0023
F650
0033
FCE0
F7E6
FC20
FB11
0755
F733
045E
F39E
06BB
FBAC
0089
FFC7
084F
FE2B
FAD1
03CC
F863
04FC
02D0
006C
09BD
F630
F6A4
F7C4
FFFE
FF26
015A
FD89
F7FA
F893
F935
F9A7
FD7F
F994
F7AE
0455
FBB2
FD60
FD52
FDDD
0593
FDE4
03E7
FE99
0194
FF1B
FBAF
071F
0273
F698
F6C4
FCFC
06C7
FFAA
FA1D
F851
F9CC
F7FA
F78A
063F
01E4
0062
FB06
F8B6
09EF
