0136
030F
FE71
01FF
014E
FEEF
FDE6
FFE2
0114
FF6A
006E
0066
FF8D
FE71
FF40
FE46
00EC
FEFD
0150
FFEC
FE79
0111
FE5B
FEB4
015A
0199
FE76
0132
006F
FF58
0106
FEF3
0152
01B7
FD6F
FE55
010E
FF6F
FD9E
FDE9
0107
000D
0275
FF45
FF11
0199
00E9
00E1
FE3E
01AA
01D4
FF94
0127
FF99
FE63
0051
FCC8
FF01
0129
FEB7
000E
003F
0157
00EF
0028
0215
FF0F
FFC5
0016
FFF6
014E
FD60
019F
FEAE
FFD7
FEBB
FF5A
FFDA
FE90
0056
026D
00BA
02B4
0382
00B9
FF98
014E
01B0
FE72
00F5
FE6F
FF13
0153
FF1F
00BE
FFA2
FFD7
00B7
FDD6
005E
FD86
00B8
FE7A
FF22
0065
FE32
00A1
FFE0
FF31
0092
FE0F
0031
FF22
0134
FF6B
FF8C
0032
0069
00A3
0159
FFCA
FD60
FE72
FEDB
FFC7
FF07
FE91
014F
FE60
01E4
01CF
FE9F
013D
FEA2
FE58
017B
FEF1
FF49
FCC6
FFBB
03D3
FFF8
0052
01EA
FEB2
FCE2
FEFB
00A0
00D4
0130
012E
00D8
001B
FE00
FCD6
FFF3
FDEF
FE08
00C7
00D5
FF6F
FE10
FCC3
FF6D
FFB3
FED3
FE2B
FFCB
00D7
0073
0109
003F
FF58
FF2B
FE7E
0111
029E
FEDB
0253
00FC
00CE
FD7A
0101
0056
FFC1
0044
FF19
FE7F
0101
004E
FF60
FF22
005D
FEED
01D7
003E
01B0
0190
00C4
FFB3
0163
FF4A
FE48
0241
FEBA
FEC4
FE4C
0016
FF46
0027
FF75
01A2
0170
FEF6
01A3
FFB8
FF1B
FF56
01C4
FFBF
01D5
0047
026C
FFC2
FDA5
005A
0447
028D
013C
FF4D
017C
0067
FF57
025F
FF71
FE31
0171
FE94
FB4D
00FC
FF2F
00A0
016B
0134
FF96
FF88
FFF7
0122
01A7
003E
FD88
FFAE
00E8
0148
FD1A
01C1
01A6
FE02
FFA6
FC46
0037
FF8D
009F
FF62
FD67
0085
FDA2
FF78
0483
FEA5
FEE1
FDFA
FED8
FF36
FE85
FEE6
0127
0245
FE00
FF51
0066
0288
00D1
0067
0051
FE39
0011
0074
FE90
FF48
0035
FF06
0149
FE46
FFCE
FEC7
0048
FEB6
0101
00ED
FE90
FFFA
014C
0158
FDF1
FE4A
02C2
0189
FE72
021D
FC64
00C6
FE84
FF2A
FF79
012C
FE38
0145
FFB2
02A9
00D1
FF86
00A5
0141
01FA
FEF4
0075
FE06
0080
FF22
039E
FF87
FFB1
0011
FF6C
FF02
FD49
FE44
01B0
0010
01AC
018A
FD78
FFFD
FFF9
00C1
0255
FED7
FE57
FEB6
FE66
FF57
FF3E
FFB0
FF82
0070
FEB5
0125
0043
0212
012A
FF9C
00D1
FF20
010D
0373
FFAE
FF54
FEF5
FE7E
FFBF
02CC
0049
FE6D
015B
FCF3
0111
0075
FE8E
FDE8
0248
FF2D
004E
FF36
FED1
FE29
001F
FF23
FEB2
FFC6
FF8A
0074
00DE
0184
FE7B
FF0F
00D7
0005
FF14
FF2F
0130
01F5
0147
0244
0260
01D0
FF7E
FF2E
0203
00C3
00AD
FF78
FFE3
00C2
FEAE
FC77
0065
01FA
FF4A
FEC4
FC10
FEA8
FEAA
FF3F
00CC
FFFF
FFF6
0093
FEA1
FE52
00AB
FE9C
FF0E
0305
001E
FFAA
FF55
FF96
FD7A
0005
0283
006B
0237
0067
FE47
0073
0071
01D1
00DF
002A
FEAD
FFA6
FEA7
FFD6
00BD
0093
FFB5
0223
012B
0189
FE34
0050
005E
FFF1
FE53
FFBD
FCF4
008D
01AF
012D
FE4A
0077
FF5F
01C9
FEC3
FF4E
FFED
FF80
0024
02B8
FED7
FE53
02BA
FF5A
010A
FF29
FF87
FFBB
01A3
FDBF
FF2C
FDCA
017F
026F
018E
01AE
00FD
FE37
0076
0072
FEB8
00AF
FFA0
00D6
00F8
FEB8
00A6
FDC6
0011
FE96
0188
0018
FE48
FFBB
011F
FF1F
FFCA
019F
0013
013B
FDDF
FEC1
019F
FD83
FE4E
0015
0052
0045
02FF
02E4
01A0
0079
FF76
0128
0030
0173
0229
FF35
FF2C
FD0E
0035
FFB4
02D7
006C
02EE
FD61
00A6
0238
01B8
003A
FFD1
0005
015D
FFFA
019E
00A8
FCED
0034
01E2
FFCF
FF52
03D9
FED3
FE6E
FE27
008C
023C
0296
FFAD
002C
FE61
010F
FE0F
FD90
FECF
0051
009F
FD5E
019B
FFA1
0034
01A2
0008
00FA
FEE1
FF08
FE53
006C
FFB9
FE3C
018E
FFE0
0074
FEB5
002A
FE7D
FEEC
FDFB
0005
FFA7
00EF
FD27
0014
FE52
FFBB
FFB6
014F
FFEE
FF23
0022
01B6
FE8A
FEC8
FC77
FF31
FFBB
FFA2
FE74
FD1C
FF57
FFD2
FFEF
FFEF
007C
FE24
0350
0005
FF30
0050
00CE
02D7
00CB
FF87
FE7A
FE62
FF91
FEBC
0220
0015
015F
FFD8
FE3D
FDEE
01D5
0058
01BC
FEDF
FFD7
FF5F
FDE1
016A
026A
FECE
01C7
FDFF
00C5
01BC
FEF4
025E
FD3A
FFB8
FF2E
0112
FDD2
0054
009E
FF3E
FF63
00B5
FD88
0104
0176
010C
FFC0
FFA1
FD21
005E
00B6
FEC2
FF93
FFF8
FF8C
002B
FF53
FF5A
0185
01ED
FFCF
FF0E
FF88
027A
FFC4
FE83
FF66
FFC4
FFB3
027C
00EF
0000
014A
00B0
00F3
0020
0017
FF4A
017D
0020
FE86
015C
0017
0159
0333
008F
007A
FF3D
0215
00AF
011E
FE2F
013A
0068
FFCE
01DD
FEF7
FE7B
FF7B
FFAC
00E5
FEBC
0089
009C
FCF7
FFF0
01E6
004C
0154
01A0
FEEE
0071
01D3
FE4A
FF3B
00EA
FE35
0069
004E
00FF
FE8C
0044
FED9
FF94
0226
FF96
017C
FE83
FF6B
FF3D
FFE9
FE2C
00A9
0029
00D0
008D
FF41
0193
FEEC
FFC2
FF82
00F3
FDF3
0169
FEF8
FE29
0126
00DE
0313
FF23
0025
00A4
014F
0023
FC64
FF0E
FF58
0096
0273
009A
00BB
0014
FF0D
FEDF
0234
0071
FE9D
006C
0163
02FA
FECB
0252
0111
FFCE
FEBB
FF18
016A
FE73
0105
004A
0047
00EB
0037
FDFA
FEE0
00E0
007A
0032
00EE
01F0
FF7B
FFD5
FF70
0097
FDFB
FFDE
FFD7
00C7
FDE3
00DB
FDC5
008A
FE7D
007F
FF02
01B4
FFDB
FFCE
FFED
00DC
00CF
0236
FFEB
FF65
FE43
FECE
0251
0132
FE8A
00A9
0122
014A
FE93
0042
00DC
00A6
FEEB
FE85
01B9
0189
FF5F
FDA9
FEFA
0076
FF6F
00C7
FCBC
01A0
0227
FF55
013B
FD9B
0112
0296
FC08
FFB4
FFB5
FEB1
FD59
0066
00B5
012A
FEB5
FFAA
0033
01BB
FE1C
018B
0216
FEFC
0083
0036
FDD8
FFE5
0012
FED8
0226
FF79
01BA
FFE1
FEE8
00E3
FEB0
FE88
FF56
00E2
FFAA
032A
0225
FE99
0032
FF48
FF11
0104
0145
0203
FFBE
0027
FF45
FCE2
00D9
0022
FC48
FFE9
FEA6
00F9
00A4
00CD
FD18
FF53
00D0
007C
0048
FE35
0207
0014
FF33
FF5F
0007
FE83
FE1B
FE41
FFE9
0089
008C
FFE7
FFE1
0069
FE32
0171
FE3C
FF02
00FB
FEE8
024C
FEC9
FFBB
005D
FF33
02D1
003A
FF24
FFB2
01F2
FFE0
00C2
001F
009E
0118
00F2
FF6F
01E8
FF3B
FF43
0049
FF6E
FF6E
00F5
035E
0265
FDFF
FF18
FE25
0006
000B
FF8A
00D8
FFE7
0255
FF63
0147
0020
FF18
FF5E
003E
0121
036D
FE7D
FEDD
FE29
FEA0
00AE
0137
FE78
FF65
010C
FDEB
FF24
00D6
01BC
FFFD
0011
FF73
FDBE
FF4B
FDA0
00FB
FF14
0053
004C
0053
FFAF
018A
0086
FF51
FDED
FF44
