F76E
F87E
FF70
00A2
FAE0
F6E5
09B3
FF59
F282
07CB
0A00
0553
0588
F6F5
F615
F9C6
0481
069E
014A
F519
FC3D
F552
FC1A
F95D
F9D0
FE14
0511
F2BC
0838
0595
00E9
F497
004A
FDDF
0026
FFA6
0567
0773
09E3
FF11
0E06
0746
FCAC
FB6A
FDF8
014F
0407
07F3
FC7E
FB60
0580
FFB2
0719
FCB1
009A
0E14
FF8C
FBE3
06FE
0770
0AF4
0B51
070D
FFD2
01CB
01C7
01F5
0102
093E
0767
F45F
F3B6
021D
05AF
04F1
FB29
F718
09C1
00E7
F726
FCBF
F45C
0CBE
014B
015E
FB87
F87A
07BF
FEA3
FAB5
FDA2
096A
FC65
F69A
0212
044E
F90F
F5A8
F3CD
F9EC
F9E6
015C
F723
0118
01ED
FBE1
F066
00AB
F9B2
F94A
046B
0084
FC3F
015A
F540
FE8B
F8FD
0440
F405
075D
07AD
F793
F22B
F39D
FBF2
06D7
FBA4
0A3C
F831
05F0
FA10
FD32
F846
0654
05FC
F191
067E
FBA6
01C5
FE07
0908
0E27
0B51
02BE
0713
09F2
030C
F820
01D4
00D6
0252
056F
0CAC
FD6F
03E7
F721
073A
FEAF
03DA
0C1A
F45B
0432
0203
01B2
F9F4
F477
F993
F928
0120
F5D4
0661
F654
F878
FBE2
FD90
04BB
FF6E
F58D
0670
0143
0443
FB21
F3EE
FC54
051F
083E
0042
F59C
F755
F7E4
0656
FBCA
07C7
09B2
0973
FD91
0020
F71B
0AB9
FE6E
0725
05FA
046F
FD01
0B4D
0961
105C
089A
07F6
03D5
0A6E
0211
049E
FBD1
0913
F7FA
FD10
0023
0057
0482
0D4B
01A5
F902
FDDB
F91F
FCA6
071B
0384
0577
F9C7
FA4A
0B5D
FF95
FE97
01E6
0876
0C4A
FB99
0F97
0502
0BAC
FEF8
00B7
0895
0107
FF3A
0317
0397
0225
016C
F974
0974
FD2B
04B9
0435
034D
FCB1
FD97
F9EB
FA35
02BA
F519
FF60
FEEF
FEA3
F46C
FF74
FEEC
0723
04A8
FD5C
054F
FEC2
F8DF
F780
03E0
F485
0813
FF64
FCCA
FADE
F34E
F747
05D7
F839
0A76
F2A5
F9B3
0C3B
0D94
F6DF
0A85
FAF2
FFCF
08BF
F8ED
FE71
0A7C
FDEB
0137
032C
FF0E
04D4
F8E6
FBB4
0BB0
FF5B
0001
04D5
0AE6
F848
FB12
F9E0
096E
F979
0929
0BA2
0694
FD0A
0B78
F9C8
08AC
F8F5
FACB
062E
0778
075C
04E9
FC7C
0EB0
0788
F88D
0456
FF2E
F8A2
07AB
0D14
FC2F
05EA
0568
FF82
04E5
0099
0981
065A
FD95
F8BD
FC50
FB66
019D
0B55
FC2C
03A0
F398
F9F8
033F
037F
F51F
FDAF
F75E
F9B2
0DD8
00CD
0983
F9A1
0AB0
0130
FD34
FB47
0597
0553
FE55
0080
0CE9
0291
F4BF
F1E9
012D
09BA
03C1
07F8
06AF
FA14
0170
FF60
F64F
F94F
FC18
08D1
0303
FAD1
00D0
FB91
F1D4
0205
05F6
062B
FF19
F2BC
0782
F7EB
05DB
03D9
FADB
F8AF
F8FD
0873
FE7B
FB72
F6A8
FF62
F50F
01CB
F7FC
F478
F692
FD64
F3BB
FFF6
F633
08ED
0305
FDC4
FAF5
03D0
F909
01C4
097B
F7BC
FBAD
FCA6
F6C7
F60A
FE0C
01D2
04C4
F263
076A
F4E0
03D2
F979
F840
FD80
F667
FAEA
03D1
0444
0C1C
0496
F780
0793
044C
07FB
0639
0C1F
00E8
FB36
FEC7
00E8
FBE1
FA1E
07B2
0B97
FABB
03AC
FBCF
FBD6
0888
FC85
F8FC
0A28
F968
01C9
0922
0E09
01E2
FE4F
0B38
05FC
FD31
F633
0661
FAFD
0358
FCD3
F069
0069
F174
F412
0647
F905
F6B5
F9C4
F30A
F7E8
F1FC
FAE3
F5AE
073B
0479
F4F8
FC27
FCAB
FB44
FCD8
00E8
F525
F982
EFA8
F478
0423
FCAA
067B
0039
F76D
FB6A
F9D3
0AD8
FBAC
07CF
F813
086D
FB30
003C
027F
0AEE
0003
0C74
059B
0449
F917
FA0B
0AA5
0455
0682
FBDF
F75A
FE52
0987
04C3
FCBD
F56D
F9D8
FFD3
0661
FCCE
03BE
047D
FB96
FE96
0603
0153
00AF
02A4
F88B
09B1
FF32
FAEA
08F1
F94C
05CC
0C2B
FF84
0C84
0B89
0623
06C8
FEC5
FD8C
FB89
0A08
FECC
0727
FDFE
09D7
F918
FEEA
0063
FECE
0916
13D6
FBD1
FA3C
0859
079F
0E22
0D2B
FBE1
0A8F
029C
0376
FB02
047C
008A
08DA
FAF8
0359
032C
FAEA
FE74
0F56
01A2
072A
1116
029D
FA49
FF40
09F7
0033
0F41
054C
035E
004D
FE7D
0628
FFD0
0162
08B9
0510
F8FE
FB5B
015D
0172
0A84
0AE2
0997
FAC7
0C57
FC46
FEBF
0AEE
F7DD
00FA
0BDD
FB2C
F918
06A7
00A8
014D
F593
0AEF
FA39
040C
F8F0
0895
042C
055F
0D1C
098C
0EA9
0823
03F5
0FBA
13A1
0767
0E09
089F
05E2
05CD
0545
09B8
F73B
06CF
0A67
FE50
007C
00FD
0822
0BCA
FF6B
035F
0A57
007C
F998
FEBC
F83C
F6C9
0E95
01B6
07E0
FB60
0D57
03D7
0146
0E02
FB26
0ACA
F9D2
073B
0315
092E
0A15
0694
03F0
00CA
0406
0394
F872
F9E1
0B37
FE5E
01BC
0A38
077B
FEB6
05C7
FC3C
073C
F5C0
F953
FD34
0605
FF42
F7E9
FC39
F53A
0D7F
098A
0FE8
0920
0BB0
FAEF
0031
F944
0879
08FA
0531
0600
05CB
FDB7
FBC3
08FC
0D1C
0B72
094E
FC20
F9F9
F6D4
034B
037C
FDDA
F3C4
F483
F950
0194
FF53
0453
032D
FDAB
F15A
F7BF
F560
02CC
FB57
F4A0
0911
F134
06F7
08AA
F5EF
F6B2
F4AB
F5BD
F697
02C1
08A0
088F
F786
05E9
F23B
FEB7
0029
08A9
0452
F240
FFB0
07B3
F6FC
0671
F66B
0C67
FE9C
F232
FB18
030B
03CE
0858
FF59
FB00
EBBD
F06D
0E05
FB8C
FFC8
0B37
05AE
F60D
0EFB
F62A
0779
FBE8
056B
0E06
F869
FB82
F8B5
0EA0
06D1
F81D
FCA6
0DBD
04CD
0385
F9DA
0468
0BFF
0465
FF97
053B
0A51
06E5
0DEC
0785
FBDB
F9EF
F8A2
098B
060F
065F
03E2
FD7D
0352
0DD5
F91F
FA94
06DF
FCDC
071F
F8F3
079E
FDDF
07F2
00ED
F585
0296
0015
09BA
F965
0D58
FB3D
FFFE
FF5D
FF41
F909
010C
0CA7
0D6A
0143
F97E
F9AF
0539
01E0
03E5
0B6A
0393
0755
FB33
0628
FCE8
F2C0
F4C2
FEC7
FE8A
F7EF
F524
FAF9
04FC
F79C
016B
FA07
01F2
04C5
F7EE
0117
04A3
0411
042C
F6F9
0780
075B
0058
000B
018E
F93B
F5CD
02C4
0C05
0D4D
F795
03BA
F92A
F9D7
00F5
04C6
FA0B
0088
02F7
F983
077C
FD42
102A
F9DC
0D03
0332
0582
0794
082E
FA60
03D0
FFA2
FABE
052B
01F2
FB56
0240
F7EE
034F
00AA
F9A6
060A
F625
FBFD
06DD
0488
FFB6
035E
01FE
036E
01A7
F58C
FF34
08F5
063F
0C90
FF04
03D2
02FB
00CA
FE53
F8D3
F7F2
0572
0A97
0D36
0EE8
07C4
FD2D
0615
0382
FB47
F963
0853
FFF9
0950
F56F
00D5
024D
00E2
05F6
FDE3
FA42
08F8
0897
03E5
00B1
F80B
F92E
FF7F
0517
F2AA
FBFC
F5E3
FD1C
FD29
F31D
F6E1
0866
FF1E
084F
058E
067D
06F3
F569
F316
F4A3
F711
F737
F8D5
F95C
00EF
FD90
FBFB
F90C
084B
06A7
0659
F3BC
F378
F113
F3E6
0623
FB55
003E
FB1F
02F0
00F1
F86B
FB87
019E
F957
F868
FE61
07A6
02C2
039A
0759
F8F6
FFFF
0C42
02C8
FE55
FE49
0D37
06F7
01C3
FCE7
094B
077F
0D68
FDE3
08C9
03CE
0606
FBA3
06C0
00E4
FF07
005C
0BD9
0961
04BB
FA9E
073C
0B5B
0323
FE7D
F942
FB6C
0879
018F
FABA
FE47
0675
02D6
FBF8
F3B9
0398
FC94
042F
FEEC
FC4B
F4AB
F9D0
05F5
F851
08D1
0177
0154
FED8
FB3B
F7C0
03F0
FF4E
0077
F0BC
09A3
F880
FC13
0D18
F857
FCBF
FB7E
FF76
048F
03DC
0765
0D7B
F9ED
0B6A
0696
FEF2
09BE
FEEB
0C53
1028
F832
0D21
F931
0C94
FB7F
09B0
0810
FBE6
F697
0AAD
0343
062F
F542
0CFA
FDFD
FE71
09D5
F92C
0C23
FF50
0D5E
015E
029E
0694
0C94
F7F4
013C
FCD6
FEA8
0BCE
FE96
045D
006E
0E18
0D97
095C
030A
FBC5
06AB
0B7E
F7B7
FC66
02B1
FD42
0915
F98B
0244
01B3
0369
031F
F8E9
01F0
F97B
FE12
F8B9
047F
027D
044B
0A60
0188
F8EF
069A
F4EC
FED2
0288
FAFD
F918
FD76
0683
F9FF
FB84
0677
0503
0192
01A6
F53A
F6FD
0004
F473
01F5
05FE
045A
F6B7
F6E0
049B
F4A2
FDE3
F499
FFEA
F52B
0596
F06A
FDA3
0404
03BB
013F
F58B
003C
067C
FE6F
0416
F8B3
FD29
00EA
F708
0161
0613
F160
0586
FD1E
FDEB
0F06
0714
0AF2
FFB9
06A6
FF5C
00C9
0CF6
FE51
0688
0B5D
052F
0ECC
0332
FBED
07EC
0EF3
00E8
FF36
FAF2
009E
08AC
01CD
FB56
0DAC
0AC2
09A0
0911
FCF2
08AA
06F0
0005
0547
F978
079C
FD89
FF2F
06BA
058D
1007
F54B
0865
0038
FF88
FF18
FD66
FBC2
FD38
FC7E
0854
F7CB
00F3
FEEA
043B
0414
FC8F
FEB8
0345
054F
FDD2
FFC4
FE06
FBC9
014F
0134
F36D
01DB
0023
FEF9
01DC
0372
FF64
FFF7
FF83
0845
F4FD
0425
0002
0401
F44E
EFD9
0768
FBD1
F525
F2BC
F637
F64D
F5BF
FBB2
F68A
FBE4
0235
F50E
05CC
FA74
FEFC
022A
01AB
FFFA
0118
09A8
FE27
FD82
081E
F8F7
09D3
082A
0524
0080
05A7
04AA
F934
066B
01D1
FBE2
0575
0073
03C5
FD71
F9C0
0DC7
020E
0C23
05E4
09AA
F803
F799
0778
0193
FD08
04DF
F6C3
05DB
FBFB
F3BE
0655
F472
FC0A
F3CE
03D4
065E
F73D
FCDF
0169
036B
FD03
00BE
F78B
F962
F786
F4B2
F362
06E5
FEB0
F802
FFEC
FC55
F54A
FD01
0316
02D0
08C1
0638
00E4
F3F3
F52C
00DB
0281
FB43
0588
03B9
08CD
F7CC
F1A6
0370
076E
FC7A
FB67
F325
0649
FEC3
0910
FB21
FE18
FB73
F9BF
FD18
04D2
0059
FF75
FE65
072C
FC10
014A
08DE
0B6C
FF81
0A66
09D4
FA71
0B15
FA41
038B
F510
02BF
0225
0FE7
FB54
0EB0
FFCB
FB94
0645
0784
0D23
091D
00D9
0C72
FBBD
0602
FEDB
01B5
0952
FA92
03D4
F32C
F38C
0592
06AB
F4E8
F6B4
F55A
0746
FE2A
F5F2
015A
F7A1
FD62
F9E7
F7BF
0680
F810
037E
05C8
F45E
FFC5
06C8
F71B
0619
F2EA
098A
FD2A
FF75
F9B7
05C8
065B
F77A
F8C9
03DB
0455
F778
F7A8
02B5
06E9
02EC
06DD
0E63
0590
FA9B
FAB3
0553
03E9
FCC4
04F8
FFA1
04D8
F9B7
FA31
09E5
053B
085B
F75E
0A11
0BA2
FD5F
0C4C
0516
0021
FE7E
F909
F3DD
07F6
FCBB
FAF6
F9E3
F80E
F5A8
FFE8
0675
F94C
0139
03F7
FA8C
F97E
FC7C
FBD5
037E
FDE6
F578
FA9D
01E5
F96B
0062
FC9E
0206
03D9
0078
0571
0286
0534
0B04
0278
02D5
09A5
090D
04AB
FBDC
FCCA
FDF1
0041
0AAE
0A44
FBF1
F96F
0BC0
F8AA
F826
0399
FB61
FC1D
0AAA
08C7
0712
FCF4
F95E
FC13
016D
FFA6
FA87
0470
FC23
0C3C
FD0D
F8C8
03F9
043A
01F8
FC08
F331
FB70
01FE
F975
FDD9
09F0
FFF6
07ED
FDBB
FD18
FE6A
FE86
03AF
0C4E
0054
04F6
F938
02B0
0289
FBA2
06A4
F20C
0724
00C6
F674
01CE
08FD
05D3
015B
0AF0
F801
F36E
01E5
0A66
FB09
F02E
F8A2
F19F
0883
FE02
FD88
041D
FCB8
F887
F9A3
FD66
FFA3
FF45
039C
10C6
F27B
F142
F3F1
03C6
FD7F
02B6
FE84
F79C
0134
061A
005F
052E
FC06
FAA5
0D40
04F2
0A0B
FC12
F701
00C3
FC79
F856
01FD
FC21
0D5E
FF81
FAB5
0641
00A5
FB8D
FFBA
0428
034B
FB28
02B8
008E
000C
081F
071B
F78A
F781
02C6
FA5D
0810
0934
F86D
0509
F8B1
06CF
0BE1
F917
0737
F606
01D8
0961
0C01
002F
FF88
FA01
FF1B
051B
FEC6
F9BB
FCAF
009B
0C8A
0C75
089C
FFD8
0A65
FDFB
0BB6
0E5A
0580
0AEE
FE11
0926
08C4
F8EA
0049
0E97
F949
0142
0D1F
F629
0A23
049B
0242
098D
FD1E
07F8
FB75
FC87
087C
F755
0606
04CF
0C39
0831
0F20
FC29
01F0
02D2
0737
FD28
FE9B
FE73
F750
F696
FF8A
0744
FE2C
FB5C
0AB5
FEF6
0315
0021
FBA3
FFA2
FCA3
02D0
024A
03C3
FEE7
F906
0862
0755
0A14
02CF
021C
FD73
FBE4
F9FA
049A
F5E9
0492
007B
01D4
FE20
F60C
090C
FFA7
016A
F187
05C0
052A
01F2
FB3B
01BD
FEF2
0953
FD5B
F58B
F162
F598
031D
F595
F6E1
F344
F5EF
00B1
FFB3
0865
07C1
0A04
0633
034C
F5A8
06F2
FA86
FB3C
F8FD
0599
09F3
0ACF
0D2C
FB37
F8B3
06D5
FF72
0668
0B3A
FAB2
00AD
07E6
0084
076D
0D81
FBD2
04BF
02E0
F9BC
0D8C
0169
0667
0ACE
F7D5
FC78
FB16
06C6
0467
0C6D
FC03
FC59
0405
FEE4
FB1B
FA15
0166
012E
04E4
FE59
0354
FD5C
088E
FD78
FB5A
0DE8
06D2
0D60
08EE
0A9D
0143
FE3C
01B2
F97E
FB44
0D48
05E9
0798
FF7B
0982
FF29
FECB
064E
0867
FFF8
F4F2
FADA
FB0E
0216
F391
F780
FBAA
03ED
02FD
F3C4
0A2F
FB48
0B9A
0846
F5C9
071E
067D
08D3
04E5
FB5F
F769
F89B
FF03
052E
F4D3
05BE
F935
064B
0784
000F
05F5
0412
063F
FD4E
F6EB
F315
F4EF
0317
F322
F72C
F9AE
FB91
05B3
079C
F73B
0396
FFEC
F9A5
F73F
0500
00FC
F57D
F5DB
FA56
010D
05D9
F593
F8AF
F91B
0AB6
FF3F
FF6F
F7FE
08DE
FED0
FAE9
F8AE
FA40
F3AF
FA56
F826
036A
0377
FD4B
02B9
F724
05CE
0209
00CC
FC38
064D
069D
02A2
00BC
FC84
F4B0
02E1
F61D
04E2
F804
0223
0448
0320
FA81
0012
FE7D
02FD
FD25
08B0
091E
053C
FC25
02A2
0145
05D2
1177
0816
0BD6
0C54
F839
0A70
FF1E
05B3
0B07
F2F5
0351
0CFC
02D1
F889
FD74
0C3A
F77D
06E1
126D
F300
F6EA
00D6
0774
0834
F830
F09A
FE51
00F2
FE3D
F444
F4DB
033F
F545
028F
FBAF
048E
06B7
FDF9
0600
0361
FAE8
F05A
F3E2
0164
0232
FE7F
0188
FD10
FE41
F0D2
06B4
0279
F9E0
FACF
00AB
F3FD
F83B
F453
F648
0152
0596
F4D4
05E5
F697
00E0
00C0
F5B3
F833
FAB4
0513
FA7D
004F
F6B6
F340
FE9B
FAE8
FD5C
00E5
0035
F842
04AC
F74F
FC0A
