FF6A
018D
F9F1
FE97
FE95
FEC7
FDA7
F5C7
F619
F6DC
F5B1
086F
F648
FC5E
FDC9
09BD
FE32
0430
F72D
FABD
005E
EE0A
007E
05F3
0660
03FF
F6CE
F9E4
FF2D
FEF0
F5FA
FC50
038E
0569
0135
FA06
024E
0423
002A
002F
FED8
0553
FD20
013A
048D
0350
0525
FC86
FB46
025E
0186
FA12
FA37
FD9F
0145
F685
FF49
004C
0416
FF05
F7FE
FB94
FA0D
00B2
FD3F
0030
047A
FF11
02AB
0496
036E
FDBA
FE6E
FC11
FDC8
05AF
0AF8
019C
00F2
0933
F9E8
FF66
042A
054A
0430
032B
015D
0B2D
F9A3
FD78
FAFC
02EF
FE30
0870
033F
0B34
03A0
0321
F016
F5DC
FC4D
FE24
0115
F4B2
0752
F752
0670
FD3B
0285
02B4
FDD1
F614
FAFF
F70C
FEDD
0EBA
FDAF
FDDF
F876
FC2F
016B
F48B
FBF0
0159
08C0
F7C1
FBF6
0485
F773
FC57
0946
FC86
022B
012A
00B3
FBD4
06C9
FE36
FF04
0B43
037F
0501
006A
0216
04F4
0473
FD3A
0338
0402
FF8D
0409
FAF0
0245
FF40
FFE5
006F
044A
FB7C
0197
03FF
F550
EE4B
0093
FEC2
0790
F89D
0026
FF80
F94A
0DEC
0248
076A
0130
0A70
0867
FD2B
06EB
FEBC
0330
FB84
F964
0490
FB7C
084F
0279
0150
0427
FC6B
F8BF
F53F
0561
006F
0998
053F
0838
0392
00B8
FCB4
FD46
056A
FC29
FE4F
0592
07E7
0EBF
FF82
05F0
0834
008A
01F0
07F3
027B
00F2
FC41
FBF1
03DA
F971
FF50
F1F7
FF00
FBAD
0C8E
09AA
FC5B
01B2
FD19
FC55
01FA
F86B
FDBF
04B5
006B
011A
097D
FB6A
FF6C
03F6
0049
0271
0499
0EF3
F30D
FF5A
0022
000A
08A6
FC17
0077
FC6E
0749
0691
00A8
0851
0028
FDDF
F898
FD60
FF2F
FA9C
FA72
F99F
03C7
0322
FD0E
024E
019C
0217
FD79
06E6
FBD2
FFF7
0430
FDC6
0C8C
FC2B
020B
0983
02D5
FC0A
002B
F674
F992
0120
0047
0149
017E
001A
0705
FAC0
EFF1
FE6A
F7CB
FD5C
F3AE
F780
F7A2
F735
F8EF
036E
FEBD
01DB
0083
FC07
FE7E
0268
0962
084B
0068
014C
F5ED
FEA0
F3F0
FF22
05AA
F888
05A6
0310
FBFA
FF53
FA0E
F5BF
01FB
FE24
0295
FF6C
FE8C
FAE0
FEBE
01F2
FFFA
01F3
FBDA
FD11
FFB2
F82F
FA42
F6C0
FCAA
EF36
058D
F469
FFB2
057A
F8A5
FCB7
FBAA
FA46
06DA
F82D
0167
0151
F945
FECF
0866
FAF8
FEFB
F799
06CA
08CB
F81E
FDBD
011A
FE85
F933
04B6
09F0
00A0
0304
FCAE
087B
08DB
FBFE
F4EE
FB67
F1B1
FB2B
007E
F831
022D
0125
FF80
FEDD
FA4F
F85A
02A7
01C5
FD03
FD98
FE88
01B3
1060
FF23
FEC6
FFB5
F8DB
0D4A
FEFF
FB40
FA34
FE0C
F707
0804
08AA
01FE
FCD5
02C1
05A9
012A
03AB
079C
057B
056A
FE65
F615
0412
046A
F849
FEF1
0467
026C
097D
F911
006D
FD9F
FFE6
0256
FD0E
FAB8
F580
00C7
FAE3
007D
0B31
0494
0150
F62E
F9CF
FD9C
FDB8
FF86
F047
F82D
FB8E
F929
0003
0338
F74A
0037
F349
0036
F7E3
047D
FF3A
FFD0
EDC0
08A0
0050
FF04
FC1A
FCA6
07B5
F52C
EEC8
FE09
042B
FDB2
0668
02A0
0031
FF66
FA94
038F
0436
F8F9
F5A4
FEA5
FBAA
FF42
FFA4
F9E6
FE23
03A2
FA1E
082C
F98D
047D
0255
015C
06BE
0E61
04C7
FC53
023D
03EC
05B0
00A3
0770
FEB5
FF2A
F5B7
F7E2
FBAC
007F
0AE8
FBDB
01C3
00B5
FEBF
06E5
F99A
015D
03AB
059B
FF80
0517
FFB1
F6F3
06BE
F922
FFB0
08C7
FD72
08D2
05CB
F58B
0220
FC19
0ED6
027F
F7F2
08BF
FDF5
09B2
0420
0422
016B
0376
F6BD
0265
F9E1
00BC
FBF1
0CF5
06FC
FD91
FA6B
09B8
026A
02BF
0119
0443
0545
0460
FEE8
FF22
F8EA
FC7D
F3DC
F7B4
010C
FCFB
0107
FAD3
FF24
0410
F5A2
FFFD
02B7
F433
01A5
FE3F
09D5
F8EE
F7D4
02F1
FC9F
FC75
FF9F
02E3
032F
0714
FE9B
FBD4
FA04
FE4C
05D8
FB8A
0958
F94D
0528
075F
0398
011D
FCCE
FEC3
0B51
F797
06D2
022E
0B19
FC84
FCFC
FF9F
05BF
01E4
04F3
0655
0769
0F46
0843
018F
FDBB
04D6
F781
0822
0703
F6AB
FF77
FB8C
0146
FD8D
0144
0879
F601
0F96
0A47
FAA8
04CE
0146
FED4
0973
FF0B
01EB
0236
FF5F
07C6
FF96
FBFB
0531
02C3
FDBA
FF16
F712
FCD8
FE61
00A7
05FF
005E
FCD0
02EE
FE27
FD57
057F
FA69
F8DF
F910
029B
FF9F
FB51
FAD0
0214
F798
01FF
033E
FFDF
F7D9
03B3
0783
FEB1
0590
03F7
0186
FAF6
F99D
06E9
0EC7
0288
001C
FDC8
F6D0
F859
F8CA
F6F2
F7D6
F958
0249
FA7E
F266
FA35
FC6B
FD52
FD6E
F539
0536
FD2E
F9E9
05A4
EEF5
FB43
FF10
0422
0A65
FE13
FCD6
0241
0C29
FAFB
069E
039D
0377
0066
086C
00A5
FEB6
0B03
0875
FEF0
0986
FD23
03B1
FE45
0382
0728
FE2D
00A8
0504
0093
009A
F816
FA9E
06D4
FF91
FE95
F6D8
FAEB
0313
FBD8
FBE7
0595
0143
FFEE
F9BE
FA9C
014D
131A
FBBE
028C
05CA
F6D1
0B50
0255
FB52
FDA7
04E0
FB40
FC83
033B
FF0E
0031
01FB
08D6
0291
FAF1
045A
FEFA
0983
FB52
FC82
098E
FD31
FB0B
0928
FD41
0E74
FA7F
0419
0029
FC4C
FDF2
FCA8
FF8B
039B
0172
0402
0A3B
FD33
0389
02E0
0259
0278
0BF2
011A
0752
02F5
01F0
F5A6
06BC
FDE3
FB32
029C
F731
026C
01B4
05EC
07AD
FB74
FE54
01F9
FA82
F570
FD1D
FD4F
FF81
F29A
FA99
F31A
FEA7
090D
FFF6
F65E
FF63
0B77
028C
FFCD
00E0
FA99
F946
04C6
05B8
F679
0266
FAF2
03F2
FB78
028F
FBC2
064E
0E9F
0BBA
FFB6
002D
FEF0
08B3
FB52
08DF
07FE
00B5
0598
0924
00F3
00AA
FBEA
048C
04CC
0AAD
F4F7
04ED
FBCF
079A
0915
044D
02B3
06D4
0361
F515
027E
F702
0143
0618
0612
FAD7
010E
FB9D
FD02
05F0
081B
021D
FA90
FF05
FBED
FAE7
FEE2
FF3A
0671
0167
0373
FB4C
0505
026F
FC8E
FB3E
FBD2
018D
01C2
0231
F81B
0133
FE11
0631
F687
0702
06A9
FBCF
FE99
021C
08B7
01EC
0BA8
0591
FF53
FAC8
0784
FDAE
FD37
03AA
06CC
0A41
089F
F9BC
FB74
FEBD
FF56
0172
07A6
0573
04D1
F261
0264
04B4
0645
0A87
02DF
F8D1
0744
FA82
0BCC
F6A6
0101
F8E3
003D
F6F0
F723
F21A
FD69
0690
FE9F
FB6F
0321
0276
FB83
F6B6
FA71
F967
0072
016D
0911
FB7E
FEE6
FFD5
0880
F7E6
F7A6
FB33
107E
FBA1
FE11
060C
FD53
FA10
FCA5
F77A
04D8
0683
0828
FDE6
015E
F3EE
FF13
FE0D
01B0
0949
FC0C
00AA
F99F
FA86
F663
0768
F4B3
FD0E
EEAF
0356
030D
0955
FBCF
FCD5
02FB
0135
F670
F98B
056F
FABA
FEB6
F8EE
F930
0581
018B
FA59
09C8
FBC5
FAA6
F7D4
FB77
FBA7
0C51
FCBD
FB6C
FA0B
0296
06CE
0941
0054
0422
044E
07C5
