FFDD
FF1E
FE89
FE05
FDFC
FEAF
00AF
01AF
FEC5
FE6C
FF46
0075
FC1A
FCFD
FC33
FD04
FD98
00C0
FE4E
FF90
FCB6
FE5A
FD87
00B6
000F
FE20
FCC1
0007
FED1
FFDF
007A
00A1
FF29
FF15
FC3F
FE54
013D
FD37
FEC9
FF7F
013D
FF1D
FF79
FFC9
016C
FD32
00AE
FD0B
FCB6
FD4F
FFA2
FF21
FCFA
FFEF
FB85
0029
FFE4
FB63
FFC6
0032
FF60
00B9
FFFC
007D
0309
FE66
006A
FE64
015F
017A
0192
0197
014A
0025
FD83
FE13
00A3
01E4
0204
FFBB
04D2
0023
00B7
FFED
01B3
FDE3
031A
0045
FC65
0049
0415
01AA
01DD
015D
005A
01E7
FDB1
FE2A
FED0
01C6
FF83
002E
00ED
FC4B
FF70
FD1F
FE83
0314
FE45
FF17
FDFB
FEDE
FEB7
0009
FE8F
FF84
FC48
FF1E
0088
FFD9
FF26
FEB3
FD80
00BA
FEA8
FD14
FDEA
0010
FF96
FEA4
FFDD
FEE5
FDE4
0034
0319
03A1
FF1A
FF92
00A8
02FA
037D
01D5
031B
023A
00FA
01BE
003A
0255
0212
0155
FE92
0067
FF8B
00D2
025E
00D4
FF5E
02BA
00B1
026E
00BF
FF28
00CC
00F5
011F
0146
01F7
FFC5
FFAE
0049
00D2
024D
027E
004D
0066
001F
00AD
0286
0219
004F
0078
FF7D
FEF7
022B
00DF
0135
01A1
FF9F
02CF
FC9A
FF98
0219
000E
00D2
0160
02DC
FD3D
0260
02A1
FF96
007B
FE5A
02AD
002E
0256
0012
01BE
FFF5
0006
0057
00F4
040C
0173
FF52
FFA2
0241
FF4F
019B
FF0F
FF71
022B
FE7C
03A8
010F
01EC
0096
FF48
FF45
0152
02B4
0282
FF2A
00F6
FF6F
01B8
00A0
FEF3
020F
039E
0054
01D1
001E
FF5A
02B7
0015
00F5
FE99
0156
0027
FEF8
0359
00A7
0230
FF6D
00C0
FF52
00F1
032C
00EB
0103
02D0
01CD
022C
FDF7
FEEE
FFF9
020E
FECF
0139
031D
028F
FE90
025B
017B
02D5
FFAF
FF37
FFF6
009E
006C
FF26
0092
0107
FF3C
03A7
FFFC
0006
FFDD
FED7
FF92
FF5C
FF94
01AC
0053
FCF4
FE54
007E
0070
FFA6
FEBC
FC6A
000A
FEEF
00AC
FF02
01A6
0086
0102
FD35
FEDA
FFE5
FFBA
FD75
0167
FDDF
FD0F
00E2
FF66
FDF6
0066
FCBA
011E
0032
FE3B
FE66
FF45
FF23
FF1C
FEAB
FC32
FEB6
00D7
FE4A
FF88
FDDC
FF9C
FF56
01F6
FC52
0301
FE95
006B
005A
00A2
0000
FD16
FFEA
FFA0
FE1E
01E9
00CD
01DA
0044
FF55
FD4E
0056
FF66
01B7
FE90
0193
FF3C
FF5C
FC6E
FFD6
01C2
FCC6
FE7F
001C
FD92
038C
FE19
FDF6
FF98
002C
016F
FFB2
FDCD
FE18
FE2F
FDBC
FFFB
0087
FF08
013C
01C2
0178
FEEE
0508
01E8
0159
FFF2
FF7F
00BF
FF69
02E7
FFB9
01C7
00BA
0158
018C
0005
011F
FFBF
02DD
0112
FFCA
FFEB
FEAA
01E1
009C
00B9
0230
FFE6
001B
046B
029B
FCF7
0138
012D
0138
0087
FD69
FFFD
FF37
FF2E
FF7F
FED1
0106
FD2C
FE58
FE19
FE54
FE6E
FFE1
FB25
FEEF
004E
FFEF
00ED
FEB4
FD94
FB1A
FF69
00BD
FDF6
FFA2
004B
FDEE
FD89
FF02
FE98
002B
FF25
FD82
FFAE
FD83
FE4E
FE2A
FFCC
FF7B
FF86
FC67
FC78
FDF5
FDF6
024A
00E4
FC89
FF35
FFDD
FEF6
01AA
0036
FCA1
FF47
00C1
FF92
0224
FE9D
003E
007D
0203
0145
0254
FEB6
FDFE
0125
0082
00D1
00BA
00F8
FEB9
00E5
00A7
FFDA
00E0
00A1
FD9E
00F7
FE68
FDFE
0062
0153
0180
FC97
0331
0061
0087
03DE
FF23
0195
011B
017D
032E
01A1
000C
0086
00D1
0186
0172
FFA6
0166
0105
01D2
00F0
02C7
00BF
0134
0306
009C
0135
0083
00F3
FF01
FED1
03C4
0176
02F1
00D5
FE4D
FF6A
01B2
0149
FFA6
0221
0002
FD1D
FF82
00A3
02B1
008C
FE5E
0004
FFD6
FC96
0239
FF52
FD1F
0078
0032
FF04
0087
00C9
FDFA
FEDC
005D
FF15
FF4E
FE37
FDC5
FDDC
FF48
FFDC
004D
01AE
FF64
028A
0249
FF63
007F
FFB7
022F
FEDB
017D
024E
FEF2
022B
001C
021E
023B
0206
0054
02F9
01EE
0133
019C
03EB
007B
0255
FEF3
00D1
FE0A
010C
FFFC
02E6
FDF3
00A3
0176
00C3
0232
01CE
0187
FF2D
FFAC
0296
01F5
FFCD
FF89
003D
005C
02D0
FF9C
FD5F
FE80
0250
019C
0202
004E
FFE5
FFCA
01B4
0138
FF2A
FFE4
02B4
FF9C
01D2
01A9
0094
FE1C
FE03
00FA
FF58
FD0D
FFB1
FE7C
FFEA
FD4C
027B
0066
025B
FEDF
00F8
0031
FCC6
FEFF
FDA9
0113
FCE2
FED1
FC86
0170
FEFD
FFDA
FF6A
FE28
00DB
00D9
FCCE
FFA0
001D
FF9E
0097
FDA4
FDF9
0111
FDE9
FF60
00CE
FCB3
007E
FFC8
FF1C
FDFE
FDEF
FFB4
FCA2
00E3
FF38
0063
00EF
FF0E
FC68
FF0D
FD3B
FF4F
FF61
FE64
FFC9
0035
FF92
00FC
FEAD
FF8B
0244
008B
FF1F
FF08
FE61
0166
0068
0156
FE61
00E1
0142
FC61
0251
0335
00F2
02C0
04BE
0234
0026
02FB
0016
FE69
00E2
FFBC
017C
006F
FE6D
0124
047C
FF7E
018B
FE90
FF85
FE3B
FF0A
000C
FF3E
0012
FD3C
FE36
FDE8
FF4F
0270
00C6
FFE2
FF6F
FDB3
FF00
FDF1
FC34
FFD4
0065
FF77
FE62
FEE5
0196
FF3A
FEBB
0059
FD6B
01C3
02DD
0087
FF23
FFE9
01DF
FE6D
FF41
00D9
0149
014E
021B
0246
0088
003A
FF81
0378
01AE
01DE
0189
FF37
045A
00C2
01B3
0131
0040
FF8B
FF23
FED8
0231
04B9
001A
0385
0001
01EA
026F
FF23
FF7F
FEEE
FB97
03F9
FF3C
00CF
FF84
FEAD
FC98
FE25
005F
FE27
017C
FD62
01CA
FB89
FEE2
FEB3
FEB0
FF96
FE16
00C7
00F1
FFEB
FF5A
FD1E
FE89
FCBA
FEE7
FF8F
00BA
FF30
00A7
00B6
0144
01FF
003F
FF75
01E9
013C
FDF9
02F3
FE47
00A3
FFBC
0014
0373
0129
FF75
005D
FFF5
0138
006B
0106
0307
FFA8
FEDB
012E
014E
02E8
FD18
01AE
FE62
FF6E
FCBB
FE69
FF77
FFD0
0084
FE4C
00DE
FFBE
0045
FFD6
FF9F
FEF8
FD6C
FF76
FF19
FD88
0049
FEE5
FF7C
FC8C
0173
FE73
FE72
FFA4
FF6C
016B
FF95
FEA7
FE54
0315
FC44
FF13
FFA0
013E
FECA
00D6
FEA3
FEC5
FEA1
FF21
01CD
FF25
002D
00F1
01FB
FDCB
0041
FF6A
0135
FEC6
FFC8
0020
FE96
FD29
013A
FFBD
0133
0077
FF5A
0046
FE57
00AA
0190
FEF8
FBC1
006B
0279
FF4B
008B
0031
0122
01C8
FEBD
0180
0048
FEA3
017D
019F
FFC3
FF31
FEBE
FFC4
FE5B
0019
FE6E
0160
0266
01FF
FF5C
0028
FECA
0189
00B6
FFC6
024C
FF5F
FF94
0139
0269
FF10
00E7
FF7B
00F6
0284
0312
00FF
011A
FFF1
01FD
FF00
0290
FEE3
003B
00F2
FF28
029D
00FF
FF82
002A
FEB9
00E4
02C6
026B
00D5
005A
0050
0269
00A0
0213
FECB
FF03
FF11
FEEC
FDC1
FFB0
FE1C
FF70
0078
0268
0184
FDC3
FF53
FE91
FD99
005B
014F
0252
FC1C
FF61
013C
00C9
FEC6
0013
FD93
005D
FC77
FE15
002D
FFAB
