02B1
076C
05D2
03EA
FAD8
00E9
043C
0250
0490
0059
0297
09F0
0770
F9A2
09D5
FD08
05FA
08A6
048F
012A
F846
0369
FEB1
0978
F636
05DB
038A
010E
FF8A
F822
FFD3
089E
0B65
FD2F
0090
FEB5
0A70
0567
F9D5
02EF
FC55
06CA
FFE2
FD82
FC39
FD2A
F8F5
0AEF
01D2
034B
03B5
0252
F8F9
0A8A
FA6E
043E
088D
0907
0119
06EA
0285
FDEF
0CF2
03DF
F787
FD9F
F467
F7B4
0987
0894
0442
F791
F79E
F427
07EB
099A
FBC2
0A82
033D
08FD
0A3B
0273
FAD2
04E1
F415
030B
FABC
FFBC
FA5A
0726
FC2C
F86F
FC1D
069E
0769
FED8
0574
00FC
FC31
FEDD
0364
F805
F70A
F419
0AA8
03FC
FAB6
0382
F660
F852
0368
F637
00FB
08EA
F5B0
FEBB
F634
F71A
0587
05A0
F708
0279
F503
03BE
0857
0357
FBAF
F593
02B0
07E3
0199
FFAA
0995
F9BB
08FC
080B
0155
FE68
0557
FCBE
F8A9
06DA
02DB
067C
04F5
F7E9
F753
07FC
0193
04DA
019D
0AC3
FBBD
FB69
F909
FA74
05A1
FD5B
09A6
F95B
FB58
0015
0204
FDB3
035D
020E
FAFF
FAC7
F7E9
FD7F
F532
FA12
F3C3
FAB4
F82C
0177
056B
062D
F51D
FFA8
FAE1
F8AE
FA74
FCE9
FF3F
F99C
0571
FB75
04FF
F525
0280
0817
FFD3
F8A4
024F
0157
0422
F85F
FB24
FBF3
FE7B
FAB8
0724
F925
FB21
0617
07C9
FFFA
FD7F
FDD2
07C9
F6AE
0DA8
FA01
F5F9
FACE
0246
FA3D
FBD3
0377
F842
06AF
02A4
FC2B
F6AA
0703
F7C5
FA16
0A25
FD39
0357
06AE
0854
FA3B
F739
FA36
0876
F8B7
0BC3
FA89
FD8A
0555
FD07
05D9
0537
FE95
01F3
F761
F714
F9F2
FDDF
FEFC
066A
FD35
FF62
F878
08A9
F6F6
03D1
0270
F952
01EF
094A
FD00
F720
0717
F430
0948
01F6
06DA
F708
073E
FBDB
FA71
FC37
04FB
0788
0032
FEEA
06B1
F687
F464
F5BF
FDF7
036F
F641
F639
F54C
0B9B
F620
0014
067A
FE51
0A37
08CF
FA41
0B07
0A15
FC03
0567
0CA4
02DB
F9B5
026A
FFAB
F953
05A0
F9E0
0153
0881
FE4B
0037
FC62
FC44
FA29
F541
FB62
F50F
FD6A
0413
F8E0
FED6
F6DB
FD69
00A8
00DA
FBA2
05AF
FA59
FC5A
00F9
0282
F697
FF5B
FE6F
0750
FAD6
0200
F8C6
07E6
F922
F4D5
F884
F918
042E
F75A
F966
06A4
0716
07CC
FC82
F66D
068B
FE7E
0069
01D0
0447
0745
0629
FC1B
06D5
FCAB
0A74
0AF3
003F
09E9
F7F7
FAA0
F856
0589
F71D
0693
F6FF
0643
0084
0613
FFAF
F7F5
FFAA
FAA5
0A7C
F939
0C84
0480
F7CE
FFC1
F56E
F6BB
09E6
05CC
FECB
F895
060F
0677
FFDC
FECB
0399
F547
0764
FACE
06F2
0497
0831
0924
FDBB
002E
F9DC
0265
020F
0346
0790
078B
FC13
0032
06D8
0731
FC35
FA8B
0721
03FD
F8A6
FA5A
023E
FB6A
01BA
0072
F6D2
FD42
0211
0401
0350
FF26
0302
FC89
F8D2
F261
F62B
FD12
006C
04C4
FD2F
08F6
03F9
F6E5
08CD
FE4E
F968
0253
0A5B
00B6
084D
FEB4
FDDB
FC9B
0149
0218
F969
085E
0B6E
0397
0B86
FF28
0D02
FE79
091F
0558
06FF
FF4C
0579
0ACB
03EB
07BB
0B45
FE32
0D93
FDD5
F902
FC8B
F82E
F77F
F581
F856
FE85
FF6B
FCDE
08BA
F879
06D3
FECF
07BE
FC3A
F6B0
FF92
0244
F659
057C
F22E
F99C
FF11
02D8
043E
FAE8
FCBD
050E
FF3C
0969
F422
F75A
F526
FBDC
00AD
F93E
FE01
FA9A
05EB
0A7B
0506
068B
00E6
FE3C
FCA1
F89A
069C
00CF
FFB2
F86D
FD8E
FF3A
FA50
FAB9
04BC
F840
FB12
063C
0572
0CAE
F78C
0887
FE64
01B4
05EF
0333
0CC7
0927
03FB
004B
0493
F739
FC82
05C2
0016
0B37
0187
FC2D
0A7E
026F
0786
0A2C
FF1C
F7FB
FAA3
F968
FE43
0997
01B6
05B2
04A0
FA9D
0761
059B
FC3C
FF89
0A6B
FAF4
FCE1
027F
FBC6
0473
FFE5
01DA
03C9
0C1E
FD38
FCFB
FFC4
0658
F4FA
0A9C
0091
FD68
FFCC
FBA8
F927
0E4C
FC6F
F601
03C8
F65D
0300
0898
FF53
0BDD
FEA5
0864
01E0
0D71
FAB8
0413
FC73
FC5D
FBFD
FFCB
FA87
07FD
F97F
0545
FC31
01B8
0AA6
0965
0AAE
0322
FE0B
0017
08F8
0265
FE97
F873
014E
0538
04B6
0730
05AC
F8CB
000E
0AF2
0362
FAA8
FE3B
FD41
022D
FEA3
0170
086A
0719
F88C
0713
08FF
0D1D
0107
FAEE
FC1D
F93C
FF1C
F782
06F2
0807
028D
FBC8
F502
0B7F
F826
0B4C
FC45
FDA1
FC5C
0466
015E
09C0
FBC9
FA9D
011B
F674
F857
FAD9
FE52
0517
0CAC
0A33
056E
0753
07D9
0862
0C3C
F770
0283
0D97
048F
0E66
FEB3
0594
F6F6
0286
FE55
0B46
FDFE
0A6F
FF5C
08C0
F6B1
F681
02B6
022C
0AEE
0955
093A
FA51
08B8
0861
F627
FF55
F958
0AD1
FBFE
FFC6
FD80
02A2
FA98
0CF0
0B13
0B4E
F7DD
0055
0AB9
01C4
FDBB
FEF0
FF87
0C0C
025F
0D3D
0BD2
F917
06D8
FE56
013C
FB5D
F998
F8E9
FEFD
08E5
0879
F976
F909
03AD
F6C8
F834
F54D
F608
05E0
F4E1
077C
FC7F
FD87
F3B7
F80A
F1DE
04A7
02AA
02B7
FC1F
0102
F781
F44C
F687
089A
FF5D
0285
06F5
06FF
003B
0547
F7BF
09AE
FD18
F8B8
0CF3
FC4F
F4C0
FE84
06AD
F4C1
F8FF
0594
09F3
FB94
0AD1
FFF5
FABB
0396
F6E3
06A4
0FCB
F550
0775
01C4
05DA
F871
F390
F526
060B
033C
F78C
0A54
018D
FB27
0288
FC4B
002E
FBA2
F81C
0405
0A4B
078C
0DD2
05FC
0401
0959
0032
0CA7
0334
FAFE
0799
FDF6
FBB0
06B4
05BA
0B39
0705
0B52
0072
FC25
0A22
F70C
08BE
0183
0B2D
0C96
F8EF
FAAD
0508
0C70
057A
FD34
F9D8
FDE4
05E7
FA11
08CC
FE08
F86D
027E
F93D
FC49
FAF9
00B9
F878
059B
04BB
091F
F8E9
FF8A
065E
FF8D
0003
F361
094D
03FC
F6CC
0766
0897
F5EC
0A39
FBBC
FEB0
088B
F8F4
F4D0
FFB3
04E9
F5F4
FAE6
FCF9
F733
F1AD
0961
FECF
F4ED
FA53
FE22
F75D
F67D
05C0
0501
F5BA
0204
04AE
FCC4
070A
F59D
08FF
F790
057B
0546
03BF
F90A
08B5
005D
F796
02A9
FC46
00A7
F9CF
002F
05D7
FDD3
0088
F773
F91E
0954
FB92
0B25
FED8
F621
FC73
09D7
FB9A
04E7
F6BA
0B50
0804
00AF
058C
09EA
09C5
FB09
FEEC
F832
FF70
0070
F9E3
FB88
0A96
072F
043E
FF25
007B
05C6
F9F7
06E3
FA44
FD0A
0C87
0A8A
FAEC
0110
09A4
0AD0
0828
FDE9
F5A4
0491
0A88
009A
0520
FE77
047A
FA8B
0214
0744
FBD6
F631
0098
F588
FD76
01A5
FD96
0140
FFFB
0128
FE17
FFE3
FCF8
0448
00FA
0A61
FA40
0A27
FAE6
F706
FEEF
05BC
08FE
F9B6
00AD
04C2
F98B
F412
09BA
F572
015C
F39B
F4E2
0100
F792
0369
F8EE
03FD
F7FC
077A
017D
F3EA
052A
080A
FB13
F860
0869
F6E9
F6D2
F8A9
F9EA
F9CF
F74E
FE75
0199
06F9
06E8
F923
F8B8
0007
FC4C
F8E9
FAAD
FBFA
F5F1
F989
0B77
0CDB
FCC3
0BC2
FD8E
FBED
0D37
0564
0843
F950
FD37
0C71
044A
0933
FCBC
F685
F690
F89D
FAD4
078B
0889
064F
FA10
00E0
067A
05E2
085B
FDAA
0931
07C3
FDE3
FAC9
F7CC
FF15
FECC
FB5A
FC44
FEFC
0788
FAAD
F2BE
0519
F531
0074
03C0
00D5
F63F
FEE3
0225
0862
0051
0490
04DF
0B9D
FB12
069B
0BD5
F8FA
FDE7
FA32
FFAE
FCB1
FE3D
0AE5
0202
FBFE
FD5B
F8D5
0298
0200
00CB
0C0F
F775
0AC5
0517
0373
FB60
0014
FA00
0BA7
FBE8
FDF0
01C3
03E1
0951
012E
0853
0037
0724
0C81
0133
FFFA
08BF
F7E2
092C
0074
00EC
0B9D
0050
FDC3
FED3
045E
0B4D
08C6
079F
0794
0C43
00EA
0A69
FD64
0A39
0439
0157
07B2
0C5A
0744
F440
FF72
0007
FFAD
FFAC
01BF
F7E6
F9CE
FD73
F798
025E
FE8D
F4BD
F8EA
FB65
08C4
F3D5
0642
F870
FFA4
F420
F720
039B
FB71
F434
031A
FD76
0994
00DC
00DE
F297
0295
F70D
FADE
FEC9
FE8A
F68A
F256
07E1
FB9E
FEF2
0195
FEC9
0988
031F
0168
0993
FD48
03BF
FE24
F2EF
FF7B
027F
FE3C
0069
08B7
FE73
F779
015B
00E3
0775
059B
0175
FE0B
07DA
FDA4
FE3C
FEFB
01B6
FCC2
F6CE
F7AF
0D59
0CB9
0944
03D8
04A4
F9B3
0102
094C
030F
0C30
FE70
FC97
0378
0AE2
01A7
F7F5
F6ED
F78C
0198
F640
03A6
FB55
07A3
0A3F
024E
FCD9
F686
086F
033E
F9EE
FBEE
F615
007D
04EC
06AD
00E5
F522
F498
F7AD
04E0
F89D
FE18
F97E
07BB
F86B
0CF0
F660
0860
04AF
FC4D
FCE0
0B16
08B5
F839
02A8
F91F
050F
0197
F47C
04DC
0A9E
FA8D
003C
FBD7
07E0
FEE4
0A3E
00B1
0859
FBED
F6A3
005C
08D9
093D
01A1
031B
04FE
FF2C
FC43
FAF6
0024
0771
F5EB
0AC1
FADC
F4AF
FC4F
0820
0269
0034
0578
09E2
0A09
0247
FA05
F5F2
F869
FB14
FB0A
0963
FE3A
FA16
0190
0102
08DB
07E4
F84E
050C
FFA7
00AF
F804
09A0
0C62
06E8
FE58
FC5A
0BA1
0923
0C04
05A3
0135
038B
0325
F59B
F8A4
FF0B
FA92
02D6
FAE3
011F
F6A8
0433
FF31
FAF6
F49A
F4B4
043F
F7A1
FB7C
FD4B
FC89
F4DB
0731
072B
07CA
FA15
0830
F51C
FDF2
FDDD
FC81
FE0F
FCBC
008D
0343
0072
FFB9
FC4F
FF5D
0760
FC69
0528
009B
07EB
FF0D
0362
F9E0
FF87
0484
F52E
05F1
F9D8
07C7
040F
F5F1
F739
023C
088B
FC44
F8E6
F4F3
0722
08F8
02AC
06FE
F920
FE07
FEF4
FC1F
FC73
06C7
04E3
FBFD
F72F
FF4A
0864
08AE
0826
FC40
FD96
0458
FFD9
05A5
069E
0549
F8E2
067E
0184
F86F
F742
0075
00A4
F9CC
F762
F93E
FB04
F8AF
F797
F610
F762
0A12
042F
0411
0988
FA9E
F6B4
0738
0965
F6AC
0438
0128
FB34
06C9
F6D0
029C
FC2E
00E4
09B3
F8E4
0365
046F
F98C
FB9D
0696
02E7
FEC3
05DC
F93B
0974
0ACA
F695
085D
0434
00A8
0A6D
0989
0BBA
012A
0577
0801
0418
F7F1
0968
015B
FDC8
0AB6
FE11
0579
F8F8
0247
0275
FC66
F66F
F7EE
04EE
FB83
F590
047D
FE70
0584
09C3
FFC6
0B01
F7E6
F3E1
083F
06CB
FEFE
F711
FF30
F944
F97B
FDCE
FB10
F4F9
03EE
0906
02AE
0A38
F50C
FE8D
FCBA
04C7
FE7A
F5BC
FB6F
042D
F960
FF04
F8B3
FA86
FE7E
FCCF
02F1
FF74
034C
F66B
FDB6
FF4F
FE6C
FF45
F6BA
FD0F
FFE1
0930
0AEE
FEBF
FB18
037B
0708
09BE
058F
05DF
06F6
0A39
F7DB
F8D3
F950
07F6
0118
065E
0065
0D52
016C
F3A4
FB6C
F6AA
F672
FF37
FEB1
06FB
05D7
FB62
04D2
01D0
0A4F
F8A7
058A
FA64
F91C
FD8B
0191
F6D8
F42B
F9A0
FE9E
00A4
0893
FB90
FC6E
FA8F
FD2F
0929
F864
FF09
FE99
FE12
0359
0533
0BE3
0241
FBEF
FFBB
02FB
09E7
0791
FE40
FB84
FC9B
038E
0B8F
FF57
F706
044A
061B
012B
F1F1
0392
F984
067A
04CC
0151
0120
FF7C
F4AE
0239
055F
0786
0558
FF02
FC6B
0BC4
F92E
F665
F601
F64D
FB2E
08E8
F733
FB49
F980
F946
0919
FFAE
F889
FA2A
F773
0ADA
0BDA
07D3
FFF9
0386
0836
01D2
0B3C
FD10
FCD7
06C4
FAFA
0526
0A09
0634
0091
0AB9
02CE
079F
FFBB
0027
FEA1
0161
F83E
05DE
FA8A
FD0C
064A
FADC
03D3
F4DE
0926
0743
058C
F536
F54D
0542
0754
0813
00EF
F771
F781
FBA9
01D3
F55A
FA17
08B1
FD27
F98E
F657
FD88
FB77
FFBF
024C
0BC6
F88A
0969
07DE
FD50
054C
FFCC
F8AF
FD74
0931
FB0D
F9DD
0886
FEAF
FC81
043C
F86F
FD93
F85D
01E2
FA61
FA55
0112
0923
0560
FEF4
FC03
FDA5
063E
FF38
072F
FE80
01E4
FB00
F7D0
06E3
06F8
FB59
FA4B
0476
F90D
FBE5
FAAB
01F6
0A72
FEF2
0BF8
FE99
F841
FDB4
07B9
F63D
0339
FCAF
F73C
FF04
F52A
F7F3
FF51
0B4F
069E
F8E6
0276
F5D1
FC1C
FF5A
F8A6
0A55
05DF
FFE5
F6F9
F9B3
F8CC
FBBC
0484
F8B0
F64B
008B
0243
FA29
0134
FD3F
0331
F5D7
FB17
F775
09ED
FAF6
03D7
0408
0C78
0B0C
FF5A
FC51
07C8
068C
07F4
FF05
0BCB
03A7
FF7C
0D64
075F
068D
0181
09C0
FA02
0908
06F6
07CC
FF03
08C4
F8B7
FA4E
0620
0A7A
F8B5
065C
09A1
0B81
04C1
0818
0AA2
0953
FAE5
04FA
FF4B
FBE8
0666
02A4
F8C1
F8B6
00C6
01B8
F4FC
FCB1
F944
FB75
FE01
0E62
FE67
FC15
05A0
0152
0418
FC8D
065C
02BC
0A2B
FAC5
0A29
0C04
0CD8
051D
F6C2
007E
FC0C
0AD1
003E
F4A2
FB5C
FC1E
0394
09D9
F73B
0B0C
F960
0724
06D5
FA67
0C4A
F9CF
FA3C
035C
F9FF
FEB3
0460
0688
FFB7
04F7
FD30
FF64
030E
08C9
FE6D
FDFE
0210
083B
F93F
F47C
0849
098C
08D5
03C8
F4E5
F4F5
0AC6
049E
F831
091D
0435
0583
085D
FDCD
F7E7
0557
09AC
FDD6
0800
F289
02CC
0459
0336
F7CD
032F
007B
F8D5
FFC8
F710
F809
0125
FEF8
08C2
074C
00D7
07D0
05A9
0587
0515
F53F
0564
FA1B
0376
0469
0A98
F629
FA49
0789
009E
03E3
FA39
03A2
FF32
F867
FEAD
010D
F91C
08D2
06A0
01B2
0776
0533
FBA2
00D6
07FE
FF9E
F9D4
FCDB
FBF2
F9DB
0015
FD74
081B
0C3E
0662
01D5
0351
FC5F
051B
0340
FA32
FCA6
FCFB
0508
FB31
00B5
027E
03BD
0BDF
0045
0772
097A
0572
02E8
F300
FB0F
013A
0263
F686
0233
F69A
F3FE
00C8
F559
0657
FB99
F334
FDC7
FA0C
0058
F37C
097A
F75A
0F17
0804
0301
F51B
062F
F5F7
03D1
067D
01E0
03AC
FFA6
FF7F
F8D8
F6D9
0550
F511
F2CF
0623
FED3
06AE
0847
FDB3
067A
F54A
05A1
F9DB
FF08
F73F
FA02
F5D7
0283
FE2E
F9DE
FB63
07B6
090A
0042
FAA5
F2C4
0691
