04D4
F790
0123
F91F
FB9A
02D5
F0CA
FD63
00FC
01A1
FC07
0377
0218
FF55
FDF8
0490
FD71
02B4
FB21
FCD8
0309
FFE2
05F7
065D
F3AE
FCBE
03A2
0480
FBB0
FEEE
03F7
0533
FE24
0191
F57A
F89D
FFAE
F6E5
FD23
F3A8
FD1E
0090
03AE
FB9C
F864
FFB8
FE8C
FED7
FD79
F4DC
FDC6
F919
F3E9
F01A
F849
0895
FA40
FBF8
FDE1
077E
0301
FDBE
F9CA
FB48
0032
FE2C
FBD7
0472
0258
FBB2
0553
07C2
0386
06B4
FCBC
040A
0471
00FD
FBD6
02D5
01FD
F7D4
F9C0
FD2F
06A0
0359
021B
02A8
032B
000F
0AB1
FE79
F4F7
FEE9
03D3
F312
F412
FDF5
F9D2
01B6
007A
0071
FFB1
FC05
025C
02D9
FE36
01C3
00F6
FCDF
05BF
029E
01D0
F9C5
00A2
039E
02BD
FEA3
0235
0999
08E4
02A8
FE31
FEF1
FEAB
0760
08FE
0281
0463
04D2
F970
00D0
FAB1
FA3C
0868
0123
069E
0003
06B9
084F
07B9
FC90
03EC
00E5
0B67
0488
0625
FF78
F78B
FEF2
01D3
FC19
04F0
068E
01AF
0005
F9B2
FE26
050A
04B7
011A
FF05
0851
0396
FDA7
FDFC
033B
02C8
07B4
FADC
07C7
0752
030E
0257
F70C
00F0
F6C9
0B6F
0B5A
FF9A
03FF
06B6
0096
FFDA
FE54
076D
01B8
045C
FE60
082D
FB3A
FD28
0522
0980
FE97
0994
0C67
0985
08F5
02AA
0044
0811
0A09
0515
0582
F9B5
031B
04B7
060A
0338
043B
092C
008C
F7D7
03BE
017A
016B
FEFB
FBDE
0458
0577
FD2C
0164
02D5
0761
042C
FEC4
FC91
011B
064F
FCC8
065B
FF79
0949
0222
03A7
FEF4
0118
03BC
FF08
0CC9
FE9A
FCFC
FB2B
0941
FDC0
FB2E
011F
040D
FFBE
07F0
06D9
06C4
F928
F60D
0451
FF3F
FE15
FE1B
01FC
06C1
F6EE
F7BC
0397
02A8
0165
06B2
0192
0119
0669
0060
FFDB
052C
04FA
0BDC
0235
0582
FAF0
0710
01CA
F17C
035B
07BF
03D4
0084
0333
0230
02FE
0959
FF8B
FDC0
00EF
FF09
005C
0591
FA2F
F786
FF59
009F
F97D
F8C7
03B9
03B4
FE9B
FEF0
01F2
F496
FC7F
F7C1
FEA1
FBBD
03F0
FD1F
FCFE
0252
F64F
0283
01B7
011C
FB5A
FD83
FEBE
05EF
07B9
F990
F9B1
F7E5
01B7
FFD6
0041
F73E
FB17
FF80
0464
FC46
01C3
F296
FC03
077E
00FC
024C
FE73
F901
FC52
FD05
FBAC
F487
FE07
08DD
FE4C
FD9E
F0A0
FF64
03F9
0127
03DA
02A5
01F0
F95F
034C
FB8C
044E
FD1C
FBFB
FDB4
0330
FE83
FA82
04D0
074A
015E
024C
F8FA
FBBD
0091
FE62
F838
FCE6
01C7
FB31
025F
FDA4
ED5A
FF14
0170
026E
F86A
FCE4
F2D9
00EA
0CBD
00CC
FF8B
0A21
FCD3
FFEE
030D
0426
01C2
F927
0251
008D
F696
0383
02F4
04F4
06A4
0044
FDB0
01C4
0290
FF5A
0282
014E
059F
005B
096E
0996
F70D
FBCF
024E
000A
0319
02F5
F98D
00E7
0469
FCA2
FFB0
FD36
FD33
FA48
0219
0671
00DC
01DA
FD57
FD91
FF3B
0060
09B9
0226
FFEF
0801
FB1A
07F4
FEB1
F830
FD21
FEE4
F9A7
FC7F
F3EA
04F4
0569
F51C
0048
FA34
F36E
07BA
F312
FE10
FBCE
FC69
FDA3
FD8B
F243
FC35
00CA
06A3
FAF6
0217
FAF9
0657
FB49
FED7
FB05
F5D2
F9BA
FD55
0268
05FA
FE6B
0456
F288
FE32
0166
FE99
01A9
FFCF
F4E0
01F1
0A4C
FDEF
03B3
0559
06EC
01BC
F7CD
FCD7
0607
F7BA
048F
F4B0
00AE
FD13
FF7B
051A
017A
03F2
074A
FE88
0539
07B3
FC86
0368
F7F3
0BC2
0334
0372
00DE
0714
0819
F28E
0135
0259
0250
F99B
0386
FA9E
0F27
02F1
02D6
022A
FBB1
0311
F75E
0037
01F5
0024
FB80
FE0B
FCF2
FDA7
03D3
FD4C
FE2E
0673
F52B
FCED
FCD9
FFAB
FC64
FC60
05CE
026C
FFE5
FF5C
03AC
FC71
0045
036A
0709
F8C1
FBBF
0294
054C
FA8F
0247
0412
0353
00B9
04E2
0119
0353
02BC
0748
01F8
FE99
F8F1
FE6B
02C1
FDC0
FA65
F2F8
F913
F603
012B
FEB0
00CA
06D4
07F1
0DC3
F5F8
04A5
F842
02DA
FE46
FE02
0B7C
F82E
03DE
016B
F7D9
F9E1
0012
013B
0BB1
00D8
FE29
0EA7
05FC
02D4
017F
FE7E
0224
FFA3
091F
006D
F64E
FC4E
0840
0357
007A
0546
FD54
0517
00F4
03EC
08E5
FFF5
0062
FF76
FEE6
FD33
FD29
FA63
F1F7
FFEC
FF1B
FD4F
00AB
FE13
FC93
0412
FBE7
064D
1417
F3D6
0248
0791
FDB6
041B
F639
FC13
0057
FE61
FE2F
F51A
FB7D
F5E1
FD3F
087C
FACF
F6ED
055D
FC72
F976
FA73
F98A
FD5E
005B
F867
F545
FB71
0504
010A
004C
043B
FFD5
FED5
F8E8
0380
FC38
0CD0
02FA
FB77
0088
FF37
FE58
FA73
FCF7
F3B6
03C2
FCCA
0656
01AA
F9E8
069E
0E37
0CC3
F86D
F65E
0878
0047
045D
0508
F7B4
FA3F
FEB0
FFC5
05F4
0077
01B8
05C2
04CC
FFA8
0122
09BA
FF77
FA5F
03E5
0805
FADE
0450
0341
0ACC
021A
0CBB
07F3
00C8
0A2C
0171
F771
08E6
0409
F1A0
0A02
066F
0112
FE61
FA23
F784
FAAA
F698
0645
02F9
0757
04BC
00F2
FDFE
FA1C
FE70
FEA7
FAEB
FD14
FC16
0B10
0AFB
0790
0183
00F2
0887
F913
FB5D
0215
FAB7
011B
F7BF
F8D0
05F7
FE62
0037
FCDA
0163
003D
074A
0797
0228
03D9
02D6
06B0
0203
0B1B
0124
0644
FF21
FF36
FD82
FCD3
02D2
FF62
0701
F86A
FFB1
FBC9
06E3
0B9D
0835
FC86
FEFD
FE5A
0225
026E
04C5
FE39
F6D3
F74D
FF13
0136
044E
FF26
F9AE
FBB6
01C7
0351
FFCF
03E6
F34D
FCD9
FBAB
F607
FEE8
05AB
FA24
FE37
00C6
0CB9
0239
F924
FF4A
F47B
0A94
F734
FA51
0605
F996
076C
FB37
01F0
06E0
0431
0536
025F
0707
04BD
0377
04D8
F625
FCD4
017F
FE6F
0395
06A6
F7B1
FD5C
0978
0361
0633
FE75
FEF0
FF62
F96C
0E25
0002
02A9
03E7
095F
FAE3
FD7C
FEC3
FFB0
FA0C
FCD2
F840
F4BB
F71A
F509
FF15
05AF
FA3A
0F21
045A
FE68
F628
03C8
FFE8
F96B
F89C
F9E0
00F1
0283
F95F
0540
FA86
03D2
043F
FFF5
08B6
FB7A
F7E7
FC82
FFF3
FC6C
0683
FBC8
06E4
F021
0364
0CAC
FBF7
078B
0971
0347
FC30
F5D0
07FC
09C4
FD2A
FD7F
04BA
003E
FBB4
FC06
0E33
FEC2
FE1E
04B0
FE1C
05A9
034D
FA56
0307
01E3
0541
014A
053A
00A4
FEAB
FC2D
FD14
0371
F83A
FB74
07B7
02B4
051D
FAEE
0230
08CC
FC9F
FDBF
FD1B
F97C
F821
0350
FF07
0CAB
023A
03C3
01F6
0D15
0212
018B
05A1
FFDD
FB57
FAED
05AD
0792
02C8
FD5D
0010
0589
073C
068A
04E5
0377
01B9
FDF0
0C9B
0430
F985
1183
00C9
FF33
FCD2
FE24
FD14
F87E
FE21
FD5D
FC3B
05B3
0042
014F
FE93
0506
05FC
029B
F7C9
04F3
FA36
08AB
020C
0248
F72F
0754
FA15
06B9
FE09
F6EB
F99E
FD38
F86D
0225
FCE3
FE10
064B
0454
FB24
FDA7
022C
FA8B
