F517
F753
F87B
F821
F7B7
F442
FA00
097D
07B1
001C
FF07
FDE0
FF71
F8C8
FB87
F84C
005E
FCE7
FC87
F892
017F
F5C7
014C
0162
FA6B
F88A
F6A3
0163
F722
F57B
09A3
FD4D
07FE
08AE
0084
00D6
0B9E
F691
07E3
082A
0090
0822
04A9
F6D6
0B74
0704
0CF6
09B8
0DBF
FB5D
FBC9
F882
F8EE
FAF3
018B
051B
011B
F6F4
0110
FC08
0503
F993
047A
0880
010F
F4B2
03AB
068C
003A
F586
06B7
0126
F740
FD90
06DE
0A63
F873
08E0
028D
F563
05C9
FA7B
00C5
02F5
0057
F8A1
F3D2
F700
FE45
FB69
F844
FF01
FB5E
FB20
F4DB
FF06
00F0
08C8
023D
FE91
071E
F846
00FD
F96F
05F7
F692
004B
FBD2
FBB9
F7A8
FEF7
0162
F255
0875
F90F
02FC
07DB
0175
0A0A
F6BF
F6E6
F53E
033D
F5A8
00D2
FBA6
081F
F9F6
09B4
0764
03B9
019D
03C4
FB30
FA18
FAC0
04B6
F707
F538
081C
FD28
08D7
FD83
0585
0A9E
0850
064A
0A52
0717
FD91
F596
FB07
FEA1
FAEE
0057
FF97
0A12
05E6
0572
F9CA
FFE6
F878
F992
079B
F89E
0084
FFF7
04ED
FE51
082A
FC77
F93B
02D9
034B
F9F6
003C
F336
07E0
04BB
FB44
F5F5
FE4A
FB4C
0204
05CB
0280
00ED
0953
F354
F3DC
F3A6
058A
0A91
FAB8
FD50
F631
F71E
0654
05D4
0CAD
0822
F7C8
08DB
FC20
085F
F7CC
0B01
02FC
0142
0781
0773
FC2C
F923
F93D
FDBD
080D
F5D9
000B
01E3
F7A1
0703
F6E4
0724
FE8C
FC15
070D
0945
F72D
0086
087D
0931
FFC0
FB6A
FFEB
07E3
F686
01A7
0012
FD8D
F761
FAB9
FAC2
04BD
0385
FAF9
0938
0748
03FC
0A81
08DB
F9A5
0A5B
FF94
FB67
08B4
F836
FE62
FAC6
F8FA
FC6B
00EA
F3BC
F731
FC6D
0430
FD98
0145
F884
0168
FAC9
F4E2
F63D
0094
FE3B
FEC1
08E4
05CC
FB58
0498
02CE
016F
F67A
FA74
0548
F623
FFD3
FE70
07CB
F728
F727
06D4
F964
FE62
FF5F
FAF3
03B3
F8F2
0335
0739
FF97
F7BA
F9C9
0668
FF57
062C
003D
F9DD
FBFB
090A
F619
FC84
FDEC
06D1
09C4
03FE
FA5C
0C5E
05E6
01EB
03AE
0238
099F
09B7
F829
05D0
0763
077D
0839
F5B2
F966
0389
05CB
F466
0FED
FDF6
FD4A
F719
08B3
004C
FDC8
FBA0
FE01
F451
070E
FDD9
F9A6
F68A
F894
101E
0984
092F
FA76
003E
065A
0A02
F99D
09D4
F870
FD32
087D
0657
050F
00B5
00CC
074A
FB3B
FD98
FA2D
05D9
FAA0
07DF
FBD4
FEEE
0A69
040E
FE34
FC85
0025
013D
0801
0A56
F9D7
F7E7
FE05
05C2
FD64
064B
0195
F5D9
FEBC
0780
FC53
0986
FAEE
FACE
00F0
F4A0
0606
F55E
F60F
FE51
FD8F
F260
FC51
06A2
F82F
05C2
F8F8
FBE8
F525
FCFB
F899
EF0C
08CC
057D
F7B7
FCEA
0463
0876
FFA8
05D3
FD82
F63B
FD00
F2CF
03DC
F430
0451
03AA
F222
01EF
098A
0254
000F
041F
FC0B
0738
02AD
FF3C
003D
F30F
FB46
0186
F56F
FAD9
F55D
F772
FCF0
FFF3
F94C
058F
FB23
FC84
0167
09E7
FAC4
F8E0
FC44
FB52
0842
0BC8
FCF8
0C24
F6F3
FD3A
04F7
0788
F7A9
F8EB
F623
F741
09B0
F93E
0B02
0945
F694
FC2E
0ACA
03A8
F77D
046D
F630
FBA1
0127
0607
FFA0
01CB
0553
08F7
F879
FC1A
01A6
0401
F9C7
0664
FB43
041B
0782
060C
0746
F2AF
F902
0420
03DF
06E4
F6FF
0801
FEB0
F25F
0473
F82D
F7E4
06D1
0AB3
0B5D
FAB7
F5F0
095A
F8EF
0BE1
0773
F7DA
F8D0
045E
F8E8
0AA9
FFA5
FF46
0A37
04AE
0300
08BE
045D
0779
0438
09C8
069B
07CC
0A1A
F6DF
0B47
085A
F65F
03A6
019A
F885
07DB
FD51
FCB7
0B25
FA6A
F83D
05D8
F9B7
041D
0B12
06AA
0343
F952
0B2A
00E7
F889
0041
F5F7
FB35
01FF
F808
0AAF
FA6E
04D5
FDEA
07D9
0588
06BD
FB90
FB16
05DA
0227
0009
0444
0AF7
F79E
016D
F8E7
0793
0156
FC80
0AA8
0BA8
00E0
FDA3
FFCE
0054
0726
F9D2
F363
05BB
F7A9
063E
0176
FA5B
FBA0
09D0
07FD
0591
072A
FEA5
F9C7
FFF6
0BEB
0BCE
0894
F790
0BCE
05CD
FC23
0475
0188
0ADA
FA50
FE2C
0775
043A
FF1E
06C6
F98F
0266
08EE
05E4
0607
00B5
FAC3
FA2B
0BCA
FA6D
FF42
05BA
05A3
047C
F8E8
02AD
095E
F5C0
0B33
F8C0
075A
FDC3
FB29
FC68
0535
0809
03C8
0755
005D
023A
0908
F98B
04FD
0161
FA07
0263
035D
07A1
02FE
0C7D
FEE8
053F
FFE9
0658
0ED7
FC78
F818
0BD5
0065
0016
F6CB
0B60
03E6
0952
F7F7
F794
0A42
F64E
0431
F9C2
0E06
FAC5
FE17
090E
FB07
0D08
05E6
0A4F
0B7B
FA83
FE19
07C0
01E4
00BA
0957
FD15
FE4B
0A3A
0607
F8DB
F69E
05C7
FA77
F946
FB45
062C
03B5
F6A0
05A5
0347
F595
09C1
FDA4
055B
0470
F8F0
FE0F
08D5
FA49
08E7
049D
FDAD
FB60
015D
0219
03C6
F9A0
0DC5
01EB
FB9A
FF67
F7B2
F5DB
0A2C
F64D
FAA1
F46D
07B3
0482
0372
00FB
FE1E
F66F
FD05
F2F7
082F
FE0D
FB3E
FD4E
FFF3
F62C
F347
03E1
F8DB
F7D5
FF05
FE89
FF48
F7E5
04C4
0837
F86B
0048
0483
F59E
F7FF
0A45
FC59
FB56
F6A9
FD1C
0634
FFA5
FE15
FFB7
054F
00DC
04D8
FD4F
04A5
0422
FAEE
FEFB
FB5F
F140
0892
F967
0B9F
06BD
02C2
0078
01EF
0962
F6BC
FA06
FCC7
0971
039C
F626
FCFA
09D2
01D7
0B4C
F631
F8F7
0CC7
F5AB
0620
FA00
FEAE
0B85
FB75
FE93
0A45
0690
FEA6
F936
01BF
03A3
033B
FCAC
057C
FD8E
F9EE
FF61
044A
F5BB
019A
F7EF
F906
09C1
FA52
0240
F6E1
05D2
0058
F8DC
0743
04CB
FCE2
03FB
FC1D
FFCC
03E6
06C3
FDE8
FCB8
F9A1
FD5C
0174
0774
FE3A
F944
FAE4
07A8
0CE8
F75B
FB88
0AEA
F82A
FB80
018E
0904
064A
084A
F387
0656
F68C
089F
FA52
0852
FE4F
0176
F4DC
0998
F2A6
F71C
0214
FCA7
FF8A
FDEA
F70B
088A
074A
034B
06EA
0056
031D
0526
FFD1
F963
F953
FF49
0505
F763
09E3
0B3B
097D
09BA
FD81
FB69
FF4A
016A
FAAA
FF61
FDCA
FF47
057A
06AA
FACF
038B
058D
F684
051A
FA7E
07DF
FABE
FDA5
0B7E
F7BC
06F6
0BFD
FFFB
0C4F
F762
00DD
0BCF
F80C
0ADA
FA66
FE29
077A
03EF
0710
018B
0004
0106
00F6
FBFA
0670
FDB4
0D23
FC0A
F807
FD8E
F746
FFC3
0180
07FD
052F
F8FA
0C56
FCB6
F88A
06E9
01B7
FB7D
097D
F6A3
FC60
FD6C
050C
F64E
F442
0612
FA73
060F
F928
FCB8
F95D
0704
FC75
F824
F9BE
F8B5
F3CA
FB33
F4E2
F9F5
04B3
FA91
FFC7
0863
F9B3
F566
06DE
FD89
FF9A
FB04
05AF
F97F
0957
0979
0465
051E
09E3
FABD
0061
0769
FCB6
FA32
0418
FD8E
04EB
014C
081E
FC47
FCB9
F4A8
FC64
FDFD
FEB4
F85F
F4ED
08F9
F236
033A
0263
F636
0C6B
08BF
FDF1
0586
F60D
FA44
029E
00E8
0487
0B36
0208
FE6B
005E
F9D3
009E
0C1A
0125
FCB1
0661
FE7A
0075
F722
02CF
0302
FD2F
0A8A
FDE1
F840
0AAA
0865
09A9
F748
FEB4
F9ED
05A7
00B6
F406
02E8
FC34
04E8
FCC0
0352
04E1
FFC7
0695
061D
FB22
FF48
F582
03A1
F734
0015
FD1C
F672
F869
06D6
F37E
FEFA
0750
F599
FBC9
0546
033C
0412
F73E
037F
FE96
FB72
0A69
0945
02B0
F7B3
0AC7
F64A
01FE
0370
03CE
F8BB
0509
0349
0B82
F834
F741
FD41
0627
FF28
065C
0AF4
FE20
0215
03C8
0654
023B
0635
FAC5
07B2
0452
FA56
FCC0
F7F1
028D
059B
F6F6
FCE7
076B
0990
FE07
00BE
F6F0
0674
006A
FA81
038D
FAD7
071E
098B
0904
F8CD
06CE
F858
09CE
F7DC
086E
0192
0907
F755
02A2
031B
FC3A
FDFC
FA5F
0185
FB0E
0437
01EC
07D0
FE08
0032
F789
F9AC
F45F
F727
0335
F5C3
FA91
01C1
F75C
007E
F905
05DB
0289
F79F
F55D
F6D4
F3AE
FEF1
FFF5
FA92
076E
F644
FA34
FC8F
09D8
F461
F96A
F78A
09C0
FD22
F37F
FC81
FADB
FF9D
0886
FCDC
0905
FE82
0650
01D4
F9AA
0B0B
FF7F
06EE
099C
FFC6
F856
F7E5
0676
F375
EFFA
06FC
F9AF
F3A9
FF74
0A0B
F782
FACC
FBA9
07B7
FA48
0D5B
FF63
F91A
0CAB
FE2E
0C63
0C3E
070E
FE07
0E56
FB99
0849
073A
0851
F996
0786
00D6
07AB
FDC3
06B9
08BA
0C52
0C54
06DD
FF7D
077D
04E4
04F0
0116
0041
FE26
00AE
F854
09C1
0699
FCB8
0352
FA98
FD47
FFB9
FE3D
061B
F8FE
FB20
037D
00B6
0084
0A18
FD43
F81A
0C3E
02AB
009C
0370
F57D
05FD
08EF
0752
008F
077C
05E8
01AE
044C
F820
036A
F69B
03E5
F4D7
FF05
F892
0980
FCCA
F672
F4EB
02BE
FC24
096E
0460
03F2
FF21
FBCF
043B
09E9
081D
073E
F0DA
0A52
F4F6
FE67
FE7E
F8CE
FDD6
091F
FECD
006F
F6E7
F7AD
FC88
F804
04A7
FC5A
FD0C
0AEB
FFB1
FF34
F9E5
FD2D
05F9
0709
0890
0363
F768
FA39
FAB2
01C0
FB9D
06A4
088A
08E5
042D
0B7D
F428
F6F4
F57D
FA41
0981
FCD5
FC40
FC7A
F4BF
FC57
040A
FB7E
F6EA
059E
FC15
02C1
0258
F78A
FE1F
FD02
F5F3
FC5C
FAA7
08C8
F704
F4E4
01D8
0132
0516
0AD8
0021
0599
F6DA
0564
FA30
0511
064F
035E
F5E8
F928
FB4F
F37F
FED7
FD22
0835
0573
F3D9
024A
024C
F6E1
0552
04E3
FA61
F64F
F3AA
F8A4
F9E0
F6B4
0102
FEC9
FA0D
F68C
07F4
FF35
F96F
F715
F87A
F7FE
017A
057B
06BE
07F1
0027
051A
F83D
FBDB
F658
F906
F887
FF8A
056B
F779
F8E5
0169
FB02
04DF
08DC
037D
0ACF
FAA3
FDB5
F753
FA24
03E7
0845
FFDC
FEF6
02BC
0861
0911
F8DC
089C
FD0D
F4D7
F3B7
FCB5
0034
0ABB
037C
FD33
04C7
F689
0015
FCD3
FF47
F774
075C
013B
FFD8
04CD
FB82
F6FC
F9B1
F478
07A4
05A4
0896
0369
FD55
0B44
09EB
06FD
FB04
013A
0059
0C72
0548
0382
0A83
0478
0924
F6D2
0733
F6BF
FFC3
F9A6
FEC0
FFB2
0AA7
F68F
FACE
05F3
0B3F
F68A
0A3F
0B99
0B56
09A1
F75C
F63B
FCD0
0795
03BC
FA79
F56D
F7FF
0409
F753
F7E8
F6B3
07C0
FA42
FEA4
F5C7
01FA
FDB2
076A
FDA4
F9DF
F87B
06E3
025D
0210
06A7
FF61
04A0
0286
0679
028F
003B
08A3
038C
FF8A
FCFA
0433
0328
FF68
0693
05E9
00FD
0360
FAFB
0B77
FC4E
FDB4
FB1E
F781
0039
0C30
0648
FB5A
05E1
03DE
F786
FF85
0616
F8C4
FE1A
01F8
0AB8
FA37
03C4
03E6
01ED
FB23
0360
0694
0601
FC4A
FFFA
F6EF
02D9
023E
FD7C
F798
0534
0798
0191
FA60
0A78
F35B
060D
FAD8
02A9
FE0F
02A9
04C6
FE71
0B0E
09A6
069A
0A7E
F4A0
FBC7
08BE
FCF9
06A6
0355
FDB3
0B4B
FD03
07FC
0B77
F6AF
04DC
FC9A
095A
F70F
061B
EF66
09F8
F56F
FD5E
0783
0660
0402
05B1
F57C
0748
F641
F7B1
074C
F5F1
F3B8
F6CA
07DD
FB45
F3EE
FD81
060A
08A8
F888
F598
FAA7
FA12
0390
0A1A
01EE
0317
09FA
FBFE
FBFA
FCB7
F8BA
FE8F
0961
F8BD
0365
F653
F73C
FEE5
FF9B
0912
0131
F72A
FDA5
05CE
0571
097E
F807
0AE4
F924
0301
086D
0150
FBB9
03FE
F98A
F5CC
FEBC
0655
0986
066A
0A9D
02AF
FC78
0463
02CA
FBB1
071D
0909
05E0
F653
F719
0F08
F6DA
F868
00A3
F67C
0228
FAB8
03AA
09C9
0116
FEBF
F776
0469
0B02
FC28
0C40
06FB
0419
0BD3
FD11
07FE
FF91
0CA2
0836
FC56
00F6
09C2
0311
063F
0954
0238
0381
06AA
01D8
0733
072B
0436
04F3
F6C9
0415
00AA
01D9
FD25
0760
0945
FFD2
FC7E
F88E
0963
FA63
FC0D
FEDC
0B5C
FC3F
0A43
FB13
FDA1
FDCA
FA83
FCD2
05E3
0114
08FF
04AA
0A65
F8BA
F9D8
00C9
FA46
F6B4
0647
F8C4
FA9F
051A
F794
0B08
F8C4
FAC4
FA64
0481
0249
FD1E
0760
FD86
F7F0
F6A4
F9C1
F5F6
0866
054C
09C2
034B
F6C7
F6F6
04F3
F834
FED5
F459
F776
01C7
05A6
07F2
F850
FB2B
08A8
08DF
FA01
0722
FDB5
0831
FA51
FD39
04F7
09F4
F9F2
F7F0
07D1
0E4D
0406
FE89
09C9
00FE
05BA
032C
FBE3
FC2D
082C
FAC0
FD30
FEEB
0494
0BCC
0A2C
FCA4
FC92
025A
0A36
FE03
F709
FE98
FCD1
0B8B
07E6
0D0B
FE89
0D34
06BE
016C
0A63
0D33
F7C0
FFDE
05E0
FEBF
F876
FBD6
0285
F613
FD28
027E
FAB6
05C2
F9BE
03C9
04FA
FC5C
FEE3
F944
F833
FF00
0B82
FA1C
F60A
0007
07CF
FCA1
06B4
0AF9
09B0
091A
F510
05F7
085C
F698
0B6E
06DF
F82F
078B
03D5
FDB7
F9F5
FFEE
0628
FCC3
F501
0713
FC2A
F424
020E
FF85
074F
F542
FFD7
095A
05EF
0638
05AF
FD3F
0776
02B7
05FE
099F
FA42
0945
FAE5
F6C5
01D4
081D
F792
F8B6
F765
FDD8
014E
F968
F53A
FBB3
0325
F7EC
0206
08C6
0661
08E4
05CF
F534
F9EF
F44B
F424
08CD
064A
04A4
00D5
F868
FB41
053F
FAD9
012B
F9C8
FF96
050F
079A
F9A9
0485
FDB5
FC46
FA52
0517
FA45
0033
F6B6
FF71
02A0
03CB
093D
00B8
F543
056D
01D1
F6C2
FD04
F668
0B66
013F
0716
03B0
F8E4
FB52
033E
0F2D
027C
0C69
048D
0A92
F71D
FE27
018D
F91F
F864
0133
FECB
FAD3
FCD9
F581
081D
FCBA
FE3E
F989
01C7
F7BC
FC18
0632
0942
0689
0465
F9EA
F981
FD30
0714
F969
FFF8
FE37
FAAC
FF96
FBBF
F292
079A
0A1C
08AD
021E
061E
0A16
064A
FBC5
055D
096B
0549
F703
FF6F
FBD2
F381
08DB
029B
08A5
F7AA
FDA0
FF46
F6A8
0699
036F
F6D5
FEE6
FF4F
F31F
FE1E
FAF3
F7DB
F786
07EB
FD66
FAB6
FE97
049C
02E7
FA6F
0A9A
0745
FAC5
0228
0961
087C
FA50
