FF74
FC77
FA24
F812
F7EF
FABC
02BC
06BE
FB13
F9B1
FD16
01D5
F068
F3F4
F0CA
F411
F661
02FF
F937
FE40
F2D8
F967
F61C
02D7
003D
F881
F305
001D
FB44
FF7D
01E7
0285
FCA3
FC53
F0FD
F952
04F2
F4DA
FB23
FDFC
04F2
FC75
FDE3
FF26
05B0
F4CA
02B9
F42B
F2D9
F53E
FE89
FC83
F3EA
FFBC
EE16
00A5
FF8F
ED8C
FF16
00C8
FD7F
02E5
FFEF
01F3
0C25
F998
01A7
F991
057C
05E7
0647
065B
0528
0092
F60C
F84A
028D
0791
0811
FEEB
1349
008D
02DC
FFB3
06CC
F78B
0C68
0113
F193
0125
1055
06A6
0774
0572
0167
079D
F6C5
F8A8
FB40
0716
FE0C
00B9
03B3
F12E
FDBF
F47D
FA0A
0C51
F912
FC5C
F7EB
FB76
FADD
0023
FA3B
FE10
F11E
FC77
0220
FF64
FC9A
FACA
F600
02EA
FAA1
F452
F7A6
003E
FE58
FA8F
FF72
FB94
F792
00D0
0C63
0E83
FC66
FE46
02A1
0BE9
0DF2
0752
0C6C
08E9
03E8
06FA
00E7
0954
0846
0553
FA49
019E
FE2D
0347
097A
0351
FD77
0AE8
02C3
09BA
02FC
FC9F
0330
03D4
047D
0518
07DA
FF14
FEB6
0124
0349
0933
09F9
0136
019A
007E
02B5
0A19
0863
013A
01DF
FDF2
FBDC
08AD
037C
04D4
0683
FE7B
0B3C
F268
FE5F
0862
0039
0347
0580
0B6E
F4F2
097F
0A84
FE58
01EA
F967
0AB3
00B9
0957
0046
06F9
FFD6
0018
015B
03D0
102F
05CA
FD47
FE89
0906
FD3D
066C
FC3C
FDC3
08AB
F9EF
0EA1
043B
07AF
0257
FD21
FD14
0549
0ACF
0A0A
FCA9
03D9
FDBC
06E1
027E
FBCC
083B
0E78
0151
0745
0079
FD6A
0ADE
0052
03D5
FA63
0558
009B
FBDF
0D66
029E
08BE
FDB4
0300
FD47
03C3
0CAE
03AC
040B
0B40
0735
08B1
F7DB
FBB7
FFE5
0836
FB3C
04E3
0C73
0A3D
FA41
096D
05EE
0B54
FEBE
FCDB
FFD8
0278
01B2
FC99
0248
041E
FCF1
0E9B
FFEF
0016
FF75
FB5D
FE48
FD70
FE51
06AF
014E
F3D1
F950
01F8
01BF
FE97
FAF0
F1A7
0028
FBBB
02B1
FC06
0699
0219
0407
F4D3
FB69
FF93
FEE6
F5D3
059E
F77A
F43D
0389
FD96
F7DA
0199
F2E7
0478
00C9
F8EC
F998
FD13
FC8D
FC72
FAAE
F0C7
FAD9
035D
F927
FE1F
F771
FE70
FD58
07D9
F149
0C03
FA54
01AA
0169
028A
0001
F458
FFA7
FE81
F879
07A5
0335
0768
010E
FD55
F538
0158
FD98
06DD
FA42
064B
FCF1
FD6F
F1B7
FF58
0707
F31A
F9FB
0070
F647
0E2E
F863
F7D9
FE61
00B1
05BD
FEC9
F734
F85F
F8BE
F6EF
FFEC
021D
FC21
04EF
0708
05DF
FBB6
1420
079F
0562
FFC9
FDFD
02FB
FDA5
0B9B
FEE4
071B
02E8
055F
0632
0013
047E
FEFB
0B75
0448
FF29
FFAD
FAA8
0785
0270
02E2
08BF
FF98
006E
11AC
0A6D
F3DD
04E1
04B5
04DF
021A
F5A2
FFF4
FCDA
FCB7
FDFA
FB44
0417
F4B0
F960
F863
F952
F9B7
FF83
EC93
FBBD
0136
FFBA
03B3
FACE
F651
EC69
FDA5
02F3
F7D8
FE89
012B
F7B9
F624
FC08
FA5E
00AE
FC93
F607
FEB7
F60D
F937
F8AA
FF30
FDEE
FE17
F19E
F1E2
F7D3
F7D7
0927
0390
F225
FCD4
FF72
FBD8
06A9
00D7
F285
FD1C
0305
FE46
0890
FA72
00F7
01F3
080E
0514
094F
FAD7
F7F9
0495
0209
0343
02E9
03DE
FAE3
0394
029A
FF69
037F
0284
F678
03DD
F9A0
F7F6
0188
054D
0600
F25E
0CC3
0185
021D
0F78
FC8A
0653
046E
05F4
0CBA
0684
002E
0218
0344
0619
05C7
FE99
0599
0415
0748
03BF
0B1D
02FC
04CE
0C1A
0272
04D4
020C
03CD
FC03
FB43
0F0F
05D8
0BC5
0353
F935
FDAA
06C7
0526
FE97
0885
0006
F476
FE08
028B
0AC4
0230
F976
0011
FF59
F258
08E4
FD47
F47D
01E0
00CA
FC0F
021B
0322
F7E6
FB6F
0176
FC54
FD39
F8DE
F713
F771
FD21
FF6F
0132
06B9
FD8E
0A27
0923
FD8B
01FE
FEDB
08BE
FB6D
05F2
0937
FBC6
08AE
0072
0879
08EB
0819
0151
0BE5
07B8
04CA
066E
0FAC
01EB
0956
FBCD
0342
F826
0431
FFEF
0B98
F7CA
028D
05DA
030C
08CA
073A
061C
FCB5
FEB1
0A57
07D6
FF35
FE24
00F5
0170
0B40
FE6F
F57C
FA02
0941
0670
0807
0136
FF95
FF28
06D1
04E1
FCA8
FF8E
0AD1
FE71
0746
06A5
024E
F871
F80A
03E6
FD60
F435
FEC2
F9F1
FFA6
F530
09EB
0199
096E
FB7D
03DF
00C4
F317
FBFD
F6A2
044B
F388
FB44
F216
05BF
FBF3
FF68
FDAA
F8A1
036D
0364
F338
FE80
0072
FE78
025D
F692
F7E3
0443
F7A5
FD80
0337
F2CD
01F6
FF1F
FC71
F7F8
F7BA
FED1
F287
038B
FCE1
018D
03BC
FC37
F19E
FC32
F4ED
FD3E
FD83
F992
FF23
00D6
FE48
03F1
FAB5
FE2D
0912
022C
FC7B
FC21
F982
0599
01A1
0556
F984
0382
0508
F185
0944
0CD5
03CA
0B02
12F8
08D0
009A
0BEB
0059
F9A6
0387
FEF0
05EE
01BE
F9B4
048F
11F1
FDF6
062B
FA3F
FE14
F8EC
FC28
0030
FCF7
004A
F4F0
F8D7
F7A0
FD3B
09C1
0319
FF87
FDBE
F6CD
FC00
F7C6
F0CF
FF4F
0194
FDDB
F98A
FB93
0658
FCE9
FAED
0166
F5AE
070C
0B76
021C
FC8D
FFA6
077B
F9B4
FD04
0365
0523
0539
086C
0918
0220
00E6
FE03
0DE1
06B9
0778
0623
FCDB
1169
0308
06CD
04C3
0101
FE2B
FC8B
FB5E
08C2
12E4
0068
0E14
0005
07A7
09BC
FC8D
FDFB
FBBA
EE5C
0FE4
FCEF
033E
FE10
FAB4
F25F
F893
017C
F89B
05F0
F589
0729
EE25
FB87
FACB
FABE
FE57
F858
031C
03C6
FFAA
FD69
F476
FA23
F2E9
FB9E
FE3C
02E9
FCC0
029A
02D6
050F
07FB
00FC
FDD3
07A5
04EF
F7E6
0BCD
F91C
028C
FEEF
0051
0DCC
04A5
FDD4
0176
FFD5
04E1
01AD
0417
0C1D
FEA2
FB6B
04BA
0539
0BA0
F45E
06B8
F98A
FDB8
F2EE
F9A5
FDDA
FF41
0210
F930
0378
FEF9
0115
FF59
FE7C
FBDF
F5B2
FDD9
FC64
F621
0125
FB96
FDF0
F230
05CA
F9CA
F9C7
FE90
FDB0
05AB
FE52
FA9C
F950
0C53
F110
FC4D
FE7F
04F7
FB2A
0359
FA8C
FB14
FA84
FC83
0735
FC96
00B5
03C5
07EE
F72B
0106
FDA6
04D3
FB17
FF20
0080
FA5A
F4A5
04EA
FEF4
04CB
01DC
FD67
0118
F95C
02AA
063F
FBE0
EF04
01AE
09E2
FD2A
022A
00C3
0487
0722
FAF2
0601
0120
FA8C
05F6
067D
FF0A
FCC3
FAF6
FF0E
F96A
0064
F9B8
057E
099A
07FB
FD70
00A2
FB2A
0624
02D9
FF1A
0930
FD7E
FE51
04E4
09A4
FC3F
039A
FDED
03D8
0A0E
0C48
03FC
0468
FFC4
07F3
FC02
0A42
FB8D
00EC
03C7
FCA0
0A73
03FD
FE0A
00A7
FAE3
0392
0B19
09AE
0355
0169
013F
09A4
0282
084D
FB2B
FC0C
FC45
FBB0
F705
FEBE
F871
FDBF
01E1
099F
060F
F70D
FD4D
FA45
F663
016B
053C
094A
F071
FD84
04F0
0324
FB19
004A
F64C
0175
F1DB
F854
00B6
FEAC
