FD48
003F
F5B0
0422
FDBF
FDB7
0012
FEEF
0433
0585
04B8
0128
FF56
0717
02CD
0806
F95D
0046
0634
FCB8
F5E3
07EA
FBC5
FAF1
0870
0BB1
FA0A
010F
F4C7
F8C0
021A
FBA2
06F1
F797
FC99
F61E
0408
0658
FFB1
0C73
0974
FA84
FDD3
F8B1
FEE5
F42A
0882
F66E
F72D
FF2E
0A7F
0959
F40B
0720
0BB2
0859
0968
FAD8
09D3
FD8B
FBB1
09F2
FAA3
F7B6
F76C
F6CE
0698
03BD
FB55
F6E2
07FE
06A0
F92B
FD75
FC07
F6F1
02BC
F403
0A71
0465
F4C0
0183
F556
F20D
F91A
0A05
FEDA
FB4E
F7B9
05CB
0709
00BF
08AE
FF43
0666
07B5
FEA3
04DA
F616
017D
06BA
01BD
0507
08C8
0AB6
02CC
079B
0A2E
0758
0475
0649
02F0
023A
0990
FF0D
F52A
F75D
019F
FF64
09CA
08D1
F9E9
0347
FF52
FC26
0980
0242
0AD5
040F
FB31
039A
FCF1
03FD
08B5
FC9A
FC9F
039D
FB07
0338
0AC5
FA0F
01FB
0691
0B1F
09F6
01AB
FA61
0141
02D5
F5C4
06F8
0184
0AAE
0833
03ED
FC83
FF99
00CD
FE81
0272
0BB3
FF5E
06F5
FBB5
F84B
FA22
F895
089D
039E
0B04
F67C
FFF9
F47B
027E
FDBD
FDC6
00C7
09F7
0281
09BC
FA03
FD22
0449
0039
0966
F765
F931
F9F2
09FB
FC00
F773
072A
02FD
F918
0960
FC6A
05EB
F785
F697
0205
092D
0773
FD44
F55C
03AE
0812
F8CC
0278
0398
05F6
F73D
0BF2
04E2
FC9D
FAC7
F8C4
0A4D
F75E
04FB
098C
F93B
F973
F6E6
FB47
FC93
F8CB
FBB5
FB80
FD8C
FE57
F814
0C20
F829
FB23
0882
0796
083E
FF1C
030B
0B1E
0012
F763
FA03
FAB2
07E2
F5F1
F6E6
F66A
00E0
F81A
F893
F819
F4B3
F9F9
07F0
04D1
FBF6
06EE
FD1F
060C
0A00
F9FA
F658
FF94
093B
FB73
021F
0124
FF42
098A
FA09
03D6
FEF0
08C1
F419
0541
FF75
FF46
F46B
093F
07B5
03F7
F552
0993
03AC
FCBB
041F
020F
0275
0010
FF26
01BA
0B00
068E
0563
F9BF
FAFF
F828
F80A
05F5
F9FD
FEF9
01C8
020A
F5EC
0283
0172
FA4C
04EC
FF9C
F88C
F7D5
0870
0567
FE47
06C2
FA60
0688
F98E
F884
F9BC
F642
07C9
00D8
F80E
FBD3
039C
0A34
F523
016F
05F0
06AA
F8D7
F6ED
0092
F6D4
0AB8
FD11
087E
F374
0915
01E5
035C
FC6B
FD38
001D
061C
F7A4
FB47
0605
F8A1
FB53
F8C5
FB43
F6D9
0485
0967
F816
F630
FE98
0206
0758
F960
067A
06ED
000D
F554
0538
02DC
FE17
040A
F41D
009F
02C9
F5F6
05C8
F9F2
F9CE
0D86
FF49
01C9
F526
0AD4
06CF
0180
FCDC
FDDC
03B3
05CA
0412
0AD7
FB28
02B0
F89B
FDAB
0981
F7CD
0400
FC9A
FBDC
FE53
0214
00CC
F847
FD45
08E1
08E0
0A37
0AD4
F6AA
FBC7
092D
F70F
090F
FC35
05C9
09EB
F823
07AD
FAF7
FD9E
FE95
05DD
F550
F783
F8DE
FDD1
09E6
0523
F72C
0371
FF00
0027
0443
F9D0
FB5C
0C7D
F734
F9A3
0122
062F
0001
F835
01B1
0AF2
F524
0083
0B91
F57C
07A3
0339
F709
0630
FA2F
061B
047D
F832
F6C0
0720
F84C
FE4B
028A
FAAE
0389
0082
FE2F
F79C
F8C8
FB94
052B
01BD
0592
FA4B
F7C2
0A1B
F7DD
09B6
FB17
05CC
018C
F700
0764
FB29
06E7
FE67
FDEA
F8B1
0107
0933
FFC9
02E3
023E
FE33
FD45
0650
F91D
F710
00B4
F9BA
0872
FAD7
0BE1
09A2
0C17
FEAF
0464
FF71
0289
010B
F613
FA52
F846
0369
FCE1
FB52
F752
0A53
0285
F608
FF1E
FC4E
FD35
0353
FCC3
03B1
FE19
FA28
FD2E
FEC7
F66F
07C1
F8F8
FD05
0804
F8D3
FA7F
FE87
FD52
0901
FC4D
F8DA
FDF8
F6D2
F978
F5B8
0697
095C
093C
04BD
FC31
076B
0836
0ACD
F7BD
FBB6
FB46
0C0C
05F3
FFBB
FD04
F8FE
F924
FABD
FBE8
0174
FC68
FB84
08B3
081A
F8DD
FBB4
FA65
FB17
FA4B
0966
05AA
F58D
FA21
083E
FF5D
F73E
FE73
072D
FD65
F7F4
FA57
FC64
F515
FD48
FB9C
0AFB
09CD
F87C
02CF
04CB
F49F
F56D
093F
02DE
F4FD
004E
FA12
FD3D
0640
033F
096E
0600
FE86
F7E9
FBB3
06C6
0856
0267
03AB
0514
0B58
0774
F54F
0960
003B
0AD5
022A
F9C7
F413
FB1E
0AD1
06BF
087F
0B3E
FA2C
08B1
0949
F5AD
F618
F85F
F90C
F379
FD44
F484
FA60
036F
F857
F74E
0A97
F778
024D
FF81
FAF0
0092
FEE4
F758
F7CE
F92C
01D3
FB49
F9F8
03C0
06BF
FAA0
F4B3
F2B5
FD7B
06B6
0567
0B88
FD85
F826
F459
FB2F
FC82
02CB
F852
0380
FB07
07B0
F5B9
0A8B
0079
02D5
06A2
0789
FEA7
0290
FCBD
01E1
0850
00E1
FBEB
00E9
0806
FFDA
08B0
F49D
04BE
FD01
FCCC
02F6
FDA8
F731
06D4
FEFE
F859
F7D3
FEF1
F607
FD80
F93D
0679
0067
FB93
F942
F6C0
F92F
F6A9
0832
FB84
08A1
FF9D
F873
06DD
0829
0A3B
FE5D
08DC
07B8
0580
0850
F8DE
F7DE
FB0C
0266
FE65
FDBA
FCED
FA60
F7EF
F5E0
0A79
FF44
0449
FE81
067B
FE34
039F
F7B2
FB51
06AF
0116
F95E
FB78
092E
FB5F
F8A9
F8FA
FDE5
097B
0304
043C
0742
F8FD
FCC9
0B7D
F4E7
FFC2
04D1
08E4
F714
F926
0356
0254
F702
F522
0055
02A4
FCCB
0293
FF81
F758
FBCB
0B24
FA3E
0107
F826
0429
0B71
FFDA
0489
0361
0769
0B58
00BC
FA1B
F86C
FE69
F73C
F7B5
044F
F718
FDD7
0571
FD18
0606
015D
FF0E
09F4
05C2
FBAB
FD99
0515
FA07
00F2
FD5D
0544
FC84
FA0B
FBD7
0B88
FA18
03CD
F5D9
02BD
FB0A
0560
0560
040A
FDB1
0890
FC8C
FA48
FA31
F7B2
0487
FFEF
F416
0259
04F1
09D9
FD8A
F64B
F848
0298
06C7
012B
0B27
03C0
FE8B
F70B
0006
F801
0615
0C28
0BE0
01BB
0452
080F
012D
07DF
01B3
0C2C
00D3
082B
042E
0374
011E
0967
032E
0255
F7A0
F431
FAFD
FAA8
0853
FD1E
085F
041B
0951
FDC8
F736
018D
FC2A
F5C8
0888
0187
00BA
0AC7
FEA7
F4DB
01EC
FF29
017F
09FC
F662
0BA4
F6B7
0756
FCC9
F4ED
0560
F99E
F6A1
FF4E
FE0F
F991
06F9
0283
FFA2
08C0
F58A
0909
F7CC
060C
085E
FAE4
0688
08B9
0B43
07B3
FA91
0C5C
F3E6
FF0E
07EB
00C8
FD21
FF32
F67E
FEF2
0297
0193
F4F5
0915
05AC
06C0
00A1
0237
08EA
0A08
FD0C
06E8
09C0
FE0B
0680
03E1
07FD
0A2C
F98E
0689
FDFE
FEB6
FA28
FCA6
FFC2
F993
FB18
FA46
09C3
FBD8
09FB
F91D
0115
051D
FC31
F6E7
099A
F43E
0203
066B
0886
09A8
0B06
FE49
F8CF
F8A6
FDB7
F684
0063
08D8
FEDF
FEE0
F568
F710
0A8E
F507
F9AE
FC7F
F9C0
0039
05C1
FE9C
0B04
FAAF
0951
FFE9
0657
0945
04B3
FCB5
0123
F953
F5AA
FCF2
FA5B
094A
0173
FB60
FE98
07D6
F7D6
FDDF
0872
F56E
FF85
060F
FD9F
FC34
035B
007B
01DC
FE3D
018E
06C2
03FA
09B5
03BE
FA77
FA32
F478
0152
0145
0136
09B2
0BAF
FA90
FFD6
F868
0093
F81C
037A
FA66
0460
F7A8
F4A7
02C7
FBC4
F949
FC7A
0415
FF01
F757
F770
F69E
FD40
0611
F5C9
FF8D
FECE
0C2C
F77C
01E3
FFED
07D6
F3C1
FD30
FB1F
F91A
009A
FA6E
020A
FFA7
0746
FB05
081B
0970
00CA
FD89
0A01
059E
F9D2
0216
FEE8
081D
05E6
F933
0552
0BB8
0499
FF21
F9CB
F7FB
0094
F920
F863
FCDC
0116
082D
084F
0719
FEE0
043F
F697
0A0A
F9AF
0879
F710
0804
FF33
0056
F741
FF19
FF07
0B76
FCD9
FF90
FF89
04A8
0967
F463
F4FE
F6BD
02C0
00F7
F734
0AA9
F866
F9F7
0A9C
FE49
040D
09C7
04DB
081D
F722
0AEE
FCE4
FC0F
0788
FD41
009F
FA64
FFA6
F627
FB7D
0546
FD5A
0B2F
F870
F6A7
FB9E
09D3
FAED
0361
0060
083E
FFB5
FD80
02FD
F672
F5A9
FA1A
FF3A
0280
F85D
0AB6
0565
F8B5
06E1
FDAF
0430
F92C
0941
0425
F943
F547
FAE2
010C
F728
FA13
F856
F3F7
02D4
FF2A
FC82
F7D6
04DC
FB2B
0A02
F6F2
0A1B
FAC7
F789
0AB5
02C3
FD69
0C6B
FB8E
FF96
FE4F
0684
FB04
0646
FDA3
FA25
FC90
0ACC
F76D
08D3
F805
F7B8
029E
FC9C
026E
0986
FFCE
FAF7
0180
0CC8
07B8
FC8D
0836
05D4
0861
F96A
FB55
F843
FE01
FE93
FBBB
F8A8
0C01
FA85
F6A0
07D4
04C2
F707
0520
FF2B
039E
0390
0757
FF5F
00AE
F968
0315
F5B5
04F2
FEF3
F748
F35B
F9CC
0339
FD2E
F614
06F9
F6CF
0A18
FE7B
0342
0342
000C
F8A4
FE7C
0B3B
F5ED
042E
05A1
FBBC
02AD
0A9A
FDE2
0B40
F52C
FD33
F48F
FC98
021E
F9EF
FC91
07BF
00D8
FB40
0031
0C10
F65B
FF7B
FF58
FB2C
025D
FA03
FE03
FC57
FE89
099D
FF56
F42D
FEAC
046B
08FB
0600
0544
FE4D
FA68
FEC3
FC16
07E6
FFF1
0182
0640
066E
089E
F7FD
FA9E
01F1
FCD3
05BF
FD1F
04BF
05D4
08B0
03F1
019A
03F5
09D8
F9FD
F91A
0A02
FFB5
F549
04C9
0ABB
FFCB
0A01
FC4A
F99E
022A
F9EE
F9DD
F834
0A85
0B5D
F825
07E3
FB80
016F
F3FD
FA44
06B2
00F2
FC19
02F9
09F5
0187
01EE
F4A6
0B9D
F965
FF1F
0315
FD42
08FE
FF1C
F473
0750
06A2
083E
F666
0143
FA04
09C8
082B
0611
F51F
0308
FAA2
09DF
0619
FA5C
0944
FBB4
039A
FF45
F6BD
0350
F64F
FE51
F6EA
0AD5
FCC5
F91F
F770
F8C3
FED0
F5AF
0964
0C11
092D
01A7
F4A4
086A
FDFD
06C3
FA0C
FF68
0348
00CD
FC4D
0765
05A3
FBBC
0361
0974
07E0
F9A6
0519
077B
090B
F8CA
0B7D
FD23
FA31
0717
07EC
07F1
F9B1
09E2
FF63
F989
FB74
F6E4
F9D7
056C
052A
052E
FAB3
0213
FD06
F572
073D
F8A0
F92D
05C0
067F
FAB8
F997
0068
F90C
FDF3
F8AF
0354
058D
013C
0189
F832
01EB
0341
0768
FC70
F88C
0AC4
0353
07CC
097B
F9EA
F7A8
0212
FD62
FF92
0884
FF28
0616
076C
08A0
0440
0882
0A13
0872
FF59
003F
0939
0896
F905
FB4E
0911
0297
F86C
0950
0886
F8D2
0102
0A6E
0388
FC9F
F887
F627
FA3F
04DB
0138
0B1E
F64B
FE15
FD03
F7AC
00C3
FFBE
F4E7
FBA5
0440
F87F
0B91
F58A
FD5A
0273
FEC1
022F
057E
FAF0
F524
0690
0AE1
FB74
F8DC
00E8
0941
FE05
0A3F
0659
013F
02DE
F6EE
06F7
017B
0753
0701
0A1E
0499
0509
FE7D
FEB7
0843
05EA
004A
0714
02C2
07C2
0C40
0BBE
F419
0A6F
FC41
FF9D
0334
0199
0982
FC3D
FB8B
FB41
0202
0710
FFD1
0902
FACB
04E6
FC11
02D8
F803
03CE
0456
FAAE
071E
0108
FA89
0712
03BE
F5E9
FAA2
F848
06D4
0523
0792
F724
07E4
FCD4
075F
0324
F55C
FE55
042B
FA16
04EF
FF58
0127
FFFC
053C
F745
0224
FDB0
FFF8
08B3
0A10
0221
08BA
F6D4
065F
04AC
F3CC
05F9
F656
FD8E
05B4
F60D
02BD
0724
07C5
F654
FC27
07F6
F459
0A6C
0903
F806
FCF9
087C
00A9
0A60
07FF
F5D8
F931
045E
FE6B
030E
F34E
0219
FE53
FF85
0A28
0635
F632
045D
FBDE
FF99
F94B
0450
F86D
FC45
0967
0AF7
007A
F5AB
0510
02D4
F8EA
F7A7
0602
F774
09E1
0160
FE14
FEDE
F713
05D3
F671
FC69
FA64
0579
FE43
0532
FBD7
FAEE
FBD2
0957
FE97
0589
0761
0355
0303
06E5
F87E
FE58
0741
00FC
F6AE
076E
0026
074F
FE3A
F24B
FF92
FD3A
F9FF
046A
03C9
F273
0534
0038
F77B
0D2C
F9FA
005E
F879
019C
FC71
0C1F
011E
0586
FF37
0213
FE80
F838
0374
F69D
F46B
F9E5
086B
FB48
FA9E
FF5B
F7AD
0A2C
032B
0847
F49F
FEB1
071D
098A
04A7
FE7C
F781
FAEC
F926
F673
FDA5
0029
0345
FE83
04E1
F88A
0524
078B
F8B7
F509
F847
0479
FC9C
FA68
061F
0569
004B
08F7
096F
F4F5
04AA
0634
F5CF
042E
FB23
F576
0AAF
F8A6
099F
0877
00E7
FC15
0B7F
F426
F7A2
0990
059A
F8E6
0752
FFE2
F861
037F
F7FE
FA44
F87F
0B6C
0A56
027F
0413
0B50
F5BF
07CE
07E0
01AE
0120
FE78
09A5
08F2
0219
0A18
FC63
08A2
FDBD
FD2C
F75B
0985
F729
04BF
051F
0585
0C3E
F917
F3F2
FF74
FECC
0B6E
0448
FC0B
026B
068C
FADA
FBD7
0914
F627
08E3
FFA3
02A4
0864
FC73
084D
F612
009A
049F
0A80
0721
F7EE
0823
0296
F890
0675
05F4
F6C1
FF64
FF3E
FFDE
FFB4
006A
0852
F94C
F3DE
F6A9
0AFF
FCE0
096A
067F
F95B
FB90
0656
0A29
008A
FD02
0228
0A3E
FAFE
FAB1
0362
F939
FA15
F567
F8AE
0818
FC8E
F561
FFCC
0523
00BC
FF14
F8CF
017B
0374
02C0
0943
F9E6
0906
F687
06B4
0886
FB60
F694
057A
0C43
F5AB
FA8B
F564
F946
0649
FFB9
F606
04E4
007A
0ADE
0A28
0950
FAD9
FDF3
FC6B
0108
F774
0281
0029
FA49
0745
FD32
06DF
0A96
0906
09F0
0146
FEAF
05F0
054F
096D
FED9
0504
0312
F5CA
0145
0463
FD7F
057E
0530
FB1A
0918
F8E6
FAF4
046D
FCFF
088A
05A6
F441
F895
01CE
F979
0555
FD12
0095
02B0
FD74
0A0D
FBB6
FB60
016D
00D2
FC0C
065E
F88F
F54D
FA4F
F8AA
0623
0822
FB1F
0AC4
0338
0855
02BC
00AC
F465
0A8F
093A
FAE4
08CF
03B4
FF62
FB59
F6F2
F26A
0BA1
0940
0714
F5C8
09A1
FEA7
056E
F772
021B
02A5
FD5C
FF9A
FE27
F84C
0214
FC50
F8FB
0907
F86F
FE40
0208
FD4A
F527
0372
FE44
FE8F
07E6
02D1
FD22
FC28
0058
F67F
0A39
0442
FC31
FFC7
025E
0892
09BA
085B
F635
0455
07D7
F77E
F3B0
0ADA
F622
FC78
0037
079C
FF59
033A
F4B0
FBE6
FAF7
F8CB
07EC
0592
03E9
06CF
056A
0494
F514
0335
0C4B
0551
00BC
08ED
0288
FBD0
0957
035B
05A9
0783
FA22
0A1E
00CB
0133
F58F
0A28
FBD3
053B
