04D7
0C3D
F9C5
07FB
0539
FBBA
F798
FF89
0451
FDA6
01B8
0199
FE33
F9C3
FCFE
F919
03AF
FBF5
053E
FFB1
F9E6
0444
F96D
FACE
0569
0666
F9DA
04C7
01BA
FD61
0417
FBCD
0549
06DC
F5BB
F954
0438
FDBD
F676
F7A2
041D
0036
09D3
FD15
FC43
0664
03A4
0384
F8F9
06A9
074F
FE50
049C
FE63
F98D
0144
F320
FC03
04A3
FADC
0037
00FB
055D
03BB
00A2
0852
FC3A
FF13
0059
FFD8
053A
F57E
067A
FAB9
FF5D
FAEB
FD6A
FF68
FA40
0158
09B4
02E9
0ACF
0E06
02E6
FE5F
0539
06C1
F9C8
03D3
F9BD
FC4C
054A
FC7A
02F6
FE88
FF5C
02DE
F756
017A
F616
02E0
F9E8
FC89
0195
F8C6
0283
FF7F
FCC2
0247
F83D
00C5
FC89
04D1
FDAA
FE2E
00C9
01A5
028B
0565
FF27
F582
F9C9
FB6B
FF1D
FC1C
FA43
053E
F981
078E
073B
FA7D
04F4
FA88
F960
05EC
FBC4
FD23
F319
FEEA
0F4C
FFDF
0147
07A8
FAC9
F389
FBEC
027E
034E
04C1
04BA
035E
006C
F801
F359
FFCC
F7BB
F81F
031A
0352
FDBD
F841
F30D
FDB4
FECD
FB4A
F8AE
FF2E
035C
01CD
0424
00FD
FD61
FCAC
F9F9
0444
0A78
FB6D
094B
03EF
0337
F5E9
0404
0159
FF03
0112
FC65
F9FC
0405
0136
FD82
FC88
0176
FBB4
075D
00FA
06C2
063E
0310
FECB
058C
FD27
F921
0902
FAE6
FB0E
F932
0057
FD19
009C
FDD5
068A
05C1
FBDA
068D
FEE0
FC6B
FD5A
070F
FEFB
0754
011A
09B1
FF08
F693
016A
111C
0A33
04F0
FD34
05F0
019B
FD5E
097C
FDC4
F8C3
05C4
FA52
ED35
03EE
FCBD
027E
05AC
04D1
FE57
FE1F
FFDC
0486
069B
00F7
F620
FEB9
03A0
0520
F469
0703
0699
F809
FE98
F118
00DB
FE33
027C
FD8A
F59B
0212
F689
FDDF
120A
FA96
FB83
F7EA
FB61
FCD7
FA13
FB97
049A
0914
F7FE
FD43
019A
0A1F
0345
019B
0145
F8E3
0043
01D1
FA42
FD1E
00D5
FC18
0525
F917
FF38
FB1E
0120
FAD7
0405
03B4
FA40
FFE6
0532
0560
F7C4
F92A
0B06
0623
F9C7
0874
F18E
0319
FA0E
FCA6
FDE3
04AF
F8E2
0514
FEC7
0AA5
0343
FE1A
0294
0503
07EA
FBD1
01D3
F819
0202
FC8A
0E77
FE1D
FEC2
0045
FDB1
FC07
F525
F911
06C0
003F
06AF
0629
F5DE
FFF3
FFE5
0304
0956
FB5A
F95A
FAD8
F996
FD5B
FCF9
FEC0
FE09
01C0
FAD4
0496
010D
0847
04A8
FE70
0345
FC80
0435
0DCA
FEB8
FD51
FBD4
F9F7
FEFB
0B31
0125
F9B5
056D
F3CD
0443
01D5
FA39
F79F
091E
FCB6
0136
FCD7
FB43
F8A6
007E
FC8C
FACA
FF17
FE27
01CF
0376
0611
F9EC
FC3A
035B
0013
FC51
FCBD
04C2
07D3
051A
0910
0980
0741
FDF9
FCB9
080C
030D
02B5
FDE0
FF8D
0308
FAB7
F1DD
0195
07E7
FD27
FB11
F041
FAA1
FAA7
FCFE
0330
FFFD
FFD7
024E
FA86
F946
02AE
FA70
FC37
0C16
0076
FEA8
FD56
FE58
F5E8
0012
0A0B
01AC
08DA
019A
F91E
01CE
01C5
0744
037C
00A9
FAB2
FE98
FA9D
FF59
02F4
024C
FED3
088A
04AE
0626
F8CE
0141
017A
FFC5
F94D
FEF3
F3D0
0234
06BA
04B3
F92A
01DD
FD7C
0722
FB0B
FD39
FFB2
FDFF
008F
0ADF
FB5C
F94B
0AE7
FD68
0429
FCA3
FE1C
FEEC
068D
F6FA
FCB2
F727
05FD
09BE
063A
06B9
03F5
F8DB
01D9
01C6
FAE0
02BB
FE7F
0357
03E0
FADF
0298
F71A
0042
FA57
0620
005E
F921
FEED
047C
FC7C
FF28
067C
004A
04EB
F77D
FB04
067D
F60C
F93A
0056
014A
0116
0BFD
0B8F
067F
01E3
FDD7
049E
00BF
05CD
08A4
FCD4
FCAE
F439
00D5
FECF
0B5A
01B1
0BB8
F584
0299
08E0
06E1
00E7
FF45
0015
0573
FFE9
0677
02A2
F3B6
00CF
0787
FF3B
FD4A
0F64
FB4B
F9B8
F89C
022F
08EF
0A58
FEB4
00B1
F983
043D
F83E
F63F
FB3A
0145
027E
F579
066C
FE85
00CE
0688
001E
03E7
FB83
FC22
F94D
01B0
FEE6
F8EE
0637
FF80
01CE
FAD4
00A6
F9F5
FBB1
F7EB
0015
FE9C
03BB
F49D
004E
F948
FEED
FED8
053E
FFB9
FC8A
0088
06D6
FA29
FB1E
F1DC
FCC4
FEED
FE88
F9D1
F472
FD5D
FF47
FFBE
FFBA
01F2
F891
0D3F
0016
FCBE
013E
033A
0B5D
032C
FE1A
F9E9
F986
FE44
FAF1
0881
0052
057D
FF61
F8F3
F7B6
0754
0162
06F2
FB7D
FF5A
FD7D
F785
05A9
09A6
FB38
071E
F7FA
0312
06EF
FBD2
097A
F4E7
FEDF
FCB7
0447
F747
014F
0278
FCF8
FD8B
02D5
F61F
040F
05D8
0432
FF00
FE85
F483
0176
02D9
FB08
FE4D
FFE0
FE32
00AC
FD4D
FD67
0613
07B5
FF3C
FC39
FE22
09E6
FF10
FA0B
FD96
FF10
FECC
09F1
03BC
0001
052A
02C2
03CC
0081
005B
FD2A
05F2
0080
FA19
0571
005C
0566
0CCC
023C
01E9
FCF4
0853
02BD
0478
F8BC
04E7
01A0
FF3A
0775
FBDB
F9EA
FDEE
FEB0
0393
FAF0
0224
0272
F3DA
FFC1
0797
0131
054F
067F
FBBA
01C2
074B
F928
FCEC
03A7
F8D4
01A4
0139
03FE
FA30
0110
FB63
FE52
0897
FE57
05F0
FA0B
FDAE
FCF6
FFA2
F8B0
02A6
00A6
033F
0234
FD04
064B
FBB1
FF09
FE08
03CC
F7CE
05A3
FBE1
F8A2
049A
0377
0C4C
FC8C
0094
0291
053C
008B
F18F
FC3A
FD62
0258
09CE
0268
02EB
004E
FC34
FB7B
08D2
01C3
FA75
01B1
058E
0BE7
FB2C
094A
0443
FF38
FAED
FC5F
05A9
F9CC
0414
0127
011B
03AB
00DD
F7E6
FB81
0382
01E9
00C9
03BA
07BF
FDEA
FF54
FDC1
025C
F7EA
FF78
FF5B
031B
F78A
036B
F713
0229
F9F3
01FC
FC09
06D1
FF6A
FF38
FFB4
0371
033D
08D9
FFAD
FD93
F90A
FB38
0945
04C9
FA2A
02A5
0489
0528
FA4A
0109
0372
0296
FBAA
FA16
06E4
0622
FD7C
F6A6
FBEA
01D9
FDBD
031B
F2F1
0680
089D
FD53
04EE
F66E
0449
0A57
F01F
FED1
FED5
FAC6
F565
0196
02D2
04A8
FAD2
FEAA
00CC
06ED
F871
062C
0859
FBF1
020B
00D6
F761
FF93
0047
FB61
0898
FDE3
06EA
FF85
FBA0
038D
FABF
FA1F
FD5A
0389
FEA8
0CA8
0895
FA64
00C9
FD20
FC45
0411
0513
080B
FEF6
009B
FD15
F38A
0362
0087
F121
FFA3
FA99
03E2
0291
0334
F460
FD4E
0340
01F0
011F
F8D2
081B
004F
FCCD
FD7E
001D
FA0E
F86E
F904
FFA4
0223
0231
FF9C
FF82
01A5
F8C7
05C2
F8EE
FC07
03ED
FB9F
0930
FB24
FEEC
0173
FCCA
0B45
00EA
FC8F
FECA
07C7
FF7F
030A
007E
0278
045F
03C8
FDBC
07A0
FCEC
FD0A
0123
FDB7
FDB7
03D2
0D78
0994
F7FB
FC5E
F894
0019
002B
FE29
035F
FF9D
0954
FD8C
051B
0080
FC60
FD78
00F9
0483
0DB5
F9F5
FB76
F8A6
FA7F
02B9
04DA
F9E1
FD93
0431
F7AC
FC8E
0357
06EE
FFF6
0045
FDCA
F6F6
FD2D
F681
03EB
FC52
014C
012F
014D
FEBE
0629
0219
FD43
F7B5
FD10
